#version: 0.2
Ġ t
Ġ a
h e
i n
r e
Ġt he
o n
Ġ s
e r
Ġ w
a t
Ġ o
Ġ c
n d
i t
i s
Ġ b
o u
e s
e n
in g
o r
Ġ f
Ġ p
Ġ m
a n
e d
Ġt o
a l
Ġ d
a r
Ġo f
Ġ in
Ġt h
Ġa nd
Ġ h
l e
i c
a s
o m
Ġ Ġ
i on
Ġ l
Ġ n
Ġ e
l l
v e
l y
s t
Ġ I
Ġ g
en t
Ġ re
Ġb e
o t
Ġ y
Ġ is
c t
u t
o w
e t
â Ģ
Ġth at
Ġy ou
r o
s e
i d
Ġ T
i m
Ġ on
a y
Ġ u
Ġ it
a d
Ġf or
i g
c e
v er
l d
a m
Ġs t
u r
c h
Ġ A
Ġ S
Ġ he
Ġw h
it h
i r
at ion
Ġa n
Ġa s
Ġw ith
Ġw e
Â ł
i f
o l
k e
r a
Ġh a
i l
Ġ C
Ġa re
t er
he r
i ll
o d
ĠĠ ĠĠ
Ġc on
u l
Ġ M
Ġo r
g e
Ġw as
o p
ĠT he
Ġs e
er s
c k
Ġ B
o re
at e
Ġd e
âĢ Ļ
Ġ (
Ġc om
r i
es s
u s
Ġp ro
p e
Ġn ot
h t
Ġ W
Ġe x
u m
Ġa t
Ġ P
es t
Ġha ve
Ġ r
is t
a b
Ġ H
ou ld
t h
Ġn e
an t
r om
e m
q u
Ġd o
Ġth is
p p
Ġ v
Ġs u
Ġc an
n t
a in
al ly
Ġ D
o s
m ent
i ve
re s
Ġs h
u st
Ġa l
ig ht
u n
om e
it y
Ġc h
Ġa b
a nd
Ġf rom
Ġb y
e l
ou t
ar t
Ġ R
Ġ le
Ġ F
Ġ k
Ġthe y
or t
Ġyou r
Ġ âĢ
i es
Ġg o
Ġb ut
Ġ j
Ġs o
Ġw or
i e
o st
i v
Ġw he
re d
Ġ N
al l
Ġ G
Ġm e
Ġ E
Ġa ll
Ġ L
a k
ou g
p t
ar d
f e
Ġ "
on e
ĠĠ Ġ
o o
Ġin t
u re
Ġp l
id e
Ġl i
. .
c i
Ġw ill
a g
ou r
Ġu s
u d
as t
a ck
t her
Ġ O
Ġo ut
p l
Ġthe ir
ct ion
T he
in d
in e
ic h
am e
Ġt r
p er
ou s
a ke
Ġh is
ver y
Ġu p
Ġm ore
ou nd
Ġm y
0 0
on g
Ġh as
a ge
Ġon e
o g
Ġab out
Ġ J
im e
a c
a u
Ġli ke
Ġ en
Ġwh o
oug h
Ġ im
an s
ĠT h
Ġa r
i z
a re
Ġs ome
oo k
Ġa d
at ed
a ct
s o
Ġw ould
Ġcom p
Ġt e
Ġ if
ic e
Ġc l
Ġthe re
u e
Ġp e
a p
Ġthe m
Ġwh at
Ġf e
Ġo ther
Ġk n
Ġwh ich
Ġm an
ab le
Ġg et
Ġcon t
v en
c c
Ġ U
Ġwhe n
e p
i b
in k
it e
op le
e ar
Ġwe re
ic al
Ġan y
Ġbe c
Ġh ad
ĠI t
Ġu n
ul t
ion s
ow n
ay s
Ġj ust
Ġ qu
r y
or m
as s
Ġs a
Ġt ime
Ġ Y
Ġre s
o se
Ġhe r
i le
Ġ -
âĢ Ŀ
i p
an ce
Ġpe ople
a ce
Ġd is
en ce
o c
b er
ĠI n
as e
a ch
Ġwor k
i re
au se
Ġa g
ar y
re at
Ġth an
res s
ing s
Ġn o
ation s
i a
ig n
Ġh ow
u b
in t
c l
d u
f f
ĠĠĠĠ ĠĠĠĠ
Ġint o
Ġp er
r u
ic k
Ġ K
Ġbe en
n e
Ġs p
Ġal so
Ġo ver
a v
Ġp art
Ġg r
ĠâĢ ľ
h ing
ou nt
ve l
en s
Ġp r
Ġkn ow
an g
Ġs pe
o ve
on d
re e
Ġp re
Âł Âł
i al
nd er
or y
or d
Ġim p
t e
Ġne ed
Ġof f
Ġs he
o od
Ġo ur
Ġb l
Ġy ear
it ion
Ġp o
Ġon ly
a il
re n
Ġa m
Ġs c
Ġbe t
ent s
w e
i ld
or s
Ġc ould
ar k
ĠH e
f orm
Ġne w
Ġa pp
se l
Ġbec ause
ĠS t
h at
Ġd if
o v
it t
re nt
Ġw ant
o b
e ct
) .
Ġ ro
ir st
Ġa ct
Ġth ink
Ġd on
f ter
Ġc o
Ġt w
c es
Ġthe n
at er
ĠC h
Ġh im
0 1
Ġm ake
u ch
ic t
Ġm ost
Ġm ay
on s
Ġ V
m er
i ous
is h
p le
Ġe very
ur n
Ġre c
ad e
ĠTh is
u al
Ġse e
Ġb ack
Ġit s
Ġd id
Ġw ay
Ġe ven
Ġthe se
Ġth r
Ġu se
Ġdo es
Ġsh ould
Ġu nder
Ġsa id
e ll
Ġs y
.. .
om et
w n
at es
Ġf l
Ġl ook
i an
o y
Ġcon s
e nd
Ġd es
x t
h y
Ġa cc
f t
ĠâĢ ¢
u ll
Ġwhe re
Ġ very
Ġm uch
f ore
er v
ot her
he d
Ġcom m
ver s
b le
Ġf irst
fe ct
u ally
Ġin d
ig h
Ġre l
Ġtw o
he n
is e
Ġgo od
at ing
Ġman y
Ġb u
Ġw r
if ic
os s
Ġdif fe
if e
at h
Ġ ra
k s
Ġhe l
Ġt ra
n ing
Ġe m
Ġin c
Ġbe ing
Ġs m
Ġthr ough
l ic
i ly
ĠY ou
Ġto o
Ġn ow
Ġb r
l es
Ġin ter
g r
is s
c ess
ci al
Ġ ke
ow er
Ġwe ll
Ġr ight
Ġat t
er t
Ġa fter
Ġhel p
er m
Ġg en
Ġre m
ĠA nd
f ul
ak ing
Ġp ers
j ect
an ge
Ġd own
t ing
o ck
t y
ment s
g et
ib le
o ll
Ġs omet
Ġad d
Ġ =
Ġsu ch
Ġl ong
1 0
ĠI f
a w
p h
ot h
Ġe v
pe ct
sel f
ĠW e
c ed
. "
e w
ul ar
Ġth ose
- -
Ġag ain
e c
Ġin v
Ġo b
) ,
Ġre p
le ct
ol og
l i
Ġs ay
st em
Ġyear s
ic s
ĠB ut
Ġre ally
Ġs im
ie w
Ġo wn
o ld
Ġ $
Ġ '
at ive
Ġst art
ar s
Ġpl ay
e re
Ġg u
Ġc all
ri b
Ġs ame
Ġsu pp
Ġus ed
Ġde c
on t
Ġin st
Ġpro du
cl ud
al s
Ġe nd
Ġbe l
Ġc r
I n
Ġre g
it s
Ġpo int
il ity
Ġt ake
Ġbe fore
Ġgo ing
Ġse c
id ent
e ver
al k
Ġst ill
f fect
Ġre ad
T h
Ġa c
d ay
it ies
he s
Ġf ind
Ġs et
ce pt
ĠThe y
ot e
ow s
Ġwor ld
a ve
Ġdiffe rent
Ġp ol
as ed
Ġpers on
oug ht
Ġre al
Ġc ol
u p
im es
Ġsu b
Ġ ent
Ġa w
Ġp h
we en
Ġsy stem
e f
i ed
Ġm od
Ġst ud
Ġth ings
od y
Ġs ur
a x
Ġha nd
ĠA s
Ġl ife
c y
ak es
m s
v ing
Ġsomet hing
Ġhe re
Ġha pp
Ġfe el
at her
ra ct
Ġc he
Ġst r
re ad
Ġm ade
Ġbet ween
Ġin s
Ġd ay
Ġpro v
Ġwh ile
Ġn um
Ġas s
ur ing
u res
ut ion
Ġc ar
in ce
Ġex per
Ġar ound
Ġch ar
Ġs l
ter n
g g
Ġg reat
at a
Ġh igh
Ġ [
ow ing
ĠS o
Ġp res
Ġm et
Ġf act
ĠA n
y ing
th ing
Ġtr ans
u es
w ard
n ess
iz e
ic ally
Ġl ot
Ġex p
Ġm in
Ġin clud
Ġe ach
Ġc ount
i x
t he
o ol
in s
it ed
p s
is m
an y
Âł Ċ
Ġde f
al th
n g
Ġc re
Ġm on
an k
l ed
ĠH ow
a ir
itt le
Ġqu est
Ġf in
iv es
Ġgen er
ction s
ar ch
ĠR e
b e
a h
vel op
c om
ĠU n
g an
w ays
at ch
Ġex am
in es
Ġre t
Ġm ight
Ġt y
2 0
ĠĠĠĠ ĠĠĠ
Ġm ed
Ġf un
t en
as on
c on
Ġd et
Ġpro ble
ub lic
ĠThe re
Ġo p
ation al
mer ic
Ġar t
v es
Ġse em
Ġf oll
Ġfe w
Ġc or
Ġv al
Ġe ar
Ġne ver
Ġb oth
ist s
s s
or k
I t
Ġa p
u nd
Ġc ur
Ġre qu
Ġs ign
Ġfor m
Ġch ild
ic es
en se
Ġl ittle
ag es
d er
Ġus ing
Ġdis c
Ġr un
Ġwh y
h ip
v ed
i o
l ess
Ġimp ort
Ġf am
al e
1 2
Ġh um
Ġbet ter
y s
ver n
Ġf ound
in ess
ĠA l
Ġs er
ere st
e x
n er
Ġp oss
Ġc le
Ġf il
g er
p r
ut e
Ġl ast
st and
Ġp ut
ĠF or
er n
Ġ ide
Ġle t
Ġg l
ĠA meric
Ġcomp le
Ġan other
Ġde velop
ri end
Ġex pl
ou se
Ġb est
r ic
ent ion
Ġc our
f l
Ġg ot
Ġm ov
Ġle ad
a z
Ġex t
one y
Ġke ep
Ġe ffect
ut h
Ġres ult
iz ed
Ġbel ie
Ġl ar
Ġwith out
Ġal ways
Ġs k
Ġh ard
Ġb us
ĠTh at
Ġm ark
Ġe l
ar m
Ġth ing
ab ly
Ġp ower
Ġpro cess
Ġe as
Ġd ist
Ġcom e
ch n
Ġst ate
ÂłÂł ÂłÂł
Ġ i
i ent
Ġl ess
Ġin form
e ad
Ġf r
t s
1 1
at ure
, "
Ġt urn
g y
as h
Ġas k
Ġv ar
Ġs erv
ĠW hat
Ġb ig
et s
Ġm em
00 0
Ġp ost
od e
Ġre f
Ġspe c
us s
Ġc a
Ġsm all
at ter
Ġb o
in ed
Ġint erest
u ck
Th is
it ing
Ġhe ad
Ġw om
Ġpl ace
u g
Ġo ld
ert ain
Ġh ome
pe nd
Ġwor d
Ġd ata
Ġd ire
u c
he re
Ġa v
Ġm ust
Ġme an
Ġd i
s w
Ġl oc
Ġres p
Ġw ater
Ġb ook
Ġad v
Ġle ar
i ence
ĠâĢ ĵ
Ġs ol
ĠI s
Ġgo vern
Ġc are
Ġnum ber
ĠS h
m an
id er
a red
Ġgr ou
Ġth ought
. âĢĿ
ch ool
ate ly
Ġsh ow
am p
Ġcl ass
Ġp ass
Ġinc re
Ġm ain
Ġpart ic
pt ion
ant s
ro l
č Ċ
Ġwe e
ĠC om
Ġpl an
Ġis s
am es
Ġunder stand
1 5
Ġact ually
er r
Ġm oney
Ġsu re
Ġp at
Ġs ince
Ġle vel
re t
Ġimport ant
Ġ ed
Ġp ay
olog y
Ġt ri
Ġte ll
Ġth ree
v iew
ou n
Ġagain st
i red
t o
i er
ĠS he
Ġdid n
Ġbe h
e e
ur al
Ġen ough
Ġst and
Ġt est
W hat
ro p
as es
Ġc ase
Ġdoes n
Ġd uring
ie ld
os ed
Ġre st
Ġof ten
ĠW h
Ġm us
et y
Ġexam ple
o h
ru ct
Ġl ist
l ine
ĠA r
iv ing
m e
Ġf riend
Ġs ays
gr am
âĢ Ķ
ro ss
Ġv is
Ġte chn
b r
ter s
Ġk ind
Ġab le
Ġp op
Ġinform ation
l and
Ġl aw
b s
Y ou
Ġhe alth
Ġaw ay
Ġg ame
Ġb ody
a j
Ġc ent
Ġp ur
Ġsupp ort
Ġcon f
Ġg ive
it al
Ġop en
/ /
Ġt alk
Ġ *
3 0
ren ce
Ġg ra
Ġcont in
) ;
Ġb re
Ġu nt
Ġsec ond
Ġl ove
o ot
Ġch ange
Ġne xt
9 9
Ġth ough
iv en
ĠW hen
Ġbus iness
Ġd ri
Ġp os
Ġd r
Ġde m
Ġto p
Ġb ra
ĠN ew
in al
Ġcomm un
or n
ĠĠĠĠ Ġ
Ġcon st
Ġhapp en
it her
âĢ ¦
d d
Ġbu ild
Ġchar act
Ġcall ed
l ing
Ġquest ion
I f
Ġs it
Ġo pp
Ġprodu ct
au g
o k
id es
Ġn ame
al ity
ĠD e
at s
Ġt erm
Ġf ull
ĠB r
are nt
Ġch ang
Ġpro f
Ġ {
Ġp ublic
Ġb as
Ġproble m
W e
Ġf ar
Ġf ree
Ġf ood
s h
b ers
Ġle ft
Ġw ar
Ġs chool
Ġap pe
Ġpre v
p ort
Ġgovern ment
Ġme ans
Ġdo ing
Ġe qu
Ġsome one
Ġhum an
Ġl ight
S t
5 0
em ber
ent ly
iv id
Ġm ove
Ġb it
n ot
s c
Ġre ason
Ġle g
Ġpro b
Ġm aking
Ġha ving
l f
Ġp ri
i k
o ad
Ġpro gram
Ġc ost
Ġm akes
re am
Ġmon th
id s
re en
Ġor der
1 3
ain s
Ġc ertain
Ġt imes
um p
g in
ĠĠĠĠĠĠĠĠ ĠĠĠĠĠĠĠĠ
e red
Ġ .
Ġan sw
Ġ Q
at or
c ent
ĠO n
is hed
Ġunt il
Ġ es
Ġs w
Ġh ist
Ġdes ign
Ġ |
Ġm ind
ĠU S
Ġd one
Ġe le
Ġst ory
Ġj ob
Ġdire ct
Ġlar ge
Ġ- -
pl oy
m ed
ĠP ro
Ġe ver
an n
1 4
i en
en g
er ing
Ġle ast
Ġp ar
el s
c ing
con om
Ġc ap
read y
at t
ic le
Ġpol it
Ġret urn
Ġe y
ir d
u ff
1 6
is ion
in ing
hy s
ot t
at ic
ar ing
Ġ ve
Ġfam ily
H ow
Ġbec ome
r on
Ġcour se
Ġte am
Ġs ide
op e
Ġd ays
Ġapp ro
Ġinv est
w ork
Ġs ing
Ġmark et
ust om
Ġo cc
iz ation
Ġposs ible
Ġper form
it ive
ĠC l
is ed
r ist
le ase
Ġcont rol
Ġcur rent
cc ess
Ġ &
Ġb en
Ġe t
Ġal ready
Ġl ine
Ġst op
Ġa ir
Ġor gan
or ies
_ _
ĠB e
m ost
Ġb ad
Ġother s
Ġany thing
ĠâĢ ĺ
Ġm en
ra p
i qu
Ġpr ot
Ġ Z
ĠT o
Ġget ting
a pp
it er
Ġre se
ion al
o f
Ġtr y
Ġchild ren
1 8
ĠA t
us ed
ent ial
* *
ul ation
ard s
Ġwith in
id ed
Ġen g
ĠB l
ĠT r
Ġ <
ap s
A n
ir on
t on
Ġpro per
aj or
Ġs ound
Ġgrou p
b y
Ġcount ry
if ied
h od
Ġv iew
A s
ĠS e
an e
Ġ \
Ġp ot
g ed
ri es
Ġon ce
o x
i or
Ġh our
ff ic
ill ion
Ġrep ort
Ġide a
Ġe conom
Ġp ast
S o
i ans
p ro
id d
Ġlear n
Ġm il
Ġp a
u red
âĢ ľ
Ġty p
ĠHow ever
Ġc ell
Ġm ar
Ġcle ar
Ġel se
a im
Ġd ra
Ġm om
Ġde v
Ġr is
Ġsh ort
il ar
Ġexper ience
Ġcomp any
um ent
Ġ est
p ut
2 5
Ġcon d
A nd
Ġs ci
Ġc ame
r al
in a
Ġe lect
Ġprob ably
ur y
Ġc reat
Ġbelie ve
ivid ual
Ġk ill
o id
Ġn on
Ġcomm on
Ġn ight
Ġp ain
Ġg iven
our ce
Ġf ore
Ġ :
Ġex pect
Ġcomple te
in ation
Ġm atter
ci ally
it ions
Ġl im
on y
s ide
Ġwom en
w ay
le t
Ġto day
ab ility
ar r
ĠI nd
ĠA ll
Ġde p
Ġis n
Ġp rom
i um
ĠD o
Ġh ouse
us h
Ġp ract
1 7
Ġo per
Ġall ow
The re
sel ves
c er
o ver
i vers
o int
c le
ou th
ain ed
1 9
p ar
ot s
as ter
Ġso cial
Ġpartic ular
Ġt em
Ġtr ying
Ġe ither
B ut
Ġm ajor
Ġse lf
Ġto get
Ġwork ing
Ġtoget her
ĠL e
Ġwho le
Ġse ver
ort un
Ġb ased
Ġw ent
Ġan al
o ice
Ġse en
Ġen er
Ġspec ific
Ġdes c
ĠG od
Ġl ow
Ġr ather
al f
Ġind ividual
ĠO r
Ġlook ing
iv ed
ĠM y
i ke
Ġ /
Ġdif f
f or
Ġcon ne
Ġc ustom
Ġl ater
u ro
Ġcons ider
ĠE x
Ġact iv
Ġne ar
r ation
uth or
ang u
Ġkn own
g en
ĠN o
Ġnot hing
Ġpres ent
Ġf re
Ġansw er
Ġcom es
Ġinv ol
an ces
Ġche ck
Ġre du
p ly
E R
Ġty pe
-- --
ut es
Ġa ut
Ġy et
Ġ Âł
Ġp hys
Ġsu ccess
Ġor ig
Ġan t
Ġh old
Ġval ue
Ġinter n
Ġseem s
ĠAmeric an
if y
Ġc al
Ġsever al
ĠC on
ĠS p
Ġ ident
Ġam ount
t ed
Ġc ult
Ġinclud ing
Ġl ive
m in
Ġfun ction
Ġde al
Ġrec ord
Ġfoll owing
Ġtr ue
Ġm iss
Ġar g
Ġacc ount
ĠP l
ĠF r
Ġm ult
Ġevery thing
Ġt reat
ious ly
Ġ z
Ġt ax
Ġh ig
Ġw on
Ġmet hod
Ġ X
Ġl and
c hed
Ġpre t
Ġro om
er al
Ġf our
Ġneed s
Ġw a
Ġc ou
ak en
Ġyou ng
Ġ vers
w are
gg est
Ġ #
Ġf ace
er y
Ġstr ong
Ġimp ro
Ġt re
Ġcharact er
Ġqu ick
Ġwee k
Ġword s
Ġtoo k
2 4
H e
Ġben ef
Ġal ong
on es
m b
Ġo pt
Ġlike ly
Ġag o
Ġener gy
id ence
Ġal most
Ġpro ject
Ġcre ate
Ġh y
Ġp ress
ress ion
ĠR ep
Ġwhe ther
p or
Ġvar i
Ġstart ed
o le
ct or
ition al
Ġb ro
Ġre ce
ut ure
ĠCh rist
a pe
Ġs al
th ough
Ġcon c
Ġfoll ow
Ġpret ty
Ġs ense
w h
ir l
ĠO ne
om m
Ġav ail
ĠC an
ĠThe se
Ġin f
ill s
Ġw in
Ġf oc
" ,
Ġph ot
ur ther
Ġsu ggest
Ġf ail
g s
Ġex ist
pe cially
Ġto ld
l ish
Ġse x
s y
am a
Ġtr ad
ic ult
Ġqu ite
ac es
u se
Ġ +
Ġgr ow
Ġare a
Ġem ploy
1 00
2 1
ull y
Ġcomp ut
Ġprov ide
ĉ ĉ
Ġm or
v iron
Ġv ide
Ġmus ic
Ġst ep
Ġbu y
Ġab ove
Ġm ess
Ġevery one
Ġhe art
ĠN ot
oh n
Ġke y
Ġcl ose
Ġev ent
d e
ur s
ĠS c
Ġatt ack
ne y
is ing
Ġacc ess
ĠM ar
Ġent ire
e xt
Ġf all
Ġin fl
el t
Ġob ject
Ġsim ply
Ġn et
, âĢĿ
Ġc ut
i ents
Ġcl aim
Ġsim ilar
l er
g le
ore d
Ġbl ood
Ġp ict
Ġsing le
2 2
is on
! !
ord ing
c hes
ĠĠĠĠĠĠĠĠ ĠĠĠ
Ġde b
Ġus ually
C h
ward s
Ġbre ak
Ġl angu
Ġhist ory
Ġfil m
Ġd ue
. )
Ġrel ations
u ation
m y
Ġsp ace
nd ing
F or
ĠW ith
u nt
W hen
Ġn at
w here
ĠE ng
Ġloc al
or th
ĠM ay
Ġab s
an ks
Ġf uture
Ġcom b
so ci
4 0
pl es
ĠP r
Ġan im
Ġw atch
a ut
Ġde ath
Ġme as
Ġm ag
Ġfriend s
i od
ĠA d
Ġavail able
c o
Ġbe gin
Ġdisc uss
y n
pp ed
ol ution
ive ly
ur ity
Ġm ot
Ġme et
Ġto t
Ġt aking
Ġdiff icult
en e
Ġw alk
Ġn orm
Ġa ge
Ġre pl
Ġf ield
Ġbl ack
ent al
Ġoff ic
Ġrese arch
Ġwr ong
i ally
Ġsu per
Ġear ly
Ġs ent
ll ing
. ,
ri pt
re ct
Ġc ir
st r
Ġw ond
Ġeas y
ac y
Ġne cess
Ġthem selves
res ent
ater ial
Ġet c
Ġc ause
Ġinst ead
Ġiss ue
f er
Ġc ra
Ġw ind
Ġsign ific
Ġso ft
ro du
Ġpro p
Ġwant ed
Ġen c
Ġh alf
viron ment
Ġl ab
Ġapp lic
li ke
Ġf und
? "
Ġcan not
v al
Ġs n
ain ing
le ment
Ġp arent
Ġstud y
Ġwork s
Ġsim ple
ou d
Ġte xt
Ġac ross
im ate
Ġproble ms
le ep
ĠS ome
as k
re w
m a
Ġl a
ist ic
I N
ĠP h
i res
Ġw ays
Ġd am
Ġde pend
em pt
og n
um e
Ġhow ever
our ces
6 0
g es
j oy
Ġl ink
ig ure
Ġp ie
it es
ort s
oo se
ul es
iqu e
en n
un e
Ġex act
Ġspe cial
Ġnew s
2 3
Ġit self
Ġresult s
Ġ }
i ol
Ġes pecially
le y
ri ed
s on
Ġcol le
ĠUn ited
Ġpolit ical
and s
Ġc ity
Ġind ust
ver se
o on
Ġquest ions
g ing
Ġany one
ver age
9 8
Ġask ed
is ter
ate g
u le
Ġart icle
Ġpoint s
Ġl og
Ġm ass
Ġbeh ind
R e
Ġhour s
Ġ ess
as ing
Ġstud ents
Ġf av
Ġf ight
b ook
Ġhig her
Ġcom ment
Ġa uthor
y le
Ġmod el
Ġris k
Ġpri v
us es
ib ility
b ody
Ġdet erm
Ġperson al
Ġc red
Ġb ar
Ġcomp an
Ġdesc rib
Ġbr ing
âĢ ĵ
Ġst ay
Ġinclud e
Ġ ,
Ġper iod
ir t
Ġne g
a ult
W h
Ġl o
o ke
it or
uro pe
Ġs um
Ġgener al
Ġserv ice
Ġac cept
Ġmonth s
u ed
Ġp ick
Ġresp ons
Ġrequ ire
Ġey es
Ġt akes
Ġrelations hip
Ġam ong
c he
Ġyour self
Ġr ad
" .
ar get
Ġd est
or r
un ch
A T
led ge
Ġm aterial
Ġpol ic
om es
Ġst ruct
Ġdet ail
b o
re me
en cy
os p
ud e
Ġre le
Ġd ou
Ġneed ed
f ace
Ġdef in
Ġc ode
b ack
err or
Ġgo es
Ġsignific ant
if t
Ġim m
or ld
Ġwas n
it ch
Ġlong er
Ġget s
fe rence
Ġmom ent
Ġt aken
Ġob s
Ġmed ia
Ġen joy
Ġv ol
er c
Ġfr ont
Ġan n
ĠJ ohn
Ġst ra
nd s
Ġre d
a ction
a i
Ġiss ues
Ġen vironment
il t
= =
ic ation
h aps
Ġsay ing
Ġso ci
Ġc op
ver t
olog ical
g o
O N
aug h
Ġvide o
ĠT e
ĠSt ates
O n
Ġwh ite
ĠY our
itt ing
Ġf ile
at ors
Ġf urther
Ġsa w
Ġpos ition
Ġcom pl
Ġon line
Ġed uc
ip s
ĠA m
ĠA fter
ĠN ow
ac ed
ĠG r
Ġchang es
l ight
Ġcont ent
ic ro
i et
Ġlangu age
Ġg irl
Ġdevelop ment
Ġmin utes
Ġbeh av
ra ph
Ġmov ie
m iss
Ġm illion
Ġpr ote
Ġprof ess
Ġto ol
s et
g ress
T o
b l
itt en
ĠW hy
r ing
u ge
Ġgr ound
u ly
ĠE urope
ĠâĢ Ķ
Ġst at
Ġout side
her s
Ġl iving
A R
Ġf ive
Ġch all
pl ay
Ġwe ight
ict ion
Ġc amp
Ġcr it
ab les
Ġadd ress
A l
Ġrem ember
Ġprot ect
Ġc y
e ed
ec ause
Ġwom an
Ġs ens
id ing
Ġp red
Ġ x
Ġwor th
Ġvar ious
Ġrel ig
ro ll
Ġcompan ies
ĠR es
ĠI m
2 8
Ġcom ing
idd le
ens ive
Ġst uff
Ġbl og
( )
ĠS y
m it
Ġp ort
Ġcomp et
Ġthink ing
he ad
Ġst e
ĠO b
Ġo il
ch ie
n a
Ġs ize
ub l
ĠThe n
Ġf ire
Ġa ffect
Ġd ru
Ġh ope
on se
ĠM an
st er
Ġdo c
ag ed
ĠC ol
Ġhim self
Ġon es
Ġrun ning
Ġr ate
2 7
Ġp ack
ivers ity
os ing
Ġup on
Ġre view
Ġk ids
.. ..
om s
Ġsub ject
ĠH is
9 7
ĠP e
Ġcon v
Ġa ud
Ġins ide
un g
Ġe ff
Ġd ig
Ġincre ase
Ġm ention
um b
Ġmem bers
Ġse arch
t t
Ġrep resent
Ġd om
Ġnat ural
S T
Ġpr ice
Ġso on
r ight
Ġsomet imes
ĠAmeric a
Ġ ill
Ġst ore
ĠC ar
Ġwr ite
a f
at ures
m on
l t
ĠJ ust
Ġatt empt
il ities
Ġl ower
Ġm other
Ġs ong
Ġa ction
Ġtechn ology
Ġman age
2 6
Ġle ave
f ully
it ary
oo gle
Ġs ort
er a
ĠA pp
Ġbl ock
m ing
Ġwr iting
med i
T hat
re l
Ġro le
S h
Ġcons um
A N
Ġper fect
Ġp age
Ġl ost
Ġc ases
Ġde ep
Ġterm s
Ġres pect
Ġas soci
av ing
Ġm ach
Ġsh are
Ġl ay
m ber
te nd
Ġhe ard
Ġb i
Ġs leep
Ġcommun ity
Ġtra ck
Ġg ames
Ġp ath
r ay
ov ed
Ġpart y
Ġh ot
z e
Ġspe ak
Ġin it
Ġv iol
re g
Ġper cent
Ġpot ential
Ġt arget
Ġdiffe rence
Ġfoc us
ĠM e
Ġdis e
ut ions
Ġim ag
Ġwe bs
Ġbec ame
il i
Ġbra in
ĠF l
oc r
Ġconc ern
iz ing
Ġinterest ing
Ġp ull
Ġmay be
Ġsystem s
ĠS u
Ġimp act
Ġsh ows
is es
c ul
Ġhand s
Ġappro ach
Ġpr im
Ġa ff
Ġcle an
Ġf elt
ĠB y
Ġpict ure
Ġread ing
Ġcre ated
Ġcount ries
ific ation
e b
ove red
Ġe p
Ġpa per
Ġ Ċ
am ed
ang er
et h
o or
Ġmy self
us ion
Ġsit uation
en ces
Ġe at
Ġvers ion
Ġkn ew
omm end
Ġen s
Ġtalk ing
Ġhe ar
Ġs ource
ĠA f
Ġcomplete ly
s p
Ġs ite
Ġcou ple
o es
Ġt able
Ġex c
Ġcor rect
Ġquick ly
R E
Ġev idence
as ons
Ġc ard
av es
N o
Ġph one
Ġs at
Ġproduct s
Ġpur p
ĠW ar
Ġl ives
Ġab ility
Ġs we
ys is
b it
Ġim age
Ġbuild ing
M y
Ġser ies
em s
Ġcomput er
Ġl oss
e v
Ġsl ow
Ġb oy
) :
8 0
Ġpop ular
et er
Ġa chie
Ġimpro ve
ĠQ u
es e
a pt
is c
en ing
Ġexact ly
Ġus er
ÂłÂłÂłÂł ÂłÂłÂłÂł
ĠG u
Ġ @
ob al
Ġopp ortun
Ã ©
Ġconne ct
re et
Ġqu ality
le x
Ġknow ledge
ĠE n
our n
ide red
Ġbel ow
Ġoff er
Ġorig inal
Ġsk in
Ġinfl u
Ġrec ogn
Ġexper ien
c ome
Ġlook ed
b all
Ġcon cept
ad es
Ġf oot
itt ed
ur ch
Ġlevel s
ĠP res
Ġhappen ed
Ġde l
Ġf air
Ġcomple x
Ġeffect s
o e
ate ver
Ġc oun
Ġde ad
p ed
2 9
g est
Ġeng ine
Ġd ark
Ġs qu
ad d
Ġfin an
Ġreg ard
Ġphys ical
01 2
Ġl ack
Ġex cept
em ent
Ġtra vel
Ġf ac
n ed
Ġbe gan
Ġext ra
Ġbe aut
Ġf ast
ĠIn st
Ġse par
Ġh it
Ġcell s
Ġcons idered
l oad
Ġserv ices
Ġdr ink
du ct
: //
Ġb ott
Ġparent s
Ġappe ar
Ġb all
n y
ac hed
z y
or ing
ĠWh ile
am s
Ġsec urity
o ber
ci ous
Ġrequ ired
Ġsur pr
et ic
Ġfor ce
Ġcontin ue
f ort
Ġb al
= "
Ġrec ommend
9 0
Ġsci ent
Ġ Â
Ġtri ed
gr ound
m p
ĠBr it
Ġj ud
Ġcir c
Ġspe ed
N A
Ġf ill
Ġst ates
Ġatt ention
Ġf ather
Ġm at
Ġlook s
ress ed
ĠD on
Ġst ri
Ġ ut
ĠA b
ĠP er
an a
ir th
Ġco ll
op s
Ġnorm al
Ġfav or
Ġn ice
] .
Ġav oid
ĠM r
Ġs us
Ġlear ning
à ¤
Ġind ic
ar i
Ġare n
Ġmean ing
Ġn ature
he l
Ġm is
Ġsa fe
Ġare as
Ġob v
Ġb ab
Ġresp onse
pp ing
W hy
Ġr ange
r an
E x
Ġsu n
Ġem ot
Ġd iv
ĠW orld
w ise
t ime
Ġindust ry
sy ch
Ġturn ed
f fe
Ġc am
Ġv ot
Ġtot al
Ġtyp es
Ġgrou ps
iv al
Ġf ix
Ġperform ance
he t
a ff
le g
Ġto wards
ar ily
un k
Ġeas ily
Ġwr itten
ast ic
Ġmult ip
ers on
ch an
Ġb ed
Ġwond er
C on
Ġem b
t ain
Ġprev ent
he m
at ory
iv il
Ġh on
Ġgu y
v ent
ren ces
Ġpol ice
Ġde fe
u el
ĠW ell
Ġpart s
ĠG erm
I D
Ġnecess ary
in ary
ĠT w
iv ity
Ġsoci ety
Ġcont rib
ly ing
Ġh uge
Ġinvol ved
Ġnet work
ib ly
att le
w w
j ust
Ġro ad
Ġ ri
Ġfeel ing
Ġsoft ware
Ġt it
se qu
Ġreg ular
l im
us ing
Ġb ank
Ġcred it
O ne
ĠS ec
' ,
I s
ap an
Ġcol or
Ġwould n
n ow
Ġy es
Ġf at
Ġl ate
Ġext reme
ĠE ven
ĠM ed
Ġplay ing
Ġth reat
Ġbo x
if f
p ite
Ġdo or
aug ht
Ġc at
op h
Ġim medi
< /
Ġco ol
Ġc ook
Ġpr in
Ġha ir
Ġg e
Ġco ver
an ced
Ġre v
Ġre ach
ffic ient
3 5
ur t
Ġwant s
Ġocc ur
4 5
m ore
Ġth ird
h a
ĠM c
Ġpo or
ru ction
Ġest ab
Ġeconom ic
er ve
e pend
Ġs il
Ġg ave
Ġfre qu
ĠC al
Ġfor ward
Ġmil itary
01 1
Ġtem per
Ġw all
eng th
m m
ĠG o
ir it
Ġcol lect
01 3
Ġgrow th
ren g
it ution
Ġfe ed
Ġbook s
Ġch ance
ri ption
Ġmod ern
ens ion
Ġpre p
Ġrec ent
The y
Ġdec ided
Ġso ld
ur ance
ĠEng lish
ic les
Ġgu ess
Ġf em
ĠG en
ĠE d
Ġstand ard
r ict
ĠG e
01 0
Ġint rodu
ĠC ont
Ġmed ical
Ġs ix
Ġde g
Ġacc ording
Ġcould n
Ġwee ks
res h
ag er
le ar
Ġfin al
am m
Ġch oose
Ġa verage
re st
Ġte nd
ĠW ill
Ġtra ining
e gr
e es
Ġnum bers
ĠY ork
Ġsci ence
Ġo ption
O R
Ġhapp ens
Ġev ents
Ġcont act
Ġtreat ment
is hing
ut ed
Ġsur v
Ġc e
Ġt ou
ol ic
Ġh op
Ġhe av
ĠP art
Ġu r
Ġdec ision
Ġpress ure
Ġright s
ĠHe re
Ġcom ments
am b
in o
h ood
Ġch oice
f act
Ġpos itive
Ġcour t
Ġdri ve
Ġcult ure
L e
Ġh ost
Ġl iter
Ġpract ice
Ġj o
a ur
se c
Ġadd ition
ce ed
Ġd a
art ment
ag n
Ġcond itions
ĠU s
Ġb ase
c ies
Ġg ives
E N
Ġem ail
ĠJ an
ag ing
Ġhapp y
y ond
Ġin j
ir m
Ġag ree
Ġwebs ite
Ġsol ution
ar th
ou ra
im um
en ed
Ġal one
Ġre asons
Ġpolic y
ĠR uss
al es
Ġpop ulation
Ġcharact ers
Ġdra w
Ġsc reen
o ff
om b
Ġse ll
3 2
Ġinst all
A S
Ġse ason
om p
Ġpriv ate
ĠM ost
al ing
Ġwork ed
Ġpur ch
Ġprodu ction
Ġst ru
ce ll
Ġus es
Ġunderstand ing
Ġn ational
Ġrel ated
s u
Ġg un
er o
um ents
ĠPres ident
os es
A L
ie f
ol ute
ĠO f
Ġte ac
n ers
Ġv ict
Ġro ck
Ġcon vers
Ġide as
Ġw ide
Ġde cl
Ġ ign
Ġmultip le
Ġadd ed
u x
Ġfil es
Ġpie ce
Ġto wn
Ġc ross
Ġtr uth
Ġag re
Ġwe b
Ġaut om
ound s
Ġc and
Ġex ec
Ġg as
: :
Ġobs erv
Ġplay ers
min ist
Ġb ur
Ġf ine
k ing
Ġp an
it ter
ant ly
os ition
Ġset t
ke y
ou l
ĠS te
Ġd en
Ġmor ning
w ord
ad a
7 0
Ġp ubl
ĠD em
p ing
Ġ ver
ĠCh ina
# #
Ġfinan cial
O T
Ġs on
Ġleg al
Ġm ix
Ġd ro
Ġin n
Ġey e
ĠC ent
am ent
Ġwh atever
Ġpres ident
00 8
g ar
Ġg iving
in ally
Ġoff ice
9 6
Ġf a
Ġr ules
Ġm iddle
Ġsub st
ĠIn tern
Ġanal ysis
Ġall ows
at ives
ed eral
li er
ĠJ apan
C l
Ġdise ase
Ġst reng
Ġbu ilt
id ay
N ow
ĠD r
Ġlead ers
Ġtr ust
Ġrec ently
ĠUn iversity
Ġex erc
Ġf it
Ġgener ally
Ġval ues
Ġus ers
Ġcertain ly
Ġopt ions
a ign
ĠM us
Ġop in
ĠI nt
as c
ci ent
Ġfin ally
! "
d om
B y
Ġmess age
ĠB ar
k y
il es
ĠÂł ĠÂł
Ġdo ll
Ġst ock
Ġper haps
Ġeffect ive
Ġinvest ig
Ġh or
Ġse lect
9 5
Ġd ream
ĠAl so
Ġallow ed
Ġf igure
Ġp en
Ġche m
Ġmov ing
im ent
in y
---- ----
ous ly
om ing
Ġre ve
E S
I T
Ġpartic ip
Ġl if
Ġme chan
Ġbenef its
Ġdist rib
Ġrel ative
Ġdoc ument
ar ies
Ġimp lement
Ġdirect ly
Ġreal ity
Ġco ld
ite ly
Ġor d
Ġup d
Ġhe ld
00 9
im in
ĠN e
k en
ĠRep ublic
ic ated
ĠE very
P ro
Ġchang ed
Ġspe nd
p re
h ib
Ġcost s
Ġe mer
ĠA ct
Ġsa ve
B e
ĠOb ama
Ġaw are
Ġact ual
Ġeduc ation
Ġl oad
n es
I S
r it
Ġfe ar
ĠH ar
Ġal though
3 3
Ġb reat
Ġr out
ord er
__ __
ĠD es
Ġbas ic
Ġc it
Ġgo al
ĠL et
ĠM in
Ġbr ought
A t
P h
Ġpat tern
ra el
pp er
Ġdem on
ĠB ecause
Ġth ous
Ġte ach
Ġun ique
Ġcons ist
Ġmeas ure
Ġoffic ial
Ġb irth
e ah
ĠS m
Ġp le
Ġca pt
Ġgl obal
Ġapplic ation
ro om
Ġv oice
Ġsh own
y ear
est s
Ġpurp ose
p ir
ud d
Ġvis it
Ġplay er
Ġproper ty
ĠAf ric
Ġc ry
al y
rop ri
as hing
Ġthe ory
Ġcap ital
ou p
ess ion
Ġbec omes
og rap
Ġhe at
v ant
Ġfe atures
Ġbehav ior
Ġar ri
Ġfl ow
miss ion
ĠS outh
b ut
Ġp sych
Ġdou b
Ġread y
Ġl ines
A r
Ġpat ients
Ġ ...
Ġf ra
Ġknow s
ell ig
Ġg one
Ġv ote
Ġactiv ity
Ġw arm
Ġpl aces
E D
ĠC o
if ul
Ġl ed
A ll
Ġal tern
Ġsur face
is ions
a ul
ren ch
W ith
Ġ ir
im ately
Ġd anger
z z
Ġnot e
t ies
ourn al
Ġhelp s
ĠT V
ic ed
ar c
ĠN orth
b ased
Ġprev ious
u k
Ġdo g
it ude
Ġser ious
m pt
Ġs am
ent y
Ġparticular ly
ĠY es
Ġcar ry
Ġt en
igh b
ĠM ore
Ġre pe
ĠA ust
t r
Ġst yle
Ġstruct ure
Ġplay ed
ĠJ ew
und red
Ġprin ci
Ġsu ff
ent ially
Ġn ut
Ġmove ment
Ġadv ant
Ġeas ier
Ġdam age
Ġbe yond
Ġcond ition
Ġsh ot
3 6
ĠK e
Ġu lt
Ġst ories
ru pt
Ġear th
r ast
Ġpl ant
Ġfe et
3 1
Ġcamp aign
Ġb urn
Ġwa it
Ġwe ap
Ġeconom y
Ġexpl ain
ĠG oogle
5 00
Ġg reen
le ction
Ġincre asing
iss ue
og raph
Ġm ist
Ġsl ight
A C
ĠA re
e ch
Ġu nd
Ġphot o
at form
Ġfor mer
y pe
ol es
Ġd ate
Ġres ources
Ġcont ract
Ġstra ight
id ge
Ġcustom ers
Ġb and
Ġindividual s
Ġdem and
Ġwr ote
Ġst ress
Ġc ivil
01 4
Ġant i
Ġde li
Ġ â
ĠĠĠĠĠĠĠĠ ĠĠĠĠĠĠĠ
Ġpa id
ight s
Ġgu ys
Ġw ife
h old
Ġl ose
Ġp lease
Ġth us
Ġv ac
Ġpri or
Ġdesign ed
Ġabs olute
A M
Ġfe ll
Ġ >
Ġbegin ning
augh ter
Ġpro gress
ar a
h ow
Ġv ia
Ġmach ine
Ġens ure
Ġwho se
her n
air s
U n
Ġcont ain
an cy
Ġmem ory
Ġcent ury
Ġuse ful
I C
ĠA ug
Ġcl os
Ġsh oot
re ly
ĠAn y
ony m
ac hes
Ġneg ative
** **
b ed
Ġsk ills
Ġint egr
al d
Ġthrough out
Ġchall eng
Ġgr ad
Ġmanage ment
Ġst ar
Ġsp ent
Ġha ven
Ġanim als
Ġlim it
Ġassoci ated
ĠK ing
ĠG l
Ġsp read
ace book
Ġprodu ce
Ġm ax
Ġme ant
ore s
wh ich
ĠSt ate
ĠF irst
? âĢĿ
ĠPe ople
N ot
Ġm atch
Ġh arm
Ġincre ased
Ġd at
ĠF rom
Ġdevelop ed
S he
ag s
r am
Ġprov ided
Ġexpect ed
Ġresp ond
Ġcomm and
ĠA dd
Ġst ick
Ġpower ful
Ġpr int
Ġun f
Ġp ow
h an
Ġim pl
Ġprov ides
Ġne ighb
ĠAr t
al se
Ġthere fore
ĠJ es
3 7
Ġhist or
ĠH er
Ġhigh ly
w hat
b and
Ġes c
Ġind epend
l am
ĠIs rael
il s
Ġsc en
Ġstart ing
u ary
Ġredu ce
ic ations
Ġsp irit
Ġh undred
ĠC he
H ere
ĠP ar
Ġsound s
Ġhealth y
ĠE l
Ġass um
ĠS im
Ġbro ad
Ġgreat er
Ġstud ies
r s
Ġbr other
Ġt ast
Ġn ation
ist ance
Ġcan cer
Ġcurrent ly
Ġse nd
Ġbab y
u fact
Ġcustom er
Ġlar ger
Ġgo ld
es tern
Ġeff ort
4 8
ĠCh ar
Ġve h
Ġcom fort
Ġspec ies
Ġte le
Ġdev ice
ub e
Ġse qu
Ġcomp on
Ġsupp osed
Ġm id
y l
ĠD av
n own
i ant
Ġstru gg
om en
Ġcont ext
Ġas pect
ro y
ĠB ra
Ġch o
Ġcomp ared
Ġlim ited
m ark
Ġsee ing
Ġopportun ity
Ġins urance
Ġca used
Ġimmedi ately
Ġ //
ĠO ct
b on
3 8
ĠM any
Ġb ill
ĠA pr
Ġn uc
âĢĿ .
Ġsh op
Ġcreat ing
Ġm ur
Ġtr ou
Ġar ch
Ġachie ve
Ġn arr
o ly
Ġk id
g n
Ġmem ber
um n
Ġtou ch
Ġfact ors
Ġanal y
er ation
00 7
ĠR om
{ \
Ġnear ly
ĠH ouse
Ġsec ret
Ġdi et
d own
az ing
Ġseem ed
Ġr ule
Ġre lease
al ed
or ks
ĠE m
ĠM on
a e
im al
Ġm icro
Ġad minist
c ont
Ġdru g
ĠBrit ish
u ild
Ġl at
Ġadd itional
Ġtr ade
ĠT ra
Ġinter view
Ġcit iz
ĠE arth
ate gy
Ġstud ent
ĠĠĠĠ ĠĠ
Ġinterest ed
en ge
Ġclear ly
ortun ately
r ow
ic a
Ġm ob
Ġmethod s
Ġdetail s
ag ue
3 4
Ġt al
Ġlearn ed
ĠD is
ĠCom p
c ast
Ġ `
ĠS pe
Ġbo ard
Ġst age
Ġke pt
01 6
Ġenc oura
c ol
Ġear lier
Ġevent ually
Ġsh all
Ġrequ ires
S c
Ġn ames
Ġinst ance
ĠS w
Ġfl u
2 00
th at
Ġc ast
k es
Ġent er
r ound
f ra
Ġkill ed
Ġacc ur
. [
Ġbl ue
? ?
Ġmention ed
A fter
Ġse ction
ĠL ike
ak er
Ġpred ict
) )
Ġinc ome
O C
re ci
Ġgr owing
bo ard
ÂłÂł Âł
w ith
0 5
ĠA g
Ġthought s
or g
Ġd ie
Ġit ems
i ation
Ġl ength
Ġlaw s
cl es
Ġar m
Ġad ult
Ġmov ed
Ġli ber
Ġreg ul
iz es
ĠM ark
ĠS ch
Ġw at
Ġsc ene
r is
Ġpl atform
Ġm ount
Ġsuccess ful
Ġstreng th
ri ef
il ed
ĠC or
ist ics
Ġdis play
Ġmajor ity
Ġtool s
Ġh osp
O S
os is
Ġv irt
cc ording
ab or
a per
ines e
le br
Ġtrans l
Ġra ce
ed om
ne w
an i
Ġro b
Ġarg ument
Ġpe ace
Ġt ask
ĠO ur
Ġcl ot
Ġdefin itely
Ġda ily
od es
p es
Ġm er
S ome
Ġm outh
Ġtrad itional
Ġpat ient
it ation
ĠI I
ĠCom m
Ġn amed
ch ange
dd en
act er
Ġmost ly
Ġwor se
Ġcop y
Ġb orn
Ġwatch ing
01 5
Ġfull y
Ġele ments
Ġdire ction
Ġon to
Ġbeaut iful
Ġcolle ge
p art
Ġapp ropri
Ġreport ed
ĠO ther
Ġcomm it
Ġro ll
et t
E T
ing er
Ġcent er
Ġw ish
Ġbenef it
ĠS ince
ĠC ons
oc ol
te xt
Ġno vel
Ġtemper ature
Ġnot ice
Ġbelie f
Ġcoun ter
ĠP re
e qu
ear ch
4 4
Ġfr ame
it able
Ġman ufact
Ġtr uly
Ġcand id
cept ion
n o
fl ict
Ġrece ived
il ing
ĠJes us
Ġc ru
Ġsu dden
or ry
Ġprogram s
Ġcal cul
at ur
Ġf ig
Ġm ill
] ,
Ġold er
Ġchar ge
Ġsa f
Ġr ound
Y our
a el
ĠR ed
onym ous
Ġgra nd
0 8
Ġv ir
Ġe ating
L L
Ġjob s
Ġwill ing
Ġfor ces
ĠN ational
Ġtit le
Ġfore ign
in ct
ra ft
ĠChrist ian
Ġof fe
D o
Ġa ctions
Ġb ud
Ġpre fer
( "
Ġintern et
Ġreg ion
Ġstep s
an c
res p
i j
Ġrelig ious
Ġstate ment
Ġopin ion
Ġextreme ly
Ġt our
ĠAmeric ans
Ġback ground
Ġinclud ed
se e
Ġqu ant
Ġrem ain
Ġpass ed
m en
ra b
ĠF eb
ĠF rench
Ġprofess ional
if ying
nd om
ĠP ost
Ġca uses
Ġhum ans
Ġactiv ities
ĠT H
Ġintern ational
Ġr ates
Ġw ood
ĠP ol
k ay
7 5
ne ct
Ġinclud es
i ers
Ġsal es
ĠC ong
Ġw ild
a ctions
Ġint ellig
Ġfollow ed
Ġpre c
pect ive
Ġbas is
Ġsy mpt
or ge
O M
Ġd ied
ĠBl ack
i am
Ġsmall er
a res
ĠTr ump
ĠS er
ar ian
Ġloc ation
b um
ĠU K
ir ing
at ically
Ġdeterm ine
ĠDem ocr
Ġp ark
i ver
Ġ id
ain t
pt ember
is f
Ġref lect
Ġlead ing
Ġelect ric
ĠC our
ter m
Ġdo ctor
ĠW est
Ġstr ategy
op t
Ġbott om
Ġ error
U S
Ġdis p
Ġfavor ite
qu e
Ġrequ est
od ay
Ġfl oor
Ġun c
Ġbe g
ĠOn ce
Ġmeet ing
Ġf ru
Ġbal ance
Ġsm art
3 9
Ġan g
Ġto ward
Ġt ree
Ġcon duct
Ġe th
Ġover all
Ġgl ass
av a
il os
T r
0 7
Ġr id
Ġdeb t
Ġl ock
Ġc ateg
in ated
Ġprim ary
Ġrele ased
ust r
Ġdescrib ed
Ġm ut
ĠC ity
ron ic
k ed
Ġen em
Ġh us
un ction
- >
Ġappe ars
Ġrece ive
Ġd ry
Ġlot s
Ġset ting
tern al
0 6
ĠO h
Ġg od
Ġr at
Ġm ale
ur b
Ġsex ual
i us
A P
v ision
an ch
Ġdemon str
Ġpubl ished
Ġaud ience
ad em
Ġf uck
Ġqu al
Ġun less
s pe
Ġfor ms
ck s
Ġcare er
Ġbra nd
Ġ ice
Ġim ages
Ġexp ress
ĠW ind
l s
Ġb le
Ġr ich
00 6
al t
m itted
Ġconne ction
Ġt error
Ġexerc ise
th is
ib er
Ġd er
as ion
ĠM ich
ri age
Ġfe ature
Ġt er
li ed
Ġf ederal
Ġask ing
Ġcor por
F rom
Ġce lebr
0 9
0 4
ĠInd ia
Ġb attle
Ġvari ety
Ġdeg ree
Ġtell s
g ment
Ġtra in
ve re
ĠCh inese
Ġp us
Wh ile
Ġsaf ety
Ġmarket ing
Ġapp ly
e ction
p oint
Ġm ental
Ġref er
ve y
Ġf ol
ap ter
h am
Ġdet ect
l a
Ġstat us
form ation
Ġcon flict
for ce
ce mber
5 5
Ġdes pite
Ġcall s
Ġ )
Ġvict im
Ġl uck
Ġhy p
Ġh tt
Ġp un
ĠĠĠĠĠĠĠĠ Ġ
Ġwork ers
Ġf resh
od ies
ĠM arch
Ġadvant age
Ġ Î
Ġg ain
Ġgra ph
Ġc up
Ġlist en
we ll
Ġinflu ence
6 4
Ġapp arent
ra w
ot ic
Ġrespons ible
cl us
Ġheav y
ick s
ĠG ra
Ġcomp ar
W ell
== ==
Ġrem ind
p en
B l
ro s
Ġb illion
Ġdec ide
I m
ond ay
Ġwe ak
Ġhon est
Ġv s
01 7
orr ow
y ou
Ġact ive
Ġdig ital
D on
Ġorgan ization
ĠJ une
Ġatt ract
ĠAust ral
yn am
Ġser ver
Ġep is
ove mber
d ef
ĠMay be
c oh
pl ace
Ġexp ression
Ġsum mer
Ġra ndom
O r
Ġre b
Ġanim al
ci ence
x y
ĠJan uary
ra q
ic ate
Ġapp reci
ograp hy
Ġ$ \
Ġchem ical
oss ible
p ret
n ame
Ġpr ices
ur ation
Ġa im
Ġcon cent
ĠWh o
Ġess ential
i verse
Ġe gg
ad y
Ġh ous
Ġ ing
omet imes
ĠG reat
b ox
Ġslight ly
Ġac qu
Ġobv ious
g u
Ġshow ed
Ġstart s
Ġestab l
ĠR ec
il ies
ul ate
Ġs pl
Ġfem ale
Ġ ÂłĊ
Ġf arm
Ġc ars
ul f
Ġp et
Ġc atch
ig r
Y es
Ġb ul
e k
Ġj ump
Ġcon sequ
Ġmod els
Ġsc he
Ġdoub t
ĠApr il
ov ing
Ġ %
ĠAug ust
a ven
te red
Ġst aff
Ġfor get
ri al
ĠEurope an
Ġrepl ace
u gg
he st
Ġcom mer
ad ing
Ġfa ith
Ġwor ry
l in
Ġsc ript
Ġwind ow
Ġv ill
L E
am ing
4 7
Ġf ish
Ġam azing
Ġs ources
B C
w ood
ct ors
Ġn or
O U
A D
Ġother wise
ili ar
Ġtyp ically
Ġimag ine
ĠN et
Ġle aving
Ġwa iting
Ġch urch
ĠS en
Ġcontin u
Ġb ound
ĠD ay
p id
um an
Ġf alse
w r
Ġev al
k nown
Ġout put
ac he
ĠP al
und ay
Ġmag n
Ġcent ral
Ġfind ing
ĠU p
Ġdist ance
Ġdev ices
ĠAl though
Ġsy mb
Ġdest roy
Ġexp ensive
Ġsp ot
Ġprodu ced
Ġcrit ical
Ġsu gar
Ġbud get
Ġdou ble
ĠJ uly
C ont
ĠV al
Ġcam era
P S
ht t
ĠG ood
Ġreal ize
ed d
ĠG et
Ġ Ð
Ġsepar ate
if orn
Ġsur round
Ġnuc lear
Ġpro ced
ĠSt ud
Ġfact or
Ġd rop
Ġoff ers
Ġch ann
Ġemploy ees
Ġann oun
Ġpl ants
Q u
Ġcontin ued
ip ment
Ġchall enge
Ġsc ale
g a
Ġ Ã
ed s
Ġsh ape
ic it
Ġin put
Ġsupp ly
Ġg ar
Ġli br
ri e
Ġ er
ĠP aul
L et
Ġfeel s
ĠI raq
ĠWh ite
Ġpl ans
Ġb atter
Ġa head
ul a
Ġele ment
Ġstr ateg
Ġcl osed
Ġinit ial
U s
P l
Ġal bum
Ġmov ies
ang ing
Ġe ight
> <
Ġrem ove
Ġrem ains
ĠD ep
ĠSe ptember
Ġh ar
ĠI S
0 2
Ġco ffe
00 5
Ġlet ter
d o
Ġprote in
Ġh ate
Ġprom ot
rap y
ĠR em
Ġkeep ing
Ġdiscuss ion
Ġr ise
Ġad just
ĠIs lam
Ġspe ech
Ġsympt oms
g ers
Ġdri ving
ill ed
ul ated
Ġpar am
ire ct
Ġappropri ate
Ġschool s
Ġput ting
as y
Ġpo ll
r im
Ġdru gs
Ġbas ically
Ġtell ing
r ough
Ġbec oming
G et
Ġc ash
ail s
ra in
ĠJ ack
Ġfor g
Ġcons erv
Ġst ream
ĠTh anks
ĠP C
ign ed
is l
ĠM et
r or
4 6
Ġass ess
it c
Ġfre edom
Ġhus band
Ġdec re
ĠP at
Ġf uel
in ter
a it
Ġf an
ot o
Ġexam ples
ĠM od
iz ations
Ġhand le
ashing ton
iforn ia
Ġval id
Ġmain tain
i pe
Ġhelp ed
Ġplan et
e y
Ġthous ands
Ġchang ing
it ness
im port
Ġcl ick
Ġint end
Ġtrans port
ĠS am
Ġsit es
ak ed
gen cy
Ġf aster
Ġmin or
ĠCong ress
i os
Ġse a
" :
Ġcoffe e
in ner
Ġpres ence
Ġadv ice
The se
id ents
Ġhe ro
Ġturn s
C an
o oth
v is
ĠRe g
Ġfun ctions
Ġspe ct
i able
Ġhosp ital
Ġlead er
Ġt im
f ield
Ġle aves
Ġswe et
c an
ĠI ran
ac ity
Ġc ore
m l
Ġl ic
so ft
in c
Ġgirl s
ĠP M
Ġs itting
Ġfor ced
Ġ ?
idd en
Ġposs ibly
v est
Ġcirc um
ues day
How ever
Ġar r
C om
Ġcitiz ens
N ew
ĠNew s
Ġs ad
Ġclaim s
ab ase
ĠDe cember
m ath
Ġspe nding
ern ame
Ġst reet
T w
Ġd ed
Ġpre m
ĠApp le
ow d
Ġwe ar
Ġdec isions
Ġ il
ĠThe ir
Ġh om
re f
ĠCour t
_ {
Ġre ci
b an
Ġsat isf
ĠK ore
ar ter
ic o
Ġm ap
Ġgo als
Ġstr ing
ĠN ovember
Ġfam ilies
Ġele ction
o very
en cies
Ġscient ific
Ġapplic ations
ond on
am in
Ġrelig ion
Ġown ers
il le
IN G
iqu es
coh ol
Ġc ards
Ġl ived
ing ly
ur g
ĠMus lim
Ġbig gest
Ġsol id
w orks
Ġinvest ment
r ad
ru ary
st e
Ġcont ains
Ġexist ing
Ġt err
Ġsh ut
m od
0 3
Ġany way
ant ic
Ġtot ally
Ġtop ic
ĠDav id
E C
ri ble
Ġhe ll
Ġabsolute ly
Ġwe alth
it ute
Ġmaterial s
Ġcr ime
Ġo dd
u ate
O h
Ġdef ined
Ġl oved
Ġcommun ication
ar ant
ĠM ac
R es
ĠS l
ĠL aw
Ġcl imate
Ġm aster
Ġb ird
ri an
Ġequ al
ed nes
Ġconvers ation
Ġs oul
Ġident ify
ant ed
u ations
os ure
Ġentire ly
oc al
ĠG ree
Ġtest ing
a id
Ġd aughter
Ġlead s
Ġcr is
Ġser ve
Ġp ush
ĠL ib
F r
ĠJ e
erv ice
Ġad vert
Le ave
Ġvis ual
Ġdanger ous
Ġa st
Ġpie ces
ĠA c
Ġlat est
y a
ĠA M
Ġpay ing
Ġbe at
Ġpr ison
âĢĿ ,
um ber
Ġnum er
y m
Ġph ilos
cl usion
Ġsh ip
ĠA nt
os h
ĠOct ober
ednes day
Ġwas te
ĠTr ans
ien cy
hen s
d ro
Ġsh owing
Ġhappen ing
Ġdiffe rences
Ġn one
ĠC O
A b
Ġlab or
Ġstop ped
Ġobject s
Ġaff ord
ay er
cell ent
ĠE ast
ol f
Ġtri p
00 1
ig ation
Ġun it
ov es
Ġinc red
i pp
Ġmiss ing
4 2
Ġad apt
Ġaltern ative
ĠO ver
ĠW ashington
ist ry
ĠC ount
y r
Ġviol ence
Ġgener ation
or age
Ġar ms
01 8
Ġsw itch
ol ar
Ġpl aced
Ġdefe nd
ĠCal ifornia
Ġre ference
ĠS an
Ġdef ault
ens es
Ġin fe
Ġsh ock
ĠF acebook
up id
Ġe fficient
i ance
Ġcont roll
urs day
os ite
m as
Ġexperien ces
Ġdi agn
D e
Ġtrans fer
Ġche ap
ĠL og
Ġb ond
A d
Ġb rief
Ġtest s
ĠA P
Ġimp ossible
Ġb an
ĠDo es
Ġequ ipment
Ġp ure
c il
t op
Ġher self
Ġdoll ars
4 9
P ost
Ġexp and
ed ia
pro ve
Ġansw ers
Ġpre gn
re ate
b re
Ġwh om
Ġweap ons
Ġsu st
Ġmult i
f rom
z a
ur rent
. '
Ġthan ks
Ġfail ed
Ġtrou ble
g or
Ġb ought
olog ies
Ġc aught
Ġslow ly
Ġmet al
Ġstand ing
tend ed
ĠS ee
Ġpro s
Ġk ing
Ġproject s
re m
Ġpart ies
Ġest im
Ġpurch ase
Ġm ort
as ks
Ġprov iding
our s
Ġrelative ly
ĠIntern et
ur ies
ĠB ill
ole c
re es
x i
Ġcl ient
S e
ck et
Ġm ir
Ġp ages
A dd
Ġdisc overed
ord s
Ġcl oud
Ġmot iv
Ġfight ing
Ġy ell
Ġsus pect
Ġb ow
Ġbro ken
cl ass
k a
ed y
our ney
Ġto m
Ġind eed
fe rences
o om
Ġf irm
g l
ro id
Ġreport s
Ġrad io
Ġfail ure
as ure
Ġass ist
ĠGerm an
Ġvis ion
Ġteam s
c raft
h ouse
ens ity
Ġmil es
op y
I M
` `
Ġbu ying
Ġap art
Ġs ick
Ġh urt
ist an
Ġre ached
rib e
ĠInst ead
Ġfam iliar
ac ing
" )
Ġrem oved
in n
Ġrest aur
ĠM icro
Ġend ed
ĠE v
Ġhold ing
ĠO ut
ic ians
ch ar
Ġproper ly
Ġinter pret
( '
Ġsecond s
Ġev olution
Ġattack s
Ġconnect ed
Ġknow ing
ĠW here
Ġr ul
6 5
and er
Ġpict ures
ash ion
Ġeff orts
ĠS un
k in
ĠJ ames
ĠB en
Ġf ant
Ġmed ic
Ġcr owd
u pp
Ġen h
Ġd im
Ġfood s
is ms
Ġmin ute
c ription
Ġmar riage
M ore
l ies
re y
Ġr an
Ġadd ing
M e
Ġpers pective
Ġc overed
ak ers
Ġs ac
Ġrele vant
ĠL a
Ġt ick
Ġwe ather
Ġli qu
t ained
Ġfam ous
Ġcommer cial
um s
Ġm o
J ust
ĠRep ly
Ġbusiness es
Ġre action
Ġintern al
Ġun like
Ġre ven
r ary
Ġr ot
et ers
all ed
Ġclass es
Ġbig ger
ĠL ondon
Ġsc ore
Ġplan ning
Ġdescrib e
k i
00 4
Ġobv iously
ĠP ark
Ġdefin ition
Ġwalk ing
er ry
Ġse ven
m ar
com p
Ġprocess es
Ġtr ig
Ð µ
Ġfill ed
Ġro ot
ic on
Ġve get
Ġ iron
Ġsh ared
ĠWind ows
Ġme at
Ġconf ig
O P
Ġb ag
Ġs en
Ġexper t
ĠRuss ia
S S
Ġdevelop ing
ĠSy stem
Ġproper ties
3 00
Ġconst ruct
Ġset s
( );
Ġd ial
resp ond
ri a
atur day
Ġd ynam
Ġil leg
Ġfl at
Ġt on
ĠB el
ap pe
ri v
Ġexpl an
b ing
Ġtra ffic
ĠCan ada
Ġcult ural
âĢ ¢
Ġra ised
Ġst ation
Ġj ournal
ite ct
Ġrun s
m et
Ġem p
Ġtri al
Ġspe aking
Ġpolit ics
ĠH igh
ĠAs s
Ġcl ub
Ġhe aring
Ġindepend ent
Ġsymb ol
c are
Ġcl in
Ġs and
ent ed
Ġse m
Ġthan k
Ġjud ge
ĠHe alth
Ġexperien ced
4 1
Ġapp lied
Ġteac her
O f
Ġman aged
Ġeng age
ĠD ef
Ġf ans
u nder
I I
Ġacc ident
Ġp hen
Ġsim pl
Ġst ars
Ġt ight
l or
l ist
ĠFeb ruary
Ġopt im
se mb
Ġev il
Ġnot es
ra cy
Ġmass ive
Ġtast e
Ġdown load
8 8
" >
l ook
E M
Ġwor st
Ġthr ow
Ġinc or
Ġnot iced
Ġpo ly
Ġestabl ished
al le
Ġgu ide
Ġcol umn
gor ith
Ġbel ong
ok ing
ro ad
Ġmod e
het ic
id ers
og en
Ġac id
Ġleg isl
Ġconcern ed
Ġis land
ĠĠĠĠĠĠĠĠĠĠĠĠĠĠĠĠ ĠĠĠĠĠĠĠĠĠĠĠĠĠĠĠĠ
Ġn av
wh ile
er ate
The n
Ġlar gest
Ġprote ction
ol ved
ard en
t a
Ġrecord s
Ġtre es
Ġcar bon
Ġp air
Ġdo gs
Ġk ick
Ġsc r
Ġm ine
ra g
Ð ¾
us ername
Ġcrit ic
Ġal cohol
Ġan cient
Ġconst ant
it z
Ġopen ing
Ġem pt
Ġar rest
Ġveh icle
Ġass ume
S p
er g
Ġall owing
ĠE ach
Ġbehav i
id a
Ġemot ional
Ġdepend ing
it ors
Ġclos er
Ġmus cle
Ġcons cious
Ġhelp ful
Ġrelationship s
Ġra pid
s es
Ġacc om
act ive
Ġcy cle
O L
Ġc as
Ġcall ing
Ġmob ile
Ġinn ov
Ġcr im
Ġqu iet
z en
ĠA N
Ġra ise
Ġb odies
oy al
Ġour selves
Ġpro ve
Ġpl ot
ĠGerm any
Ġth ick
Ġoffe red
ber g
0 20
Ġs ides
Ġsome where
Ġmiss ion
ĠInd ian
Ġrest rict
Ġregard ing
Ġbelie ved
Ġam b
Ġdes ire
Ġut il
Ġmon itor
Ġp al
Ġsudden ly
Ġtax es
Ġcomb ination
Ġex cellent
Ġpost s
Ġsong s
t ra
Ġdeb ate
Ġed ge
ĠB ig
Ġend s
h ost
Ġmil k
Ġtrans form
ĠC r
E n
ĠIt s
h and
Ġh ol
ĠM ex
Ġd u
Ġstr ange
ĠSt ar
ty pe
n et
Ġbr ight
Ġinst r
it ory
Ġst upid
Ġun iverse
Ġ err
Ġopen ed
Ġshould n
Ġtechn iques
ab et
Ġpl ays
f ree
Ġc ities
ĠSu per
i pped
ke nd
Ġst im
Ð °
Ġexpl ained
ĠIn c
in ate
r m
ar io
ĠTh ose
Ġdef ense
Ġcl im
Ġs ch
ĠFr ance
Ġhelp ing
Ġaccom pl
Ġlab el
M ost
Ġhig hest
or ter
Ġdec ades
f ig
ww w
st ate
Ġsee k
Ġsignificant ly
Ġdat abase
Ġspecific ally
ĠJapan ese
ĠCon st
at o
id th
Ġimport ance
Ġth read
Ġfix ed
Ġh ur
sh are
Ġbut ton
Ġfun ny
ĠM al
Ġcolle ction
ĠO ff
Ġexper iment
ĠAfric a
Ġpl enty
U T
Ġatt rib
Ġsol utions
Ġident ity
ĠL in
Ġcircum st
Ġjo in
Ġm ent
R ead
Ġ: )
ĠWe b
ĠU se
} }
Ġra in
M L
Ġear n
4 3
Ġdeterm ined
Ġkind s
Ġr ub
Ġexist ence
Ġfair ly
Ġfeel ings
Ġit em
r ate
ĠEng land
ĠMich ael
ĠM or
ĠA ir
ir ty
Ġocc up
ĠThere fore
ap ers
Ġj ourney
f ord
os en
ĠM ake
f ile
ĠGo vern
is hes
ĠT ime
ind ing
t es
i as
Ġman ner
8 5
Ġrequire ments
Ġfl av
Ġreturn ed
ill ing
ĠR ob
Ġcap acity
Ġse lling
Ġdepend s
ĠTh us
Ġpart ner
Ġfoll ows
clud e
Ġex change
F irst
Ġpolic ies
Ġvol ume
n ight
ph one
est ion
pr int
ag on
Ġloc ated
ĠGe orge
Ġfact s
and a
00 3
f ortunately
ul ations
ĠS ub
Ġcris is
ce an
Ġredu ced
Ġcontin ues
Ġdeli ver
I P
Ġsy n
ĠM art
r ont
ĠB o
Ġm el
m ail
Ġr ough
ut or
iss ion
Ġrese arc
Ġform at
O ur
Ġ _
Ġappro x
ph as
E d
ger y
u y
Ġcra zy
ĠH el
Ġc art
oll y
Ġcor respond
ĠL ook
ĠA rab
u it
st ood
Ġsign al
r ig
Ġmin imum
Ġca using
om y
Ġmar ried
s he
por ary
Ġdistrib ution
i i
an cing
ĠD NA
ĠR ober
ĠM ag
b al
Ġreal ized
Ġw itness
ĠL ord
m osp
Ġbeg ins
ĠS a
Ġb acter
an ish
ag o
st ream
Ġview s
is ation
Ġdri ver
Ġmag ic
Ġst ret
Ġfil ms
Ġlo an
ĠF e
Ġprep ared
d en
ar p
Ġt ro
E L
ic ing
Ġqu e
as p
ã ģ
Ġsa v
Ġun ivers
Ġchalleng es
Ġprev iously
Ġtre ated
app ing
at in
ĠG reen
ĠA p
ic ip
ĠC D
ol ve
Ġperform ed
Ġind ex
u ke
Ġb are
ing u
Ġaccept ed
P r
Ġbreat h
ĠR ich
01 9
Ġgu arant
Ġcompon ents
Ġincre ases
es ome
Ġsk y
Ġinterest s
ĠB ush
Ġepis ode
Ġ ^
Ġcrim inal
Ġfin ished
Ġadminist ration
Ġestab lish
E O
Ġm al
y th
s m
Ġf le
Ġfl o
' '
Ġcont rast
Ġopp osite
Ġsign s
ĠW r
Ġte eth
Ġdisc over
Ġcre ation
Ġd ress
ĠâĢ ¦
on na
Ġnecess arily
ĠAn ge
i ot
Ġpo ol
i xt
az on
Â Ń
Ġch ick
Ġf ly
Ġsp orts
v ention
Ġel imin
ig ration
ut ive
ĠPart y
Ġintellig ence
Ġfol ks
r um
Ġown er
Ġun s
Ġlaw y
ĠA v
Ġide al
o ch
ur ally
Ġpl us
Ġwr iter
ĠIn ter
e per
Ġsm ell
Ġmur der
Ġstand ards
ĠB oth
Ġconst antly
Ġsent ence
Ġm olec
Ġmot ion
I V
Ġhistor ical
Ġent ertain
ar n
w ide
Ġf old
im prove
Ġdis s
i pping
Ġra re
8 6
00 2
ter day
E very
Ġal gorith
Ġpull ed
Ġmill ions
Ġappe ared
Ġsit uations
Ġoper ations
ĠB ook
ak s
ad o
ĠA ccording
Ġscient ists
Ġneighb or
Ġpresent ed
Ġeffect ively
Ġsome what
ri er
Ġtw ice
Ġwe aring
Ġfoc used
Ġcor ner
ĠG old
Ġ !
C C
ĠAn sw
An y
rel ated
ĠWh ich
ill y
ĠR el
ĠN OT
ĠRe view
N ame
l ock
ĠTh ank
ri x
ĠCh urch
Ġre nt
Ġser iously
ĠM at
ĠU nder
I ON
I nt
i ate
ĠP lease
Ġwe l
Ø §
V iew
ap ed
Ġing red
Ġlibr ary
u zz
Ġsuggest s
Ġdesc ription
Ġturn ing
est ic
Ġl ie
Ġst orage
Ġv it
Ġrel ax
Ġcomfort able
ĠS T
Ġhtt p
p m
Ġv ast
Ġany more
S A
Ġb anks
Ġaffect ed
Ġcont ro
Ġent ry
ĠT om
Ġpl astic
Ġex cess
m ary
Ġrespons ibility
Ġtyp ical
Ġkill ing
A pp
7 7
Ġexper im
Ġn orth
Ġfru it
es h
Ġqu ot
Ġcho ices
erv ed
ab ilities
Ġt un
oc racy
S ee
ruct ure
ĠTw o
O D
Ġfield s
M an
ĠH ave
Ġoper ation
Ġsn ow
Ġt iny
ut s
Ġwin ter
ĠAn other
Ġdirect or
in i
Ġfl ight
h ab
out s
og ue
ĠOn ly
4 00
igh ter
ĠW estern
Ġal le
ĠR et
Ġsam ple
G oogle
An other
' .
Ġs ister
Ġwonder ful
C H
ĠS ur
Ġcons ult
Ġcon ver
F F
Ġteach ing
op er
Ġobserv ed
ition ally
Ġre act
Ġsy nt
ĠComm un
Ġany where
Ġtr ick
Ġaspect s
Ġcreat ive
Ġus ual
ĠS chool
Ġmot or
] [
u h
iven ess
am ental
Ġz ero
Ġph r
R el
Ġempt y
Ġto w
ĠUS A
Ġtr uck
Ġintend ed
Ġl osing
Ġr ing
Ġapparent ly
Ġg ro
Ġpro of
ĠD ec
Ġat mosp
Ġlay er
ĠW ork
Ġs in
Ġclot hes
Ġhundred s
I nd
id el
Ġcompet ition
ã Ģ
Ġf lex
Ġh orr
D es
Ġposs ibility
5 6
Ġmatter s
Ġagre ement
Ġte en
Ġauthor ity
Ġd ut
Ġadv anced
Ġlink s
all s
ĠB et
Ġwalk ed
Ġst re
Ġintrodu ced
Ġpattern s
Ġfrequ ently
Ġabs or
w ar
ĠL ife
Ġf ashion
stand ing
ĠH ome
Ġconsider ing
u able
Ġfund s
Ġkeep s
ĠA I
Ġst ated
ĠT ur
Ġhard er
com ment
Ġac adem
! )
xi ety
Ġs outh
Ġoper ating
Ġthink s
ĠGen eral
P lease
Ġserv ed
O W
out hern
ul ous
Ġleg s
Ġboy s
Ġwere n
ict ed
ĠH ist
ĠA lex
ars h
Ġadv ance
Ġsome how
R A
Ġgener ate
Ġwat ched
Ġj oint
Ġ ;
Ġopportun ities
ĠD id
ens ions
Ġinvol ve
s hip
ĠD uring
Ġpract ices
l o
ren cy
M ay
Ġex ists
c her
Ġcl ients
l ig
Ġarch itect
Ġe ffic
Ġcap able
ord ers
Ġb unch
Ġart icles
Ġenvironment al
ĠSt r
re al
ĠJew ish
Ġe c
Ġmeas ures
Ġtechn ical
ĠSt reet
gy pt
ĠI D
ĠT ex
A A
} ,
l og
ĠRuss ian
Ġj u
ro g
ad s
Ġmor al
rom e
ust er
Ġsh it
Ġcar ried
Ġphot os
Ġwe ird
ĠJ ul
ic ial
Ġrem ark
ĠW he
op hy
ĠS ometimes
Ġfore st
il er
c ons
Ġmax imum
Ġph ase
O b
Ġsol ve
te e
b ar
ed ing
Ġsm ooth
Ġh omes
ang ed
ĠI P
le vel
Ã ¡
i est
ok es
Ġs orry
P e
fra id
Ġfor t
Ġl ies
Ġorgan izations
Ġteac hers
ĠSo cial
or a
Ġsh ift
Ġmanufact ure
Ġt aught
Ġcircumst ances
Ġpow ers
Ġprofess ion
Ġsec ure
u ing
Ġr ank
Ġpart ners
orm al
A re
Ġsurpr ised
ĠMicro soft
Ġconst ruction
Ġch ain
Ġa fraid
Ġhigh light
Ġb ull
itc hen
r ical
k er
Ġconcern s
ĠTh om
C ol
Ġre form
ill a
Ġult imately
us iness
Ġofficial s
Ġmark ets
ab el
ĠD OC
Ġpack age
Ġman ager
Ġilleg al
Ġt ough
w in
s ub
ĠAustral ia
oc ation
Ġbr ows
c ript
Ġal ive
Ġne ither
5 7
uth ors
M S
Ġgreat est
Ġdist inct
ost er
Ġnumer ous
ag ers
Ġins p
Ġliqu id
ĠY et
Ġaccount s
Ġprof it
Ġsal t
Ġne ck
Ġadv ent
d a
f riend
Ġg rew
l ife
Ġplan e
Ġupd ate
it le
Ġc ert
ĠTe chn
I L
ĠI N
ĠSt ep
at hy
ay ing
Ġ= >
ĠP ort
re qu
up s
Ġaccur ate
y p
Ġenem y
Ġar my
Ġgra b
ĠAfric an
Ġdis appe
Ġhe ight
Ġsuggest ed
d ate
Ġtele vision
ach ing
Ġident ified
yth on
Ġliter ally
Ġis ol
Ġnorm ally
Ġst ood
Ġsh aring
Ġcol on
Ġf ing
Ġmov es
Ġv ary
ck ing
Ġvac c
go ing
Ġsupport ed
ĠUn ion
Ġmed ium
Wh o
Ġun its
Ġem phas
âĢ ĺ
Ġmom ents
Ġwr it
le te
ĠRepublic an
Ġw ave
ĠB re
Ġd ance
Ġsm ile
Ġfor th
ab led
ĠH am
Ġperfect ly
Ġmess ages
Ġfin ish
as hed
Ġse at
es ides
Ġgen e
I G
Ġread ers
n el
Ġexpl ore
Ġrev olution
ĠM o
Ġt asks
! âĢĿ
ort hern
Ġform ed
A meric
Ġsqu are
i h
Ġbr ings
R L
Ġrepe ated
Ġfoot ball
ĠC am
it a
ik i
Ġun able
Ġunder stood
en a
he red
en ced
d ata
Ġconsequ ences
ĠChrist mas
om ic
G en
it ar
Ġwee kend
Ġjust ice
Ġleaders hip
Ġhor se
ĠT ake
l ines
Ġres istance
Ġno ise
ĠD a
ad ed
ĠCent er
Ġr ide
Ġw ine
ĠM il
Ġb ath
ort ion
Ġs an
ĠJ ud
Ġess entially
b ra
ĠS al
Ġbe ar
Ġrem ote
Ġsu fficient
ur d
erv es
Ġocc urs
Ġbre ast
Ġad m
Ġbatter y
p et
S P
Ġamount s
Ġdrink ing
Ġpain t
-------- --------
Ġprec ise
Ġreason able
Ġsurpr ise
ĠR ight
Ġprop osed
ĠD el
ĠE r
Ġb omb
Ġst uck
Ġequ ival
ĠM ary
Ġnot ed
oll ow
Ġf if
Ġautom atically
ce l
c al
ĠSec ond
oun ter
I d
Ġcandid ate
Ġvide os
Ġexplan ation
ĠRom an
Ġappear ance
Ġa id
Ġlist ening
Ġsust ain
Ġprocess ing
Ġpost ed
M any
Ġo kay
Ġrecogn ize
E ven
Ġha bit
ĠFr iday
Ġdr am
Ġinj ury
Ĥ ¬
Ġresult ing
Ġneg ot
Ġh unt
Ġch art
Ġcommun ities
Ġapp oint
ĠT oday
ĠSu pp
at ural
ĠT est
du le
Ġpro ceed
Ġd inner
com ing
Ġw ire
ĠTw itter
ĠS cience
Ġinvol ves
Ġbr own
on a
} $
Ġsp in
Ġspirit ual
Ġposs ess
Ġsur gery
O ut
Ġlarge ly
ck now
Ġthe rapy
p y
in ating
Ġse vere
f o
Ġtechn ique
Ġesc ape
Ġab use
5 8
Ġf ault
Ġat tend
Ġsk ill
Al so
Ġv ent
à ¥
w ater
Ġt ips
ok en
Ġsequ ence
ĠAt t
C T
int on
ic ian
Ġth in
ĠM ad
Ġdes k
ĠT imes
Ġdeg rees
ch ing
el lect
Ġphen omen
W here
Ġext ent
Ġv an
Ġs ight
Ġex ternal
Ġl oud
8 00
t hen
**** ****
Ġagre ed
d is
Ġv ul
Ġcomb ined
Ġgood s
ul s
ĠJew s
ra ge
p ic
Ġencoura ge
Ġstrugg le
ĠDep artment
ĠE gypt
Ġu pper
i at
Ġchann el
ru ctions
r ant
Ġocc asion
Ġadult s
Ġbeaut y
w ing
Ġsu c
ad ow
hes is
ĠIntern ational
Ġyoung er
ĠJ oe
om a
Ġor g
re ens
T ype
Ġpass ion
ĠP eter
ut ing
Ġgu ard
Ġhas n
an ing
ĠĠĠĠĠĠĠĠĠĠĠĠĠĠĠĠ ĠĠĠ
o in
ĠS unday
b el
Ġm ail
y e
Ġgen es
od d
ap h
ĠB as
Ġreturn s
Ġarg ue
Ġprof ile
R ec
Ġcommon ly
ink ing
Ġal t
Ġvol unt
Ġbus y
ĠO pen
Ġpay ment
ĠFr ank
Ġli ked
Ġr om
Ġresearc hers
Ġfund amental
ce ived
Ġg ather
Ġart ist
Ġcreat es
ĠB ack
Ġcomp re
Ġl augh
6 6
re te
Ph one
D A
Ġb read
Ġh ole
c ers
ĠF in
Ġme rely
Ġoffic er
is her
ac c
Ġexpl ains
Ġhy dro
Ġf asc
ef ully
Ġsp ring
Ġdis ci
An onymous
Ġc ab
Ġvirt ual
Ġact s
Ġsp r
Ġst orm
Ġrem aining
Ġcon ven
Ġsuff ering
Ġche st
Ġcompl icated
os al
L ist
ic ity
f ast
d es
ĠPro f
T S
I A
Ġan xiety
Ġass ert
Ġreve aled
Ġarri ved
ĠJ im
ĠD et
Ġlangu ages
Ġforg ot
ĠM iss
Ġinst it
Ġrout ine
itution al
he nt
Ġb order
ĠTex as
ck ed
ĠC ath
al ian
Ġmedic ine
Ġy ield
Ġp il
v ille
Ġeven ing
b its
Ġcol ors
ĠT op
Ġres ist
Ġcre am
in ations
Ġconv in
Ġpass word
Ġdef ine
Ġper man
pl ate
re p
ĠB ro
Ġbl ind
Ġtalk ed
Ġs ession
z ing
Ġnat urally
Ġch air
Ġfeed back
Ġmain ly
p al
Ġm ac
Ġconv ention
Ġas ks
Ġgr own
Ġcompar ison
On ce
Ġ= =
an o
S ince
Ġla unch
Ġmach ines
n s
Ġdeal ing
Ġhead s
Ġread er
Ġstore s
ĠPer haps
Ġval uable
Ġcompon ent
Ġa cknow
ĠQ ue
Ġwall s
u ous
Ġbut ter
od ing
Ġlight s
Ġdep th
Ġsub t
Ġdetail ed
Ġcre w
abet es
ĠIs land
Ġre ject
Ġas ide
ĠS il
le ments
Ġsurv ive
Ġpract ical
ĠO ld
U p
Ġr u
Ġh idden
Ġj e
Ġconsist ent
Ġsold iers
Ġspe ll
!! !
Ġag ent
ĠT re
ĠA ut
Ġconsum er
Ġhy per
Ġdis app
^ {
Ġh at
Ġact ing
Ġsol ar
ĠL ast
Ġgl ad
ib ilities
p ack
B S
Ġt ag
Ġp ump
ress ive
at ar
Ġg onna
Ġevery body
O ver
Ġto x
t aining
T e
Ġbo ost
et te
ï ¼
u ated
Ġg ay
ĠP ower
Ġl atter
p age
Ġpurp oses
omet hing
az ine
Ġappreci ate
ocol ate
Ġpick ed
Ġso il
Ġse lection
P R
Ġdoc uments
ang es
Ġfind s
Ġpot entially
Ġt um
se y
Ġstand s
ĠH ill
ĠP ress
Ġcoll abor
Ġarg uments
ĠAg ain
Ġsuc ceed
y an
Ġsubst ant
res ents
we et
d r
ĠF urther
Ġexc ited
Ġpos itions
____ ____
in st
Ġkn ock
Ġgen etic
99 9
Ġme al
Ġfil ter
ph a
h i
Ġaw esome
Ġthem e
ĠAr ch
Ġvari able
r d
T H
Ġsp ort
Ġs ale
Ġsurpr ising
ĠT im
on ic
ĠD i
Ġcare fully
ber t
S ub
Ġoff ering
Ġyes terday
Ġconf idence
Ġk itchen
Ġenh ance
Ġdom ain
Ġat h
as er
ap es
ce ler
Ġimm une
Ġra c
b or
Ġfrequ ency
ĠSm ith
Ġrefer red
S pe
hem at
Ġfore ver
Ġdiscuss ed
ic an
Ġm ath
Ġmy th
el f
Ġj oy
le ts
ĠPl an
Ġsc ream
Ġp in
P er
Ġexper ts
Ġo xy
Ġill ness
m es
Ġexp osure
ĠC ap
Ġass ign
5 9
u a
Ġ era
Ġmus cles
Ġc ro
ĠV ir
G o
Ġge nder
Ġf ab
Ġob tain
Ġch osen
Ġgot ten
Ġdra g
Ġco ck
Ġinter act
Ġsh if
Ġess ay
Ġstrateg ies
if ies
the y
Ġbring ing
ĠRes earch
Ġproced ure
on ent
Ġmist ake
Ġcorpor ate
Ġdo ctors
Ġinfe ction
Ġt ired
Ġhold s
Ġst om
ĠSc ott
Ġs le
Ġegg s
Ġlink ed
Ġs ke
Ġar ray
ce nd
ĠAm azon
Ġrestaur ant
Ġvir us
ĠL ou
ĠAs soci
Ġris ks
ra ction
Ġass ets
s l
ĠTH E
Ġdis ag
b i
app y
app ed
B ecause
Ġext ract
Ġli kes
Ġpass ing
Ġconsum ption
Ġst one
Ġdep ression
f unction
Ġemot ions
Ġconsum ers
Ġgener ated
Ġspl it
Ġoccur red
Ġne ut
ĠKe ep
and on
} \
ĠE U
r un
? )
Ġrepl aced
Ġlet ters
g ent
y stem
Ġw al
Ġrecommend ed
Ġse es
Ġsm oke
Ġweap on
Ġdist rict
om an
ra ce
Ġco ord
ploy ment
Ġse ctor
am ple
Ġbe ll
Ġstruct ures
Ġdise ases
Ġn ations
5 2
Ġoffic ers
ĠIn s
Ġre ward
Ġadv oc
Ġint ention
ĠF ree
Ġman ip
ad ian
Ġn om
8 7
l ong
ĠH T
c ific
ograph ic
P C
Ġrep resents
Ġsp oke
Q L
Ġm oon
ĠPh il
Â °
Ð ¸
ĠB ible
iz er
ill er
ig er
Ġad op
Ġimpro ved
Ġdro pped
g reg
or ney
Ġk iss
Ġpl ate
Ġfall ing
Ġqu arter
Ġatmosp here
Ġshoot ing
Ġwide ly
Ġexcept ion
ĠY eah
ĠS ing
B ack
Ġemploy ee
Ġsome body
pect ed
Ġf ro
Ġopp osed
M ed
Ġnet works
Ġwhe el
Ġcomm itted
w hel
Ġinit i
Ġun known
Ġperson ally
ear s
Ġyou th
at us
Ġcra ft
ĠB ob
Ġa uthors
t est
Ġfell ow
b les
Ġhard ware
Ġbro ke
ĠS k
Ġpl ug
Ġn ative
Ġchar ges
Ġt ail
n am
Ġthous and
Ġexp osed
Ġorig in
Ġf inger
ĠB er
Ġevery where
ĠRe v
Ġa x
ĠL ist
ĠC oun
Ġmix ed
Ġh ang
Ġcontroll ed
5 1
Ġlog ic
L ast
Ġwin ning
or al
Ġcare ful
Ġcateg ory
ĠV ol
Ġd ivid
we red
Ġcont em
Ġfig ures
ĠI T
p ost
ĠRe ad
Ġex hib
Ġcl ar
Ġequival ent
os m
are n
or ation
Ġinter face
ĠBe fore
' )
Ġfe at
ĠR ock
V al
Ġt ables
6 00
Ġrecord ed
ob e
Ġcomput ers
if orm
I R
Ġcon clusion
t w
Ġstrong er
A m
ĠM a
ĠU N
Ġincreasing ly
rast ructure
ĠGree k
Ġchar ged
Ġint ellect
ĠD ata
ĠT or
ĠSec urity
Ġingred ients
ĠRober t
ĠR E
Ġreview s
L A
Ġc ere
Ġres ource
ĠA D
15 0
Ġorig inally
Ġno body
Ġh ook
all ow
b orn
Ġdec ent
clud ing
P M
Ġapp s
O ther
Ġter rible
Ġed itor
ĠKore a
Ġclass ic
Ġpoint ed
Ġdep artment
ĠM iddle
Ġbacter ia
Ġin ner
ult ure
Ġb one
Ġint ent
Ġrat io
99 0
Ġprinci ple
al a
Ġincor por
Ġprom ote
Ġob tained
ĠP R
Ġt act
Ã ¢
Ġprinci ples
ĠF ore
ans ion
Ġg arden
Ġcomp are
Ġh ide
Ġen force
Ġv ib
Ġsuff er
Ġdec ade
Ġsw im
Ġwond ering
Ġbl ame
Ġt issue
ĠJ er
Ġjo ined
hip s
R ep
Ġg ift
am ily
Ġann oy
ild ren
Ġemer gency
ific ations
Ġco ast
ĉĉ ĉĉ
or ters
ĠP et
Ġyell ow
ri p
P A
Ġt or
Ġill ustr
Ġart ists
le ge
Ġri ver
ar l
Ġt all
Ġpercent age
Ġb oss
Ġde lic
z ed
ĠW all
d iv
5 3
ĠÂ £
Ġreg ist
ÂłÂł Ċ
Ġcut ting
ĠB est
Ġtrad ing
Ġleg it
Ġregard less
W r
ĠL ove
ĠH y
cl aim
Ġang ry
S E
Ġfing ers
Ġvul ner
et ry
Ġreg ions
is ters
ide o
Ġcomb at
Ġmiss ed
M onday
Ġt rib
c ode
he rent
Ġt ank
Ġlim its
Ġpr oud
Ġch ief
D ata
ĠBrit ain
Ġad mit
Ġbelief s
Ġinc ident
Ġprogram ming
Ġreven ue
ol a
Ġsa ved
Ġco verage
et her
ot al
Ġhous es
Ġ* /
Ġhad n
Ġregular ly
Ġconf ir
ĠCl ass
Ġgra v
Ġsh oes
as m
Ġso le
Ġnews p
a a
aw s
Ġh orm
Ġstom ach
Ġin du
ang le
ĠM onday
Ġtrans ition
ÂłÂłÂłÂłÂłÂłÂłÂł ÂłÂłÂłÂłÂłÂłÂłÂł
Ġcl ock
ĠRepublic ans
Ġsu it
gr ade
ste in
il it
Ġdi vers
ĠBr own
ĠDemocr ats
Ġsub sequ
Ġsee king
ld er
ĠMc C
s ize
Ġfac ing
htt ps
Ġinstit utions
Ġd ad
Ġtri es
ĠCl inton
Ġtechn ologies
ĠS up
ic ago
Ġg iant
Ġtre nd
k ins
ind er
ur a
M od
olog ist
Ñ Ĥ
Ġb on
ĠUs ing
ĠB ank
Ġp ed
Ġprim arily
Ġout come
Ġbre aking
Ġput s
ĠS ol
Ġrout e
Ġas semb
Ġsub s
il ty
Ġcomple ted
ain e
Ġdisapp oint
Ġsub sc
Ġsche dule
Ġinvestig ation
Ġag ency
Ġbuild ings
Ġannoun ced
Ġport ion
ĠF ire
Ġt one
Ġselect ed
Ġsens itive
ten ance
ĠFl or
wh o
Ġl aug
Ġst ored
Ġeffic iency
Ġtest ed
Ġgr ass
ĠM en
Ġchick en
ru ption
g han
Ġb at
ant a
p ass
um ps
ĠI d
Ġclose ly
Ġm ad
ic ide
Ġun w
ink s
ann ed
ĠJ ava
Ġsign ed
Ġh all
pr ing
st ract
Ġf lying
c a
ĠUn fortunately
Ġd ust
Ġindust rial
ll a
ĠSp anish
Ġâ Ī
com fort
Ġh ung
C omp
int s
Ġsac r
ĠÂłĠÂł ĠÂłĠÂł
in ity
Ġindic ate
Ġra rely
ĠS and
Ġcru cial
Ġl it
Ġto ler
Ġcook ing
Ġliter ature
W ednesday
Ġra w
A ccording
Ġinn oc
Ġst ro
Ġvot es
if est
ĠGovern ment
Ġun iversity
az e
Ġdis h
Ġf ool
Ġbelie ves
Ġvis ible
ish ment
Ġfund ing
Ġm ood
Ġinv ent
Ġenjoy ed
Ġinter action
Ġinf o
pt ions
ĠN ever
p ress
Ġsupport ing
ĠAb out
Ġstre ets
G r
ay ers
Ġsett ings
Ġvictim s
Ġparam eters
Ġim per
ĠF re
Ġclaim ed
R I
Ġhyp ot
se ct
Ġw ake
Al though
ot a
Ġwhen ever
us er
Ġvers ions
Ġqu ote
Ġelectric ity
v an
ĠS um
Ġveh icles
Ġemot ion
Ġg ent
Ġover whel
Ġw et
ge nd
Ġfl ag
T uesday
st ers
Ġmechan ism
ĠL ong
port s
Th anks
Ġy eah
Ġele v
Ġab andon
ä ¸
Ġst atic
Ġperson ality
Ġconf ident
Ġdeli very
Ġattempt s
err ing
Ġv oid
Ġres olution
Ġret ail
Ġoxy gen
edd ing
Ġcharacter istics
ĠI r
ĠS ervice
Ġgovern ments
Ġcorrect ly
ag ram
Ġexp ressed
b urg
ĠBl og
Ġch apter
ĠDe velop
Ġmy st
Ġvill age
Ġscen es
J ohn
Ġlist ed
u ine
L ike
Ġinvest ors
Ġn ose
Ġend ing
Ġse nding
Ġent ered
In st
it is
ĠW il
S C
ĠB ur
ut ation
ĠN or
Ġprom pt
Ġex tended
ĠM em
r ich
Ġdel ay
Ġshop ping
B A
ri ve
og y
c r
ret urn
Ġhouse hold
Ġgun s
Ġch ose
Ġpl ain
ĠA T
Ab out
Ġprom ise
u ct
Ġag ents
g age
Ġhop ing
et ing
Ġst able
Ġbird s
ĠF ound
Ġrid ic
v ar
Ġtw enty
ac le
Ġte a
Ġdom in
ĠW ater
Ġex clus
Ġdoll ar
ann a
Ġst ack
Ġpen al
5 4
ific ial
Ġstate ments
6 7
ĠH uman
Ġo cean
ĠAnsw er
ĠFr anc
ĠMex ico
ig en
or ough
Ġvari ables
Ġrep rodu
Ġr ational
Ġr ow
Ġscen ario
in em
Ġad opt
Ġbe er
Ġprep are
Ġins pir
Ġwind ows
x ual
Ġapprox imately
Ġun us
ĠCount y
St ring
ĠJ ournal
Ġret ire
p arent
Ġredu cing
Ġg all
âĢĻ .
y cl
te en
Ġde eper
Ġp ill
Ġstr ict
Ġi Phone
alle l
el ine
ĠV is
Ġcontrib ute
C he
ĠH en
Ġv ital
ĠL ear
ol it
fe rent
ĠO K
ani el
Ġinf rastructure
ap se
ort ed
Ġord ers
htt p
I F
Ġp ig
Fr iday
Ġatt ached
Ġinstall ed
Ġinst ructions
S ec
Ġshe ll
Ġign ore
Ġl unch
Ġche ese
age ment
ĠDe v
ĠN ote
Ġrem ained
Ġsurround ing
ĠHar ry
ist ed
Ġcandid ates
Th ursday
g al
D F
le an
98 0
ĠM er
Ġneighbor hood
Ġdestroy ed
Ġdi am
ĠR ad
om in
ĠN ov
Ġmind s
Ġlif est
Ġmet ab
Ġz one
Ġdream s
Ġrec overy
Ġcontrol s
Ġf aces
em ic
ĠM ass
Ġlo ans
f it
Ġaut o
Ġm and
ĠC P
k et
Ġre in
Ġf ulf
Ġpro sec
Ġliber al
n ic
Ġstri ke
Ġpus hed
Ġgr ade
ĠV e
Ġw ra
ha ust
du c
v a
Ġbo at
Ġwr ites
com m
ann y
ĠSt ill
ĠW ould
==== ====
ĠE mp
the re
con st
Ġr ig
j ection
te nding
Ġbl ow
ĠAn n
Ġcapt ure
Ġaud io
el ess
ĠM el
Ġrec on
D P
Ġant ib
ang ers
ĠH ol
p ath
p erson
Ġatt itude
Ġvot ers
Ġexpl o
c ar
Ġsur vey
ĠCent ral
Ġdep os
us hed
S im
Ġwel come
n ce
B I
Ġwor ried
Ġdes per
Ġn ic
ed it
Ġsuccess fully
ĠFlor ida
Ġest ate
ĠG al
Ù Ħ
Rel ated
Ġv es
Ġimmedi ate
Ġconserv ative
st art
Ġfl ash
Ġcon ference
et ime
Ġdem ocracy
Ã Ń
ĠP ak
p an
Ġt ort
## ##
Ġdri ven
use um
ĠS ar
Ġint ense
ĠF inally
% .
M A
Ġwhere as
Ġtrad ition
Ġadd s
Ġimplement ation
Ġinstr ument
er ies
Ġrep ly
in et
+ +
EN T
Ġann ual
ĠHe ll
Ġfall s
Ġerr ors
Ġincred ibly
Ġn ine
ĠWill iam
ĠCh ange
ĠHist ory
Ġconcept s
Ġnarr ow
Ġco al
Ġdi abetes
Ġch amp
Ġmen u
Ġsh arp
Ġwrit ers
fl ow
Ġad s
ĠSt art
er ver
u an
F acebook
Ġl oose
ĠS et
l ar
Ġdevelop ers
l ib
Ġv o
ĠP ut
ĠS uch
qu est
Ġpro port
st on
uild ing
Ġdra ft
Ġlic ense
Ġin fect
Ġdeep ly
Ġc ow
R em
r as
ab s
ast y
Pe ople
Ġredu ction
ĠN ext
ĠSh ould
Ġarr ange
Ġpolit icians
Ġst y
Ġte ch
d raw
z er
Ġbr idge
Ġsupp ose
Ġopp osition
Ġappe al
Ġorgan ic
c alled
Ġdep art
Ġtom orrow
ĠT em
um in
Ġfr ustr
Ġw is
Ġengine ering
ĠS ure
Ġmeas ured
Ġch ances
Ġbe ings
Ġequ ally
Ġphilos ophy
clud ed
ĠV er
Ġconf used
Ġelect ronic
Ġshe l
Ġla un
an es
ĠS at
D r
pe l
Ġdra wn
Ġevery day
ĠAt l
com es
ĠCom ment
Ġcal m
ĠChe ck
Ġtra ined
Ġachie ved
Ġacc omp
ĠTh ough
Ġtro ops
Ġsurv ival
Ġgen uine
Ġprotect ed
Ġtal ks
Ġn erv
ĠM S
Ġfl ood
St ep
ive red
Ġrep air
Ġcompre hens
Ġaware ness
Ġplan ned
Ġch at
ud es
ĠThom as
Ġdom estic
Ġ Ï
Ġsm oking
Ġd ict
U N
be red
Ġp m
Ġblock s
Âł Ġ
Ġbu ff
Ġp ipe
sc ape
ĠN av
ĠJe ff
ĠC at
as ters
Ġcont aining
Ġhealth care
Ġbl ank
Ġt ur
Ġbl ess
ĠW al
Con nect
T ime
ĠM ike
Ġt ip
Ġheav ily
Ġsen ior
Ġrec ru
ĠS aturday
Ġwar ning
Ġs au
Ġcomp ens
ĠM ax
Ġprote ins
Im age
ĠAs ia
Ġparticip ants
Ġbott le
m at
ĠSup reme
} {
ri or
Ġdri vers
Ġac celer
Ġfriend ly
n oon
Ġins ert
r ated
Ġcommun icate
ĠB ay
li ament
8 9
Ġfav our
in ent
e ven
ĠC a
Ġrespons es
Ġphr ase
Ã ³
ĠD ist
> >
ĠS ov
as ant
Ġcur rency
Ġhot el
un ning
ĠE lect
Ġform al
Ġaut hent
ĠG ame
Ġstrong ly
ĠSen ate
Ġj ack
Ġadvert ising
p o
ĠL u
ĠO S
Ġord ered
Ġclin ical
Ġh un
L ook
ĠCh icago
Ġch ocolate
b a
Ġst ead
ĠAr my
ro at
Ġp ul
V ER
Ġtrig ger
ĠCath olic
Ġmount ain
Ġcompl ain
Ġmove ments
Ġbehavi our
C omm
Ġres c
ĠAf ghan
le ft
Ġd ating
Ġw est
val ue
Ġgu ilty
Ġconne ctions
Ġbare ly
ĠA cc
Ġwh is
Ġan s
Ġmem ories
ĠP erson
Ġt ong
Ġform ula
we ight
ĠGra nd
G B
Ġcarry ing
P re
ixt ure
Ġsc hed
ĠF il
ĠD own
Ġbut t
Ġalgorith m
ĠIt alian
Ġen able
co in
M E
ð Ł
Ġrel ief
ik ip
ĠL ight
Ġsam ples
Ġmus ical
Ġcir cle
ob s
ĠPar is
Ġur ban
ound ed
ĠInst itute
ĠJ un
ĠCoun cil
Ġprot est
Ġ- >
ĠT ry
Ġburn ing
Ġan ger
Ġflu id
Ġdynam ic
enn y
F l
is co
Ġg ap
F igure
ĠSte ve
Ġform ation
h us
Ġhous ing
Ġc ig
Ġgu itar
ĠB ab
Th ank
0 21
Ġ/ >
Ñ ģ
ug ht
Ġun ion
Ġre ly
N e
or se
ĠF orm
Ġus age
Ġrecogn ized
T oday
Ġn ull
d f
2 50
Ġw aves
ess age
Ġstim ul
nd a
Ġref ers
Ġp it
Ġsupport s
Ġviol ent
ate ll
ic y
Ġded icated
ple te
Ġaw ard
Ġris ing
Ġframe work
Ġexc iting
Ġcut s
Ġc ats
M ar
Ġluck y
v y
â Ĥ¬
ry pt
C E
gress ive
Ġmain tenance
Ġfew er
Ġlet s
Ġobject ive
Ġloc ations
P art
Ġpay ments
ĠPro ject
ĠMin ister
ĠD isc
Ġexpl os
Ġshould er
Ġla pt
Ġb other
Ġob st
Ġenem ies
Ġmin im
( \
Ġex haust
Ġl un
ĠRe al
Ġh its
Ġhard ly
Ġpro ven
ikip edia
pr ise
ĠGr oup
ĠP age
Ġacadem ic
ĠF ederal
az z
c est
ob ile
ist ent
on ents
Ġfour th
Ġsur f
Ġp ounds
Ġlet ting
Ġoper ate
Re g
Ġreci pe
C D
um es
ĠM ember
us al
ĠE nd
Ġcontro vers
ĠF igure
v in
ocr atic
ã Ĥ
Ñ Ģ
ã ĥ
Ġun ex
f ol
ag ues
Ġbr anch
ĠT uesday
ĠArt icle
Ġinsp ired
Ġsh r
ĠB i
ĠJ ose
ok ed
F L
Ġauthor ities
Ġdivid ed
ĠJ on
Ġnear by
Ġin hib
ĠF ood
Ġless on
Ġpan el
Ġnarr ative
Ġb ike
v iously
Ġelect ed
Ġdisci pl
Ġin ev
Ġnut r
Ġg al
ĠL ee
y es
âĢ¦ .
T ake
E r
ĠChrist ians
Ġ ~
in os
Ġwebs ites
ĠW ord
Ġfuck ing
Ġf ib
ag raph
Ġro les
Ġsil ver
Ġste el
w as
Ġf iction
Ð ½
w orld
Ġstud ied
Ġr hy
Ġestim ated
ĠR iver
b b
Ġrem em
Ġbreak s
um er
ial s
r c
ĠCol or
Ġc able
z il
Ġsa ving
Ġrapid ly
Ġan gle
Ġvict ory
et ies
ĠK n
b oy
olly wood
Ġreg ime
Ġcr iter
Tw itter
ĠI ll
Ġp ra
Ġrece iving
Ġexpect ations
Ġc ogn
V D
Ġfe es
ĠEx per
Ġmat hemat
Ġupd ated
C A
less ly
Ġne ur
Ġg ear
iz z
Ġthe ore
) $
Ġw ise
Ġdis order
Ġchalleng ing
Ġpus hing
Ġhe aven
97 0
ĠD ar
ĠPr ot
ĠPro gram
in er
gg ed
N ote
Ġdo ors
Ġwant ing
Ġlawy er
ĠH aw
Ġl ying
Ġves sel
ep s
ĠW as
Ġmist akes
ĠM ount
Ġsubject s
ĠSec ret
fra c
Ġsc an
Ġprodu cing
ĠD en
ĠSo ci
Ġocc as
Ġdescrib es
ot ed
Ġsleep ing
Ġdifferent ly
Ġprot ocol
str ing
Ġconcent ration
Ġfe e
Ġconduct ed
Ġsh ares
i ac
Ġcomp rom
Ġhuman ity
Ġsc rew
Ġhor iz
ell y
Ġlifest yle
ĠWith out
al ysis
idel ines
Ġclot hing
Ġw estern
ĠCh ris
ĠB oy
p at
a fter
ll ed
Ġgreat ly
Ġ ]
Ġrespect ively
ĠJ o
Ġdraw ing
ĠDemocr atic
Ġimm igr
b et
G ood
Ġtop ics
os c
Ġadminist r
Ġsign als
Ġh am
Ġbr ill
ĠW ay
Ġple asure
ol ars
Ġafter noon
Ġrec all
Ġserv ing
ĠP ublic
Ġg ang
og ether
Ġl ad
Ġfra ud
ĠB usiness
Ġappro aches
ĉĉ ĉ
ag an
Ġdut y
Ġsu ffe
ers ion
Ä ģ
land s
Ġdest ruction
ĠB udd
red it
C P
Ġth orough
ĠCol lege
ĠE s
. âĢĻ
ĠTh ink
Ġsp aces
Ġra il
Ġl oyal
ĠCar ol
Ġdiv ide
ck er
Ġb ub
6 8
if ier
M P
iss ions
] (
Ġr ice
Ġexpl icit
Ġ( "
j a
ĠMart in
Ġdist ingu
Americ an
ĠD ark
im p
Ġair craft
Ġfunction al
Ġunlike ly
ĠM ur
Ġl oves
ud i
Ġown ed
an while
ĠRich ard
ent h
Ġdifficult y
N ext
ĠM P
be gin
Ġpregn ant
Ġro of
Ġunder lying
ĠW ood
Ġfl our
Ġph arm
T P
Ġbreat hing
m o
as hes
Ġans wered
tr ans
Ġch a
l ers
Ġla id
Ġele ctions
Ġf urn
Ġconf irm
Ġnut ri
re ction
Ġpregn ancy
ens us
Ġ< /
y pes
ĠV ict
H is
ch o
Ġrepe at
bl og
or ce
Ġsuper ior
ur se
ĠSt and
Ġunc ertain
Ġnerv ous
Ġass istance
Sh are
T ube
Ġvot ing
Ġ icon
al i
Ġs od
ol t
Ġfind ings
Ġp itch
ht ml
Ġc oc
as tern
Ġconscious ness
ĠIt aly
Ġsav ings
Ġath let
Ġdes ired
Ġdecre ase
Ġ vert
Ġcompet itive
ĠD C
Ġclean ing
Ġpr ime
ot es
Ġal ter
ob by
ĠPl ay
u z
Ġrad ical
Ġun iform
ĠZ e
Ġdel ivered
ra nd
Ġl ady
Ġord inary
Ġm ild
ĠG ar
se ction
Ġo h
Ġ à¤
en er
Ġinit ially
ĠEx pl
Ġre new
Ġph ones
d s
H ave
l aw
S ource
f r
Ġnot ion
Ġ Ø
Ġemploy ment
en ess
ess ions
x x
Ġtrack s
s um
Ġass ault
Ġmur d
Ġn urs
us hing
ĠC N
Ġlegisl ation
et ary
Ġj oke
ĠCan adian
ĠD iv
Ġtal ent
if ferent
ĠP ot
Ġp uzz
Ġinform ed
Ġcol our
Ġco ach
Ġperiod s
Ġopin ions
Ġbrows er
ith ub
Ġman ual
Ġf aced
en ger
ner gy
ĠH as
Be fore
olog ists
Ġs orts
ative ly
S unday
Ġimprove ment
ĠF ed
Ġrel iable
Ġcur ious
Ġperman ent
Ġcry st
Ġe ast
end ment
ft en
ĠBe ing
Ġcal ories
ĠL atin
ut ch
ĠDes pite
pl oad
p ower
Ġbi ological
Ġse ed
Ġpr on
ĠAP I
er as
ult s
Ġcr imes
Ġsu itable
Ġm ask
Ġj ail
Ġsche me
ĠN Y
Ġg am
ĠMed ic
ĠM ic
Ġcollect ed
so le
âĢĻ ,
ĠRem ember
Ġg re
C ons
Ġgent le
ĠL o
Ġcor rel
ĠS n
p g
A ct
ĠN ame
ep ing
ĠĠĠĠĠĠĠĠ ĠĠĠĠĠ
Ġrecogn ition
i ated
c rib
Ġrecord ing
Ġag encies
Ġup set
Ġhon or
Ġ' '
Ġrel ation
t ical
ĠChar les
Ġf o
ĠR on
s ome
Ġdem ands
Ġintellect ual
Ġag ric
ĠMuslim s
Ġbirth day
or gan
ick ing
ast s
Ġext ension
ĠC amp
W ill
Ġs ed
Ġm it
at oes
a o
Ġf ert
ast e
m aking
a wn
Ġp ub
ĠP an
re c
Ġpur su
es ter
Ġinvol ving
ond s
Ġmark ed
Ġli ps
ĠDes ign
Ġm ic
Ġconfig uration
G E
Ġap artment
ult ural
Ġvers us
ĠBl ue
Ġo k
Ġlo op
Ġbe ach
Ġrepresent ed
Ġinst ruct
h h
Ġveget ables
Ġf ur
T A
ĠM ont
Ġrec over
Ġadv is
ly mp
ĠIslam ic
Ġmo ist
ĠM ot
p ers
am i
Ġphys ically
Ġd ensity
Ġpur s
f all
ĠL ab
ĠG M
ĠC are
ou red
um a
Ġelect rical
Ġchild hood
ĠP op
Ġab ilities
n ormal
Ġf ake
ĠIn formation
it ure
ĠE conom
ar ly
Ġins ight
Ġchann els
Ġthe rm
ĠS S
Ġalle ged
Ġsp ir
Ġor ient
ĠD an
on ly
Ġt ill
ĠSy ria
ĠP hys
M r
g ments
ĠVir gin
Ġindic ates
Ġult imate
Ġre cept
st yle
99 8
ĠSp ace
Ġcra ck
Ġorgan ized
ĠTh ursday
ĠOff ice
Ġequ ation
Ġign or
Ġr um
Ġco vers
Ġb att
ĠS qu
Ġfound ation
Ġunus ual
Ġphys ics
ĠLin ux
Ġhe aling
Ġincred ible
Ġprofess or
Ġelect ron
Ġpar allel
Ġexperim ents
Ġenc ounter
D oes
Ġal ien
Ġacc um
ĠSov iet
ver ty
Ġen orm
ar ry
vers ion
Ġp apers
Ġo x
Ġres idents
ĠConst itution
ĠF ar
c ore
Ġb ills
c ut
... "
Ġsh ots
Ġinfl ation
K e
ĠPal est
Ġb its
ĠChar l
Ġdri ves
Ġpriv acy
Ġpo verty
Ġt ack
Ġreport ing
Ġd ying
% ,
con nect
Ġreve al
Ġpers ons
Ġcry pt
Ġexec utive
Ġke ys
ag ger
Ġinst ant
ia h
ĠT able
io x
Ġexp ansion
Ġtemper atures
ĠH aving
Ġelse where
ane ously
Ġmem or
ĠOr gan
Ġ q
ĠH all
ĠW ednesday
Ġsubst ance
angu age
Ġaffect s
D S
Ġref used
ott ed
O V
Ġconst it
Ġhorr or
L og
Ġcateg ories
ĠM aster
ĠLou is
ĠAd am
our se
S et
Ġy og
Ġcr ash
ĠK im
Ġarrest ed
ĠN az
c ase
erv ices
Ġproced ures
h o
Ġact ors
in ction
ĠC ir
ĠW omen
Ġdistrib uted
Ġperform ing
Ġex ceed
ĠAssoci ation
Ar t
Ġimm un
Ġrough ly
ĠA uthor
word s
O O
Ġpriv ile
Ġpartic les
or ph
j e
ĠSh ow
Ġan cest
Ġreg ister
Ġsp ark
or ous
e en
Ġdirect ed
arr ass
Ġn ode
pre ne
Ġal ert
S u
Ġro ots
Ġinter actions
Ġmed ication
ap ing
Ġst ages
Ġyour s
Ġtong ue
D uring
Ġman ifest
ĠD ig
Ġinc hes
ex p
ĠTh rough
Ġdecl ine
ĠA R
r ick
Ġd ies
Ġbab ies
Ġparticip ate
Ġpo ison
Ġcheck ed
? !
Ġcons ists
D id
the less
re prene
Ġrad iation
est ed
Ġadop ted
L Y
ig an
Ġp ace
gr ad
r id
Ġton ight
1 20
ĠPl us
Ġpar agraph
Ġfem in
Ġch ronic
Ġf ed
Ġwis dom
Ġtarget s
Ġconf ront
Ġe ars
ib l
Ġcho osing
ĠN one
Ġp od
Ġdon t
r ics
Ġbas ket
9 60
Ġlay ers
Ġf et
ĠK en
Ġcheck ing
Ġeng aged
ust ration
ĠC ub
Ã ¶
Ġcent uries
Ġless ons
em ents
ab il
Ġconfir med
ĠE xt
Ġprofession als
Ġarchitect ure
ĠD am
T C
Ã ¼
S m
a us
Ġb inary
j i
U R
ri ers
Ġdis miss
Y eah
erm an
Ġconsider ation
Ġguarant ee
Ġaccomp an
gr oup
Wh ich
Ġshe et
ĠProf ess
D E
Ġassess ment
Ġany body
Ġse eds
oc ument
opy right
" ;
Ġsecond ary
ĠEvery one
Ġto oth
Ġsure ly
re ts
Ġt ape
Ġrep utation
or ic
Ġf est
Ġw edding
ĠF ind
ĠMed ia
Ġsearch ing
ĠB ad
pl ed
ik es
6 9
Ġn a
Ġg ate
Ġg if
ĠC EO
ĠC apt
ĠL and
ov al
Ġl es
7 8
ĠC ast
Ġmir ror
ar g
ot he
ĠU k
Ġde als
Ġcult ures
ĠEmp ire
s uch
Ġterr itory
are t
Ġmod ule
Ġinfl amm
st one
Ġli ver
Ġsupp lement
ĠJohn son
Ġflav or
Ġun em
Ġde ploy
Ġp ills
Ġthe ories
Ġdisc overy
Ġconvin ced
Ġreach ing
l abel
ĠJ ones
Ġimplement ed
ĠAN D
ĠP ac
Ġinj uries
Ġout comes
p ace
ath an
Ġconc rete
Ġintrodu ction
Ġad equ
ĠP ay
Ġpain ting
E E
u ana
D ef
ĠS ign
b ow
Ġl ists
Ġg ig
â Ħ
Ġstud ying
Ġimpro ving
Ġro se
Ġplatform s
Ġvolunt e
Ġche aper
B ook
ĠTh ree
Ġatt orney
ot ype
Ġsh ame
st s
Ġdirect ory
w hen
ĠT al
ĠV iet
s is
ĠC all
H T
ack s
Ġant icip
Ġc ake
Ġm ixture
Ġt ab
ĠL os
w idth
pend ing
Ġrepresent ation
Ġcy cl
ĠN ob
Ġdepend ent
Ġthr own
Ġover come
Ġcommit ment
c s
ure au
il st
ick ed
Ġpe ak
ĠT urn
Ġbow l
Ġcreat ures
ĠO N
ĠEn ter
Ġent hus
Ġhapp iness
Ġag es
Ġinterpret ation
Ġg ained
Ġm g
Ġhe nce
arch y
Ġdr unk
ĠAnd roid
ĠP rop
Ġun cle
Ġstud io
Ġsh ips
ĠĠĠĠĠĠĠĠ ĠĠ
ul ed
nd rome
C L
Ġle an
ĠComp any
Ġadvant ages
Ġcont ained
Ġpros pect
Ġdam n
Ġmy ster
Connect ing
Tw o
ĠH ard
Ġbo ot
Ġdeath s
ul in
Ġstat istics
Ġiss ued
Ġre n
Ġfab ric
g ly
ors es
ci a
Ġwarm ing
Ġy e
Ġre verse
ak a
Ġregul ations
] )
Ġar med
Ġdecl ared
ĠYou Tube
ĠF our
Ġpresent ation
Ġprop ag
Ġunivers al
o cc
Ġact or
am ps
Ġw ars
Ġprov ed
Ġcon vert
g ood
Ġpar ad
T op
k o
Ġconvention al
f il
Ġve ter
T ra
Ġfac ilities
ire ctor
ĠL ead
Ġdis aster
Ġconst ra
ĠC y
ĠK now
od ed
S aturday
Ġha bits
Ġattract ive
ge l
Ġlog ical
Ġsuffe red
He y
Ġsc ope
Ġpsych ological
ol ving
w est
it arian
ĠK h
Ġcoun sel
atch ing
M et
om ed
ĠBra zil
ĠFurther more
ĠS P
Ġe ase
Ġadvent ure
Ġal ign
Ġfac ilit
D is
ĠC reat
ou ble
Ġappro ved
ĠR am
ag ine
ĠC ode
T ext
Ġprodu ces
ĠO lymp
Ġdi verse
Ġpass age
Ġvol t
Ġrepl ied
ir a
Ġbenef icial
Ġhtt ps
Ġaccompl ish
Ġg ut
be ing
Ġprob ability
ĠWhe ther
Ġb ones
Ð¾ Ð
Ġabs ence
Ġroom s
ĠSe a
Ġhol iday
Ġdisc ount
un s
ĠE duc
Ġimp ression
Ġgr anted
Ġt ub
ĠHen ry
Ġstop s
ig ma
Ġt ension
ĠH i
m ap
Ġh ire
Ġcomment ing
ind u
Ġenforce ment
ĠT ype
// //
Ġassum ed
f ire
Ġmin imal
P ar
Ġf ought
ber ry
Ġte ars
Ġsim ult
Ġon going
m ers
ĠB it
Ġent it
ĠCon f
ĠB ell
Ġpre par
Ġqu ery
Ġwas h
j s
ct r
Ġmag azine
Ġprop osal
ra v
, '
ĠN ight
ou ch
Ġcriter ia
Ġmort gage
Ġart ificial
K ey
es is
Ġserv es
Ġquant um
ĠY ear
Tr ans
ĠS ep
l ink
f oot
7 00
R S
Ġcour ts
ass ion
" );
C S
âĦ ¢
Ġmain taining
av ed
ĠSoci ety
Ġchemical s
Ġcor n
ci p
Ġst ability
d on
er ior
Ġra ising
Ġset up
Ġtransl ation
Ġgener ations
Ġsau ce
Ġacc used
ow ered
Ġemb arrass
par am
d ated
ĠEng ine
Ġbreak fast
ĠN eed
Ġassoci ation
Ġaccur acy
il a
Ġh oles
Ġfant astic
Ġt ied
if er
Ġstay ed
ĠE ss
Ġfig ured
ad er
Ġaccess ible
ĠR ay
Ġpro hib
Ġinc ent
Ġw age
Ġcirc uit
ĠMore over
br id
ĠC ould
ul ating
Ġcan n
m g
Ġb ot
ĠA h
ĠL ink
Ġdiv ision
Ġsch olars
Ġexp enses
Ġwith draw
ĠR ef
Ġdes ert
Ġcom pe
Ġh anging
Ġpain ful
A Y
hy l
Ġass igned
im a
Ġintellig ent
ie ve
Ġreplace ment
Ġf ired
Ġmanufact uring
j o
$ .
g ithub
ĠJust ice
Ġder ived
Ġpull ing
ĠL i
Ġstay ing
Ġin her
G e
ĠCont rol
u ction
l ive
Ġapp lies
th rough
ĠLe ague
ĠAs ian
F ile
sel ess
p op
ĠCom mission
ĠS ir
ost on
Ġper ception
re ated
G u
ra ine
om atic
Ã ¤
Ġspect rum
Ġpo em
Ġlapt op
Ġob lig
p ublic
Ġs atell
h as
Ġweak ness
ail ed
sp an
Ġlaun ched
ĠC ard
ig ate
Ġest imate
Ġbu g
Ġref uge
Ġse gment
Ġvis ited
Ġdemonstr ate
E G
ĠPak istan
Ġconven ient
ond er
ĠPost s
ĠL ic
ur l
Ġeduc ational
el ing
Ġcorrespond ing
Ġre actions
Ġr ating
Ġre fe
Ġv oc
ĠJ ac
aw ay
Ġv en
ĠAfghan istan
re nd
Ġline ar
Ġ vel
ĠV ery
S te
ĠDe ath
Ġtrans action
Ġcomprehens ive
Ġmonth ly
b ably
Ġte nds
Ġext ensive
Ġdemonstr ated
Ġsu icide
ĠP S
99 7
ĠSp ain
Ġcapt ured
Ġdisag ree
pl ing
th m
Ġstru ck
ro ph
b ell
Ġfant asy
ock s
ĠF act
Ġinnoc ent
ĠCons ider
ne cess
Ġhop es
F inally
Ġre nder
Ġdial ogue
it ivity
Ġpo cket
ĠC reate
Ġbrother s
h ist
Ġs outhern
Ġre ferences
Ġstrugg ling
Ġinnov ation
Ġad mitted
Ġsc ar
omm od
Ġupd ates
Î ±
Ġc osm
Ġimp ressive
Ġimm igration
en cing
Ġoccasion ally
Ġdis k
ug s
ĠSt ring
o op
st ruct
Ġbox es
Ġsus pic
Ġunex pected
ĠH ollywood
Ġfail s
Ġcam eras
Ġcent re
Ġse ctions
Ġme als
se ll
Ġsc ores
âĢ ī
Ġprof its
Ġspec ified
Ġsing ing
Ġhand ling
Ġsil ence
Ġut ter
Ġridic ulous
Ġhead ed
Ġsupp lies
Ġcomm ission
in cluding
c or
Ġb es
Ġphenomen on
Ġarri ve
is a
Ġatt ach
Ġs ake
Ġf ir
olic y
Ġsy mp
ĠI re
in ite
oun ce
Ġper mission
b f
Ġs ne
Ġflow ers
Ġsur ve
ge on
at i
Ġal arm
ĠW alk
Ġo ught
ĠR ome
Ġland scape
ian a
op en
Ġjud gment
oc y
ĠV iew
Ġelimin ate
Ġreg ulation
ĠL ittle
Ġtick et
Ġh ip
ro gen
Ġm igr
g ression
ru g
ĠPr ime
ion e
Ġreg ional
Ġroad s
Ġmod ified
ĠCom mit
Ph oto
Ġretire ment
Ġaccept able
ĠY OU
ane ous
Ġmat rix
ĠFor ce
Ġdiagn osis
Ġm ouse
ĠM oon
ĠE p
Ġprov ider
Ch rist
L C
ac les
Ġresult ed
ĠC ivil
Ġdef ic
am ber
ck ets
Ġmain stream
it ual
ĠNet work
w an
7 9
ĠOn line
Ġl ift
Ġcur ve
Ġs li
Ġnewsp aper
Ġcontain er
Ġign ored
99 6
Ġtem porary
ter y
d ri
ĠO F
ĠH D
uss ion
Ġtre m
Ġdo se
Ġsh out
ĠW H
Ġarg ued
ĠC ra
ĠP ython
Ġmin ister
Ġattack ed
Ġpop ulations
ĠN on
Ġmonitor ing
Ġth roat
Ġprefer red
pt ic
g ot
ĠP en
Ġprecise ly
ĠH a
Ġrequire ment
Ġlock ed
ĠAnge les
ĠYou ng
ĠNot hing
Ġcap abilities
r ons
Ġfarm ers
Ġannoun ce
Ġentertain ment
ĠSc ot
Ġg ir
ĠIn vest
ĠA ri
Ġhor rible
Ġgen re
Ġg aming
V ID
Ġgener ic
itt y
Ġs ought
Ġcon ce
ĠR and
Ġd irty
M on
Ġmin i
ĠU RL
ian o
Ġstret ch
ol ves
ow nt
Ġw id
cer ning
`` `
Ġgr ant
ann el
Ġvulner able
Ġex tend
S k
iz za
May be
ro oms
Ġd il
Ġb ags
Ġenorm ous
Ġb ars
t d
Ġmeet ings
Ġd ys
Ġvirt ually
C O
ĠAdd itionally
Ġpass es
Ġqu it
ĠE qu
ĠD aniel
ĠPro v
Ġmyst ery
Ġimportant ly
Ġb orrow
Ġop ens
Ġconf usion
y al
ob b
im ens
ĠAustral ian
im m
Ġsw ing
Ġs oph
it ative
!! !!
ĠKing dom
ĠKore an
Ġcas ual
Ġju ice
Ġindic ated
ar on
in clude
Ġmechan isms
it als
Ġtra il
cy cl
w orth
i ams
Ġst ere
[ '
Ġcalcul ated
Ġb ands
Ġspeak er
Ġent r
Ġcomplex ity
if ice
Ġvit amin
Ġbond s
un a
Ġdel iber
ĠMus ic
Ġme re
ĠC ost
Ġam pl
Ġcont rad
Ġt ube
Ġh oney
ĠC H
Ġ Ù
end ar
Ġworld wide
G l
Ġfocus ing
Ġdis orders
Ġdi pl
Ġprior ity
Ġcolle agues
ĠRes p
Ġfrequ ent
A B
ĠH ot
m ade
Ġw ing
ĠD O
Ġk il
F C
Ġcom ic
Ġsc ared
Ġphot ograph
ĠR oad
ij uana
ne ys
Ġinter vention
Ġbath room
Ġparam eter
Ġir rit
Ġper pet
Ġsubstant ial
Ġdes erve
Ġacc ommod
Ġint r
ĠSt ory
Ġc ute
it ches
f ix
ĠS ky
Ġdro ps
m ay
Ġst ir
Ġdist urb
ĠP oint
Ġg host
Ġem issions
Ġp orn
nd ers
ĠW ars
$ ,
Ġstock s
Ġpre ced
ac hel
Ġthr owing
Ġpil ot
Ġcheck s
ĠF ox
al og
Ġage nda
Ġseem ingly
Ġent ering
m akers
ĠQue en
ĠV an
Ġd umb
ĠH it
art s
Ġmeaning ful
ĠM ain
the w
Ġforgot ten
' :
ear ing
ĠN O
ĠH op
ĠA S
ĠM ars
B M
Ġbrill iant
ee k
c m
op her
Ġj un
ĠO per
Ġar bit
ose xual
Ġmagn etic
99 5
Ġdr ama
ĠN AS
Cl ick
Ġprov iders
Ġd ates
ool s
Ġsil ent
it udes
Ġinst ances
es c
iction ary
a ire
Ġse ats
ly n
Ġsp oken
Ġemploy er
Ġpurch ased
Ġlif etime
ĠU lt
Ġd ump
Ġemploy ed
Ġstrateg ic
ĠM ult
et he
lf riend
Ġsum mary
P G
Ġs illy
Ġtransport ation
Ġcontinu ous
ĠG iven
Ġb in
viron ments
Ġattempt ed
Ġsh ower
Ġl oving
Ġen zy
Ġhonest ly
Ġneut ral
Ġgu idelines
Ġdec or
ut ors
ĠMan agement
Ġrul ing
Ġthe at
Ġthreat s
Ġsubsequ ent
Ġcomp at
az y
Ġapp lying
it o
n atural
Ġexec ution
ĠJack son
Ġm ile
F A
ever al
7 2
Ġstat ist
ut en
Ġbroad cast
Ġab stract
Ġser vers
ĠM ach
p ie
Ġexc use
ph ones
Ġtreat ments
Ġw ins
er ic
Ġdis pl
Ġdocument ation
Ġdefe at
ĠInd eed
Ġvisit ors
Ġtrans mission
ar ters
Ġrequ ests
j ud
Ġlove ly
Ġfac ility
Ġve nd
ĠO R
ĠTh ings
ĠB at
ĠR ub
e ffect
% )
Ġcl osing
Ġeng ines
Ġdam aged
Ġdivers ity
Ġintrodu ce
ĠM att
ĠI M
Us er
P s
Ġin sect
S ign
Ġag gressive
Ġn orthern
nd ed
Ob ject
Ġab und
Ġent ity
Ġpresident ial
Ġto ile
Ġw idth
de v
lect ed
ĠO k
Ġir re
ĠVict or
ĠR ights
ĠC oll
ay lor
ĠH im
ĠSw ed
Ġdis g
ĠHel p
st ra
.. ...
Ġmark s
erv ation
Ġpres ents
Ġdire ctions
Ġh al
ĠC ur
v ious
Ġwork er
u i
Ġdrink s
ĠW ild
Ġpow der
Ġde light
ĠC R
nt il
ĠF ig
Ġodd s
St ate
ĠB ern
Ġsh irt
Ġin herent
Ġp ink
Ġsem i
Ġben e
9 00
ĠG irl
E ng
ab out
ĠE ll
Ġcollect ive
Ġcoll apse
Ġsh adow
Ġo ven
Ġear ned
C o
ind s
v as
c hers
ĠPol it
se m
ist ing
Ġb oring
Ġnew ly
ĠInt erest
id ance
Ġben ch
ound ing
Ġloss es
Ġt ons
Ġsp ons
Ġcitiz en
ens ed
old s
Ġcogn itive
Ġcopy right
Ġcour ses
uck y
os ph
Ġtem pt
Ġn it
Ġman agers
b age
ĠK at
ĠII I
Ġst em
Ġinj ured
el come
Ġab ortion
Ġco op
Ġview ed
Ġport ray
Ġmetab ol
f ront
ĠRep ort
Ù İ
ev in
Ġout s
P ress
Ġvot ed
au nt
Ġtrack ing
Ġelect ro
miss ions
ĠE th
is p
In ter
ĠDon ald
ĠSp irit
ĠP o
th rop
Ġp and
" "
ĠSo ft
Ġhe s
ĠA ge
Ġf iber
Ġh itting
ĠSim ilar
m ates
Ġe lder
M ark
oll owing
Ġent reprene
b ecause
ĠM om
Ġs izes
ĠHe ad
Ġprem ium
ĠC ustom
Ġsuggest ions
ĠD ead
ict ions
F orm
at hered
Ġcover ing
w ill
Ġwor ship
ĠTe am
Ġin qu
Ġgrad ually
ct ure
Ġsty les
s im
ĠAc adem
Ġass et
ĠEvery thing
Ġcontinu ing
is k
9 50
ĠN E
ap or
Ġcons pir
ĠE vent
c ount
Ġexerc ises
Ġi P
Ġtravel ing
Ġlimit ations
Ġres ident
A v
Ġrob ot
f ather
Ġpick ing
ĠD VD
Ġsw ord
Ġdest ination
ad or
Ġattempt ing
6 2
i y
m al
Ġnav igation
Ġstreng then
ab eth
Ġfru its
Ġconvers ations
Ġun comfort
Ġhead ing
Ġtre nds
Ġmat ches
Ġpark ing
Ġrem oving
ax y
Ġst ake
ĠAd v
t ion
f s
Ġsp ots
Ġgold en
Ġdram atic
Ġed ition
hold ers
Ġbase ball
h ave
Ġde fect
Ġpost ing
AT E
ĠS on
ĠIre land
ĠLe g
Ġres olve
ĠB ow
Ġst ations
um ing
Ġper ceived
Ġcritic ism
ĠPol ice
ass es
ĠS her
Ġbene ath
Ġt ap
ĠH and
ĠGu ide
Ġgr id
N S
Ġbra nds
m n
Ġindepend ence
Ġoverwhel ming
Ġbr ut
l ast
ĠT reat
Ġj ury
ĠE nergy
Ġdesign s
min ute
ĠW ikipedia
ĠP sych
g ain
Ġg ym
ĠĠĠĠĠĠĠĠĠĠĠĠĠĠĠĠ ĠĠĠĠĠĠĠ
Ġball s
ĠPr in
ĠAnd rew
Ġfall en
d oor
B r
Ġc rap
s en
all ing
ate ful
Ġle gend
im age
ĠAs h
Ġopp onent
Ġth y
Ġowners hip
Ġl ux
b ase
ub Med
ĠÂł Ġ
Ġtox ic
ble m
Ġcontrib ution
ĠB oston
ubl ished
Ġdark ness
Ġr ural
Ġen vironments
Ġcor rupt
Ġle ague
ĠF red
ry ing
Ġcreat ure
Ġident ical
Ġfin ance
ac her
put er
ĠQu est
ĠMr s
Ġaddress ed
Ġvis iting
Ġtarget ed
ĠTechn ology
Ġsc reens
Ġsustain able
Ġman aging
Ġreturn ing
Ġj er
Ġsm iled
Ġacknow led
g as
Ġr itual
Ġgro cer
ĠC ook
Ġprom ised
ĠP ers
Ġh orses
Ġlegit imate
Ġed it
Ġwat ers
ac on
ĠA L
Ġb oo
Ġmer ch
Ġnegot i
Ġmax im
Ġsett led
Ġre ar
f ish
m ind
Ġse ar
Ġread s
ĠFranc isco
Ġmar g
st ar
ĠDis ney
. ]
Ġbur den
St art
-- -
ed ge
Ġconv ince
Ġexperim ental
Ġmem br
os a
ut ter
Ġsubs id
ĠA li
v i
Ġexam ine
ĠHT ML
F e
Ġindust ries
riv ate
T able
Ġposs ibilities
am ine
Ġmolec ules
Ġgu est
ĠÃ Ĺ
ĠF ather
Ġgl uc
b in
Ġinst ruction
rag on
6 3
T R
U nder
Ġl ens
] ;
Ġeval uate
oun ced
Ġmotiv ation
Ġsubt le
Ġinstr uments
Ġcontem porary
Ġinflu enced
Ġeng aging
Ġres id
yr ics
Ġbr an
Ġin hab
air y
ï¼ Į
Ġsp ray
N et
y our
o z
H A
H er
Ġj ur
Ġhe al
Ġhunt ing
ĠSpe cial
Post ed
ĠF riend
E l
Ġpoint ing
Ġor ange
Ġp our
F ig
Ġf oss
Ġa er
Ġch rom
Ġdesc ript
Ġhop efully
Ġthe rap
elt a
Ġterror ist
Ġmount ains
Ġpres cription
Ġbad ly
R ed
1 01
ĠGe org
Ġun necess
Ġinvestig ate
Ġsuggest ing
ĠM ir
Â ·
a fe
ind ex
Ġcor ruption
arm a
Ġf its
b id
Ġair port
Ġlow est
Ġha z
Ġmechan ical
ĠW in
Ġcon cerning
m ond
Ġref erring
T est
ir us
Ġra pe
k ind
C R
con fig
Ġharm ful
Ġdis rupt
Ġh o
Ġn erve
Ġden ied
ir ts
c at
erv ing
it ate
ĠJose ph
ĠI ce
ĠAd minist
Ġconsist ently
Ġart s
l ow
Ġintegr ation
D own
Ġch ips
Ġev olved
Ġb io
ch ain
Ġcont ents
iss ues
Ġexpl aining
ĠS ex
av or
is er
Ġint ensity
F O
Ġ( $
ou b
Ġf ont
Ġg est
Ġob l
Ġpol ar
str ong
ĠRev olution
ic ious
el ve
Ġmed ications
Ġexperien cing
ĠC A
st op
arent ly
Ġintegr ated
ol en
Ġconc ert
Ġoff ensive
Ġgraph ics
che ck
Ġsepar ated
ĠL y
ĠCommit tee
Ġex it
99 4
li x
im b
Ġcorpor ations
Ġreal istic
Ġpres um
ĠR ather
Ġt ie
Ġint ake
Ġto ss
id ation
T V
c d
t able
con f
Ġcomp r
Ġact ively
H ome
ĠC ross
a ud
Ġobserv ation
ins on
Ġexist ed
6 1
Ġcommit tee
v als
Ġrock s
h al
Ġaddress es
Ġp upp
Ġsh ield
im er
Ġeval uation
Ġproduct ivity
Ġobs erve
ig inal
Ġli p
Ġdiv orce
Ġaw ful
j pg
ĠF amily
ĠCar l
Ġfact ory
ĠKe y
Ġret rie
Ġvac ation
Ġ ×
Ġengage ment
Ġvolt age
ĠD og
ĠL ake
Ġve ctor
ater n
ĠGu ard
Ġepis odes
ĠE ffect
char ge
urrent ly
Ġobserv ations
Ġpers u
Ġc ul
E ST
ĠFound ation
Ġminor ity
ĠWill iams
oc ity
ĠB al
Ġb ite
ĠCl ick
Ġgra ce
Ġnutri ents
Ġcomp osition
Ġexp ense
Ġimpl ications
Ġap olog
Ġamong st
ĠDevelop ment
Ġfit ness
ĠVirgin ia
spe cific
Ġcop ies
ĠK enn
Ġsignific ance
bre ak
for ward
Ġt we
Ġsc ary
h ot
Ġtra ve
Ġm aps
ĠUs er
Ġentit led
or i
ĠS outhern
ĠCom mon
book s
Ġredu ces
Ġmain tained
Ġv ice
Ġpun ishment
Ġav o
Ġkn ife
ĠGl obal
sc ale
Ġcontract s
Ġdem ocratic
Ġfeed ing
Ġclass ical
Ġload ed
Ġdelic ious
Ġfound ed
Sc ript
rim ination
ĠDo ctor
Ġt rop
R et
Ġch op
Ġwond ered
ĠG ames
Ġsupp orters
ĠSt an
ç ļ
Ġall erg
Ġdisplay ed
Ġref use
à ¦
Ġro lling
Ġout er
ĠM uch
ol s
Ġgod s
Ġcons ume
p a
Ġinfe ctions
Ġrestaur ants
Ġb inding
Ġconvers ion
Ġshould ers
g ence
w ind
Ġmon ster
t ic
Ġinvest ing
Ġsp o
er ator
Ġspeak s
Ġgu idance
ah a
ĠE astern
Ġev ident
Ġemail s
Ġtrans formation
back s
Ġtit les
Ġp ix
arr ay
Ġtem por
D R
Ġrel ate
Ġfill ing
ĠM ess
Ġme ets
Ġbi as
Ġast ron
Ġdevelop er
p x
- )
Ġuncomfort able
c ite
ĠP ass
Val ue
Ġassum ing
A ss
pr ot
ĠIn f
enn is
ĠT ony
Ġfor um
J oin
ĠChristian ity
Ġeth nic
Ġimag ination
Ġvari ation
Ġcommun ications
p i
ow ers
Ġrestrict ions
Ġy ard
Ġgrav ity
Ġcon j
arr ow
ĠTr ue
_ {\
Ġenjoy ing
Ġinvest ments
aw are
Ġpr ay
ĠH oly
G od
arr ing
h uman
ĠPh ot
Ġstro ke
Ġremem bered
ĠBl ood
os er
ĠPac ific
u ce
Ġswe at
Ġimmigr ants
Ġg ains
Ġcont est
Ġappro val
Ġpenal ty
( ).
Ġdetect ed
li hood
av id
Ġproduct ive
Ġfollow ers
Ġsh orter
Cl ass
Ġmag ical
Ġbal anced
Ġcalcul ate
Ġrom antic
int erest
Ġdo zen
ĠCl ub
Ġfir ms
ĠS QL
çļ Ħ
Ġ ðŁ
Ġprinci pal
Ġcou rage
P L
U L
Ġsurround ed
bs p
ĠH um
Ġdec ides
Ġmanufacture rs
Ġm ice
Ġfra ction
d em
Ġisol ated
Ġassum ption
ress ing
ĠM id
Ġcomp osed
ĠCapt ain
om er
ĠEx p
Ġt ang
ĠBr other
ic ating
omet ry
igh ters
ĠC up
ĠS us
Ġcount y
Ġ rib
man n
ĠP enn
Ġoper ator
ĠT y
Ġdro ve
Ġvo ices
Ġess ence
ĠT ri
iz abeth
crib ed
Ġdiscuss ing
Ġunf ortunately
Ġwar rant
Ġlawy ers
ir k
r ations
Ġrepeated ly
own ed
ĠN ic
H i
ke l
ĠVal ley
os ystem
le e
Ġinspir ation
Ġclaim ing
Ġflex ible
per ty
Ġsimult aneously
ĠR o
Ġencoura ged
ay a
il ation
H P
A tt
ĠAn onymous
Ġc inem
Ġu pload
h ome
ĠIsrael i
Ġh ill
t ics
Ġdis cl
Ġh ref
h igh
aw a
Ġinst antly
Ġnuc le
Ġext rem
ur able
Ġcon sole
Ġkn ee
Ġprotect ing
ĠR yan
Ġdig est
and al
Ġc ure
Ġexpert ise
Ġd ownt
ic ular
Ġgir lfriend
Ġpopular ity
Ġregist ered
Ġannoy ing
ell o
ĠR un
Ġfasc inating
Ġob sc
Ġover l
ĠR od
ĠO p
Ġproport ion
m other
Ġas leep
Ġn aked
t em
Ġtrans actions
m ax
P D
Ġreve als
Ġsens or
amb ling
Ġdist ract
ĠCol umb
Ġassemb ly
ag en
ĠS cient
h ard
Ġfe ars
ĠÂ »
Ġcomm ands
int end
u um
Ġextra ord
com mon
Ġfl aw
in it
f un
Er ror
Ġdra in
he alth
ĠL ow
ari os
ne ver
W he
ĠR est
ĠPalest in
Ġr iding
Ġsent ences
Th ose
Ġrepresent ative
ĠS ervices
Ġc ave
Ġre vers
U se
Ġinter rupt
ĠC B
Ġp atch
Ġwe lf
ĠCom ments
Ġpr ide
Ġjust ify
ater al
ra pe
u f
Ġcult iv
C ar
ĠI V
Ġbl ast
Ġheart s
Ġdiscuss ions
( $
ord an
ĠEduc ation
F T
E ach
ĠCh ildren
Ġc ous
ĠN orthern
D isc
w alk
U M
} )
he art
ĠIr ish
ak i
in ch
Ġpow ered
Ġro yal
Ġinst itution
E vent
M ake
Ġmar ijuana
Ġprom inent
Ġspeak ers
Ġquant ity
Ġth rew
Ġth umb
Ġh arsh
roll ed
Ġfl esh
S ometimes
Ġd ual
E X
Ġwelf are
E A
Ġground s
ĠA ff
ĠN ick
Ġd irt
ent er
Â ©
Ġs essions
ĠB on
Ġrespond ed
J an
Ġd ent
Ġj ew
sc reen
ĠT ell
Ġt u
Ġsafe ly
Ġbehavi ors
er ally
Ġdet ection
Ġcap s
fe ction
eng ers
d i
r ot
Ġco at
Ġautom atic
p ot
H S
ĠSa udi
L ear
ĠA z
Ġmeasure ment
ĠV en
ac co
Ġcent ers
Ġstop ping
Ġb om
Ġgr ows
Ġde ck
Ġhung ry
ĠCh ief
) ?
Ġbound aries
Ġrec ycl
Ġrul ed
Ġw ider
ĠPro duct
Ġwal ks
Ġle af
ĠD ie
Ġf ate
Ġcompet e
Ġfro zen
Ġwin ner
Ġfunction ality
Ġcontrib utions
r at
D ate
op les
ĠF und
iv a
Ġg ross
Ġnow here
ĠD un
ard ed
Ġstead y
asc ular
ĠP ri
Ġcert ific
f irst
A uthor
Ġch ip
Ġneighb ors
Ġabandon ed
ĠSch olar
Ġrem oval
Des pite
F ind
Ġhe m
Ġdomin ant
ĠB ru
ĠM other
Ġd uration
Ġclass room
ci um
ĠR a
Ġvacc ine
ut o
Ġwealth y
Ġlight ing
ĠMed ical
at tered
Ġexcess ive
Ġsl ave
w ed
ĠW W
i ary
ĠRe ally
Ġtest im
ĠL ine
ĠM ah
resh old
Ġmar gin
Ġthreat ened
Ġsoph istic
Ġfl ower
ĠE ric
ĠL ive
ĠF un
Ġglass es
Ġpurs ue
Ġste am
y o
Ġg athered
ĠS O
it em
Ġp ants
Ġden y
v ia
ol i
Ġtem plate
ĠBo ard
Ġreject ed
ch ron
Ġbe ans
Ġapp le
h op
Ġresc ue
Ġn an
ĠU t
Ġcle ver
Ġt ale
ĠAr m
Ġm ales
Ġcry ing
Ġm art
Ġbon us
Ġc odes
w art
Ġcomb ine
Ġfail ing
Ġland ing
Ġg ently
99 2
Com ments
Ġeconom ics
Ġdisappe ar
Ġat e
Ġacknow ledge
b ro
or ical
Ġbre ed
Ġcook ies
clus ions
or ious
Ġbul let
su pp
ĠS ource
ĠF ord
sh ot
Ġtrem end
ĠT oo
n i
Ġdev ast
pe red
Ġw ides
Ġint u
ot ion
Ġ! =
ĠE nt
b ec
Ġhum or
Ġb old
Ġt utor
Ġex ch
ĠĠĠĠĠĠĠĠ ĠĠĠĠ
is ons
Ġd ressed
Ġaim ed
Ġsy ndrome
u ating
ĠSar ah
p read
Ġr ush
ple x
Ġinfect ed
uck s
Ġun re
Ġh iding
O K
Ġattrib utes
Ù Ĩ
Ġint im
Ġprof ound
Ġsqu ee
d b
Ġprepar ation
> </
te nds
Ġmil it
per or
Ġalong side
} .
Ġtim ing
Ġc m
Ġacqu ired
b at
Ġre ct
Ġra cial
ĠN umber
Â ®
ĠT alk
ĠH on
Ġne uro
Ġc um
Ġnutr ition
ce ive
ĠR og
Ġor al
Ġhar vest
h ire
gg ing
Ġcl uster
ne ll
it age
le ctions
Ġl aser
Ġwh ilst
rodu ction
ern el
ap i
Ġd ancing
ov ie
w a
Ġthem es
ow ed
is y
ĠT ax
Ġh ier
p ng
Ġcons ent
Ġnut s
Ġtri als
Ġcom edy
Ġdr um
k ward
Ġanal ys
ĠWr ite
Ġthere by
ĠIm age
ĠM A
Ġbeg un
Ġins ights
ĠF A
ĠT ext
Ġg ri
.... ....
i ar
Ġp y
e q
ĠR oyal
AR T
Ġb ass
ĠO ffic
Ġincor rect
ĠC ell
Ġu seless
Ġland s
Ġb esides
add y
ĠAs k
Ġend less
n on
Ġdim ension
Ġbur ied
l as
Ġsu ck
E m
Ġins ulin
Ġprocess ed
Ġac ids
Ġbank ing
Ġqual ified
ĠC ru
Ġtext s
ï ¿
Ġcont rary
99 3
n ie
at al
S upp
******** ********
ĠSh are
Ġkill er
ĠS earch
Ġre aches
ĠR en
Ġm as
Ġinv ited
Ġlab els
ĠD ream
Ġat he
ĠS omething
Ġsh ipping
Ġscient ist
Ġdes cend
Ġhand ed
ĠB C
St ud
wr ite
Ġestim ates
s k
ĠWe ek
Ġburn ed
Ġal leg
Ġha ck
Ġsequ ences
on al
Ġco inc
er on
Ġen ables
b uild
Ġprogress ive
Ġcount s
" ?
er als
Che ck
Ġprint ed
F ree
ĠA C
Ġsatisf ied
Ġimpl ies
Ġpan ic
f old
col or
Ġut ility
Ġnight s
Ġed ges
ur ches
ir able
per t
Ġp unch
ess ed
Ġmet aph
Ġpre cious
am ples
Ġsacr ifice
Ġin ch
ail able
99 1
it ched
Ġconsider able
a uthor
P age
Ġunder t
Ġel ite
D B
ĠL ater
Ġmeasure ments
ĠE st
ail ing
Ġra b
Ġn odes
Ġassist ant
Ġsub mit
pro duct
Ġcond em
Sec ond
Ġbran ches
Ġwar n
r ange
Ġconstruct ed
ĠL uc
) );
T itle
ĠViet nam
Ġw ages
Ġroll ed
Ġhe ating
Ġbur st
Ġn ons
Ġstr ings
Ġ( #
Ġopt imal
Ġexpect ing
ĠStep hen
ik a
ien ces
Ġtra ce
âĢĵ ]
Ġalgorith ms
are r
Ġcomput ing
Ġoff ense
C reate
d ep
i el
Ġfr anch
ĠC ase
W S
ĠT aylor
Ġbatter ies
Ġunem ployment
ĠA ud
Ġfol k
amb da
ct ic
Ġemphas is
Ġhydro gen
C al
ĠCh apter
Ġinst inct
ĠGree ce
ĠPr ince
Ġadequ ate
ĠD ate
lic ation
Ġra ces
g h
Ġcy ber
Ġanaly ze
ĠF ort
Ġtra its
Ġtoile t
Ġ> >
Ġrecommend ations
Ġdescrib ing
us ive
Ġdiff er
ĠF BI
ĠF ull
Ġcampaign s
o ir
Ġconf using
ĠMet hod
o vers
Ġt ens
it an
Ġprep aring
Ġup grade
M R
Ġmod erate
b rew
Ġb udd
ĠH ence
olog ically
q l
ĠCarol ina
Ġsett le
' ]
bl ock
Ġleg ally
E P
on om
ark s
Ġfr ight
Ġinstall ation
ĠProfess or
ĠT erm
Ġover t
ĠG ive
Ġ* *
Ġmet ers
ĠDe b
Ġbel t
Ġpublic ly
Ġw and
Ġu gly
em ed
fl u
Ġgu ests
Ġbe ef
ul um
ĠS pring
Ġde ar
umb led
Ġtick ets
fol io
Ġse vent
Ġsal ary
Ġbr ush
br idge
Ġrac ist
m ate
Ġ// /
ĠI ron
y er
Ġdist ant
Ġbul k
Ġvert ical
ÂłÂłÂłÂł Âł
ĠN orm
Ġte ar
1 10
Ġlaw su
d og
Ed it
ï¿ ½
Ġadd iction
Ġcon vey
Ġth irty
Ġkey board
Us ing
pl us
Ġdest ro
Ġr ou
ĠCont in
Ġstra in
ing e
Ġfor cing
st ep
Ġunnecess ary
Ġemploy ers
s ource
Ġworld s
Ġup coming
f a
ĠN a
un es
Ġf er
Ġp airs
ĠPr ote
Ġremind ed
ad vant
Ġdis hes
ĠA k
Ġlaug hed
ER S
Ġwides pread
Ġin cl
Ġres on
Ġquot es
Ġmin ing
ĠR ose
Ġbed room
Ġun p
Ġste pped
ĠD ra
ĠIm m
et ch
Ġpredict ed
Ġc ub
ĠTur key
ĠO l
Ġdist inction
Ġmolec ular
Ġv i
ĠI de
Ġar c
ĠCO VID
ĠJ ane
) (
Ġphot ograp
ĠM ind
ĠL at
Ġfeat ured
Ġw ings
Ġconst itution
ĠM ill
ĠB rian
Ġfif th
ĠAct ually
ĠRom ney
I E
Ġp ays
Ġto ys
ĠMod el
Ġw ound
Ġl ately
Ġimprove ments
Ġinterview s
Ġk m
Ġst olen
w he
Ġste al
ol ine
Ġbank rupt
Ġto y
Ġm old
Ġhand ful
Ġfavour ite
ĠH arr
Ġde let
Ġqual ities
Ġb id
ĠB ang
H el
Ġgluc ose
Ġreg ards
Ġd imin
Ġtend ency
Ġreason ing
Ġfold er
Ġl yrics
Ġcontro lling
ĠAn g
Ġgra in
Ġtreat ing
le m
ĠPro cess
ĠLic ense
ĠInd ust
Ġav atar
Ġc ott
mark et
ĠOr der
ĠB a
ret t
â Ī
Ġpromot ing
Ġref lection
Ù Ĭ
Ġsp at
Ġed iting
ĠM oney
ar ms
al so
ĠD irector
Ġrese mb
Ø ±
Ġexec uted
Ġswim ming
H z
ĠA st
h is
Ġemb race
Ġrhy thm
Ġcook ed
Ġkn ees
Ġconsequ ence
o ons
Ġdim ensions
ut able
Ġres erved
» ¿
Ġflex ibility
Ġe ager
Ġsh apes
a ver
l if
Ġphilos oph
Ġec osystem
se x
ĠL abor
Ġbar rel
ĠF ile
Ġinnov ative
ĠCont ent
Ġstruct ural
U I
Ġcha os
ĠO s
Ġsymbol s
ag ra
ĠO il
pro of
c ulation
Ġp p
Ġint rig
ĠD ave
= '
ĠL ess
Ġp ir
Ġremark able
à ¸
Ġn odd
o en
ĠOb ject
ar ia
th ur
Ġsl ide
Ġcreat ivity
v ard
es y
Ġpoll ution
3 60
w all
Ġexc it
b d
r t
Ġt une
ĠC S
Ġs ink
let ter
Ch ar
Ġlaug hing
ï »¿
al ous
ĠH ad
M us
sp ace
ĠH IV
ĠS av
Ġathlet es
Ġprevent ing
Ġp izza
Ġser ial
Ġimpact s
Ġinv asion
Ġorg ans
Ġdifficult ies
Ġterror ism
Ġcelebr ate
O kay
Ġexclus ive
Ġexpl oring
g ame
ethe less
T F
is ible
l ength
Ġdat as
Ġtra p
ĠW atch
Ġaw kward
. ;
r imin
ĠN ature
Ġins ane
Ġp iss
ĠG all
ĠU r
isc al
Ġinvolve ment
Ġb aking
Ġm erc
Ġgr amm
Ġe cho
ge red
j ac
ge bra
ÂłÂłÂłÂł ÂłÂłÂł
\ \
Ġstri kes
Ġ __
ĠL ew
form ed
Ġmyster ious
Ġsatell ite
ĠSm all
Ġthorough ly
Ġm ock
Ġestablish ment
Ġpack ages
Ġjo ining
ap ore
Ġw ishes
p os
Ġret ain
Ġgrad uate
Ġlog o
$ $
ven ue
Ġr ic
Ġcup s
Ġemer ging
s ur
ĠDa ily
ps on
ost ic
Ġm amm
ĠPl ace
am med
Ġsh ops
Ġtax p
ĠâĪ Ĵ
Ġimp r
Ġsuggest ion
ĠR ick
Ġclos est
Ġse nds
Ġpen et
Ġcoun cil
Ġst er
Ġcontrib uted
Ġtext ure
Ġhero es
Ġp or
Ġpo etry
Ġcru el
ĠS ab
Ġbra ins
Ġsett lement
cc er
ĠUn like
du ction
Ġcomp ounds
Ġf ishing
az ed
ĠWil son
ch a
Ġdes p
Ġsupp lements
al o
ĠSe ction
Ġsatisf action
ĠH un
Ġover se
ĠBr ad
Ġdesk top
Ġsole ly
Ġt ags
Ġaff ili
Ġr if
Ġdo ctr
Ġafford able
I LL
Ġinev itable
ĠS anta
l ation
d ra
Ġmut ual
Ġexpand ed
ĠG reg
Ġcompens ation
Ġprom ises
Ġconspir acy
ard ing
Ġin ject
Ġwork out
Ġfem ales
ĠSecret ary
Ġfurn iture
Ġdefend ant
Ġcontroll er
~ ~
Ġas h
ar ation
Ġgif ts
Ġemer ged
Ġh ired
ĠCh amp
ĠEd ward
m aster
n ames
Ġtechn ological
ans as
v ation
Ġpeace ful
um m
ad ows
Ġgr ateful
Ġb ored
Ġdiv ine
Ġsepar ation
Ġtem ple
ĠV ideo
ir y
Ġl ake
h av
Ġen abled
ll er
Ġking dom
Ġold est
ĠS ci
Ġshock ed
Ġaccompl ished
ĠIm ages
ĠQuest ions
Ġaff airs
Ġengine ers
Ġpart ly
ĠD oug
form ance
t ains
Ġexp ort
Ġengine er
Ġhy brid
B oth
Ġwor n
ĠK ar
Ġoffic ially
Ġinflamm ation
Ġpath s
Ġcon cluded
On ly
e ger
9 2
Ġtou ched
z ens
Ġchem istry
Ġl azy
ĠF a
Ġvari ations
imens ional
Ġsn ap
h ar
rol og
Ġat tended
ĠDist rict
Ġpr ayer
Ġdiscipl ine
Ġconver ted
am ous
Ġab road
od ge
th ink
se ud
ag a
oles ter
Ġboy friend
Ġpoor ly
Ġmanufacture r
Ġrest ore
Ġt ent
Ġall ies
Ġm os
ig ious
Ð »
Ġv ocal
ĠSt at
l en
Ġopp onents
Ġreal m
g ic
Ġm m
Ġcar ries
Ġver b
Ġdynam ics
Ġwra pped
id ays
Ġinter ior
Ġaccur ately
ĠE ve
y ard
Ġaltern atives
Ġmotiv ated
oc us
Ġcloud s
um ble
Ġdesper ate
iot ics
f are
Ġv ague
ĠA ccess
re ation
ĠLe ft
Ġeffect iveness
Ġgr ay
ĠSoft ware
Ġtrans f
Ġassum ptions
ile y
Ġsl a
Ġcra w
ĠB esides
are st
P at
Ġperson nel
edd ed
Ġpe oples
( ),
ĠI ss
ont al
Ġblog s
K E
Ġcorrel ation
id en
Ġbu gs
Ġflo at
Ġc ant
Ġenter prise
B N
Ġf ancy
ust ed
Ġhypot hesis
ich ael
v o
Ġm ature
ask a
ĠAcadem y
Ġsens itivity
b urn
Ġrepresent ing
wh ite
Ġscen arios
Ġrequ iring
Ġstra w
Ġh orn
ic ient
ĠB attle
Ġstri p
id al
c ard
ĠCor por
Ġv ig
ĠF ield
I O
Ġblog gers
oc a
Ġintegr ity
Ġrob ust
ĠAm endment
Ġdisc rimination
Ġs ons
Ġover look
Ġposs ession
Ġcal endar
Ġadvert is
ell ow
Ġcir cles
Ġcrit ics
Ġthe ater
ĠP olicy
Ġident ification
Ġcou p
Ġtra ged
R ight
ĠN ations
ĠL im
R ef
Ġso ap
P erson
Ġfoc uses
Ġpsych ology
r ous
Ġflo ating
ĠC ome
ĠHill ary
Ġpen is
ĠS elf
ĠD irect
ĠB u
Ġfil ed
op ic
Ġattrib ute
ĠP rom
f ound
Ġc ord
Ġentr ance
d et
ĠA LL
ĠCN N
ĠS D
l ocal
Ġgr at
Ġsched uled
Ġn urse
Ġper m
ĠP ur
Ġkind a
Ġt urb
B est
A V
ĠB BC
Ġwe igh
P ath
b our
Ġleg acy
idd ing
ĠEl izabeth
ĠSer ver
M at
Ġde lete
ĠHe y
Ġform ing
Ġmatch ing
Ġse asons
ing ing
Ġrac ism
Ġjud ges
pro cess
An sw
pl ant
u is
Ġh iring
g un
Ġh int
Ġtact ics
c ap
Ġas pir
Ġconst itutional
Ġp ile
S earch
Ġh ub
Ġinf ant
Ġdiagn osed
m ony
Ġcomp assion
ĠM useum
Ġwood en
Ġpack ed
ĠM ove
ĠAll ah
Ġapp et
ier ce
Ġbrief ly
ig e
il ton
Ġbeh alf
D avid
Ġdu pl
Ġparticip ation
Ġsc al
7 1
clus ive
Ġcollabor ation
b ound
l ined
Ġt ar
ĠMex ican
Ġgu ilt
ĠS H
ĠNAS A
Ġacqu ire
Ġsh aped
Ġz omb
ĠJ ason
i ro
ĠRe ading
Ġens uring
ĠN iger
e z
Ġpri est
ĠOh io
Ġco in
ad ays
Ġdesign er
le vant
ĠMe anwhile
Ġinv ented
Ġc av
Ġt ourn
98 9
fr ame
de pend
d ict
Ġel abor
ous es
u ity
ĠL ar
7 3
z ona
ili pp
am an
W ind
Ġin equ
ĠR ab
Ġf ut
Ġrep et
imin als
Ġbasket ball
Ġpand emic
Î ¿
Ex ception
ĠUk raine
ĠT ai
Ġshort ly
C or
ĠC it
Ġep id
Ġdef ensive
Ġprev al
Ġtum or
Ġsh ake
et ics
Ġre nd
ĠT er
ĠM s
Ġwas hing
ugg ed
ĠT O
Ġcomm od
Ġview ing
ĠMat thew
Ġsurv ived
Ġg ly
Ġpres erve
Ġexam ination
Ġbub ble
lar ge
Ġp ip
Ġpart ial
Ġeduc ated
b ad
Ġt ies
Per haps
Ġcap ability
Ġequ ity
ĠC redit
ar re
Ġprodu cer
Ġrele ases
on ia
Ġvessel s
Ġcomp ound
ĠP ract
iz ers
pp ers
ed a
Ġsign ature
iff s
Ġbes ide
r ide
b ig
Ġbit ter
Ġregard ed
Ġsl aves
ĠMark et
Ġar ise
Ġhand led
Ġavoid ing
el a
ĠG P
ĠM ajor
18 0
pe ople
Ġcamp us
Ġb orders
. </
ateg ory
Ġcomp aring
ig hed
act s
Ġsla very
li est
cept ions
Ġri val
Ġgather ing
Ġpurch asing
ĠOther s
Ġsp an
B ig
az a
Ġsurv iv
tt es
ĠSh ort
Ġworth y
Ġs lic
h ole
Ġde leg
Ġtrad itions
Ġa est
ĠB ox
Ġt issues
Ġweek ly
ĠSte ven
ĠC old
al and
Ġr het
Ġass ass
am ins
Ð ²
ĠS ad
Ġso vere
Ġinc omp
W ork
Ġc her
Ġmass es
Ġspec ify
Ġbar rier
ĠHit ler
Ġcompe lling
Ġfl ows
ĠScot land
ĠF all
Ġeat en
ĠJ osh
in itely
as ma
F i
ĠD S
Qu estion
is ition
Ġsophistic ated
cons cious
Ġwar ned
. <
ĠB ased
B L
Ġsoci eties
h our
Ġlibr aries
G reat
H D
Ġh oly
Ġprodu cers
an cial
ĠSupp ort
im ents
?? ?
ĠBra nd
Ġunf air
oc ated
Ġpe pper
Sk ip
em an
Ġle ak
Ġsold ier
Ġs its
Ġtow er
ĠCP U
ĠO ften
M C
he ast
Ġw ore
Ġpro st
ĠHe art
Ġtown s
f lix
Ġterror ists
Ġfoss il
Ġhosp itals
ĠB uff
R C
ist ence
Ġhorm one
ĠCon nect
ĠSer ies
Rem ember
Ġsubst ances
Ġpure ly
Ġappoint ment
Ġdeterm ining
Ġv amp
ĠGeorg ia
Ġcon qu
ĠQu estion
Ġcross ed
ĠC hem
Ġgo og
Ġfl ip
ĠSt op
Ġclass ified
Ġover night
Ġmoment um
Ġcool ing
Ġvel ocity
B en
ĠT en
w ich
ĠK evin
Ġmother s
7 6
ĠD ick
Ġpar liament
Ġprint ing
ĠF air
Ġgrocer y
Ġplan ets
Ġag ing
Ġunder ground
G A
i ology
ll y
ĠSt one
d ec
Ġst ones
pend ed
Ġmechan ics
Ġmathemat ical
um my
ĠO x
Ġpros per
Ġne at
iat ric
ke ys
Ġp ars
Ġb anned
al pha
Ġdecre ased
c os
Ġpract ically
Ġfore cast
olester ol
D ec
tw o
Ġbatt les
Ġpart ially
ver ted
Ġsol ved
Ġident ifying
v able
Ġsl ower
Ġcoll aps
os itory
M s
Ġsol ving
ip her
sc ribe
Ġc ort
Ġre vel
Ã ¨
ĠAm ong
ĠG ab
ĠS af
ĠO kay
AN D
] ]
ig ue
Ġfree ly
Ġel ig
U D
Ġun h
Ġstri king
Ġexplicit ly
in ates
Ġdis abled
i pt
ĠSome one
mon th
and y
ust ers
Ġcontrovers ial
Ġsp okes
Ġconsum ed
ĠId ent
Ġprov ision
7 4
th od
Ġv ag
e fficient
Ġl one
Ġsus p
M I
ĠTr ust
A c
Ġcou ples
in th
Ġchar ging
B el
Ġhe ter
v ol
Ġwa ited
Ġenthus i
Ġsurprising ly
es pecially
Ġrub ber
Ġdram atically
lim ited
ment ed
ĠBit coin
Ġcapital ism
Ġbreat he
T ER
Ġfunction ing
Ġanal og
Ġexpress ions
Ġvac uum
point s
ist a
ĠDav is
Ġacc ord
Ġdisappe ared
ĠMich igan
Ġcon gress
ov a
Ġcl ip
Ġexec ute
Ġdemand ing
M in
Ġcy cles
m ain
ä º
Ġcro ps
à ®
9 30
Ġback up
Ġra cing
ĠH ope
Ġth reshold
ĠJ ordan
ĠRet urn
am ma
Ġabs urd
ĠLear ning
D ear
Ġcont ra
Ġunc ons
Ġl ung
Ġup gr
Ġdocument ary
Ġpl acing
at ile
Ġpass engers
p res
Ch ange
Ġcount ing
sy stem
C all
Ġsing er
Ġread ily
M en
8 4
ou st
s ized
8 2
ĠAdminist ration
ad el
Ġg rey
ne ath
Ġbuff er
id ity
ĠC as
Ġdisappoint ed
Ġg reet
Ġt orn
N C
ou ps
Ġp ale
Ġsol o
Ġblock ed
Ġce iling
Ġavail ability
ĠM D
u v
Ġ ..
S y
ind a
Ġtr ash
Ġelder ly
Ġuncertain ty
Ġc rop
bo hy
Ġexam ined
ĠH ay
Ġdispl ays
Un fortunately
ad ium
Ġent ities
iz ard
get s
Ġequ ality
Ġreflect ed
he ro
ĠD utch
Ġobject ives
Ġreg ret
Ġconnect ing
or ient
Ġun lock
Ġhistor ic
Ġtrans p
ru p
d am
ĠTh ird
z one
ĠStud ies
on ed
Ġcivil ization
ĠGold en
Ġquiet ly
col n
Ġtort ure
Ġvis its
P oint
ĠG i
Ġcharacter ized
o at
M O
ĠColor ado
ot ypes
Ġj unk
Ġarri val
Ġunivers ities
C ount
Ġan ch
Ġmeas uring
Ġb ureau
Ġefficient ly
Ð º
Ġst ays
ĠMod ern
ig m
c us
Ġanim ation
Ġscr atch
Ġt el
Ġextraord inary
ĠC lear
0 22
Ã §
h r
g i
Ġmed itation
Ġ& &
ellig ence
Ġw rap
cy cle
ĠM iller
Ġg olf
Ġcl ue
ab ul
Ġid i
Don ald
Ġshe ep
van ia
ĠUS B
Ġmoist ure
Ġshel ter
Ġwork place
Ġbi ology
im s
Ġan x
Ġcharacter istic
Ġmembers hip
P N
ĠL ady
Ġpress ed
Ġclim b
Ġview ers
Ġjump ed
Ġpublic ation
B ar
rie ved
ul pt
ĠH osp
ĠP ack
ol is
Ġremind s
Ġle ather
ĠAtl antic
ĠBet ter
Ġgrab bed
f ly
ot ing
Ġoff ices
Ġp el
im ation
mod el
Ġfe ver
ĠJ ay
ĠOb viously
Ġcal cium
Ġd rew
' ;
Ġaccompan ied
Ġtheore tical
comm un
Ġca res
ĠT own
Ġins ult
Ġ} ,
Bl ack
Ġch urches
Ġcons ensus
ĠS C
Ġbutt ons
m aker
ĠS now
b ie
9 1
Ġo d
Ġappro ached
per m
Ġtra pped
Ġbill ions
Ġemp ire
ĠB an
Ġrece ives
ĠB all
Ġmod ify
Ġhop ed
ĠMar x
Ġder iv
au nd
ym ph
Ġliter ary
Î ½
Ġcomprom ise
ant e
ĠT R
Ġimp ressed
Ġsl ip
Ġphys ician
ict ure
ĠL A
H and
Ñ ĥ
ĠM oh
ĠH an
li ent
Ġcount less
Ġreflect s
ĠG OP
Ġ< <
Ġaim s
Ġattract ed
ful ness
8 1
friend ly
Ġag greg
, \
Ġgovern or
ĠAny way
ur i
Ġaccept ance
M B
alth ough
Ġdo s
Ġscream ing
Ġm a
L S
ĠEs pecially
A pr
Ġmar ry
Ġmembr ane
ĠIn it
o a
Ġexpand ing
cl osed
Ġbelie ving
Ġdead ly
Ġguarant eed
Ġavo ided
Ġsoon er
O pen
Ġs oup
ĠEn vironment
Ġpat ent
Wr ite
Ġeas tern
Ġback ed
Ġ verse
Ġinf inite
Ġf u
roll er
Ġrestrict ed
ĠS U
ĠR oll
Ġax is
op es
Ġsurf aces
m ir
Ġte nder
Ġdis advant
b en
P res
are ttes
ĠD ad
uss y
9 3
Ġv ine
ĠCommun ity
op ath
Ġtransfer red
Ġy ards
F ollow
Ġtrust ed
Ġment ally
Ġexcit ement
off s
ĠUs ually
Ġr amp
irt ual
Ġsupposed ly
Ø§ ÙĦ
Ġcounter part
Ġtra uma
is an
P P
ĠB ul
ĠAn alysis
ĠTur k
ab y
---------------- ----------------
Ġlad ies
9 4
âĢ ĭ
on ing
Ġdrag on
H aving
Ġcolumn s
Ġspeed s
ĠOther wise
Ġabsor b
Ġple asant
Ġinflu ences
Ġattack ing
ab ling
Ġport folio
Ġwire less
ĠT am
Ġwhe els
ĠCl oud
Ġeth ical
Ġbe ating
Ġdo zens
Ġrel atives
Ġsp are
Ġlab our
ĠS orry
Ġcollect ing
b est
Ġcre ep
Ġresp ir
ĠJ r
Y et
Ġp ose
Ġconflict s
Ġnodd ed
ĠĠ Ċ
Ġfulf ill
es ity
ud ge
Re view
Ġkid ney
Ù ħ
Ġsp ouse
Ġtw ist
ugg ing
os pel
Ġsec rets
Ġto b
Ġd ough
ĠE X
Ġtestim ony
Ġlun gs
F S
St ill
O ct
Ġpre ference
] :
Ġm useum
Ġload ing
ĠS ay
T O
U LL
Ġrespect ive
ĠH or
z es
Ġk it
m em
om al
Ġsens es
Ġp ound
mer ce
Ġemb ra
Ġdro pping
ĠE ither
Ġr ings
Ġevolution ary
ust ing
Ġbu nd
in fo
I ST
g iving
ap ters
Ġgraph ic
Ġra ises
ĠH ug
Ġj et
l an
ruct ive
ĠH old
ĠNav y
Ġenc ount
Ġyog a
pl ess
ĠB ull
ÂłÂłÂłÂłÂłÂłÂłÂł ÂłÂłÂł
Ġy a
ĠUn less
Ġencount ered
ik ing
e very
Th ough
Ġaccount ing
Ġapplic able
n um
ird s
er d
qu ality
Ġhom osexual
Ġoccas ional
à¤ ¾
omet ric
Ġpolit ically
Ġdut ies
Ġclub s
Ġn est
ĠDig ital
yn c
Ġble eding
3 50
on omic
ĠE R
$ \
Ġpre tend
Ġisland s
Ġj okes
Ġch ains
ĠO cean
Ġbo ards
Ġload s
Ġre wards
c ribe
Ġpain ted
Ġtele phone
Ġch amber
ĠN FL
A ug
Ġlack ing
ĠSil ver
Ġp ets
Ġfr ank
Ġal i
ne ction
Ġtri ps
Ġalt ogether
Ġthreat ening
Ġmetabol ism
ell ing
ont o
Ġdistingu ish
Ġterm inal
Ġfound er
8 3
Ġsk ip
Ġdefe ated
Ġkill s
ios ity
app ropri
Ġarg uing
Ġstatist ical
Ġst abil
L ife
Ġcon clusions
Ġequ ations
ĠLe vel
Ġres ort
Ġpat ri
mm et
Ġa qu
ĠCharl ie
We b
Ġprocess or
Ġcryst al
ix ed
ĠB uy
Ġw re
ĠJ am
rib ution
Ġdeal t
Ġassign ment
ĠCons erv
Ġfund ament
Ġac ute
Ġcompet ing
ĠK ong
Ġlux ury
Ġgar bage
ist ant
Ġassoci ate
Ġregul atory
Ġw rest
ĠJe an
en ame
Ã ±
Ġdes ires
cycl op
ree k
Ġgr asp
Ġd ense
Ġshe d
Ġph osph
re r
Ġtremend ous
M D
Ġdef icit
" ).
Ġse al
be at
k ers
av y
Ġtransl ated
ĠLib rary
R NA
ill ance
Ġaffect ing
igen ous
Ġjump ing
Ġgar lic
ob ject
ĠAri zona
Ġind irect
Ġcor on
Ġsac red
ĠN atural
ions hip
Ġco ins
Ġwork sh
Ġcur s
Ġarg ues
M ap
ore r
Ġâ Ĩ
n ote
Ġencoura ging
id ate
ch i
à¥ į
qu al
Ġtw elve
ard less
F urther
Ġthe sis
Ġto ken
Ġcons ol
Ġsum mar
Ġhe y
pro fit
Ġcompet itors
ast ed
Ġappreci ated
Ġaccept ing
Ġc ust
Ġp ant
Ġm igration
Ġm un
Ġfriends hip
Ġs our
ri um
p ool
? '
Ġinhab it
Ġcr iminals
Ġdri ed
Ġhorm ones
ut r
Ġprot ests
d ays
ogen ic
Ġbl ur
Ġinv al
gen er
Ġpe er
ĠW orks
ĠSing apore
ors hip
Ġrecru it
ual ity
red ict
Ġbroad er
ĠG DP
c in
Ġactiv ation
ol er
Ġw ip
ig s
Ġpr icing
bel ie
ĠP A
Ġprom ising
Ġpartic le
ĠRad io
Ġoccas ions
S QL
ra ham
k g
O G
Ġrep ublic
sy l
Ġcar rier
ÂłÂł Ġ
ect or
Ġdec iding
c ular
ĠCo ast
Ġed ited
Ġcl er
Ġthr ows
Ġtrou bles
ĠKenn edy
Ġple ased
wr iting
oster one
9 40
Ġlay out
end ing
ĠS pr
Ġadopt ion
Ġtechn ically
Ġbell y
Ġst iff
Ġuncons cious
ER E
et a
Ġinvest ed
Ġche er
Ġmon etary
ĠPar liament
Ġp add
z o
L a
Ġhand y
Ġ: =
W orld
ĠP DF
Ġdeterm ination
Ġmulti pl
ĠD ue
d oc
Ġag ed
Ġstraight forward
O B
Ġrepl acing
Ġc od
ac ular
ĠE D
Ġreci pes
ress es
ps y
Ġcoop eration
itz er
Ġpl ates
Ġvary ing
che m
å ı
Ġg rip
em en
Ġd ub
ĠB uild
Ġb iz
Ġref rig
Ġtob acco
ur ities
el le
Any way
for ced
ĠÂ ©
[ âĢĵ]
ĠC ore
ĠAcc ount
( (
Ġd read
Ġbe ars
Ġadd ict
ĠF ive
Ġrequest ed
ä »
ĠB urn
ĠD om
Ġafter wards
ĠWh atever
act ic
omet er
ĠCh ild
Ġunder m
ĠPort ug
pl an
me ga
Ġp iano
Ġret ired
Ġm arch
Ġpuzz le
Ġbra ve
ult y
ro se
ĠL ED
hys ical
Ġorgan isms
v oid
Ġbott les
w hy
k n
Ġwhe at
ĠA ction
th an
Ġunder neath
Ġchar ity
ĠC le
Ġsk illed
Ġstream ing
ĠLe on
Ġa in
ĠE ver
Ġcop per
ĠM ath
ĠS everal
Ġgener ating
Ġpubl ishing
hes s
Ġfr ustration
Ġtouch ing
pie ce
Ġgl obe
Ġfranch ise
H igh
Ġg aining
Ġsa il
ob ic
L D
Ġep ic
Ġrel i
ĠIm agine
ĠAnsw ers
S D
Ġl ol
Ġlabor atory
ĠL uke
ĠSim on
Ġf ract
ĠInd ones
ok er
Ġprev ents
he ld
Ġspread ing
pl ane
Ġcl oth
Ġv iable
Ġgu ards
est y
A nt
Ġfat al
Ġenh anced
Ġse ve
Ġst airs
Ġal ike
Ġf ires
st atic
Ġjur is
ond e
ĠInd epend
Ġdefin itions
Ġn asty
ĠIm p
S l
r in
Ġpub lish
Ġcompl iance
Ġsa fer
ĠSimilar ly
Ġiniti ative
Ġbuild s
ĠA bs
ĠN AT
Ġdys function
ĠDef ense
ĠStud y
Ġver ify
Ġbet a
ĠMal ays
ish op
Ġb ail
Ġemb edded
ing le
Ġequ ipped
Ġ );
Ġent ries
Ġutil ize
ĠS E
Ġf art
b es
Ġmix ing
ab l
ens ing
Ġexpl oration
Ġrot ation
D et
ange l
iox ide
æ ľ
Ġoper ators
Ġst aring
Ġhome work
p in
ĠL anguage
Ġoccur ring
ic he
Ġdef ines
Ġloyal ty
ip h
Ġpropag anda
Ġinvent ory
NA ME
a ft
Ġsacr ific
Ġconsum ing
ĠHaw ai
Ġsim ulation
Ġwhere ver
Ġreason ably
Ġc ache
ter ior
th ony
Ġele g
Tr ue
Ġm elt
Ġl oses
rib ly
Ġha unt
ab is
ĠT ok
ĠInc re
Ġdepos it
Ġshe ets
ĠArt icles
Ġh ated
Ġhar ass
ĠE C
. _
fe e
Ġcred its
Ġless er
Ġtraged y
c reate
Ġpar as
Ġbuy ers
Ġfest ival
ĠArab ia
Ġeas iest
Ġsh ook
ĠSt ock
ur u
ĠMedic ine
aret te
9 20
Ġrel uct
Ġearn ings
ĠK ent
Ġl ighter
Ġgr in
Ġt weet
Ġoff set
b u
ĠW at
Ġbelong s
Â »
Ġemotion ally
Ġper mit
ĠZe aland
oo f
ĠB ody
Sh ow
w er
ĠM ap
Ġfrustr ated
Ġnovel s
Ġfr ames
Ġb ump
d imensional
ĠS ong
98 4
Ġtrans parent
ad i
Ġfert il
Ġsc hem
Ġrelig ions
ĠD ragon
Ġminim ize
Ã³ n
97 8
Ġexcept ions
Ġtransl ate
Ġr ows
Ġpress ing
F P
g reen
Ġappoint ed
ott om
Ġarm or
Ġm ast
98 8
F il
ĠN ation
Ġfil ters
t an
m ake
Ġbu zz
semb ly
Ġch olesterol
J e
b ling
ibl ical
Ġindic ating
Ġpot atoes
f i
Ġcell ular
Ġcon clude
Ġrep orter
ĠC IA
ph ant
Ġmis under
ĠMark eting
Ġres olved
Ġsound ed
Ġprison ers
Ġfa cial
Ġch lor
Ġble nd
Ġra p
Ġor bit
Ġmin erals
ĠSc ript
Ġimm ense
Ġro d
P op
n bsp
Ġorient ation
Ġinv isible
E nt
de velop
ĠD u
ĠU ntil
Ġsec ular
Ġbeh ave
usal em
ord on
12 5
Re quest
r ating
in ition
Ġviol ation
Ġlike lihood
Ġpan els
et ts
i ological
p se
} (
F I
m d
Ġmac ro
Ġfight s
ĠJer sey
ĠTr ade
F ull
Ġgra ve
Ġconv icted
F eb
sc ript
ĠR us
un ks
ĠEx ec
ĠCan cer
âĢ¦ âĢ¦
Ġ ion
Ġreci p
ĠS ix
Ġliber ty
m are
b ury
B R
ian ces
Ġarrange ment
It em
Ġrespons ibilities
ĠDe ep
ĠSen ator
16 0
Down load
Ġre ass
tr ue
Ġ( âĢľ
ĠR os
Ġignor ance
medi ate
Ġte ens
Ġcompl aint
it ably
14 0
ĠH P
Ġtr icks
Ġaud iences
Ġexplos ion
ĠC ut
D ay
ic op
Ke ep
O ff
Ġad min
ĠLin coln
Ġachie ving
ĠAny one
ĠO pt
Ġfoot age
Ġmusic ians
Ġhighlight s
Ġsuspect ed
rape ut
Ġvir al
math cal
se arch
ĠW olf
Answ er
Ġex tends
syl vania
J ump
Ġcomplain ts
Ġres ume
Ġ[ ]
Ġpre ferences
re ed
Ġide ology
b as
ĠInd ex
Ġisol ation
Ġwood s
Ġat oms
ĠPh ilipp
Ġspecial ized
W ould
Ġpract ition
f in
Ġname ly
d ig
ar ity
n ode
ie val
ĠN C
u ber
Ġblood y
Ġland ed
Ġpod cast
Ġplan es
ĠSe lect
o is
Ġmathemat ics
Ġorgan isation
Ġlist ened
Ġtransform ed
ĠO cc
b ot
Ġspir its
Ġs ore
ol as
Ġint est
ĠK ind
ere r
Ġtoler ance
Ġsens ors
Ġsimilar ly
Ġtra iler
AL L
ĠR oss
we b
ĠStand ard
a ci
Ġrat ings
Ġprotect ive
X X
g ie
oc hem
ĠC ow
Ġmor ph
Ġnecess ity
F R
ers hip
á ¹
ut her
Ġart istic
ino is
Ġk ernel
st ore
Ġentertain ing
t ail
1 30
ĠBar ack
ĠNaz i
/ *
Ġman ually
Ġr ounds
Ġad verse
Ġaddress ing
11 1
e ks
ĠC ON
Ġagric ultural
is hers
te x
re nder
Ġdes erves
rib ute
is ode
i ors
Ġjournal ists
ĠO bs
Ġre ck
Ġhome less
S er
e lect
Ġsc ulpt
Ġc ough
Ġ| |
H ist
ĠS ant
ĠJac ob
Ġsp ite
Ġab dom
Ġoil s
Ġagric ulture
es ters
Ġcertific ate
Ġlif ted
Ġkick ed
reat ing
H ello
Ġcomple ment
Ġde ce
Ġcar ing
ĠAlex ander
B as
ĠZ h
Ġoccup ied
======== ========
ĠLew is
ĠNet flix
Ġansw ering
Ġm es
ry st
ad en
ĠSt ore
ĠF uture
St ar
Ġsatisf y
Ġexclus ively
Ġanaly zed
Ġr am
ĠIran ian
ĠJ enn
New s
Ġd ental
th a
A h
Ġpe ers
Ġne ural
u j
Ġpat ience
ach us
ĠW i
Ġautom ated
Ġinc ons
Inst ead
Ġmicro sc
Ġclass ification
d ir
ĠMic hel
Ġinter ference
M ichael
Ġ âĢĻ
ĠIraq i
ĠC ertain
Ġener g
Ġprop os
ĠWith in
Ġst d
ĠC hen
Ġli ability
Ġwind s
Ġhost ing
Ġstrugg les
ĠMag ic
W ord
ĠP ath
Ġconstra ints
Ġgen ius
ĠB ry
ĠAl ways
Ġprivile ge
L ong
C ode
Ġdiam eter
f ull
on ut
M essage
Ġcand y
Ġcr own
ick en
ĠM agn
Ġbe ast
Ġsu its
Ġfrustr ating
Ġrom ance
Ġp ist
st orm
ĠD iet
Ġsub mitted
ri ving
Ġo live
Ġtun nel
Ġoverse as
Ġt anks
e ous
Ġwe aken
ĠEm ail
Ġvar ies
ĠSm art
L ink
uc lear
ĠPe ace
w ear
ak y
Ġcam ps
Ġsun light
ĠTe ch
Ġg ard
Ġdef ining
ĠThe ory
connect ed
ĠBru ce
in put
ĠCap ital
Ġbl ade
Ġdisp ute
Ġperform ances
part y
Ġimp osed
ĠJud ge
Ġsign ing
Ġtherm al
P ubMed
ĠV ersion
Cont act
re ement
= \
or us
ph p
u its
Ġf iscal
Ġfl ags
ol ph
s ite
au ge
Ġaltern ate
Ġbound ary
Ġrob ots
Ġpur ple
oc ate
Ġstrict ly
ĠV ill
Ġpro c
Ġat tending
Ġearth qu
ĠC L
ct ive
ĠAl tern
Ġincorpor ate
ĠTe le
Ġf iring
Ġhat red
Ġcomp act
bo ards
sec urity
ĠTr uth
com mit
je ctions
ĠH al
Ġnice ly
clud es
augh ters
ĠM O
Ġpass ive
Ġp up
Ġcompat ible
AN T
Ġl ap
ĠE uro
ĠHosp ital
Ġapproach ing
Ġintent ions
k m
Ġso ccer
en ly
' );
Ġb atch
Ġl in
Ġsoul s
umb ling
Ġcar bohy
98 7
iz able
b ian
Ġbe am
Ġcy l
G S
In fo
Ġmagn itude
thod ox
Ġvir uses
ra ined
Ġcompl ications
Ġphot ography
Ġres et
Ġjew el
it ated
Ġb ol
Ġunderstand s
au x
N ever
ĠPh oto
ra it
Ġk in
Ġd ioxide
Ġvent ure
Ġthread s
Ġqu ad
Ġt ire
Ġtarget ing
N ET
ĠRet rieved
ow th
Ġgl ory
wr itten
im mer
ĠSystem s
Ġcalcul ations
ĠH R
Ġr anging
ĠPr ice
ĠBe ach
Ġachieve ment
Ġtr illion
u ates
ĠIn n
Ġpr one
Ġpred iction
Ġs isters
ĠB ol
Ġo v
Ġmed i
Ġprov ince
oc key
Ġinter active
Ġun ions
ortun ate
sc ar
is ations
ĠEvent ually
W ar
Ġe go
d ed
Ġman ages
Ġcontrib uting
Ġlast ing
p ose
ect ed
} _
Ġm ate
Ġmod es
Ġspecial ist
Ġcal culation
ĠAr thur
a ired
98 6
ing ton
Ġm apping
Ġnons ense
Ġs ir
ar ious
ĠCl in
ĠApp arently
Ġvar ied
Ġrelax ed
S H
d ess
Ġn od
Ġmus h
Ġorig ins
Ġconven ience
T om
Ġchalleng ed
look ing
Ġfirm ly
S ervice
d el
Ġsw allow
t le
M art
ĠC ond
! ).
ĠG ulf
Ġur ge
S orry
ĠFr an
uff er
B O
Ġcontinu ously
Ġab normal
Ġshif ts
n ia
Ġb ases
Ġenhance ment
________ ________
Ġsu p
Ġbuy er
Ġinv ite
Ġprec ision
ĠAl ice
Ġadv ances
ar se
S ON
Ġout rage
Ġpri ze
ĠUn ivers
ĠD E
Ġf ence
Ġthe ft
Ġancest ors
Ġsimpl er
Ġbet ray
Ġpro x
qu es
Ġimp ress
D em
V is
Ġprem ise
) -
ĠSy rian
Ġchamp ion
Ġd are
Ġfle e
Ġappe aling
, âĢĻ
S ize
ĠE N
Ġsl ot
ĠCl ark
Ġclar ity
ry ption
ĠJer usalem
st ick
sem ble
Ġind ication
h ma
Ġp seud
ell a
ĠS em
ick et
Ġcross ing
ĠĠĠĠĠĠĠĠ ĠĠĠĠĠĠ
ĠF oot
vis or
b led
D C
ĠR NA
Ġswitch ing
rit is
Ġgen ome
Ġgr an
be an
ĠMo ore
Ġloc ally
tra ck
ĠI C
il ib
ĠBook s
E v
. ).
ĠL ie
vern ment
ĠL ocal
Ġc ited
Ġst ressed
Ġrock et
in stein
} ^
ĠB ud
Ġfat igue
Ġinter f
Ġimag ined
Ġshe er
amm ad
) \
Ġbrut al
Ġscreen ing
ay ed
s ign
Ġp ond
ĠR A
Ġcolon ial
d rop
Ġre ign
Ġcou ch
Ġpromot ion
Ġst ating
ad ata
Ġatt itudes
Ġadvoc ate
ĠB road
equ ation
Ġreview ed
Ġpassion ate
Ġw oke
B uild
Ġopen ly
Ġdev oted
Ġtable t
Ġdis ability
C ustom
Ġown s
ou ston
Ġbe aring
Ġstick s
Ġtal ented
as i
Ġhun ger
Ġtast es
Ġam ino
ĠS N
Ġconsist ency
ĠInst agram
ivers ary
ĠB and
ag le
ĠMor gan
P aul
Ġterm in
c urrent
H ead
on ge
ĠK elly
Ġmod ules
Ġdom inated
b ur
Ġvit amins
ĠAll en
ES S
claim ed
ro it
ĠAn aly
Ġout standing
Ġdam ages
Ġprev ention
ĠNever theless
out put
Ġaccident ally
Ġb ent
oper ative
Ġ/ ><
Ġdi agram
Ġlog in
le ading
ol utions
ĠBe at
Ġdisc oura
ĠBet ween
Ġc oding
achus etts
ĠUn iverse
Ġbar riers
Ġgoog le
ĠB ase
Ġabs ent
Ġpra ise
Ġhead er
olit ical
ĠHe brew
Ġdocument ed
def ine
Ġur ine
Ġfacilit ate
Ġpurch ases
Ġir r
ĠP a
#### ####
ĠY an
Ġcompar able
Ġn u
ĠPro bably
Con fig
Ġpre y
Ġr anks
ĠN ik
Ġpass enger
ĠM arsh
Ġinsect s
ol o
Ġinvestig ated
Ġmarg inal
Ġsp ine
i per
et c
Ġqual ify
Ġtable ts
or ie
ĠE V
reg ular
Ġdevelop ments
w en
Ġact ed
at hetic
ĠP ent
ĠG a
Ġaff air
Ġrevolution ary
ĠMcC ain
Ġal umin
ĠLook ing
Ù Ī
Ġmind set
Ġsubsequ ently
ĠO wn
Ġsh ore
ĠPenn sylvania
Ġpost er
Bl og
Ġcont am
omm y
cl ick
ĠP y
Ġfle w
Ġconsider ably
Ġf ond
ĠD ise
Ġcapt ain
Ġrepresent atives
agon ist
Ġm akers
ĠAr gent
Ġexhib it
Ġle cture
Ġcig arettes
Ġhas h
ĠCh all
Ġoccup ation
12 8
Ġe rect
ĠFl ash
ar ians
Ġart ic
Ġcop s
Ġal tered
ĠH ong
Ġgar age
Ġuncle ar
Ġover head
Ġregul ate
s pring
ri ors
Ġimper ial
Gen eral
Ġnew er
Ġres erve
ĠDe an
L oad
ĠS ound
ĠG ene
Ġbreak down
Ġimplement ing
Ġfor b
ĠF ant
Ret urn
Ġb ind
" ),
ut ical
cc a
Ġpast e
Ġmon sters
ĠAl an
ĠStud ents
Ġphr ases
akes pe
Ġjournal ist
Ġra ge
ĠB ag
Ġrefuge es
Ġnot able
U C
Ġacc idents
Be ing
Ġhe d
Ġneed ing
ĠD ifferent
Ġfif ty
Ġc ried
ĠO P
Ġquot ed
Ġmake up
ĠHow ard
ĠA mb
m u
Ġback wards
Ġcab in
Ġins pe
Ġdestro ying
Com ment
Ġb orr
Ġcontact s
mind ed
Ġent ers
ru it
ĠC e
op ia
ĠT an
() )
E xt
Ġt ires
ĠG ro
12 3
Ġsh y
Ġsod a
Ġsurve illance
Ġdecl are
Ġsubst itute
ĠIs a
ĠV in
Ġg el
Ġconvin cing
Ġremind er
Ġmet er
Ġsc ales
Ġp s
t itle
ist ically
if iers
Ġenjoy able
. :
G L
Ġappet ite
ĠR oy
Ġle mon
Ġan onymous
98 5
ast ically
om as
Ġsus cept
V er
Ġcirc ulation
Ġfl owing
AC K
Ã Ĥ
Ġhol idays
M c
Ġinter val
M ax
Ġdesign ers
ĠC C
ĠM and
Sim ilar
E nd
ĠCom puter
Ġcost ly
on omy
[ ]
oen ix
wr iter
ĠLab our
Th ree
we ek
Ġmurd ered
Sh ould
Ġfre ed
ĠC T
Ġper mitted
Ġfund ed
Ġrout es
Ġactiv ists
oo oo
els on
Ġpartners hip
sh ow
bl ack
Ġout door
ĠM ust
Ġblock ing
Ġcat ast
Ġ; )
ch ild
Ġfarm ing
Ġvol can
ĠInt elligence
Ġemer ge
ĠDemocr at
Ġarr anged
Ġne u
ĠBas ically
Ġd un
Ġp ic
Ġ: :
Ġadapt ed
t imes
ĠSt aff
N E
m us
Ġde emed
Ġcol ored
at on
S I
play er
ĠK a
Ġinj ection
othe rapy
A gain
Ġex pend
form at
Ġcous in
Ġpoll s
Ġarbit rary
Ġcere mony
ĠH ig
ĠG il
Ġp H
Ġign oring
ĠBl ock
Ġinter fe
Ø§ Ø
Ġanalys es
Ġfra gment
Ġcon form
W eek
ĠSe attle
Ġtack le
F act
Ġw anna
ĠPat rick
as ures
ĠF eed
Ġsk ull
Ġsmart phone
Ġbel oved
Ġsens ation
Ġindic ator
Î µ
ul ative
M ain
Ġen velop
Ġe ternal
Ġlabel ed
ĠFr ont
Ġle verage
ĠGet ting
Ġm ud
C opyright
ar ound
Ġkid n
Ġgl ob
ĠA y
Ġass ured
r ams
her ic
ĠR ain
it amin
Ġimag ing
Ġdeb ut
Ġla wn
c all
Ġpredict ions
Con text
Ġpan c
Ġignor ant
P rodu
Ġconserv ation
Ġphilosoph ical
Ġinter pre
oll ar
ĠS in
ment ation
hold er
Ġregist ration
G iven
Ġn p
qu arters
Ġprof itable
st airs
Ġnav igate
ul ator
dri ven
Ġreal ise
Ġsex y
ro x
ĠE mer
be fore
ĠN i
ĠG h
Ġcur ric
Ġint ra
iam i
v ised
s chool
be it
Ġpre jud
Ġtr im
Ġdeliber ately
Ġnegoti ations
Ġal gebra
ack ing
or ia
Ġdoctr ine
abul ary
ĠLear n
ul ates
Ġsn ake
Ġdi ver
Ġeconom ies
S ur
Ġquant ities
Ġb ay
l u
ĠY e
Ġd ign
Ġsal ad
Ġa ver
Ġcom ics
as ive
Ġtruck s
akespe are
r ust
Ġcas ino
Ġirre levant
ĠHar vard
Ġdeliver ing
S w
Ġstr anger
Ġsan ctions
ĠS leep
Ġmiss ions
Ġconv iction
Ġwitness es
Ġj ava
Ġhealth ier
Ġob esity
it ories
ĠH unt
Ġen light
ãĢ Ĥ
Ġnewsp apers
ĠA gency
Ġadjust ed
Me anwhile
Ġjuris d
Ġself ish
ĠHe aven
Ġroll s
Ġprop ose
Ġa ffe
Ġcorpor ation
Ġgrand mother
Ġhost s
ĠC op
Ġst ats
Ġbas ics
Ġsur g
Ġst ance
ĠOr ig
ĠB or
ĠAnd erson
Ġdef ence
ab ases
Ġpursu it
Ġconstit u
Ġcor ners
Ġcir cul
g ate
Ġcard i
Ġhaz ard
Ġd ull
riv acy
all as
sh ould
Ġunf ortunate
oc ur
Ġfail ures
ĠP arent
ĠâĢ Ŀ
Ġeth ics
ĠP ope
Sc ore
Ġaccording ly
B et
Mod el
Ġauthent ic
A p
Ġh ilar
t ag
Ġfort un
Ġtra ins
ĠF at
ol k
ĠAnge l
Ġindepend ently
Ġutter ly
Ġsee ks
Ġnurs ing
on el
Ġ čĊ
che ster
ĠMan ager
ru nt
ang o
ĠPr int
Ġf itting
Ġpick s
Ġmort ality
Ġconserv atives
ĠSc he
Ġgener ator
m i
Th rough
Ġrel ie
Ġpl asma
ĠInd ians
ĠiP ad
Ġcontrovers y
ĠColumb ia
Ġe uro
ĠN ative
Ġh ood
Ġtrick y
ĠD or
ĠL es
Ġdraw s
ĠBer lin
Ġhapp ily
Ġmet h
Ġindu ced
ĠM C
og ene
Ġa f
Ġl over
c od
ĠS ony
Ġintegr al
Ġhoriz ontal
Ġannounce ment
ĠJ ess
am ents
uss ian
Ġsm iling
ĠSqu are
Ġlim iting
effect ive
ĠTra vel
Ġd ash
Ġchrom os
Ġwas ted
ex per
ĠF est
Ġlay ing
ĠIll inois
Ġc attle
Ġmod est
ĠComm and
() );
ĠL iving
ĠM aking
ĠIm port
Ġmist aken
Ġveget able
aur a
Ġf ict
w s
Ġcomment ary
F ield
Ġje alous
97 9
N umber
Ġneur ons
Ġshe lf
Ġear liest
Ġgenuine ly
Ġopt ical
M T
st ock
ĠC ab
ĠY ears
Ġagre es
Ġorgan ize
Ġbo om
ĠGovern or
Ġgl ance
Ġ[ [
ĠH indu
âĢĿ )
Ġutil ized
U ST
ath on
ĠG un
Ġst amp
Ġwh ites
al in
Ġg erm
ĠRe agan
Ġb er
Ġtre asure
Ä ±
Ġdis put
Ġc ens
ond a
ĠAnd y
Res p
ential s
ograph ical
Ġabsor bed
Ġphotograph s
Ġmet als
Ġ( )
Eng lish
h ol
Ġsle e
ĠI L
Ġd airy
Ġrec overed
Ġrad i
W as
Ġpal m
Ġf ighter
Ġgot ta
O s
Ġro pe
ene z
Ġprov es
ĠS EO
Ġc os
Ġimpr ison
Ġover ly
Ġpull s
W elcome
Ġun st
Ġens ures
reg on
S ure
s omething
ast ing
ĠL yn
Ġgra ins
Ġwitness ed
Ġeval uated
B ox
Ġin ability
health y
Ġher itage
ft y
Ġtourn ament
ph i
ul se
Ġam end
ĠCon c
ant ing
as ury
ri k
cyclop edia
Ġsc andal
Ġfin ite
Ġinvest or
Ġg ambling
** *
ĠBat man
appropri ate
Ġpro long
g raph
Ġr anges
Ġsp am
h um
ĠReview s
Î ¹
Ġi OS
25 6
Ġprevent ed
Ġbo ots
A G
Ġill usion
Ġend e
Ġbe ats
Ġsc rap
ĠSh op
Ġun ity
Ġby tes
Ġdep ict
k now
oot ing
Ġelig ible
Ġre hab
Ġaw ake
U E
Ġfat ty
Ġt ribe
Ġf ighters
Ġagre ements
Ġm i
ĠT our
an as
ĠBab y
Ġsh ar
Ġstick ing
Ġins pect
Ġfle et
ĠPre m
ut y
Ġr ally
ĠA w
o ven
ug ar
Ġdemand ed
Ġsynt ax
Ġpath way
m atic
pect ives
ID S
ĠBe ck
Ġinher it
ace utical
ens ively
B ased
r ans
ÂłÂłÂłÂł ÂłÂł
Ġst ub
ĠM os
ĠEgypt ian
Ġphenomen a
Ġconcent rate
Ġdeterm ines
sh it
ĠMach ine
Ġmin eral
d at
Cons ider
ul ing
ĠH em
ĠH ur
adel ph
Ï Ħ
Ġch ase
Ġtrib es
Ġcott on
ĠS ide
Th ink
Ġover d
Ġhel icop
Ġl ingu
ĠT es
The ir
Ġnetwork ing
ĠTem ple
an ies
ĠC opyright
ĠP ain
Ġlight ly
Ġrepl ies
Ġflu ct
Ġw ww
ĠT ips
le ton
def ault
Ġbiz arre
Ġout let
Ġgramm ar
ĠT oy
Ġarri ves
Ġacc ent
Ġdelet ed
Ġd ude
ul ent
Ġdefe nding
rapeut ic
Ġpract icing
Ġru in
Ġpro gression
Ġrandom ly
Ġbom bs
ĠSe ason
d irect
ĠSwed en
Ġcivil ian
Ġlawsu it
Ġsh adows
Ġrec ession
Ġadministr ative
Ġcivil ians
li ers
ĠD est
Ġwa ist
Ġimpro ves
ear ly
s ight
B re
cont rol
Ġneighb our
ĠAN Y
mark s
} ;
Ġfl ights
AT ION
Ġinv ention
Ġesc al
osc ow
d isc
ĠM orr
Ġover view
ah oo
ĠP oly
Ġtra ct
ĠMount ain
ic ates
Ġcontrad ict
Ġincent ive
Ġadv ised
Ġer u
ric ane
isc ons
ĠGu y
Ġwas hed
Ġrent al
ĠK y
Ġ` `
cont ent
Ġl aund
Ġcoal ition
Ġproblem atic
Ġca ution
Ġcontain ers
Ġprogram me
Ġtit led
Ġcontin ually
Ġw ounded
Ġfree ze
Ġchart s
Ġoper ational
Ġrein force
Whe ther
ĠD at
al ign
Ġscript s
Ġev olve
Ġve gan
Ġstrength s
ret ty
Ġforest s
Ġfl ies
atter ing
Ġcart oon
ra cle
Ġfeat uring
Ġtw in
Ġc ope
Ġjoint s
Ġtrans cript
Ġloc ate
Ġconcent rations
Ġc ents
ĠBro ok
iscons in
s rc
ow a
Ġelectron ics
Ġentreprene urs
Ġreve aling
ĠL uck
ge ls
Ġbeat en
Ġbu ck
Col or
ĠMass achusetts
Ġhoriz on
9 11
pro f
Ġestabl ishing
s ervice
ĠH ung
Ġelabor ate
Ġobl igation
Ġg orge
Ġhigh way
e enth
Ġun pre
Ġfl ed
ĠSim ple
II I
Ġp ension
Ġacc us
Ġref res
Ġse gments
ĠR h
ĠCh oose
Ġsur ge
cl ock
Ġdo i
Ġelev ated
sec ond
Ġsu cc
ret ion
work ing
Ġz ones
ĠS ports
Ġteac hes
ĠH appy
Ġcelebr ated
Ġinequ ality
id ency
Every one
ĠFore ign
Ġ å
ot hy
Ġjust ified
Ġingred ient
ĠR at
ĠBar b
Ġr ats
Lear n
Ġw are
if ully
Ġque en
Ġali ens
Ġm ant
ac cept
ig o
ĠJ ob
Ġdisc rimin
Ġcig arette
Ġsynt hetic
En ter
ac ies
Ġpresum ably
Ġclim bing
j u
St r
Ġd ip
Ġres ur
ĠNob ody
Ġanx ious
Ġsepar ately
Ġwond ers
ĠIm per
Ġmet a
in ery
Ġd aughters
P E
Ġattrib uted
//// ////
aren cy
Ġper ceive
Ġreb ell
b one
Ġear ning
us hes
Ġdepart ments
Ġn ail
Ġfort une
up y
Ġaut ism
Ġor che
Â ´
ĠA BC
ĠH us
Ġsod ium
T E
Ġshif ted
Ġfrequ encies
op l
cent ury
ĠM E
Ġacqu isition
Ġrespect ed
et ically
Ġsatisf ying
ĠMar vel
im g
Ġin k
Ġparticip ating
Ġc el
Ġdam aging
am on
Ġment ions
Ġcat aly
Ġinterpret ed
ĠE arly
ĠDar win
ĠP ear
ĠR aj
Ġsp here
Ġcur iosity
S um
Cont in
ren cies
Ġdep ressed
act iv
Ġf ats
Ġatt raction
Ġdesign ing
adelph ia
Ġf ame
M icro
us ions
Ind ex
unt u
og a
Ġmet rics
Ġour s
Ġd ick
Ġshif ting
Ġpack aging
Ġmar ine
b n
ĠAv oid
Ġseve rely
ist le
Ġdownt own
bs ite
Ġris es
Ġsqu ad
Ġdemonstr ates
Ġv apor
ĠH u
so ever
Ġmor ality
ĠW iki
ĠM u
ĠLib ert
Ġj aw
Ġsu ited
C ON
Ġrece iver
âĤ¬ âĦ¢
iox id
L ine
Ġprof iles
Ġo un
ĠK r
Ġtravel ed
v ance
oun ters
ĠBe aut
Ġstruct ured
V ideo
Ġstrong est
ĠC art
yp ically
re a
ĠResp ons
Ġsp y
Ġd ot
Ġst unning
98 2
ĠSpe cific
Ġg aze
as a
az ines
Ġopp osing
Ġrespond ing
ra ctions
, ,
Ġcomb inations
uff icient
Ġsynt hesis
Ġbit ch
cl ip
Ġdig it
math bb
Ġar rog
e u
Ġsing ular
Ġg rief
Ġno ble
Ġar row
ĠVal ue
ĠA ra
ĠU V
ĠJim my
Ġtra gic
Ġvolunte er
uk i
Ġtrig gered
Ġreven ge
ĠB uilding
Ġgrand father
J o
ĠEd itor
ro ck
Ġspat ial
Ġmiss ile
ion ed
Ġgener ous
ĠJohn ny
Ġamb ig
ĠG ib
ip le
Ġprov in
ĠEd it
Ġdisturb ing
ĠCon ference
Ġactiv ated
em a
Ġcomp ression
ĠM un
Ġprop he
b uilding
in ator
Ġquestion ing
ĠF OR
Ġsc ored
Ġpe an
ĠBr idge
ĠS ame
Ġrecept or
P al
in fl
port ed
ams ung
Ġemb ry
d ing
Ġinc on
iss a
pl ates
So cial
Ġm im
ĠSo on
Ġdiet ary
Ġoptim ization
Ġout line
g ree
EC T
ero ids
i otic
Ġoption al
Ġang les
Ġpromot ed
.. /
Ġcast ing
Ġmount ed
Ġid iot
b uy
Th us
ĠM L
ĠP ubl
Ġsh oe
Ġa pt
Ġste ep
S R
Ġsp ont
Ġult ra
Ġam er
Ġsmall est
Ġex agger
ĠM B
ĠPerson al
Ġp ause
re ll
p hy
Ġdecl ined
Ġapp les
Ġp ad
Ġsu cks
Ġmet ric
Ġinev itably
ĠTai wan
. -
T ag
Ġkil omet
ĠA qu
ix on
Ġtight ly
Ġmis er
Ġsw itched
by e
Ġrad ar
G R
su ccess
Ġart if
n is
Ġ ì
ĠAn thony
Ġsh ade
ĠBra in
Ġpul se
ar o
Ġbas ement
resp ons
pro v
Ġmass age
Ġmetaph or
nes ota
Ġalbum s
at est
## #
st ration
Ġpun ish
Ġcatch ing
Ġs perm
Ġne arest
h d
it us
ĠG PS
Ġcle ared
Ġrecommend ation
ef its
Ġdev il
L ib
p he
Ġdescript ions
ĠE sc
Ġbr ick
Ġri vers
Ġcelebr ation
c f
ĠS M
Ġex em
ĠLe ban
Ġsell s
Ġl obby
Ġrhet oric
ib an
Ġpart ition
if ting
Ġem pir
Ġpo ckets
us cript
ore sc
ad itional
Ġw ard
Ġpo le
p ur
ĠRober ts
Ġan ten
j an
ag ain
Ġcomple tion
m art
Ġsex ually
se en
âĪ Ĵ
Ġcar pet
Ġpipe line
ro st
Ġinc idents
ir s
Ġ\ \
on i
ĠSat an
ĠA B
Ġmon op
ev ent
ĠFil m
Ġnot ing
Ġvari eties
ad der
th s
Ġintegr ate
ane an
ight ing
Ġadv ise
Ġshall ow
Ġal pha
Ġbre eding
Ġse am
ĠPalestin ian
Ġd angers
ĠD R
ON E
Ġte asp
Ġlif ting
d ist
um atic
Ġcontin ent
ĠLog o
N on
Ġemp ower
Ġmun icip
Ġsust ained
ank ing
Ġhur ts
Ġdesper ately
an cer
Ġb ust
im ated
Ġsl ice
Ġn ick
He alth
Ġhe ated
Ġg aps
st ruction
Ġkey words
b oth
as is
O k
Ġins ist
ĠAn ne
Ġadapt ation
ĠB E
ug in
Ġg ast
Ġpres cribed
Ġvolunte ers
T alk
Ġlong est
ĠU I
ĠQu ick
Ġbr id
Ġrel ating
Ġpolit ician
h ind
Ġn oun
Ġad oles
Ġto ll
Ch apter
ĠGerm ans
Ġwild life
IN E
Ġun e
Ġd ive
Ġtreat s
ĠAre a
Ġsus pended
Ġl ymph
burg h
âĢ¦ âĢĿ
j son
Ġrele asing
98 3
Ġrespir atory
Ġw itch
Ġtrad itionally
Ġen act
Ġcreat or
Ġgo ver
Ġaward ed
N one
Ġfl ame
Ġ á
Ġjack et
Ġcompl aining
Ġoper ated
ĠJava Script
ĠFre edom
m ph
Ġa ug
Ġso cially
Ġ- --
Ġsecret ary
ĠS ays
Ġcast le
f ind
Ġdelay ed
ĠEconom ic
ĠF DA
Ġexplan ations
Ġtour ists
ig ion
Ġinflu ential
chn ology
Ġda wn
Ġstream s
ĠDie go
e em
Ġtour ist
Ġpo et
Ġweight s
Ġmagn et
o qu
Ġn ost
bre aking
Ġpaint ings
Ġdesign ated
Ġdeal er
ĠCar ter
Ġprop ri
agn etic
Ġprior ities
Ġsucceed ed
Ġabund ance
ĠVis ual
ĠMag azine
c over
ĠBl u
am el
l ah
ber ries
Ġres erves
Ġsupp ress
Ġintrodu cing
ĠF ollowing
ĠRe qu
Ġlight ning
ĠP ick
Ġun ited
Ġback ing
ro ot
oc aly
ĠTra ining
ĠPut in
ĠTurk ish
Ġregul ated
ĠTor onto
Ġdem o
ĠInt el
Ġp orts
Ġneg lig
Ġdis comfort
Ġvend ors
h ad
Ġcirc ular
ather ine
li ver
ĠCh annel
ver b
m ic
ĠM it
Ġres idence
Su per
Ġtrans mit
ĠâĨ Ĵ
so cial
udd enly
ac er
ex pl
M em
d y
Ġgood ness
z i
Ġv om
ĠCont act
n umber
Ġappreci ation
Ġse ctors
br is
ĠP aper
g ative
Ġtyp ing
ĠC ass
ĠS aint
Ġsupp lied
Ġb ark
Ġfe as
Ġl ag
ĠM as
Ġbankrupt cy
Ġfif teen
ĠNet her
S ystem
Ġoper ates
Ġexpress ing
Ġfin ishing
Ġwho ever
Ġl as
intend o
Ġfu els
ac cess
ad ers
ĠP ast
Ġres erv
ĠAl most
Ġesc aped
Ġrem ed
" ]
Ġr ust
un ity
ĠN S
vent ions
ĠO pp
ĠT ed
Ġstrugg led
s er
Ġyield s
Ġexcept ional
os ity
Ġsa ves
Ġelimin ated
t alk
Ġcr ust
spe ed
ĠCount ry
ĠWr iting
Ġfor ty
s pl
Ġat om
Ġdial og
ĠPot ter
Ġpet ition
Ġsch olar
e g
ra h
ĠF em
Ġdat abases
Ġsyn chron
ĠP L
Ġexp ed
Ġwhat soever
ĠĠĠĠĠĠĠĠĠĠĠĠĠĠĠĠ ĠĠĠĠĠĠĠĠĠĠĠ
ĠEx press
au c
ĠAd vent
Ġw olf
ĠH ouston
orient ed
Ġinst itutional
Ġdec ay
ĠS A
Ġsear ches
Ġcompan ion
ash i
f ive
c ur
Ġsh aking
Ġhistor ically
Ġperman ently
sh aped
Ġhyp ocr
A ut
ĠMedic are
se ason
Ġsent iment
ĠX box
or able
Ġcred ibility
Ġbot hered
pr ising
Ġimpl ied
Ġtutor ial
Ġlist ing
Ġstimul us
ĠBel g
ĠFin ancial
Ġalign ment
ĠF L
f igure
Ġn arc
Ġinput s
ĠTh ought
l ord
ate ur
ilib rium
ard o
10 5
ĠCent ury
Ġspe nds
olute ly
Ġret reat
at ivity
Ġvill ain
Ġr ated
ĠSt ories
Ġfac ulty
Up date
T im
Ġn ap
Ġstart up
Ġappe aring
Ġper ipher
Ġspect acular
st age
w oman
ĠJ ere
oub ted
Ġqu eries
J ames
l ambda
Ġgreen house
arm ing
Ġspin ning
ĠA le
Ġke en
Ġunt o
Ġcou pled
Ġtravel s
Ġat omic
ĠK ids
Ġcook ie
Ġgal axy
ĠEm peror
o ids
ĠP D
Ġprov isions
ex cept
ĠA my
Ġcru ise
te lling
ĠStud io
Ġdelic ate
Ġsubject ive
ĠSu ccess
ĠCub a
T Y
Ġcol ours
ĠIs n
p owered
Ġrel ies
r ors
less ness
Ġg auge
ĠSh akespeare
ĠF R
at ched
Ġw ax
ĠK night
Ġ ic
ur ring
ou ri
Ġremark s
Ġj azz
ab e
Ñ ı
Ġve t
th ood
ĠW ow
Ġprospect s
ation ally
ke ep
Ġmetab olic
ploy ed
Ġgener ates
J ack
Ġknock ed
Ġblank et
N ode
T em
S am
ĠNAT O
w ould
Ġm s
ĠE c
Ġsomet ime
ber y
Ġwithdraw al
Ġpred omin
yl on
Ġdevelop s
th al
ĠP il
ĠM ort
att oo
Ġill um
Ġexpect ation
c ond
Ġso y
Ġye ast
ĠE li
Ġind ivid
Ġbless ed
ĠF ollow
Ġp ussy
Ġn erves
et al
ĠT ree
ĠAnt i
ĠÂłĠÂłĠÂłĠÂł ĠÂłĠÂłĠÂłĠÂł
ĠĠĠĠĠĠĠĠĠĠĠĠĠĠĠĠ Ġ
98 1
Ġb ang
Ġrep orters
ĠI R
of fee
h u
Ġexp ose
Ġcount ed
the ir
Ġlast ed
Ġfore x
L ove
ĠS oul
Ġobst acles
te ch
ut il
ĠM oscow
Ġins isted
Ġ/ **
ĠH E
r r
Ġj am
hel p
Ġu m
ĠC rit
ĠT el
Ġp ork
t arget
Ġreal izing
Ġcap ac
Ġbl own
Ġle ase
ĠL iter
su per
Ġpath ways
se a
Ġconcent rated
ann on
pt on
Ġtri ple
Ġge ometry
Ġth igh
Ġmob ility
un ny
T otal
am ic
ĠBel ow
ĠRob in
Ġl ane
U RL
ĠRep resent
ĠG arden
R ob
Ġquestion ed
h ill
al g
Ġst ared
ĠR ating
ĠR AM
Ġval ve
Ġvirt ue
[ "
ul ously
ĠOx ford
al ine
Ġcomment ed
c ra
ĠG ary
av irus
an ed
ĠD M
Ġres il
Ġsuspic ious
Ġh ips
Ġd inos
ĠJ erry
Ġl os
ess ert
op ing
Ġpubl isher
Ġvacc ines
ĠSum mer
ĠM iami
Ġd war
ĠF inal
Ġdist ances
and om
ĠX ML
Ġfrank ly
Ar ray
ĠOlymp ic
Ġtri v
Ġgr ams
Ġde er
Ġd amp
ĠB B
ĠH o
ĠD ru
A lex
ĠK ate
Ġfast est
Ġmand atory
g t
ov ascular
Ġdiam ond
pl ot
ade qu
Ġdeploy ed
ro lling
Ġste aling
Ġfe ather
Ġvol umes
Ġvill ages
ĠBre ak
Ġback s
Ġmeant ime
Ġfar ms
Ġw ounds
s q
if iable
Ġwal let
sc ill
Ġbe es
ke e
enez uel
T ry
Ġbu cket
P ublic
ĠN ar
Ġintu itive
n om
M ac
ĠAp pe
Ġbo il
Ġen abling
Ġw ires
Ġcl ause
Ġman kind
Ġcourt esy
ĠO regon
Ġ\ <
Ġclean ed
Ġtest osterone
ch ildren
Ġf og
Ġtrans cription
ĠD uke
Ġam endment
Ġsufficient ly
ĠÂ ·
u er
Ġst ab
oy d
ĠD J
Ġbl owing
r ays
Ġdis par
Ġsurg ical
ĠW inter
Ġch uck
Ġan k
Ġexhaust ed
n or
ĠH art
b ul
Ġteen agers
ĠVe gas
ed ed
Ġbe nd
ut ives
Ġexpl ored
ĠS W
Ġmag azines
Ġnight mare
ĠH ub
Ġam id
Ġgame play
Ġrel ates
ĠPhil ip
Ġch apters
Ġden ial
Ġf el
Ġpot ato
ĠJon athan
Ġcan cell
ve t
Ġm aker
Ġg em
ij ing
Ġwr ist
Ġth ou
ĠPr im
Ġdevast ating
it ic
Ġinsp ire
Ġpresent ing
Ġanal ogy
ĠJust in
ain able
ĠB irth
ĠN ap
OM E
Ġmut ations
ĠG O
Ġbehavior al
Ġblock chain
ĠB alt
Ġcare ers
Ġany time
Ġmolec ule
cl osure
oubted ly
ĠB h
ĠHarr is
l ie
Ġclar ify
Ġcle ans
Ġfar mer
Ġantib iotics
Ġd ining
Ġâ Ĥ¬
Ġworry ing
ĠG host
g irl
Ġbreast s
ĠTest ament
Ġep it
Ġcinem a
ĠDet roit
Ġr ushed
Ġimp ly
Se lect
Ġnurs es
Ġsell er
Ġcons iders
~ \
Ġreform s
ĠW isconsin
ĠDiv ision
Ġalleged ly
Ġd ictionary
Ġenzy mes
ĠCent re
Ġacknowled ged
Ġbet ting
Ġflav ors
Ġselect ing
Ġex ert
atern al
Ġh ind
ĠD I
Ġcom ed
OR D
ĠA ward
Ġan throp
Re al
n an
Ġconsist ing
Ġimp ose
ĠAn na
Ġb icy
Ġque ue
Ġtrop ical
Ġâ ī
ĠNot ice
n u
ĠN ice
Ġdirect ors
Ġwh oles
Ġtempor arily
Ġneed le
k h
ĠT aking
Ġdr ill
ĠAs sembly
Ġpe e
Ġtrave lling
cer pt
Ġ/ *
d ney
Ġabsor ption
P ublished
Ġ" ""
Ġpers istent
Ġmanip ulation
Ġw ished
Ġske pt
Ġanaly tics
D ev
ĠN ich
Look ing
Ġh ills
Ġbr on
Ġcateg or
ĠL as
C ome
m ill
v ity
ĠE mb
ĠH erm
W atch
ä ½
Ġmodel ing
ĠRel ations
N T
Ġdeb ts
Ġann iversary
Ġinvestig ating
AC T
Ġplace ment
R ich
Ġmic row
ĠT otal
Ġclick ing
ĠS L
ain ts
Ġillustr ate
Ġcor rection
Ġnow adays
Ġteen ager
ĠC ulture
Ġb ree
Ġfun eral
ĠF ortunately
Ġview er
Ġdest ructive
Ġautom ation
ĠG ordon
ĠD ur
em on
ot te
iss ance
ĠRes erve
Ġch unk
Ġst ain
Ġlaund ry
I X
Ġaccommod ate
Ġmat ched
ĠIn v
ĠAnt on
Ġch ron
ĠM ovie
Ġco aches
Ġr ude
ĠP itt
ĠT ib
am iliar
v s
hat tan
Ġgovern ance
m ma
Ġinter ven
Ġher bs
Ġl aughter
Ġhost ile
Ġwar fare
ik h
Ġaffe ction
Ġresist ant
ro d
uff y
jac ent
ĠPh ill
Ġca ffe
ĠCir c
Ġrif le
c ir
Ġadvoc ates
ĠCh air
Ġham mer
ĠK al
Ġgr ades
ĠS ite
Ġschem es
Ġf are
ĠW onder
sum mary
It s
ĠDown load
Ġdom ains
ĠÎ ±
ĠD rive
d est
l on
f und
ĠHop efully
ĠM erc
Ġper sec
ĠRes ults
ĠWe ight
Ġle ap
ĠL arry
Ġsubsc ription
pp y
Ġmid st
Ġspell s
ĠAb raham
Int erest
ach ment
ĠB io
Ġmemor able
Ġcommand er
RE E
if ference
Ġencoura ges
Ġsc am
Ġteen age
he ll
ĠWalk er
Ġstr angers
Ġbo ats
Ġcurric ulum
ĠM obile
ak h
ĠAr k
ĠAtt orney
Ġse iz
Ġt ales
ias m
iz ational
G ame
97 5
ur ate
Ù ĩ
ĠHam ilton
Ġrend ered
Ġsc oring
J ul
yp ical
l ay
e ffic
97 3
ĠEngine ering
4 50
um ph
le nd
Ġman uscript
ĠT arget
Ġd uck
o ard
Ġcab inet
w atch
ens itive
Ġdepos its
Ġnic he
Ġle ver
Ġsc attered
Ġwat ches
Ġ: -)
ire ction
s cience
ĠPol and
Pr int
Ġinhabit ants
Ġ Ø§ÙĦ
Ġind ul
ĠR achel
Ġan ime
ĠMar g
sc he
Ġbacter ial
Ġelect rons
ĠTh or
Ġmaxim ize
T W
ĠLa ure
Ġapp l
dr ates
Ġan at
ĠF le
Ġthat s
ĠB art
ĠSus an
ĠIsland s
an ol
ĠBlog ger
Ġtw isted
ĠFor um
Ġclin ic
ĠS ave
it utes
Ġcust ody
Ġquick er
Ġport able
Ġcoc onut
s un
Ġfl aws
gg y
ĠS ud
Ġst eroids
Met hod
ec onomic
ĠPhil adelphia
read ing
Ġ{ \
Ġarrange ments
Ġsc are
ĠH ans
ĠO nt
P ort
Ġform ats
Ġimmun ity
Ġup s
Ġtrans it
Wh ite
le ans
ĠChrist opher
ĠAust in
ãĢ Ģ
Ġver bal
Ġdes irable
allow een
Ġgorge ous
Ġgu ides
ĠS i
Ġdigest ive
ĠJ en
Ġcat alog
ĠScott ish
ĠMin nesota
Ġpers pectives
Ġl ig
Ġfra g
ibl ings
ĠWe re
Ġreal ised
Ġant ioxid
96 8
Ġliter al
Ġall iance
Ġdecre ases
å ¤
on ies
ud ed
Ġmedic ines
Ġbro ker
sequ ently
å Ī
Cont ent
Ġun limited
Ġhilar ious
st ru
Ġl y
D I
Ġenc rypt
Ġrank ing
Ġf ierce
Ġfinan cially
UT C
Ġunf old
Ġrecycl ing
Ġs ab
Apr il
im en
Ġanim ated
Ġp ap
Ã© s
Ġins ure
P ut
Pres ident
ĠD omin
p ay
H O
Ġlack s
Ġfool ish
a eda
g ro
Ġvoc abulary
ĠC ool
ment ioned
ĠTok yo
ĠC lean
Ġrender ing
ĠSt orm
ink le
Ġenzy me
Ġcelebr ity
r us
il ateral
n ut
B ase
ĠNe ither
Ġincorpor ated
Ġsign aling
is en
Ġfinan cing
Ġresearc her
Ġhard est
Ġsec ured
Ġdec omp
= {
en cer
Ġrecept ors
ĠNew ton
st ud
st ory
Pro f
depend ent
Ġm asters
Ġint imate
Ġpropos als
Ġincent ives
est ly
ĠIns urance
ri ved
Ġde bris
Ġoblig ations
uls ion
erc ise
bet a
Ġcann abis
N O
Ġco aching
Ġdefic iency
Ġj ar
Ġg um
Ġdismiss ed
light s
Ġexplo it
Ġbr ow
op ard
IG HT
Ġblack s
ĠCam eron
Ġcl ay
Ġrad ius
Ġhier archy
ce nding
Ġdatas et
Ġup side
Ġaccount able
ĠTre k
ĠR ow
Ġconsider ations
ĠF ast
Ġtub es
Ġforg ive
ĠAut o
Ġrenew able
t oo
ann ah
ili ation
Ġassoci ations
j amin
Ġcon ve
ĠSt ation
Ġcrypt ocur
ĠV ari
Ġnit rogen
ĠGen erally
Ġcomp os
Ġplug in
ĠAd ams
å ħ
Ġhead ache
he a
Ġstret ched
Ġint act
Ġref uses
Ġindivid ually
ĠAn imal
ĠJ ake
ĠTe a
Ġcert ified
Ġsubstant ially
aus ible
Ġincl ined
Ġliber als
Ġl ou
ĠI BM
or neys
P T
ĠO tt
Ġsp awn
Ġaw ards
ĠEd ition
Ġtom atoes
enn es
Ġsubsc rib
int age
ĠC ro
at able
96 9
Ġab ol
J une
form ing
Ġnutr itional
Ġa rom
IC E
Ï ģ
Ġscr ut
Ġpro xy
Ġsens ible
Ã ł
Ã £
Ġpark s
Ġp ier
bor ne
Ġess ays
ĠK han
Ġlic ensed
gu ard
As k
Ġthr ust
and ra
Ġmanip ulate
ĠS ent
Ġb od
Ġinc om
ph abet
Ġpredict able
Ġlone ly
Ġtherap ist
Ġl enses
Ġdet er
97 2
t or
en c
Ġassum es
ĠK ansas
c ost
ĠB iden
ĠL ost
In tern
Ġair line
us ually
ĠC orn
it err
ĠI F
ĠCh i
Ġunder go
Ġrisk y
ic ism
ĠR y
Ġsw ift
ĠG ot
ĠH oll
Ġspe lling
ĠOrgan ization
IT H
gen eration
ĠDise ase
he imer
Ġgas oline
math bf
Ġentreprene ur
Ġgover ning
Ġs ulf
Ġunw anted
Ġpre f
ĠCh a
ĠAr ts
ĠDe pending
Ġplant ed
Ġdipl om
Ġn ause
Ġs rc
Ġclean er
rep resent
- \
ĠPh D
M arch
ĠB uck
Ġgl uten
Ġfr idge
Ġtrans mitted
m ia
ĠNether lands
em ail
âĢĿ ?
9 45
Ġsh aft
u u
Ġpositive ly
Ġtheat re
Ġval ley
Ġdis charge
ĠO ak
Ġdistrict s
and o
C ould
om o
Ġdi ets
ĠT rib
M ult
mm etry
Ġin clusion
ĠMar ia
Ex ample
ĠQ ur
97 6
mm m
Ġch im
Ġstra ins
Ġch airs
Ġnegot iate
Ġs ins
Ġcont end
Ġhand les
Ġmay or
ef ined
Ġsad ly
ĠAl aska
ĠR ap
ail and
ĠBill y
Ġguess ing
Ġbelong ing
Ġmart ial
ĠN at
Ġca ut
e or
Ġimpl icit
ob ia
ĠJ oy
do ors
it ives
Ġaest hetic
P ol
Ġo we
Ġdistinct ive
ub s
Ġ$ $
ock er
ĠAct ive
ĠD al
P O
Ġwor ries
pro du
Ġw aking
head s
un ci
unt ime
ack ed
Ġorder ing
10 2
onom ous
ain er
Ġlog s
ĠD ays
ens or
Ġalumin um
ĠD allas
pack age
with out
ple asant
Ġper t
s a
ĠN BA
Ġg ases
ze ch
f at
ĠMc G
Ġpursu ing
n n
is ive
Ġdo ses
ell ar
ĠArch ives
Ġtriv ial
Ġtr ump
Ġsh ine
C urrent
Ġv on
int o
E mail
Ġreven ues
S un
uck er
out ing
an ne
ĠG raph
ĠBr on
Ġcomb ining
m ult
ĠW oman
Âł ĠÂł
Ġcar n
pro ject
Ġsix th
Ġorgan isations
Ġo ct
ĠA G
Ġchop ped
Ġpot ent
Ġhe ck
N N
Ġt ense
ĠS el
Ġsens ory
fl oat
own ers
Ġgu ided
Art icle
he nd
Ġmed ieval
Ġfix ing
ble ms
R ober
ĠIndones ia
Ġp ine
ain ted
Ġcr ude
hand ed
Ġsp otted
at ers
ĠEx ample
Ġm aj
Ġca red
Ġo w
Ġind igenous
ĠUp on
ĠWork ing
ig g
ĠF arm
bal ance
Ġneg lect
Ġinstall ing
Ġu pt
Ġvis a
Ġdark er
IT Y
ah u
act ly
Ġharm ony
ed e
ick er
ĠH app
ĠS ac
Ġrou ter
t urn
or ial
Ġdisc ourse
ĠT ru
indu ced
ut ers
ĠR oom
Ġm all
Ġsw ear
Ġopp ose
och ond
Ġsc roll
Ġbe e
Ġsu g
m id
Ġrep ository
W ow
al ities
Ġde ployment
ĠRog er
96 7
greg ation
ĠL oc
ĠSt ra
Ġelement ary
Ġclos et
ĠL en
Ġstret ching
7 50
Ġfor k
ak u
Ġfo am
um bers
Ġmean ings
ro le
ĠI RS
Ġsub str
Ġw iki
ĠProte ction
Ġrest ored
Man ager
is ite
Ġpast a
Ġm att
Ġcol ony
Ġinspe ction
Ġsusp ension
Ġc ater
Ġwarm th
Ġre un
Ġexec utives
Ġband width
m itting
Ġfor ums
ĠP oll
Ġaff irm
Ġfict ional
Ġhost ed
Ġprior it
Ġcolle ges
a que
ĠSim ply
ab ama
ĠCorpor ation
ĠW ait
OR T
Ġb ru
Ġb ip
ĠP ap
Ġc age
ĠT ower
Ġsurround ings
Ġcitizens hip
oca ust
Ġc yn
ĠC urrent
ĠWh it
Ġfree zing
Ġlike wise
Ġpack et
ĠTal iban
Ġsurv iving
Ġint ro
t xt
Ġthe rapeutic
R T
Ġmis con
Ġvend or
f ood
ĠE le
ĠL am
Ġsurviv ors
Ġsystem atic
Ġse aled
p rop
f our
Ġph ases
Ġattach ment
ĠM ail
uh ammad
let te
Ġpron ounced
Ġiniti atives
Ġemp athy
hav ior
Ġenc ryption
o ks
im als
D a
Ġaw aken
ĠC row
ass ador
ĠH ind
Ġsimilar ities
P ass
Ġpro be
ock et
ĠElect ric
Ġtransp arency
iterr anean
Ġs ized
M M
Ġd essert
Ġfundament ally
er gy
Ġth under
Ex pl
Ġmanufact ured
ac hers
ty pes
place ment
Ġret ro
parent s
it i
ĠBe yond
Ġmill enn
ud a
& #
Ġto es
Ġvari ant
may be
Ġreported ly
Ġb ast
ĠM ale
Ġadjust ment
Ġcomple ting
Ġpres erved
Ġshock ing
it ol
s igma
ĠD oc
AR D
Ġmer it
ĠFore st
Get ting
Ġcon sec
Ġre ception
Ġhousehold s
Ġsam pling
Ġl iv
am er
ĠR ule
Ġpract iced
Ġenc ounters
vel ength
ĠG re
Ġrest ing
Ġg ad
ĠN ev
Pro v
Ġcan cel
ĠRE AL
âĢ Ĭ
ĠB L
Ð ¼
ĠAll iance
in is
AS S
Ġvot er
Ġinter vals
ĠR u
Ġsimpl est
ci pl
Ġs add
H y
ĠInt egr
Ġje ans
Ġhe x
Ġmark ers
id o
ĠB os
In c
Ġtrig gers
b us
Ġport ions
b ug
Ġast on
Ġcool er
ĠArab ic
Ġsci ences
Ġpre cip
Ġm asks
ĠC ole
ĠFest ival
ĠPh oenix
Ġcan on
y les
Ġdifferent ial
Ġpromot es
ĠO d
cl ient
Ġoccur rence
Not hing
Ġin adequ
ĠV enezuel
Rep ort
ĠRub y
in v
Ġun common
ĠWar ren
s n
Ġmethod ology
f ox
sm all
ust ral
Ġthick ness
ĠPro blem
Ġspec ulation
ĠGr ant
ĠAl ong
Ġprotocol s
Gr oup
IV E
ĠO scar
Ġri p
Sub scribe
ot on
J es
Ġprotect s
c ourse
ĠC urrently
ĠD rug
Ġmiss iles
rim inal
r iction
ĠSpe ed
Ġad jacent
Ġphys icians
Ġres ign
Ch ina
S L
p it
Ġt v
ass y
Ġtim eline
Ġare na
Ġorgan ism
ĠM atter
m outh
á »
Ġb og
U t
c it
od a
IN T
Ġn il
ĠNiger ia
Ġun aware
AT H
Ġdist ress
V C
Ġveter an
ll i
Ġsupport ive
Ġnon etheless
Ġinher ited
ne xt
0 80
atur ally
Ġmark er
} ^{
ar in
r ates
ĠPhilipp ines
ĠS ales
ĠRes ources
Ġwe ars
Ġjewel ry
Ġh obby
ĠPrin cess
Ġas y
J uly
ik ed
ĠC over
worth y
ĠTes la
Ex p
ĠP ed
ĠL isa
ĠW ords
ed uc
Ġp sy
Ġpil ots
bl ue
t i
ĠB ond
sh ine
Ġad mission
Ġcar go
O H
in formation
Ġf aint
Ġjun ior
Ġsocial ist
ĠU b
Ġinf erior
à¤ °
97 7
E urope
Ġn ails
ĠCl imate
ĠSt ri
Ġeduc ate
Ġball ot
Ġlegisl ative
ĠHun ter
Ã Ĺ
Ġpo ems
ĠT un
int egr
Ġval ued
ĠT itle
head ed
Ġsever ity
Ġenthus iasm
Ġd ile
ĠA aron
Ġout right
Ġelect oral
ĠN intendo
in f
res ult
I B
Ġfart her
Ġadm ire
Ġch ill
Ġpip es
ĠB ear
Ġstress ful
ĠS olar
Ġelimin ating
ett ings
Ġcal ib
Ġw ipe
Ġsl im
Ġprim itive
Ġr ays
nd ant
arm ed
Ġoverwhel med
ont in
D i
97 4
rol ogy
t rain
urb an
Q U
Ġsymb olic
Ġor b
ur bed
ĠEm ploy
Ġcrowd ed
ĠC SS
Ġresident ial
There fore
ĠT ob
ĠBe ijing
res pect
Ġsand wich
Ġab used
ĠF ish
d ot
Ġtreat y
Ġadvent ures
ĠR T
Ġcl usters
b ird
Ġhum ble
Ġo scill
ĠD ri
Ġmarket place
Ġe ld
Ġher b
id ated
Ġsc ent
Ġper fection
Ġdig ging
ĠRec ords
Ġreli ability
Ġfre ak
Ġperform s
. ),
Ġrig id
ĠE VER
Ġfair y
Ġs iblings
ĠMc K
Ġcar riers
Ġhighlight ed
Ġcaffe ine
c am
ĠI l
Ġhot els
Ġrem edy
Ġinvestig ations
g reat
Ġmer cy
ir ation
... )
Ġmir acle
Ġinqu iry
Ġu b
Ġdis gu
ĠSaf ety
itzer land
V ery
Ġtaxp ayers
ĠC and
Ġbudd y
od s
o i
Ġbl o
Ġvari ants
Ġretail ers
Ġdeb ates
Ġintention ally
ĠBow l
l ad
Ġd y
Ġfather s
With out
ced ented
ĠM ight
Ġsexual ity
cl ose
ĠUS D
Ġtour ism
f an
ĠHawai i
Ġded uct
ĠK ings
ĠG it
Ġcondition ing
Ġu k
Ġcur se
Ġrepe ating
d oes
Ġche ek
O ld
ĠF el
ĠG er
Ġre jection
Ġgr ants
k ens
ĠJ obs
Ġmut ation
c p
St ream
clip se
ĠMalays ia
G reen
j ack
Ġwar rior
Ġdepart ure
Ġintr ins
Ġt il
ent ions
Ġact ress
ĠWal ter
Ġar th
H appy
M AN
Aug ust
Ġf usion
ac o
ĠUp date
Ġce ase
Ġappropri ately
ĠCam bridge
ĠRom ans
ĠN G
Ġdr one
C lient
Ġmod er
Qu ery
Ġutil izing
Ġnever theless
Ġfil ing
Ġpro ving
Ġam bit
ĠFranc is
Ġob taining
ĠCon vention
Ġdet erior
he res
Ġk g
Ġkey word
Ġc ables
im ity
f u
Ġsle pt
ĠEx change
Ġpl aint
Ġhabit at
Ġmod ification
Ġnot ably
utr ition
Ġlo vers
ĠRuss ians
10 3
24 0
ĠMin istry
Ġl uc
olit an
Ġsat ur
l ab
ib bean
ĠC OM
Ġ+ =
L ocation
N G
ody nam
ĠT ar
A cc
Ġextract ed
m ount
AT A
Act ually
az i
ĠAl f
ri pp
Ġrep ay
Ġprin ter
Rec ent
ĠD B
sh ore
Ġan gel
Ġarg u
Ġam azed
Ġdress ing
ĠN ULL
Ġl en
Ġchar m
om orph
Ġwe ed
ĠPh one
ĠG as
ĠGo ing
Ġwarn ings
Ġwork force
Ġun pleasant
Ġswe lling
f amily
Ġar ter
Ġf t
Ġto dd
per ties
Ġparad igm
g rav
Ġa uction
Ġadjust ments
c ertain
ĠSh adow
Ġsur render
Ġsn ack
ĠRus sell
Ġunh appy
ĠRem ove
P eter
h ile
Ġconcept ual
inst all
k it
ĠT ro
Ġad ul
Ġar ises
lah oma
Ġpre st
ĠP ic
ĠOr leans
H ar
Ġund oubtedly
Ñ Į
Ġsp inal
ĠSe an
Ġab st
s erver
person al
ryst al
Ġf oster
ĠSt ars
D el
Ġmand ate
Ġpress ures
Ġimag ery
ĠJ u
ĠHell o
Ġsear ched
U G
ĠE ye
Ġund ers
p df
ĠW ales
Ġtrad ers
ĠM ade
/ .
Ġwilling ness
Ġcolon ies
me an
Christ ian
Ġproject ed
est one
ĠM aterial
Ġprosec ution
ipp i
Ġsyn c
10 4
ĠF ried
ĠW y
Ġsu ng
il on
ĠE asy
Ġconduct ing
D ep
ĠCh rome
Ġinterview ed
ro b
Ġath lete
ĠT a
ol ver
ĠP u
á ½
du ctor
ĠProt est
Ġdign ity
ĠH alf
ĠPat ri
ÂłÂłÂłÂłÂłÂłÂłÂłÂłÂłÂłÂłÂłÂłÂłÂł ÂłÂłÂłÂłÂłÂłÂłÂłÂłÂłÂłÂłÂłÂłÂłÂł
T ags
Ġanaly zing
a iting
ĠGab ri
Ġad vers
Ġen comp
Ġmer ge
{ {
× Ļ
ĠOver all
Ġc ows
Ġportray ed
ra c
Ġv ic
Ġbu cks
ĠLar ge
2 20
ĠĠĠĠ Ċ
Ġsan ct
Ġtra it
Ġindic ators
97 1
ĠAl bert
Ġright eous
ĠMc Donald
ç Ķ
che ll
Ġsubject ed
Ġpl un
Ġcomp iled
Ñ ĭ
Ġinter mediate
ĠF unction
Ġu mb
yn asty
es ar
oust ic
ash a
ce ans
In s
ĠWord Press
Ġnorm s
ĠIndian a
ĠD ictionary
Ġcapital ist
ant i
Ġcommun icating
Ġtra ff
Ġremote ly
ĠP HP
Ġter rain
anc ers
Ġinsert ed
ĠCB D
Ġin appropriate
Ġur l
ĠBe gin
n amed
M ag
n c
iz ens
h alf
ĠÂ ±
Ġauthent ication
ĠLink ed
W ater
at ured
Ġwe aker
ĠL ind
ï¿½ ï¿½
ffic ial
ĠB ureau
Ġpri ests
Ġl ion
Ġan not
ick y
ĠOlymp ics
Ġvamp ire
s ince
ge nder
oth s
ĠP as
Ġhapp ier
omed ay
Ġpat ches
ĠCast le
Ġlearn s
et o
ĠN ep
Pro ject
ĠC ert
Ġt in
ĠImper ial
Ġl id
Ġcho oses
U r
ass ert
T ell
Ġfaith ful
Ġburn s
FF FF
ĠI owa
Ġexp on
Ġsimpl icity
Ġex otic
ot ive
ĠAny thing
Ġequ ilibrium
ĠD ocument
Ġo s
Ġcl iff
Ġre lying
St op
oss ibly
ĠS amsung
Ġped est
Ġfeed s
N D
Ġn urt
Ġtw ins
ĠEn c
Ġint eger
Ġlast s
ĠCom b
H L
ĠEx cept
ĠPrin ci
ĠW right
Ġby pass
osp here
ĠV oice
Ġbless ing
em ia
Ġinterfe re
ax is
ac re
Ġcolle ctions
ĠSer iously
B uy
Ġth rive
st ation
g ien
ĠSt ay
ch air
Ġit er
Ġout fit
Ġtal ents
Ġinherent ly
p c
C r
Ġconfirm ation
d id
ĠE aster
Ġflaw ed
ĠRe pl
å ®
ĠC V
S ch
Ġu h
Ch ris
om ers
Ġst ew
Ġprosper ity
l ate
Ġaccord ance
1 12
Ġcompl iment
ĠEv il
at isf
Ġt oug
D eb
Ġt attoo
Ġpharm aceutical
H as
Ġd well
cell ular
v oc
m ad
Ġconnect s
Ġfoot print
Ġcur ves
Ġdeli vers
ĠD er
Ġactiv ate
ci ble
an ity
Ġinc ap
Ġmis leading
Ġed itors
ĠSy dney
Ġbas eline
Ġm ol
Ġ} );
Ġorig inated
roph ic
pr ises
F our
al an
Ġres ent
ĠG ard
Produ ct
ĠS pect
Ġz e
Ġair plane
s qu
port ation
Ġout lets
b ag
Ġsl ides
Ġthe or
Ġlow ered
ĠK id
Ġeth n
Ġblog ging
fe ld
Ġref und
B ay
Ġrest art
ĠC G
App le
ĠBar ry
if i
ĠD ouble
Ġretrie ve
ĠS F
ri ages
ĠMed iterranean
Ġgl oves
Ġdemon stration
ĠLe v
S O
Ġlegend ary
Ġjust ification
Ġsequ el
Ġpop ul
Ġvine gar
Ġassess ed
Ġbomb ing
ĠH ost
ĠA x
Ġcl ues
Ġwas ting
Ġdies el
ĠM oses
Ġaw hile
Ġmusic ian
Ġal igned
Ġmos qu
ap pend
Ġqu arters
p ol
t own
Ġgl ow
Ġfr iction
ur red
ĠFA Q
Ġmid night
N Y
.... ..
Ġvi agra
Ġworksh op
Ġloc als
Ġn inet
Ġbed s
Ġheav ier
Ġr h
H C
Ġsum mon
Ġsli pped
Ġunpre cedented
Ġvalid ation
p rivate
Ġambit ious
Ġcr ushed
Ġpro lif
Ġpix els
el ed
ĠC M
Ġsu cked
Pl ay
Ġon ion
Ġter ribly
ĠG ate
ĠDep ression
view s
C ap
Ġart work
æ ĺ
ĠR ing
ob i
ĠEv olution
Ġl ing
Ñ ĸ
Ġl amp
Ġex cluded
ats on
Ġobs essed
ical s
ĠAl t
P I
Ġprot esters
Ġstim ulation
Ġp itc
Ġsw itches
ific ant
Ġrefe ren
Ġearthqu ake
Ġst adium
Ġfe ared
Ġc hess
Ġp ython
p her
Ġex tending
ĠHe at
Ġmin istry
Ġsuscept ible
Ġcent ered
ment al
C ase
Ġw icked
at ility
Ġu l
ĠEm ily
Ġlength y
Ġp ione
Ġmed ian
Ġde hy
ĠV ice
Ġthr one
ia o
Ġann ually
ey ed
r ator
Ġjud icial
J apan
j un
verse ly
Ġtun ed
out heast
Ġs igh
Ġv ivid
Ġrespond s
Ġteach ings
ĠVictor ia
Ġreg ression
ĠFrank lin
Ġcoord inate
Ġdefect s
Ġcomp iler
Ġequ als
Ġarch ae
Ġhead aches
d rate
Ġdistrib ute
Ġdon ations
ĠB R
Ġble w
ĠUt ah
ous ing
Ġobserv ing
Ġtrad ed
Ġend orse
im eter
Ġ( (
ĠE dd
Ġtri angle
ĠCommun ist
Ġdis like
ur ious
ĠM ong
Ġcommod ity
" ,"
Ġtel esc
R un
Sh ort
Ġinf ring
E lect
Ġtox ins
Ġment ality
11 5
AS E
E lement
a is
ĠPolit ical
Disc ussion
Ġstim ulate
f ill
Ġpix el
Ġdem ons
ĠGra ham
Every thing
h ou
Over all
Ġmain tains
Ġper f
Ġtrib al
ĠMot or
Ġcustom s
aur us
cont rolled
Ġf oul
Ġpar a
Ġd ated
om on
Ġobsc ure
Ġcalcul ator
Ġflo ors
ĠY u
Ġpost ure
Ġbull shit
ĠTh ailand
ĠSw iss
ot ine
S U
qu ery
ĠMil itary
Ġev olving
Ġrece ipt
96 5
Ġachieve ments
Ġf ist
Ġag gression
Ġt urt
ed er
mb ol
set t
out e
Ġcomp ute
. *
D ig
Ġreprodu ce
exp ensive
Ġrank ed
id get
Ġt ennis
eng u
Ġfin ances
Ġcollaps ed
ĠEx amples
asc ript
A I
ĠP i
Ġsupp liers
Ġcons cience
V M
em ade
H E
ĠF ra
ig nt
S il
Ġunst able
ĠK ill
ĠG R
Ġeleg ant
Ġim pe
g it
Ġfuck ed
Ġun belie
Ġtow el
Ġanticip ated
ĠZ ero
S en
Ġimm ort
Ġcardi ovascular
ĠTib et
ĠM is
ke eper
Ġsurve ys
ang ular
g on
Ġallerg ic
> ,
D irect
ĠCr ime
N ational
Ġsk etch
Ġste pping
ĠSe ven
Ġapolog ize
Ġj umps
ĠLib ya
Ġdial ect
Ġzomb ie
Ġa unt
Ġcomp ly
ĠBas ic
ĠOffic er
Ġcle aring
Ġfortun ate
Ġpenal ties
Ġsm arter
Ġw ont
Ġref ined
Ġle nding
rit ers
or p
ĠMar ine
Ġsl og
M ike
the m
Ġche ating
Ġdem ographic
Ġmach inery
Ġhur ting
Ġun healthy
just ice
ĠSci ences
sel s
ih ad
Ġcreep y
Ġup ward
} _{
Â ½
Ġtem p
ĠP in
Ġnew est
Ġkick ing
Ġcounterpart s
ĠH ero
Ġdepend ence
m t
ĠFriend s
Ġinc oming
Ġinv ari
Ġf ried
Ġsuper hero
io let
Ġpr ayers
er red
il ight
ĠProp het
ter ing
Ġbl ah
iz on
A K
Ġsk i
ĠExper ience
Ġprot agonist
Ġpl ural
ĠEm ma
ĠThom pson
ĠTH AT
R ad
Ð ´
ĠF al
Ġ$ (
ĠÃ ¢
ĠLaw rence
J im
t ake
iv an
æ ĸ
Ġcr ush
heart ed
Ġdownload ed
ĠSp ot
iss ippi
oot s
mod ern
Ġl ord
Ġgall ery
ĠB ah
Ġcontrib utes
O per
r idge
Ġch rist
Ġp iv
ĠC hat
Ġteasp oon
Ġch in
ĠSa fe
pl er
ĠP el
Ġli b
Sp ace
Ġtrad em
ocy tes
ĠMan hattan
Ġsqu ir
ĠM es
Ġb um
Ġsup reme
æ Ī
ER T
Ġhalf way
Ġver ified
Ġsl ope
Ġb ore
Ø ¯
P ower
Ġcolle ague
ĠIS IS
ĠN elson
Ġanaly sts
ĠLib eral
Ġ ÂłÂł
Ġoptim istic
V ol
Ġiron y
Ġhel pless
L in
Ġun ch
ĠK rist
il itation
Ġmin us
Ġalleg ations
Ġinter ventions
Ġm uc
m el
Ġsympt om
ĠPlan et
ĠCra ig
ĠGen esis
Ġdisp osal
ĠSwed ish
ĠDe cl
ĠPer formance
Ġnegative ly
ĠGirl s
Ġtw ent
B ill
ĠR O
Ġimport ed
Ġsquee ze
Ġtou ches
Ġprem ature
Ġd orm
ĠAl abama
oc ide
Ġhead quarters
dep th
ĠP ir
ĠC el
er ie
Ġdiscuss es
post ed
Ġdos age
ĠO liver
% %
Ġan gels
Ġback ward
ĠComm ons
ĠSw itzerland
T urn
ro ach
pre m
Ġjurisd iction
Ġtr unk
Ġret ention
Ġn as
Ġh ipp
Ġworth while
ĠHT TP
am as
Ob ama
se lling
Ġsp oon
Ġdiagn ostic
Ġdistract ed
Ġsmooth ly
m essage
ent ric
Ġal beit
Ġwa velength
25 5
ĠCo oper
Ġin h
Ġsw ap
ĠGuard ian
Ġtheir s
Ġsur geon
ik o
Ġener get
ĠPhys ics
Ġint oler
Ġillness es
av ascript
w estern
ĠSte wart
im ages
Ġcoord inates
_ \
b ly
Ġd ice
Ġbit coin
Ġac ne
Ġweakness es
up iter
M al
Ġk ings
S uch
Ġen rich
Ġsy rup
L R
Ã£ o
TH E
Ġcar b
Ġwrit ings
Ġen han
ear chers
Ġbo iling
Ġhead lines
Se ptember
Im agine
Ġex empt
th ree
Ġdoub ts
ĠT ogether
Ġextra ction
ĠH alloween
ĠS ounds
Ġox id
ĠM uhammad
Wind ows
96 4
Ġinspir ing
Ġc ement
Ġman eu
Ġpersonal ities
Jan uary
ĠTreat ment
prot ected
ennes see
Ġemphas ize
ĠF inn
Ġl ined
A ir
j ava
å Ĳ
Ġch asing
Ġjournal ism
ĠCom plete
Ġsynt hes
Ġbl amed
Ġwin ners
Ġh ug
ĠT itan
Ġse ct
Ġintrig uing
Ġpo ker
iv ia
Ġatt orneys
ĠTre asury
Ġinter rog
Ġenjoy s
Ġad ren
Ġdra gged
ĠGra ce
us r
ignt y
ul u
Ġvan illa
S omething
Ġapp ar
Ġpreval ent
Ġallerg ies
Ġast hma
Ġtag ged
g ue
ers ed
4 01
Ġbi om
Ġt id
rolog ical
l oc
ĠMar io
ĠSuper man
Ġdon ate
al ph
ĠQu ant
ĠMem bers
Ġtrad es
Ġreprodu ctive
Ġpres idency
Ġfert ility
ĠPri ze
Ġle ct
ĠCustom er
Ġpubl ishers
ic iary
Ste ve
Ġargu ably
Ġsound ing
Ġrest ra
Ġreal izes
ĠWay ne
Ġlink ing
Ġmiser able
è ¿
um bs
Ġh ij
Ġide ological
Ġremember ing
Ġcompet ent
Ġvir gin
Ġdep icted
Ġfig uring
ĠAn cient
Ġl ining
Ġabund ant
Ġthreat en
Ġra id
Ġnumer ical
ĠAv atar
ateg ories
?? ??
Ġto e
ĠB ir
ol ics
St atus
Ġport al
Ġdipl omatic
o j
im ental
Ġtrans plant
ĠC her
ĠL uther
Ġaccess ed
ĠB eng
st d
Ġhum idity
Ġsent enced
ĠStr ong
Ġindu ce
Ġimp air
ĠSte el
ĠInd ividual
Ġfavor ites
ĠM ix
Ġarch ive
ĠBudd h
ason able
Ġpassword s
ĠGal axy
Ġdefin itive
Ġhed ge
OV E
Ġfl ux
st atus
Ġt an
Ġem ission
. /
E p
Ġconst itute
ĠSen ior
Ġs ighed
ĠS weet
ĠM R
s ure
Ġg ates
ĠC zech
ĠCar ibbean
ĠA venue
Ġmicrow ave
ĠAr ctic
Or ig
Ġpar an
Ġprop osition
Ġor th
ĠW el
) /
Ġpro pe
ĠCom put
ul k
ĠExec utive
Ġmight y
qu er
Ġtom ato
Ġdr ought
Ġmod ifications
, [
ĠS add
S outh
Ġbre w
Ġcolor ful
go vernment
uck ed
Ġprompt ed
Ġenerg ies
Ġsuspect s
qu ot
ms g
Ġconsult ation
Ġparad ox
ĠW ik
Ġass ure
im ore
Ġoptim ize
ass ium
è ¯
Ġpe cul
Ġdecl aration
Ġred irect
ĠM ut
we re
ĠSp ider
ĠF ace
Ġgre ed
Ġbul lets
IM E
ĠB Y
Ġterr ifying
Ġru ined
Ġfl ames
Ġrab bit
Ġwhis pered
Ġadm its
Ġg i
ĠK ay
Ù Ĳ
Ġ ï
Ġde put
ĠB ird
Ġcarbohy drates
cess ion
Get ty
Ġcoll ision
ĠP rior
Ġcost ume
Ġdead line
} {\
Ġb aked
âĢ ²
ov ies
Ġexam ining
o ft
Ġind o
Resp onse
Ġrele vance
Ġdom inate
or ate
ar ium
Ġsuspic ion
ex ec
Ġrevel ation
Ġst un
sh irt
ĠD ub
Ġconsult ant
ĠAr c
S M
Ġstri ve
Ġw ives
ĠÎ ¼
B ad
re hens
ĠOnt ario
Ġshort s
Ġdiscover ing
K ing
ke nds
Ġorgan izational
Ġphotograp her
Ġinterf aces
ĠP os
Ġorgan izing
Ġpossess ed
Q ue
og ram
ĠAtl anta
Ġir regular
Ġroutine ly
ĠE T
Ġfib ers
line ar
ĠF an
Ġsub mission
e cess
il ers
Ġve gg
iet h
L ab
ill es
ĠK arl
ĠAr ound
Ġpublic ations
ial is
Ġempir ical
k ill
Ġty r
10 6
Ġsustain ability
ĠP un
Ġsuper natural
Ġdesp air
Ġarri ving
ades h
Ġint ric
d ration
ĠB oo
A ccess
Ġhead line
Ġcrowd s
Ġlog ging
Ġint ensive
Ġfrag ile
i w
ĠD anny
Ġfound ing
ĠW ant
Ġbl onde
Ġon set
Ġcontem pl
Ġexch anges
ĠR ules
Ġnotice able
Ġo ste
ett a
17 0
iv ities
ĠCertain ly
Ġsp ider
Pre vious
itch ing
oll o
ĠUn it
Ġshort age
or o
Ġappe als
Ġna ive
eral d
Ġatt ain
Ġstat ue
Ġpy ram
s v
Ġt et
Ġb oun
ĠZ ion
she ll
Ġcoast al
S em
ĠR ot
ir al
mer cial
Ġrep airs
ĠSh i
ĠE ar
ĠE gg
ĠJ oh
Ġcred entials
Ġ( \
Ġgl ue
Ġviol ations
umm ies
? âĢĻ
ĠE instein
T unes
ĠDe al
iv o
Ġunderstand able
ĠSe pt
Ġstorm s
ĠM ine
ar gs
Ġcontact ed
t ically
Ġprolong ed
ĠL oss
Ġaccount ability
d ie
Ġst alk
ĠFe el
Ġout lined
Ġso cks
Ġbra ke
Ġdefin ite
ĠEurope ans
Ġlength s
L atest
p ent
ĠPl ayer
Ġcomp ile
eng ine
Oct ober
ĠArgent ina
/ >
ĠEss ay
Ġout look
P ay
Ġb ikes
p ad
ĠI an
ĠIS BN
Ġnews letter
n ings
Ġh ockey
Ġur gent
Ġrecip ient
Ġtime ly
Ġdecre asing
ĠSand ers
Ġbre ach
Ġdon or
ax ies
Ġk icks
( [
r ise
F in
Ġsh red
reg n
ĠL ower
se lect
Ġf isher
Ġm um
Ġsh iny
st an
ig ating
m ag
F ollowing
ĠU C
rend um
Ġglob ally
Ġl ump
ĠT erry
H uman
m ons
Ġev ac
Th ings
Ġhar ness
) ]
Ġp osed
ab a
Ø ª
Ġpal ace
c ity
Ġst oring
Ġactiv ist
ĠPh ilos
Ġbeaut ifully
D D
Ġa ster
Ġstick y
Ġsovere ign
rop y
int ed
Ġst ove
ĠP ow
an cies
Ġpe pt
Ġpl ausible
Ġinflamm atory
Ġmyth s
Ġauthor ized
Ar ch
Ġa fore
J oe
. (
ĠUnivers al
v iol
ĠG B
ĠBl oom
ĠL ex
Ġcycl ing
Ġoff spring
OU T
Wr itten
Ġanten na
Ġo l
U K
Ġcertain ty
Ġatmosp heric
Ġdent ist
ĠLe gal
et e
Ġlower ing
Ġacceler ation
E qu
ĠClear ly
ĠF ri
ĠInt roduction
ynam ic
ir i
ne x
Ï Ĥ
ĠEn joy
am y
ĠEth i
ĠF ab
n ull
Ġst ole
Ġpig s
Ġpr ince
Ġven ue
Ġcomp ress
ĠPre p
ĠL OL
Ġrest riction
R O
Ġref using
Ġhe els
L ocal
Ġunp redict
Ġmel ting
Ġpl ots
uff le
In it
p rom
Ġrelax ing
H ub
Ġcompl ained
ĠL iber
Ġpun ished
Ġm esh
B rit
w ait
Fr ank
pro file
ĠIn side
N OT
ar an
Ġproceed ings
× ķ
ox y
Ġnutri ent
Ġserv ants
ĠLe ave
ĠP O
Ġsub set
e le
ĠPol ish
ah l
iny l
Ġchair man
et ooth
Ġsl ots
ĠNot es
Res ult
ĠAgain st
Ġsecret ly
ĠAut om
Ġex h
ĠInterest ing
Ġout doors
Ġvalid ity
Ġgr im
Ġreal ization
Ġfavor able
Ġthought ful
Ġpupp y
Ġcomm itting
Ġillustr ated
Ġparticip ated
Ġroot ed
ĠNor way
Ġfeas ible
pe at
Ġvis itor
ĠB M
he at
ĠT ag
Ġsmell s
Ġun av
Ġcra cks
Ġperm its
Ġby te
Ġanch or
Ġb acon
Ġfemin ist
ĠMove ment
Rober t
Ġappro ve
W H
Å į
Ġden ying
Ġeye br
ogen esis
Ġ Ñģ
Ġg y
ĠCh uck
Ġl itter
Ġen v
op ping
Ġcomprom ised
Ġpred ecess
Ġgrad uated
AC E
ĠV iol
ĠL aura
new s
Ġl bs
ĠPl ant
itor ial
Ġra ck
Ġsm ok
ĠPark er
er ness
ĠOr ange
ĠJeff erson
av an
olog ic
Ġdisappoint ment
ĠReg ardless
ote in
Ġdr own
Ġrel ieve
ĠV irtual
Ġext ensions
he y
r oup
ĠS ize
Ġsymp athy
ec hes
Ġel astic
Ġshout ed
Ġes p
fun c
Bl ue
Ġjudge ment
Ġag gress
ĠV R
Ġind oor
Ġde ple
Ġdon ation
ĠZ one
Ġw it
Ġembarrass ed
Ġpack ing
Ġs arc
Ġinstruct or
ĠG rey
ge nds
hem atic
Ġk idding
ĠM essage
Ġeconom ists
Ġphys ic
Ġcan cers
Ä «
Ġill ustration
Ġste ering
Â «
Ġprot otype
Ġaccum ulation
is ure
ĠPer iod
Ġpus hes
Ġpro jection
att ed
ĠAp ache
S end
Ġdu ct
Ġincon ven
J on
Ġpo inter
Ġcoord ination
Ġgest ure
.' '
ĠFa ith
Ġstar ter
Ġsuff ers
Ġgl oss
Ġcoc aine
Ġveter ans
l oss
Ġincom plete
c ott
C ent
ĠF if
ĠC ars
Ġconf ess
Ġlad der
Ġrelax ation
Ġbl ows
me aning
St and
F ore
Ġhun ter
ĠBen jamin
ĠVal ent
Ġyog urt
Ġdem ocr
Ġvulner ability
ĠC ris
ot ox
Ġqu o
Ġam ateur
icular ly
l ove
am ation
Ġtoler ate
en ment
Ġdeal ers
Ġcompar isons
Ġ( !
ĠOk lahoma
year s
Ġse ized
ĠW ang
ag u
Ġvis ually
ĠG ent
Ġlog ged
D NA
Ġmas cul
s ky
Ġg n
requ ency
Ã º
Ġminor ities
Par am
ĠBrother s
Ġst ems
ke eping
G old
Ġmon key
ĠK urd
N orth
Ġbe an
il ia
j ob
Ġbal ancing
Hel p
ĠGl ass
Ġh ollow
Ã ĥ
Ġdisci ples
? ).
op ed
Ġreluct ant
Ġpat ron
ĠP rivate
Ġhop eless
Ġpos es
Ġconj unction
G ive
ĠL inks
Ġser um
ĠMarsh all
Ġs ang
Ġle nd
ĠSt atus
Ġembarrass ing
Ġv ow
Ġall y
val ues
AR S
ĠRob inson
ast ics
ĠY ellow
H R
Ġmention ing
Ġpros pective
Ġeconom ically
Ġcrit ique
f ont
ĠP ing
ĠL ock
Ġbund le
E s
oc he
Ġrecommend s
C OM
ĠO racle
Ġtri umph
z heimer
Ġle nder
ĠPet e
Ġhelicop ter
Ġthank ful
r il
U ntil
rom agnetic
10 8
ĠStud ent
Ġg ospel
Ġam p
Ġrem oves
Ġreal ities
Ġwar mer
ĠP ink
ĠPer l
ĠResp onse
Ġun le
In put
leg al
( {
ĠComp anies
ĠDes cription
ĠMary land
Ġc er
Ġp oured
Ġvers es
Ġh ay
own er
Ġscar ce
Ġbackground s
ĠKnow ledge
vel t
Ġpol ite
in come
f illed
Ġg it
Ġiniti ated
ĠEp isode
Ġdistingu ished
f alse
ĠY ang
Ġexpect s
Ġlim bs
ĠPalestin ians
Ġsad ness
Ġse min
Ġanaly st
l ings
Ġn ipp
Ġen large
cl er
br al
Ġswe pt
uls ive
Ġtax i
Ġpractition ers
ĠBrook lyn
V ersion
ov id
ues e
ĠPer ry
ĠE at
Ġinc ub
Ġhonest y
Res earch
Â Ĵ
ĠÎ ²
â Ķ
Le vel
Ã ª
ĠApp lication
ows ki
ĠR ice
ĠLike wise
Ġdis reg
Ġlock s
Ġshel ves
ah n
ĠD A
Ġflu ids
Ġconfront ed
ov ation
Ġmess y
Ġfore head
36 5
Ġconf igure
Ġst are
ĠP oor
ĠPract ice
ĠWhe never
Ġh i
st eps
Ġcr ashed
Ġde af
Ġeditor ial
ĠAdv anced
S everal
N eed
ĠN ort
Ġappear ances
ĠX P
EN D
Ġproceed s
Ġirr ational
Ġdes cent
Ġtra ject
Ġo mn
ĠP retty
Ġpun ct
Ġinteract ing
Ġpean ut
ĠK irk
Ġinvestig ators
ĠT odd
ĠE P
p us
Ġfl ick
Ġpoly mer
uck ing
s al
ĠMay or
ĠMiss issippi
Post s
d it
ĠA V
Ġe ats
Ġout break
Ġfra gments
Ġb ounce
in ja
ĠUp dated
Ġmar vel
ĠH ait
Ï ĥ
Ġlean ed
Ġint ens
ic iency
Ġpack s
Ġdeliber ate
n orm
Ġreb els
ĠE M
ĠT ask
Ġbicy cle
Ġathlet ic
Ġthe e
F ood
Ġpe as
10 9
Ġrecord ings
Ġvis ibility
Ġf ox
cont in
mmet ric
boy s
Ġon ions
c ould
ĠB aker
K S
Ġr ides
Ġread ings
Ġspecial ists
U RE
or iginal
Ġgam ers
om i
math rm
Ġbi ased
Ġsm iles
Ġand roid
ĠD NS
Ġt roll
Ġch i
ĠG T
ĠK am
ĠEnter prise
ĠAr n
ĠPro du
ĠL ot
Ġver dict
Ġkind ness
Ġconf ined
Ġz oom
ig hing
ĠB us
ne um
Î »
al ia
grad ation
ĠEnvironment al
Ġmess aging
Ġicon ic
se nd
ub le
Ġyoung est
Ġcan vas
Ġpl ag
ĠProduct s
ank ed
ĠSing le
ĠK u
ĠBarb ara
Ġhook ed
z ero
ĠLead er
ĠB oe
ĠG A
De cember
ĠMiss ouri
Ġannoy ed
Ġphys iological
Ġexerc ising
Ġball oon
ĠĠĠĠĠĠĠĠĠĠĠĠĠĠĠĠĠĠĠĠĠĠĠĠĠĠĠĠĠĠĠĠ ĠĠĠĠĠĠĠĠĠĠĠĠĠĠĠĠĠĠĠĠĠĠĠĠĠĠĠĠĠĠĠĠ
ĠD iam
ĠThanks giving
K nown
Ġchar ming
ch ant
ap olis
Ġthy roid
he rence
Ġvoc als
ĠLeban on
char ged
Ġantib odies
ed i
ul as
Ġreb uild
ĠK ir
ĠCh ile
ul us
ĠCons ult
Ġcop ied
Ġreflect ing
Ġselect ive
ĠO t
Ġt a
inn amon
p osition
De velop
ĠSam uel
8 50
w ife
ĠF ocus
ĠChar acter
Ġdisc retion
B ra
ĠHot el
ert o
ĠR F
Ġscan ning
we alth
ĠFed eration
Ġdeterm in
Ġri pped
ĠR PG
ĠG L
Ġneighborhood s
Ġoverlook ed
Ġinc idence
import ant
Ġind ef
Ġ ÂłÂłÂł
Ġprolif eration
Ġban ana
Ġf itted
ĠS alt
Ġinterrupt ed
Ġcred ible
Ġj ourn
but ton
Ġmeaning less
ĠTor ah
Ġins ufficient
Ġend ure
Ġhyper t
Ġcl one
play ing
ort ing
Ġbrid ges
ush i
Ġrev ision
Ġconsist ed
ore m
x it
umb ing
he im
ĠUn cle
ier re
ĠN ancy
Ġrat ios
Ġhypot hes
ĠAl pha
Ġsl aughter
Ġsoci o
Ġgard ens
m any
Ġh ates
level and
bet ween
Ġorient ed
ĠPop ular
Ġtast y
Ġshare holders
Ġcondem n
Ġborrow ed
âĢ Ĳ
Ġd in
Ġn g
ĠN ixon
Ġprison er
Ġconcept ion
Ġpecul iar
Ġrul er
Ġuns ure
ĠDo ing
ot hing
ĠNY C
Ġt read
ien cies
ĠK le
Ġdiv isions
ig ger
Ġinter section
U P
Ġme g
Ġreward ing
Ġincomp et
Ġh ints
Ġche f
Ġ ip
ĠP ra
Ġexhib ition
ĠNob el
Ġtransf ers
tain ment
Ġrefres hing
ĠG ates
ĠK erry
Ġwar riors
Ġcorrect ed
Ġret ained
Ġoffer ings
l ang
com ed
ĠChall enge
" ><
ĠT s
ĠG ay
Pro perty
ĠTh ai
for cing
Un like
Ġca f
Ġgrav it
Ġd ots
Ġchick ens
Un ited
Ġbub bles
U lt
Ġhel met
a urs
ĠHar per
ĠB S
Spe aking
over ing
Ge orge
E V
ĠT ypically
fe eding
Ġlegit im
Ġexp orts
Ġguarant ees
2 10
ĠCh ron
Ġident ities
Ġflu oresc
Ġtum ors
Ġele phant
Ġsim ulations
Ġmarg ins
Micro soft
ĠR ic
ign ment
Ġreview ing
96 2
z illa
es ian
âĢ ³
Ġstuff ed
Ġfin est
ĠT ennessee
Ġdr ift
met hod
GB T
Ġle aning
Ġforb idden
ĠG N
Ġvolunt ary
ĠON E
ener gy
Ġrum ors
Ġru ins
form s
sen al
Ġbelie vers
Ġcoll ar
Ġskept ical
Ġcl ips
ĠJenn ifer
ĠO ri
Ġco h
Ġdiv or
Ġlaunch ing
Ġs i
Ġv icious
ĠC F
C am
Ġse as
Ġcal orie
m un
Ġn aming
Ġcont ing
S n
ĠI gn
13 5
Ġfre el
Ġjud ged
Ġkiss ed
os ion
Ġa ids
Ġconsult ing
g ae
ĠB eth
Ġveget arian
ign ant
th r
ĠOr thodox
Ġcert ification
ĠPolit ics
Ġsatur ated
ang a
Ġcritic ized
Ġmet all
Ġhold er
Ġtow ers
am bers
ill o
Ġquant itative
Ġgrat itude
Ġhands ome
Ġunf amiliar
ĠL ion
Ġadministr ator
Ġdepth s
ĠMichel le
ur ations
Ġo ceans
v ari
Ġoper a
yl um
ĠO ptions
ok u
m ight
Ġcor rid
Î ¼
mod ule
Ġopp ression
Ġoverl ap
Î ²
Ġaccept s
Ġun real
Ġbl ades
Ġblog ger
Ġprin cess
Ġsl iding
Ġbus h
ri ans
10 7
Ġparent ing
ĠS end
Is rael
N ovember
Ġvers a
Comm on
Ġpro l
Ph ot
Ġdel ays
: \
ab olic
ĠL ots
l iter
ĠM ist
Ġus ername
Ġs ixt
Ġintrodu ces
ĠT ool
ans hip
2 01
qu o
Ġcosm ic
Ġmagn ific
Ġsc ra
ĠÂ µ
ail ure
ict ures
ĠRon ald
Ġtempor al
Ġl ob
ĠIn fo
Ġserv ant
T oo
ĠÐ ¿
Ġcommer ce
x ml
Ġin acc
cent er
ĠIss ue
Ġstake holders
k an
Ġtw itter
ĠN ag
Ġwip ed
Ġdict ators
96 6
^{ -
ĠP ubMed
Ġgen etically
ĠEd ge
w ick
ĠD ak
Ġrevers ed
! ),
Ġresearch ing
ĠDoug las
Ġ ).
Ġhe ars
Ġcyl inder
ĠA gr
het ical
Ġspokes man
ut er
Ġmit ochond
Ġcra cked
K n
ask et
Ġeval uating
Ġback pack
Ġshr ink
S ite
Ġve in
Ġto ps
out ube
uss ions
ĠL ang
Ġpharm acy
Ġd ug
ĠNe il
Ġdece ased
Ġal right
Ġstat ute
Ġparticip ant
Ġcreat ors
Ġbul b
Ġelev ator
bl ood
Ġtact ic
ĠR ou
ĠCirc uit
Jes us
ĠHis pan
ĠP ant
Ġche at
Fr ame
oose velt
od er
Ġinform ative
Ġharm on
ins ula
un c
h im
ox ide
ĠA A
Ġassemb led
ie ce
Ġland sc
ĠSur v
ĠR ound
ch y
ine e
Ġcomb ines
ĠW or
Ġroll er
b irth
F ire
ĠG and
ĠNaz is
ĠN A
Ġharass ment
P H
Ġst yl
Ġsh ining
! '
L aw
Ġcomb ust
Ġimpact ed
Ġb iblical
coh olic
Ġconfig ured
Ġware house
Ġher s
Ġle v
Ġpharm ac
Ġfro st
Ġarth ritis
ĠGr ay
est ock
ĠT ools
ĠW ed
Ġsoft ly
fact ory
app er
ĠBudd hist
og s
Ġpiss ed
ĠT her
Ġfound ations
Ġund erest
ĠÃ ł
uk a
ab etic
Ġpat rol
Ġtur key
Ġconfident ial
A ction
Rec ently
a cious
ie ves
ven ant
ĠTh an
requ est
Ġprob able
Ġbet s
Ġmob il
ĠLuck ily
Ġref in
Ġcelebr ating
b rain
Ġenvelop e
k t
Ġobs ession
Hist ory
o an
Ġall ocation
ĠAr ist
Ġide als
Ġmat urity
Pl us
v ic
Ġe tern
Ġimper ative
ĠEr ror
it ored
oy s
Ġbus es
Ġb ats
Ġstri ps
ĠF ear
P ack
val id
ĠL oad
ĠRec ord
ĠK el
Ġsil k
Ġterr itories
infl amm
Ġrefe rendum
l ance
ĠP od
the ta
Ġintern ally
Ġcontract or
Ġface book
Ġth irst
Ġal phabet
Ġcorrespond s
Ġman if
ĠN BC
Ġgen etics
Ġunw illing
Ġsovere ignty
or ne
ĠV o
Ġhy gien
ĠFr ame
Ġremem bers
P o
ot ional
Ġposition ed
96 3
ĠV PN
Ġcard iac
Ġhur ry
ri ad
Ġprohib ited
p aper
w ave
orth y
m ont
Ġan est
Ġlimit ation
r ative
ĠI Q
Ġt ide
Ġbreak through
at ics
Ġtra ces
Ġliber t
Ġsevent h
B ob
Ġt ones
ĠF alse
Ġsymp athetic
ĠQ uality
Ġref lex
Ġadminist ered
Ġeven ly
Ġ-- >
Ġport rait
ĠB ec
ĠH at
Ġover load
Ġfact ories
Ġoffe nded
Ġident ifies
Ġment or
ĠK l
Ġenc oding
ĠPhys ical
Ġcl an
ĠS oph
/ **
Ġsimilar ity
Ġwh it
ĠY ahoo
Ġoff line
Ġsub conscious
Ġgl imp
Tr ump
Ġdr astically
Ġdest iny
Ġsh ipped
Ġdomin ance
C M
uz zy
Ġstub born
aunt ing
Ġglimp se
c orn
im edia
Ġsqu ares
Ġmurd ers
sq rt
Ġal k
ĠP and
ĠCl ose
ĠLe o
ĠConst ant
Ġfore most
ĠM ission
ort ions
Ġdown ward
ĠF O
Ġpoint less
Add itional
Ġt ant
ĠFant asy
Ġgr ind
ĠIndust ry
Ġillustr ates
stand ard
Ġi Tunes
ĠR isk
Ġprint s
Ġst unt
Ġab rupt
accept able
let t
ĠCr own
ĠD im
Ġgal axies
f iles
ib les
Ġmon itors
Ġext r
ĠCru z
ar at
ĠBob by
m ble
Ġin expensive
Ġg inger
Ġcelebr ities
re lla
Ġun related
Feb ruary
Ġaut onomous
Ġsal vation
ĠCol omb
Ġsy ll
Ġtrain er
ĠConserv ative
C are
Ġwe ld
Ġpass ages
w al
Ġround ed
Ġre de
ĠTh r
ĠLouis iana
Ġgod dess
ĠStr ateg
Ġash amed
Ġinadequ ate
w orm
Ġl ur
ĠV itamin
ĠDe fe
Ġmet adata
ĠR ace
Ġcoinc idence
T erm
er vers
ĠB ed
Ġremain der
ĠKe ith
ic ut
Ġb apt
Ġhy pe
reng th
Ġub iqu
Ġbl at
Ġrail road
Ġcommun ist
M aking
Ġl ust
ore n
Ġpro state
Ġle x
ĠT error
Ġpill ow
unci ation
Ġli ed
Ġaccess ories
Ġtend ed
ĠDen ver
Ġcand le
Ġdil ig
Ġinstrument al
Ġritual s
< <
th ose
Ġinform al
Ġexplos ive
ub ric
b ial
L ater
uff s
Ġmor ally
ĠCl ar
Ġco herent
ĠL LC
n ik
ĠJ i
Ġcar bs
+ \
p ract
Ġc iv
ĠR ate
Ġinv itation
uss ia
Ġsystem ic
Ġarm ies
ott le
ld om
L ess
on ce
n ational
Bl ock
ect ive
Ġpersonal ized
Ġpre tending
ĠSh ar
Spe cial
com merce
ne red
ĠJere my
) }
grad uate
Ġwre ck
D an
Ġfl ush
ve c
ĠF isher
Ġstri pped
Ġmamm als
b usiness
f its
Ġseason al
Ġprox imity
Ġsur plus
bour ne
Ġstead ily
Ġaud it
spe c
ĠM orm
ĠVill age
ĠCon sequently
ie re
Ġper ceptions
Ġshoot s
Ġreprodu ction
Ġec ological
Ġover ride
Pr ot
fe ed
Ġtaxp ayer
Ġmel ted
Ġpreval ence
Ġones elf
ill ary
ĠH ab
og ens
ĠPerson ally
ĠCal cul
Ġslic es
ol in
Ġbl ink
ĠDoes n
Ġs omeday
Ġassign ments
ount ain
Ġc uis
ĠW ays
Ġover weight
W ait
k u
Ġcr unch
ĠUk rain
H H
Ġimag inary
Ġcon gest
Ġrepet itive
Ġsn acks
ĠM Y
Ġbrows ing
Ġspe cially
S W
c op
Ġpsych iat
Ġcompre hend
Ġpred ators
Ġcomp ost
the se
Ġviol ated
Ġenerget ic
ub a
Ġsal aries
c ause
Ġbull ying
up date
Ġb ool
Ġinf ilt
op athy
un less
Ġcompens ate
Ġsuper f
Person al
Ġche eks
iv als
Ġyell ing
ĠFoot ball
Âł ĠÂłĠÂł
C ross
Ġtransport ed
Ġvib rant
Ġshell s
def ined
Ġdish on
Ġver ification
ĠLuc as
Ġcontext s
Ġconsec utive
ĠK az
Ġdes erved
$ {
OU R
Ġexplo itation
is le
Ġap ost
ĠV M
ĠM aj
ĠA RE
ĠPer fect
Ġsocial ism
co very
ĠK or
Ġspir al
y nt
C lear
Ļ Ĥ
ĠR ail
ĠAl zheimer
sh ort
Ġsem ester
Ġv est
Ġban ner
Ġdepend ency
Ġp ains
ĠM IT
Ġmail ing
Ġdupl icate
Ġext ensively
os ures
om ical
Ġdon ors
Ġa u
Ġr ug
Ġdisc ern
Ġrun ner
A f
Ġdi arr
Ġpre fix
Ġam using
Ġamer ican
us ers
Ġinf amous
ĠL an
Ġemer gence
ch at
Ġp estic
ĠKent ucky
Ġsh o
f ed
ere k
ĠS old
ĠL iver
Ġeffic acy
S cient
B ER
ĠP E
amp ed
z an
ist ered
Ġab oard
Ġsu ite
Ġmon ument
9 48
B usiness
ĠDa wn
ĠD aw
ell ed
Ġor ph
Ġsum s
am ac
l ower
Ġembra ced
Ġdile mma
Ġmal icious
blog ger
Ġconstit utes
Ġloud ly
Ġex cerpt
Ġ} ;
Def ault
Ġscholars hip
opt ions
Ġdetect ive
ĠDet ails
Ġap pend
ĠBr un
Ġjun gle
ĠT ab
Ġjud ging
Ġsh irts
ĠE ight
Ġscrew ed
ĠGree ks
iz en
p ages
Ġ ....
ia z
å ľ
Ġinval id
ris k
m il
ist ical
Ġquestion able
Ġve ins
j oin
M iss
f alls
W omen
Ġre he
act ivity
) =
Ġex cell
Ġsum mit
Ġtrans cend
ĠOr d
ild e
ĠBl air
Ġdistrib utions
6 50
ĠNo ah
Ġclos ure
Ġconnect ivity
ul er
h ai
Ġborr owing
ĠC u
qu estion
Ġdis able
as ia
Û Į
Ġrec alled
ĠMar c
Wh atever
ĠAg ent
ĠMad ison
3 20
Ġdis abilities
Ġrecogn ise
ĠMur ray
on ial
Ġdig its
Ġhistor ians
ĠY emen
Ġtempt ed
um i
Ġimmigr ant
IN D
M ad
ĠAb u
Ġto kens
Ġtem plates
Ġcy t
à¤ ¤
Ġmir rors
mpt oms
c ook
ĠReg ister
Ġey el
she et
Ġunder water
Ġdiff ers
Ġshout ing
Ġsupp lier
Ġfright ening
Ġun a
Ġsit uated
st ill
Ġexc uses
Ġshoot er
Ġassert ion
ĠSadd am
ĠSc reen
Ġle nders
Ġnew born
ari us
is ers
ĠR oosevelt
Ġpublic ity
C ategory
Ġtransl ates
ĠAir port
ĠBudd ha
ĠPalest ine
Ġ ions
Ġtoss ed
ĠInst all
al one
b ands
Ġspecific ation
ĠVen us
ĠMe chan
11 3
Ġsal mon
Ġsec urities
Qu ick
G P
ĠIsa ac
ĠMon th
Or der
Ġad ject
Ġdev ote
or b
dis play
Ġqu art
ix el
he et
ĠProfess ional
J ew
iz oph
Ġaim ing
Ġinf ants
l n
Ġbod ily
Ġparagraph s
ĠP erm
ĠL td
ĠVol ume
^ {\
ic i
Ġbl adder
Ġple as
Ġbattle field
le en
Ġev angel
ĠBen efits
f re
Ġe g
ra ising
Ġwor m
W ant
Ġwild ly
Ġlaugh s
S al
c hen
Ġgl orious
ĠCor ps
ĠS yn
ĠHol ocaust
Ġp umps
Ġdevelopment al
Ġprogram mers
ri en
Ġhas s
Ġlisten er
ĠAuthor ity
Ġprofess ors
op py
Ġbroad ly
Ġclim bed
M el
Ġanaly tical
Ġappl iances
Ġbl ues
Ġlim b
Ġno od
Ġtim er
ĠF ix
ĠContin ue
it ating
Ġafore mentioned
Ġbr ide
Ġprosec utor
ĠSad ly
at ible
Ġo z
vas ive
, ''
AR R
Ġro de
Ġsubsid ies
0 24
ĠW atson
Ġbl unt
Ġneut r
u ced
Id ent
Ġsun ny
ne a
Ġf ade
S ty
pro gram
Ġchamp ionship
S erver
Ġdifferent iation
ĠT on
ĠTh u
Ġso cket
ĠMan chester
oss ip
Ġdig estion
Ġcontract ors
ĠShe l
Americ a
Ġrel ent
Ġcr ashes
ĠT err
Ġcle arer
M uch
Al tern
T L
Ġobs erver
Bel ow
Ġsick ness
Ġhistor ian
Ġad hes
Ġpre view
Ġr ay
Ġrecogn izing
m ode
Ġdown side
ĠH yp
ĠSpecific ally
r ina
V P
AR E
re ne
28 0
Ġmicro phone
Ġdr ums
Ġac oustic
Ġcirc uits
Ġlot tery
Ġmon itored
D am
Ġiron ic
ĠT iger
ĠC AN
ĠFin ance
Ġex terior
: "
g ov
h ouses
ol ith
Ġinherit ance
Ġcor related
Ġper missions
ide os
Ġdemonstr ating
Ġown ing
ĠSc ore
ĠMem ory
Ġpr iced
ĠT u
us c
ĠMet al
ĠA IDS
ĠS kin
Ġal ot
Ġpre lim
requ ently
Ġbelong ed
B esides
un it
ĠNe uro
ang led
com ments
C at
ĠUnder standing
Ġmush rooms
ĠS uddenly
orn s
izoph ren
ple ment
re ctions
he ight
E LL
Am ong
ĠR aven
Ġtra ps
ĠL em
Ġl act
Ġve ctors
Ġen vision
Ð ¿
ustom ed
Je ff
Ġde gradation
ĠHol mes
ĠO ption
Ġdraw ings
Ġins ists
ĠD ear
Ġbureau cr
ĠColl ins
Ġgraph s
Ġnom ination
ĠPar ad
icult ural
Ġpool s
Ġcan ce
l anguage
Ġcryst als
Ġall ergy
Ġa kin
ĠJud a
ar u
ĠJ upiter
B D
Ġd urable
op hers
Ġmerch ant
Ġkilomet ers
Ġno ises
Ġback yard
ĠSt alin
im ination
ĠW ard
Ġthe ology
Ġlisten ers
Ġrel ied
Ġcapt uring
ĠRec ently
Ġalt itude
t ree
ĠR ush
Ġlear nt
re x
ĠF err
l it
ĠF ac
ĠN ear
ĠEx cel
Ġwel comed
Ġform ally
Ġrese mble
ĠK it
" ...
Ġmerch and
ĠStan ley
G H
ĠSh a
ĠAnd re
Ġp unk
Ġdifferent iate
Ġdid nt
Ġcl o
Ġdisg usting
Ġmus cular
ĠUs ers
Ġmot ives
ĠCol lect
achel or
L ight
Ġel bow
Ġo t
ĠP ad
à¤ ¿
y y
ĠC leveland
Any one
Ġm ph
Ġtrou bled
P an
Ġepid emic
ĠAg reement
ĠMor ning
Ġext inction
ĠP icture
Ġprompt ly
ĠO z
Ġt sp
ows er
Ġafter math
Ġm use
Ġwee kends
Ġintention al
Ġinflu en
Ġ ),
um at
Ġrest oration
claim er
R N
Ġc ube
Ġaut onomy
ĠArch itect
c ence
g amma
Ġa ka
Ġcontinu ity
Ġmot if
ĠG on
Ġtang ible
Ġdown s
ĠCath olics
Ġm aid
ĠA ld
ĠN an
ĠSl ow
Ġa we
Ġc ad
ĠUb untu
Ġenjoy ment
Ġsp ill
Ġtruth s
ĠC ash
Ġsu e
Ġprogram mer
Ġdry ing
ĠG em
m or
ab i
hys ics
Ġconver ting
Ġcont empt
Ġ ë
ci le
Th read
ĠG aza
Ġattend ance
Ġat ro
ĠJam ie
q us
Pl an
Ġt ile
ĠDel hi
ĠE S
g ling
Ġcompat ibility
Word Press
Ġmal ware
Ġt ensions
ĠMy st
ent ry
Ġreb el
Ġground ed
ĠÂ §
Pro cess
Ġcounsel ing
rim p
Ġst air
Ġrese ar
Ġgall on
Ġzomb ies
Ġattack er
hed ral
con text
ut t
S an
ĠK an
Ġbur nt
ĠC offee
Ġz ip
yl an
lic ations
ĠCamp bell
Ġh ast
Ġprejud ice
Ġperipher al
Ġch ore
Ġwhis per
Ġsort ed
Ġf ills
per ature
I ES
Ġrebell ion
Ġsh ades
G M
Ġche w
Ġplant ing
ĠH ills
Ġpaper work
Ġv intage
reat ment
part ial
D epend
ĠR SS
ĠF ew
Ġsubsc ribe
Ġpl ac
Ġwand ering
Ġdisput es
E ss
g ra
ĠSt ream
Ġcar cin
Ġcrit ically
ex port
Ġconv entions
Ġupd ating
Ġend urance
ĠPC s
Ġmotor cycle
Ġw ield
ĠPortug uese
Ġab usive
Ġtact ical
12 1
Ġcollect ively
Ġsh ark
ĠN SA
Ġur ged
Ġgrand parents
ĠW elcome
ĠSud an
Ġformer ly
Ġbree ze
R andom
t ax
ĠP le
Ġh uh
12 7
Ġjo ins
Ġproceed ed
ill ery
ĠÂ «
Ġdis ruption
Ġwhere by
Ġlegisl ature
ĠC ape
empt y
Ġp ity
Ġaccum ulated
er k
Ġhorr ific
Ġher d
ĠHe nd
Ġartif acts
Ġw ool
id i
Ġdr ones
Ġsport ing
Ġsoci etal
Ġd iving
ĠA part
Ġtradem ark
ĠKn owing
Ind eed
ĠPers ian
ĠLibert y
Ġremed ies
Ġcon ced
Ġimag in
Ġreward ed
Ġl ame
ag ging
Ġcoron avirus
comm and
Ġli king
ĠK aren
med ia
Ġrefrig erator
Ġindu ction
ĠM ason
Ġinfect ious
act ers
ec d
ĠC ou
Ġcompr ised
we lling
Ġbit es
ĠScient ific
d elta
st ars
d ouble
T ech
ĠGr iff
ĠMorr is
[ /
our t
udd y
Ġob ey
Ġdisappoint ing
ou ver
Add itionally
Ġadvis or
Ġsl ap
C ong
ĠN ash
Ġdis asters
O p
ol an
Ġgu ild
Ġnucle us
Ġswe ep
m itt
M att
N ov
ĠMult i
Ġdiscl osure
ĠSub ject
ĠCub an
s in
Ġle aks
Ġt am
Ġneighb oring
Ġtor ch
Ġbench mark
Ġdr ank
Ø ¨
Ġair lines
2 30
ĠÐ ²
Ġhes itate
r ase
Ġup right
Ġwrest ling
Ġeru pt
Ġcheap est
ĠW ire
ange red
Ġpr aying
Ġt iles
Ġun b
ĠPal in
Ġfemin ine
art icle
oura ge
ĠD raw
b ath
Ġp ins
Ġposition ing
ank a
e val
ĠK os
Ġobs ess
Ġgovern ed
D s
Ex per
Ġhun ters
ĠE b
Ġpsych ic
ent a
Ġcur rencies
Ġre per
Ġli able
ĠLinked In
iv able
Ġrecogn izes
9 41
t ube
ic hes
em ption
bel ief
ĠMur phy
ĠTh ing
$ -
Ġstory telling
**************** ****************
Ġle thal
ĠS R
se in
ĠMethod s
ĠHy per
so ver
ĠF er
ĠGr owth
Ġmag nes
ĠB apt
ĠAust ria
B B
ĠUs ed
Ġpseud o
ĠS ri
Ġfire arms
96 1
Des ign
Ġpop ulated
Ġut er
Ph il
Ġadjust ing
Ġyell ed
ĠVenezuel a
we g
resp onse
Ġdisadvant age
ee red
th ought
Ġlif es
Ġnot ification
hel ial
Ġimport s
ĠPal ace
ĠPent agon
à ¯
Ġaw ait
amac are
od ied
Ġl akes
ĠGr ad
g oogle
ĠF u
ER R
ĠAd vert
Ġcaut ious
en v
Cont rol
Ġinstruct ed
ĠZ en
Ġstand point
Ġha w
ĠL GBT
Ġpe aks
Ex ec
Ġterr ified
f ar
ĠPort land
ĠA K
Ob viously
ĠC ant
Ġcomput ational
be cca
Ġn m
Ġn our
Ġprop het
Ġpoison ing
Ġflood ing
Ġcan s
C ell
v ideo
Ġsc aling
af fe
ĠGod s
ĠL ag
Ġac res
ĠE u
ĠI g
Ġdisplay ing
Ù Ĵ
Ġnause a
Ġunpredict able
âĢ¦ ..
c ision
Ġdoub led
ĠA ven
ĠS EC
ĠR ud
Ġautom obile
Ġinf ra
C ard
Ġh alt
ĠD ance
rop hy
ĠGen eration
Ġvib ration
po ons
H ard
ass ing
osh i
Contin ue
ad ians
Ġpers ist
Ġkiss ing
r ots
Ġpack ets
d ocument
T T
ĠA CT
Ġod or
re v
Ġup wards
ĠWe bsite
uff ed
Ġvol atile
Ġle isure
Ġwho lly
Ġcalcul ating
G F
Ġsu cking
ĠAl ber
Ġprem ises
R ay
Ġcon ferences
On line
ĠMar ie
Ġscrut iny
Ġc bd
Ġmet eor
Ġsmart phones
Ġbudget s
ig a
W est
it ous
Ġarr ows
Ġwarrant y
Ġco ating
Ġra ped
Ġev apor
ĠP resent
ĠStr ategy
ogene ous
Ġdisc rete
Ġchamp ions
role um
uten ant
ust ainable
Ġforg iveness
An n
C redit
ĠDev il
Ġintrins ic
b c
re rs
Gl obal
Ġviol ate
æ Ĺ
at to
Ġsn akes
Ġgo at
Ġbrows ers
Ġmad ness
re ach
ĠE lement
ab lish
ĠL ane
ĠAtt ack
ĠS ugar
our ge
Ġbu ys
ĠP red
end ed
Ġtermin ology
Ġlic ensing
Â Ŀ
Ġexam s
Ġmot ive
ĠðŁ ĺ
en ch
ed ience
Ġout ward
Ġrout ines
ĠMon itor
Ġlic enses
c ross
Ġcon gr
ĠL aden
ik er
Ġcent r
ine a
L P
ĠL ay
ess ional
Ġhope ful
Ġaddition ally
Ġse ldom
ĠSh ah
id ating
Ġr ant
Ġexp osing
ot le
Ġhom emade
Ġcrypt o
Ġcompe lled
M o
ith ium
ĠA ren
ĠV i
ĠG ov
ĠJ SON
11 7
Ġcamp ing
Ġneg lected
Ġrepresent ations
ica id
Ġp ads
ĠMit chell
Ġorg asm
Ð ¹
ver ts
Ġunem ployed
s ay
ĠCreat ive
Ġto mb
Ġch ord
sp ot
ĠAra bs
ĠK yle
th y
Ġtrib ute
0 30
Ð ·
cl oud
form er
Ġscr ub
ĠSt yle
ĠJ ump
Ġgl ut
Ġconf use
Ġb ounds
ĠW ITH
ĠSure ly
Ġvast ly
Ġun ified
ĠUlt imately
C apt
9 39
Ġcat ches
Ġfab ulous
Ġc ite
Ġalle v
Ġin justice
ĠW es
Ġstatist ically
e ur
Ġspons ored
Ġp udd
th row
Ġguess ed
ĠR oth
ĠSc ar
Ġre nown
ĠIndepend ent
Ġel imination
ĠIce land
r ho
Ġmagnes ium
Ġsatell ites
Ġmultip ly
Ġbra ce
Ġexem pl
S ep
Ġder ive
ĠS au
ĠC BS
) {
Ġar che
Ġhead phones
ott a
Ġoccup y
ĠInter view
ER Y
Ġbre eds
ĠM ode
Ġele ven
ĠB P
ĠBalt imore
ĠAnt ar
av al
D aniel
ĠS ue
ĠM i
ith m
o T
ĠN uclear
Ġp enny
ke ley
Ġqu iz
ĠJes se
atern ity
Ø ³
Ġmin isters
D M
V e
h n
pop ular
Ġt ed
Ġsl owing
Ġut ilities
iv ism
ann ers
Ġimpl ant
ĠSur vey
D ist
Ġsp ike
Ġconqu er
ĠCh o
ĠM itt
Ġdr illing
ĠDisc ussion
12 2
ĠÏ Ħ
p oon
Ġtherap ies
Ġm uff
Ġd op
> (
Ġenter prises
Ġw ines
Ġske let
F re
b ucks
Ġdecl ining
"> </
Ġobst acle
f em
Ġcomp osite
Ġadequ ately
ĠList en
occ up
r ine
Ġwh istle
cept ive
17 5
t ab
Ġinterpret ations
Ġcere mon
Ġe cc
Ġdet ox
ĠC amb
ĠPro s
Ġph on
ĠFour th
in se
Ġsne ak
Ġob jection
Ġch unks
Ġpot assium
soci ated
ance l
ortun e
g one
Ġrem inis
Ġord in
Ġfree zer
Ġpark ed
ĠCl ay
ĠDen mark
Ġ ib
ons ored
C s
Ġsqu e
ag ne
So ft
it ations
ish a
urch ase
upy ter
Ġtr ay
het ics
ĠBoy s
Ġsound track
ĠAn gl
Ġdist raction
Ġp ics
rop ract
ĠW ii
em et
ran ium
avor ite
Ġdam ned
ĠTH IS
prising ly
ĠOpt im
Ġd od
Ġhy ster
Ġcapt ures
RE S
ĠCa esar
K ING
Ġtu ition
Ġmyth ology
Ġdisp os
Ġex clude
ĠH az
ĠMe aning
Ġnic otine
Ġr ushing
Ġfant as
ĠB le
ĠE SP
Ġem an
ĠĠĠĠĠĠĠĠĠĠĠĠĠĠĠĠ ĠĠĠĠĠ
H ot
Ġrot ate
Ġrespect s
ap on
Ġbe aches
Ġsell ers
Ġindirect ly
Ġspe eches
work ers
A ng
Ġspecific ations
Ġaggreg ate
Ġgen res
Ġgra pe
Ġdev iation
end group
Ġforeign ers
ur bs
um ed
ging roup
be gingroup
Ġvari ance
Ġtravel ers
Ġvig il
Ġh ike
ĠA th
Ġworth less
Ġimp art
T M
Ã© e
Ġris en
ĠPortug al
t im
11 4
Ġpost ers
Ġb ible
qu et
L ittle
Ġref err
ator ies
ĠGu est
ĠEffect s
ä¸ Ģ
ess ment
Ã¡ n
Ġa rose
Ġb un
Hand ler
Ġm und
ĠTerm s
ĠB anks
ĠV ent
atter y
Ġb out
Ġimp ulse
Ġwr ink
Ġpat ents
ĠSing h
ĠI RA
ape l
Ġoptim ized
à¥ ĩ
Ġcryptocur rency
ar ah
Ġfilter ing
ĠN am
ident ally
Th ird
Ġadop ting
Ġpour ing
Ġoutput s
ĠP ages
Ġpl ague
Ġ{ }
ĠM ol
Ġgl and
uc le
Ġs her
erm at
Ġpat hetic
Ġconsequ ently
ot y
sec ure
Is lam
Ġste ak
ĠAff airs
ad vert
ĠRespons es
Ġw izard
olec ular
Ġox ide
ĠBelg ium
Ġ iv
Ġpuzz les
Ġrot ating
Â Ģ
l ene
Ġdis m
Ġlo ops
C ook
re view
á º
ĠWe ather
Ab stract
ĠKen ya
s ometimes
ĠS pl
ra ndom
ĠIS O
Ġfulf illed
ĠAD HD
fil ename
)) )
Ġgentle man
Ġred ist
Ġinnov ations
ad os
ograp her
Ġsub mar
Ġh ats
ĠPoint s
Cl oud
Ġadministr ators
Ġb ake
19 0
Ġank le
c ool
ĠSum mary
0 50
Ġadd icted
Ġpop ped
anc ouver
Ġcan al
Ġsm ugg
Ġcris p
Ġphilos opher
Ġp est
ĠB UT
ĠDis qus
Ġacc ustomed
F ound
Ġan ecd
ie ge
Ġgl owing
ĠW u
Ġaccus ations
ĠSat urn
spe cial
ĠH om
ĠE t
Ġacqu iring
B o
own s
ĠH og
os l
Ġrecon c
Ġvalid ate
Ġintu ition
Ġcompet itor
ang les
ĠTh under
m ot
Ġmonop oly
ĠR io
uc ing
Ġw ander
ĠV ision
Ġdepend encies
Ġprocess ors
rop he
bu ilt
ĠSol utions
Ġper me
ĠBi ology
ĠV A
AN G
Ġj elly
ell er
Ġsil ently
ĠAud io
Ġne o
Ġprosec utors
Ġwork flow
ĠBrazil ian
ĠBut ter
Ġem peror
Ġ ____
Ġst umbled
Ġathe ist
Ġliv estock
b ank
Ġc ass
ĠC oc
Ġhuman itarian
ĠDiv ine
Ġtraff icking
Ġw ow
ĠR ole
Ġcher ry
Ġunderm ine
ĠT ue
at re
Ġnot ices
ĠP oke
ĠFact s
Ġdetect or
ĠD rag
ĠG ill
ĠCharl otte
Ġw olves
ĠInterest ingly
Ġv oy
l ob
> .
ĠD h
Ġsp ices
Ġpass port
Ġabdom inal
Ø ©
Ġhold ers
re ally
col umn
z el
Ġge ographic
ĠMarg aret
T I
Ġ Å
ĠE L
ocaly pse
e pt
( -
et on
Ġre dd
ĠG ore
e er
l iness
ach i
Ġcondem ned
ĠD H
Ġfin es
Ġlearn ers
Ġprelim inary
Ġlaw makers
an im
Ġpropri etary
Ġund es
equ al
Ġall ocated
int ention
ĠJ uan
ĠFor ces
M aster
ex ample
ĠJess ica
Ġher bal
com plete
Ġencrypt ed
Ġlight weight
ĠThe rapy
ĠPh arm
Ġharm less
ĠPart ners
List en
Ġtheore m
Ġastron aut
~~ ~~
Ġsl am
ĠR unning
Ġn ort
ĠB in
Ġrespons ive
rest rial
ĠJ a
Ġcraw l
fl ies
Ġse ated
Ġl oot
Ġmis ery
ĠRel igion
G raph
ĠK on
Ġhon our
Ġc ripp
Ġrepl ication
Ġgen ocide
Pol ice
ĠD rop
me al
Ġanticip ate
Ġspont aneous
ĠStan ford
Ġwell ness
ĠEnter tainment
â ĸ
S ex
ommend ed
inflamm atory
Ar ound
Ġsur pass
urs or
h or
ĠD ale
ĠTy ler
Ġm ig
Ġcurrent s
AS H
Ġincons istent
opt ion
C a
M il
\ ,
T ypes
Ġun con
ĠK ath
Ġ( '
Ġhard ship
Ġfl ock
11 6
Ġcav ity
? :
ĠH orse
Ġrid ers
Ġinject ed
Ġnot ions
Ġfix es
Ġresemb les
Ġacceler ate
Ġles bian
Ġscream ed
F ive
Ġfra gr
J un
Ġw ishing
9 44
ĠC I
ĠLet ter
Ġbr ass
Ġrelie ved
B E
ant om
Re ally
Ġderiv ative
Ġan onym
ĠAp ollo
th ird
Ġsk irt
Further more
rop olitan
ĠEv ans
ach ine
Ġst all
Ġdiss olved
Ġwork outs
But ton
ard on
Ġ" /
Ġeth anol
Ġrec ount
ra ged
Ġdo omed
av ia
osh op
Ġhack ers
ars er
Ġnote book
ĠD elta
Ġidi ots
Ġimpro per
t ml
B ro
Ġcollabor ative
ĠIndust rial
Ġknock ing
Ġemb ark
aw k
n els
Rich ard
c ro
ĠEn h
Ðµ Ð½
Ġnarc iss
E arly
e lection
s afe
C ore
Ġmut ant
Ġb olt
ĠB enn
Ġpres ervation
ĠCommun ication
Ï Ģ
ĠRe lease
Sc ott
Ġcor ps
Ġsimpl ified
Ġprivile ges
Ġsh ru
B it
Rep ly
Ġp rag
Ġexpl oded
de al
ĠMe g
Ġk its
Ġca us
Ġilleg ally
Ġrecruit ment
Ġremark ably
Ġcomp oser
Ġmar riages
ĠH arm
ĠEvery body
ogen ous
Pop ular
Ġcon ceived
Ġinter cept
Te chn
ĠFood s
Ġen forced
And rew
reg ulated
ĠEv ents
W A
Ġnot orious
im ag
Ġmean while
ĠLeg isl
ĠF light
Ġview point
Americ ans
Sm all
Ġaccess ing
Ġeng lish
ing o
Ġmin es
Ġdream ing
ĠLu cy
m ass
Ġl ubric
Ġded ication
Ġrul ers
c ert
Ġproport ional
Ġp enn
Ġpro se
ens ation
Ġpump ing
atin um
Ġrenew ed
ĠConnect icut
ĠCh an
ĠBuddh ism
our cing
Ġfair ness
Ġto ast
Ġstory line
Ġse w
w ild
EM A
Ġrub bing
Ġb ac
on ium
Ġvom iting
Ġwor ms
amb oo
Ġr ider
ĠPro file
ĠCol lection
A ud
Ġtax ation
Ġid ol
st ant
Ġl amb
c ounter
Ġbar n
Ġfinger print
Y ear
ĠBr ig
Ġic ons
å Ń
Ad v
Ġdiscover ies
ĠJuda ism
Ġfold ed
Ġspace craft
ĠMin i
12 6
Ġb a
N F
Ġrecogn ised
Ġnot icing
Mus ic
ĠM aine
Ġsy mmetry
be e
Ġpar se
Ġstere otypes
f iction
Ġc ries
ĠB id
] {
ĠRand om
ĠMon te
Ġnation wide
ĠRich ards
5 50
C urrently
de gree
Ġrun ners
Ġc ush
ĠC osm
iz a
Ġtyp ed
ist ani
o os
F riend
Ġst ark
Ġbl iss
ĠB rew
Ġsubstr ate
Ġswe eping
ob j
ract ed
com pl
Ġexpl ode
Ġexpl ores
Ġbra kes
Ġhell o
Ġimp aired
mon ary
se xual
ĠPitt s
Ġtun ing
af i
Î º
Ġwhere in
Ù ı
ĠM akes
) "
Ġmar athon
Ġsched ules
Ġmechan ic
ĠâĢ ĭ
âĢ¦ ]
Ġco il
s kin
op sy
c ustom
Ġpa ired
ir teen
Ġcl icks
oll en
Ġmen stru
Ġaut umn
ĠIndepend ence
... ]
Ġende av
M ary
d ale
old er
ome ga
M er
Ġ Ã©
Ġbe ard
ĠSh ot
ĠComm ander
à¤ ¨
ĠAnton io
Ġpen cil
ĠP rivacy
Ġin clusive
Ġup stairs
ac s
Ġcomp ressed
Ġhero in
Ġmet res
Ġver te
ON G
Ġtrack ed
D elta
Ġge ographical
c rit
ĠM all
ĠM I
te enth
Ġsun set
ĠM ak
ov o
K now
Ġex clusion
om nia
ll o
Ġun acceptable
Ġdist urbed
R est
Ġpe nding
Ġha cking
Ġboss es
Ġmagnific ent
ch anging
Ġgrad ual
gl obal
ĠAbs olutely
ĠC E
Ġpay roll
14 5
u art
Ġadvance ment
n p
ĠL D
gr oups
t au
Ġre ef
sm ith
Ġinst ability
ĠDem on
g b
Ġcl ut
Ġrev is
ĠComp et
Ġevent ual
ĠWhere as
9 47
Ġprogram med
Ġfasc inated
Ġlingu istic
11 8
5 12
Ġtra umatic
out ed
Ġenthusi astic
Ġgrad ient
s cient
ĠCo hen
Ġjourn als
Ġcort ex
B P
st ack
Âł ĠÂłĠ
Ġag grav
Ġright ly
Ġrecon struction
ĠG y
Ġrecycl ed
Ġde ment
ĠCamp aign
Ġappar atus
Ġterr ific
ĠJ ar
us age
Ġamb ition
: -
ĠDat abase
ĠIm prove
se ys
Ġout dated
il ogy
ĠL l
Ġpop s
ĠStat istics
ì Ŀ
Ġd ar
ĠF ly
Ġinv asive
ĠC re
Ġm l
ĠTh read
n as
Ġfast ing
95 9
Ġpersu ade
Ġgr as
Ġp as
Ġl anes
ĠTh inking
St ay
Ġwild erness
Ġins ulation
al am
hold ing
is ol
Ġdiam onds
Ġe ch
Ġsuper market
ĠU FO
F unction
if ted
Ġdivid ing
S cience
ĠT ak
Ġspread s
! --
ĠGet ty
Ġsurpr ises
dr ated
Ġcontam ination
Ġcr ashing
Ġcan ada
ous ed
Ġmarket ers
Ġhand ler
Ġcuis ine
v m
ochem ical
Ġun just
Ġgrad uates
ord inate
Ġstr at
ĠEd wards
Ġsubst it
s ave
Ġbar gain
art en
Ġap ology
Ġsl id
Ġwar r
ĠS aw
ĠH S
s ql
ĠCo al
Im port
pe lled
ad ic
Ġcomfort ably
Some one
ter ror
Ġhe el
Ġg reens
Ġmot ions
Ġten ant
Ġhe ights
Ġconstruct ive
Ġdivide nd
Ġpurs ued
Ġan ts
ud ing
Ġk arma
Ġg ru
Ġreson ance
ĠY am
Ġperiod ic
Ġslow ed
ĠG ospel
Ġar tery
dra wn
Ġd ur
ĠH ook
Ġreserv oir
ig ator
ĠSe ems
ĠC reation
Ġghost s
Ġdisc overs
Comm and
ĠS it
ĠP H
ĠEVER Y
ĠCl aire
he ard
at he
k ar
ĠU m
Ġcha otic
Ġt ier
amm ers
ĠCy ber
ĠAr men
ll ers
at ches
ĠV erm
H ost
Ġcompan ions
Ġcongress ional
ĠNorm an
ĠH ud
acer b
Ġco efficient
Ex ternal
Pr ice
th reat
ĠSy ndrome
Ġa h
ĠR alph
Ġrev ised
æĺ ¯
c uts
ĠFl u
Ġresid ual
ĠK ra
Ġcontam inated
Ġarrog ant
ĠH A
Ġshut down
Ġfulf illing
ĠVis it
Ġthr illed
d c
With in
mpt y
Ġcircumst ance
ĠD ennis
ang s
Ġsug ars
Ġor n
ĠQue ens
ä ¹
Ġelect romagnetic
ĠConsider ing
o ften
ag us
ĠAdd ress
ĠI E
count ry
cd ot
Ġgravit ational
ĠS id
cript ions
isp here
Ġpredomin antly
P arent
op ian
Ġpriv ately
Ġinit iate
C reat
ĠLe gend
Ġenhan cing
Ġsince re
Ġgr ill
Ġsche ma
Form at
ball s
art icles
US A
ĉĉĉĉ ĉ
Ġvegg ies
Ġan arch
Ġland lord
Ġrecru iting
in ence
Ġsu ic
ĠSh in
Ġid le
sh ape
emet ery
Ġcon cludes
ĠC reek
le ys
Ġstandard ized
Ġconfront ation
Ġspecial ty
Ġappoint ments
Ġsn apped
Ġp neum
au er
L ow
Ġprivile ged
Ġassass ination
Ġgl anced
Ġassist ed
Ġknowledge able
C ra
ĠðŁ ĻĤ
Ġri vals
ĠN PR
Ġbon uses
T oken
Ġadapt ive
Ġtra ced
Ġbul bs
as per
ĠW a
Ġmom s
Ġinn ate
9 42
Cl ose
Ad am
Ġhier arch
Ġ( -
Ġir res
ĠC arr
m illion
Ġst agn
Ġintern ationally
m icro
' ),
Ñ ĩ
Ġd ye
Ġfilm ing
Ġarchitect ural
ap ache
ĠĠĠĠĠĠĠĠĠĠĠĠĠĠĠĠ ĠĠĠĠĠĠĠĠĠĠĠĠĠĠĠ
Ġthere of
ĠRe ality
M ic
Ġreg ain
ĠSh ang
19 2
Or gan
ĠT ommy
T aking
ag rams
ĠCar bon
Ġdisc ontin
ĠEdd ie
we ed
ĠA ges
ort ex
Ġaccompan ying
Ġhygien e
Ġcar ved
ĠFire fox
Ġm arsh
Ġmet hyl
Ġmort al
g re
p ired
on er
ĠB ishop
Ġfo il
ĠAr g
im ir
ĠV ers
Ġer ad
hes ia
Ġbur d
ĠCh icken
Ġslic ed
D ue
Ġpl ed
Ġlit igation
in fect
ĠOr iginal
t otal
Ã ¥
Ġsc oop
ĠPl ayers
H arry
ĠV eter
Ġgl ands
oot er
Ġincap able
Ġlater al
p ython
Ġtest ified
ĠImp act
Ġinv iting
Ġwholes ale
Ġgr inding
Ġestim ation
Ġdescend ants
2 25
13 1
Ġinnoc ence
Ġmy riad
ĠThrough out
pro bably
P os
ĠPear l
Ġgood bye
Ġc ues
ĠF ine
Ġgif ted
Ġp df
ĠSer ge
Ġstir ring
Ġref usal
Ġaffili ate
ĠGall ery
Ġd b
Ġh ose
ĠTurn er
fil ter
Ġlack ed
E st
Ġrecover ing
ĠP ok
Ġdem ol
Ġdefend ed
iz zy
z ip
Ġlapt ops
âĶ Ģ
ĠC hel
Ġcommercial s
ĠIss ues
ĠRec ent
Ġspr ings
ĠPsych ology
Ġboo lean
Ġr untime
Ġmel ody
ĠUr ban
Ġbad ge
Ġfav ored
Ġjer k
ĠTreat y
g ages
y et
res a
Ġregul ators
inc re
ol ia
gu ided
Ġreact or
Custom er
Ġmiss es
Ġde eds
icult ure
Ġe h
so lete
te chn
Ġcombust ion
Ġins ur
Ġhall way
y cle
ish na
Ġal coholic
ĠN ord
Ġref resh
ĠJ in
Ġdeput y
Ġp i
Ġmerch ants
ĠParent s
Ġcop ying
Pro gram
Ġtables poons
ĠL OT
L ead
ett es
ros is
er os
Ġdress es
Ġfright ened
ot ics
V I
Ġwe ighed
te es
ĠBe ast
ĠGl ad
Ġas ylum
ĠUkrain ian
ĠWar ner
ord ered
Ġemphas ized
iv ation
Ġsp it
Ġpres erving
ĠRog ers
Ġslight est
Ġproport ions
Ġpol es
Ġin ert
pp le
ĠN athan
th inking
whe el
Ġind ie
ĠG oth
e ach
ÑĢ Ð°
Ġst akes
tt p
Ġtwe ets
ĠCh ance
ĠAss ad
ĠVin cent
ĠFin land
ĠProt ocol
iff icult
Ġtransl ations
Mus lim
w l
Ġcomb o
ĠGr an
ĠP G
Ġmaneu ver
Ġ æ
Ġwith stand
o fficial
S at
Ġgrad uation
Sub ject
Ġfil med
Ġge ography
Ġprovin ces
Ġspr ink
c up
Ġass im
Ġso ber
app le
Ġparent al
Ġp c
Ġin effective
Ġamb ul
st ro
Ġsh am
Ġnarr ator
ĠJul ia
Ġz inc
ĠMult iple
ĠS ak
Ġcous ins
Ġshar ply
Ġoun ces
Ġo ath
ĠQ aeda
Ġco hes
chie f
Ġdement ia
g ive
ĠGr ound
Ġju ven
Ġfound ers
ï¼ ļ
Ġ= ==
Up dated
t ar
ĠW end
Ġo ak
F inal
ĠW E
14 4
Ed itor
ĠEconom ics
Ġaccum ulate
Ġcancell ed
p resent
s ol
ĠAny body
L ay
Ġsimpl ify
in qu
Ġcount ies
ĠPre vious
Will iam
Ġple a
Ġtr an
v t
Ġchar ter
fl ower
Ġvacc ination
Ġfeather s
ĠNev ada
erm ined
A bs
Ġflav our
g ins
Ġnegot iation
Ġsuper vision
ĠÙ ħ
Ġsign atures
ĠAdd itional
ĠY oga
H on
Ġpar ade
ĠSpe aking
Ġstret ches
ĠE PA
oun ge
Ġv ain
Ġmatt ress
ĠExpl ain
Ġnav al
f ashion
ĠBre xit
Ġbrow se
Ġsu ed
Ġmot ors
Ġlou der
ĠN ormal
pt r
ich i
Ġc innamon
ĠHum ans
qu ad
Ġsing les
Ġr ash
Ġmark ing
ĠAlf red
ve ctor
Ġdoes nt
Ġsuccess es
ĠS V
Ġins ign
el se
up un
Ch ildren
Ġliqu or
ĠMed icaid
ok o
ÃŃ a
Ġdinos aurs
ĠF ern
li ance
AR Y
ĠT i
Ġcr ank
In vest
ĠBr ing
char acter
Ġmanip ulated
re ational
Ġcomput ation
I ED
m ove
Ġgall ons
C ity
Ġmult itude
Ġ" "
Ġcasual ties
ĠCreat or
ut ral
Ġex acerb
Ġhur ricane
ĠSee ing
Ġassess ing
Ġdis connect
Ġnegoti ating
ĠB ug
arn ation
ĠĠĠĠĠĠĠĠĠĠĠĠĠĠĠĠ ĠĠĠĠ
Ġrespond ents
Ġchromos ome
ov able
H ope
Ġdis ast
agon al
ĠiP od
whe ther
ĠD D
Ġradio active
ĠScript ure
ĠW alt
Ġsch izophren
ĠâĪ Ī
mun ition
b oot
ĠF iles
Ġpresent ations
ĠR aw
Ġen roll
Ġsh aping
ĠH orn
Ġantib ody
Ġdiarr hea
ib li
ĠV lad
f inal
ĠPro perty
Ġun m
bet ter
Ġc ensus
Ġvari ability
ai ro
Ġtem ples
ION S
is se
ID ENT
Ġgre edy
Ġam use
N P
95 7
Ġsc ans
Ġrepet ition
Ġdiscipl ines
D ark
ĠExpl orer
Or iginal
Ġveget ation
ras ound
Ġover sight
Ġforget ting
A g
^ \
Ġoff shore
ĠSte in
ĠJul ian
ĠHig her
S ad
le ased
ĠF resh
Ġinv aded
N ob
95 8
pos itive
par se
ĠPar am
H op
ĠC arm
11 9
R om
ave ment
ĠT ouch
Ġmit igate
it ism
dom ain
ĠGl enn
ĠDog s
Ġupgr ades
S elf
ii i
Ġstud ios
Ġcatast rophic
last ing
s ki
Ġst arring
Ġhe ater
u ci
ĠToy ota
ĠD j
Ġric her
ĠU ber
Ġstro kes
ĠWood s
ag ged
Ġmer its
Ġthigh s
O ption
w d
Ġcomput ed
ĠS port
Ġobs ervers
ĠN ode
ph al
S K
ĠHus sein
ĠRes ource
Ñ ķ
Ġdefend ants
Ġsequ encing
Ġstun ned
ĠDak ota
Ġo lig
Ġrec alls
Ġc erv
Ġrepl icate
Ġcollect or
ĠP ull
Ġcur b
ĠS olution
m uch
win ning
ĠA F
ĠC ann
Ġon t
ĠM ental
ĠL inda
Ġpop ping
Ġen cyclopedia
ĠSand y
Ġovert urn
Ġim balance
âĢĿ ).
Ġret ros
gen cies
S ave
et ric
Ġcl oses
ĠAll ow
Ġreg en
ĠRe ed
ĠQue bec
Ġbal ances
E ffect
B ody
Ġstimul i
9 14
ru le
Ġmerc ury
Ġpup ils
ĠQu ite
Ġrig orous
13 3
Ġam ple
ĠR ena
hd ad
ĠSt ack
ĠInt o
if ts
Ġ< -
ĠS or
ĠK urt
ĠPl atform
D ocument
ĠAr ray
Ġno isy
AM E
Ġun success
p red
__ _
Ġdefic its
9 49
Ġthreat ens
ĠHoll and
V E
ĠGM T
Ġsacrific es
Ġrenown ed
l ated
ĠE ating
ĠJ oin
Ġassess ments
Qu est
he tt
per haps
ĠBr ight
iche ver
o il
ĠA ch
tern s
Ġcard board
Ġrob bery
Ù ĥ
Ġsched uling
O ptions
com b
ĠS und
Ġo wed
ord e
Ġincorpor ating
g ard
it ra
ir med
ens en
Ġf ry
ĠAm azing
Ġgu iding
ĠL OVE
ĠMar cus
c ils
95 6
Ġst a
Ġdef enses
J P
Ġtort ured
ĠOb amacare
ĠIm pro
Ġfil tered
k top
ar us
inter pret
Ġdict ator
ĠMin or
acc ount
Ġexhib ited
Ġbarrel s
Ġarr ays
Ġinfra red
Ġri ot
ĠĠĠĠĠĠĠĠĠĠĠĠĠĠĠĠ ĠĠ
Ġsw ings
Ġspl itting
Ġwh ip
12 4
ĠW orth
Ġunique ly
Ġsk ies
d ia
Ġnot ation
Ġmouth s
? ),
ĠF REE
Ġdecl aring
Ġcas inos
Ġm ism
Ġp ou
Ġign ores
est eem
Ġexplo ited
Ġtor que
M edia
ĠB omb
Ġgrab bing
l ass
Ġunc overed
b order
Ġst am
ĠWall ace
op p
Ġnot ifications
ĠBlu etooth
Ġe ll
Ġdirect ing
Ġtraject ory
ĠU nd
Ġsp ice
ĠMerc ury
Ġapplic ants
Ġresc ued
Ġmigr ants
Ġsu prem
ustral ia
h in
Ġsuccess ion
": "
Ġfoc al
Yes terday
Ġrefuge e
respons ible
Ġl am
ĠProtest ant
ĠPro blems
Ġ Ä
right arrow
ĠCom ing
Ġmel od
ĠT M
Ġsort ing
Ġcongr at
Ġtrans itions
20 2
ĠCont ract
Ġcryst all
Ġgra bs
ĠArch ive
n uts
Ġabdom en
os i
Ġpist ol
! [
Ġkid neys
Lear ning
am o
Ġde gr
Ñģ ÑĤ
spl it
Ġvers atile
ĠClass ic
Ġfet ch
Ġpur se
}$ ,
ĠHarr ison
ĠM ob
ĠBe havior
E arth
Ġlif el
ry s
ixt ures
ab ol
Ġmet ap
Ġelev ation
` ,
oll ah
F amily
red ited
Ġad orable
Ġsm oked
Ġperform ers
is factory
names e
ĠHel en
Ġbl aming
Ġrec urring
Ġcommod ities
ĠChair man
D om
Ġunder wear
Ġpast or
ren ched
Ġrem n
Ġcustom ized
Ġhomosexual ity
Ġpick up
w olf
Ġaddict ive
å °
Ġthe r
do ing
ç »
Al most
Fil ter
Ġch orus
Ġanticip ation
ĠWW II
onge vity
ac a
ĠE val
Ġt abs
cel ona
ĠBud get
* .
e a
min ent
M a
ĠBl ake
ro sc
Ġdivor ced
Ġtra ils
ĠH ack
Ġmer ged
L ive
w ire
Ġsuccess or
et ra
to k
bo at
Ġtodd ler
Ġchar ism
Ġdem ise
ĠLabor atory
pr im
p ush
Ġspr int
Ġlawsu its
×Ļ ×
Ġcompar ative
Europe an
Ġcountry side
Ġsuper b
ĠEx ercise
ĠG am
OC K
Ġpitc her
Ġdon ated
ĠAP Is
an other
ĠLook s
th read
A ge
Ġreg imes
ĠStart ing
Ġumb rella
() :
ĠM T
f oo
ĠA wards
Ġkn ight
D oc
Ġe co
Ġbelie ver
Ġsubscrib ers
r ub
ĠS ans
oc used
Ġconscious ly
ch t
Ġtail ored
Ġtour s
ear th
ĠBe hind
Ġbr ighter
Ġgra pes
en es
gl ass
Ġass hole
ĠCom pl
opath ic
Ġhypot hetical
Ġdisadvant ages
spe aking
ĠScient ists
ĠGP U
ĠCh amber
Ġpredict ing
J ob
th anks
Ġmerchand ise
at ical
in ters
Ġpreced ing
V s
ins ert
Ġbow el
Ġbuild er
Ġsuper visor
Ġsquir rel
9 10
95 5
ĠD ust
Ġel ites
ĠStr ange
ĠA W
ick ets
ip ation
ĠÂ °
ĠBern ie
Ġhero ic
I ll
Ġob ese
ex e
Ġpreced ent
Ġp ac
Ġsa iling
ĠConf ed
ĠL P
Ġcraft ed
doc s
Ġsn iff
rec ord
ĠWhe el
Ġfire f
Ġgest ures
ĠMon ster
idel ity
Ġmount ing
ĠCommun ications
Ġ ÂłÂłĊ
Ġpl um
Ġorgan ised
Ġthr ill
Ġhard core
Ġadv ancing
Ġimp ed
Ġcost umes
ĠMor occ
9 17
Ġhur d
Ġpron oun
Ġreferen ced
C oll
Ġcul pr
Ġgi ants
b ons
Ġad here
Ġa ven
Ġens l
Ġnarr atives
F un
Ġc ores
% ),
ĠW is
oint ed
ĠSecond ly
ĠT rip
ĠD addy
Ġvis ions
ĠDid n
Ġdimin ished
Ġsett ling
| |
Ġsett lements
ĠL ocation
ick r
w iki
ĠNap ole
ĠM RI
Ġmon keys
IC K
Build er
i ating
ur as
ĠP P
V ari
ur ry
Ġbe et
ĠCom par
ĠSw ift
More over
F alse
Ġvag ina
d ue
Ġyear ly
Inst ance
Ġrecon struct
Ġdiss ent
ĠBeaut y
Ø ¹
ÂłÂłÂłÂłÂłÂłÂłÂł Âł
Ġcand les
Ġmotiv ate
af ood
Ġconver ts
Ġc ath
ĠL ate
ĠF M
Ġph il
G C
ag les
ĠV el
ver ages
Ġcl ust
ĠSu z
ĠThought s
9 18
b ows
ĠV ancouver
ĠHam as
9 33
Ġe Bay
ĠHy dro
P ER
Ġrehab ilitation
Ġafter ward
Ġadvertis ements
' ).
G O
ĠRe id
Ġarg s
W alk
e nder
Ġsen ator
pat ient
ĠArn old
Ġl ent
Ch ild
ĠB ot
Ġpremium s
Ġsuperf icial
reat h
Ġco ff
Ġencourage ment
Ġk et
Ġtext book
ĠAd obe
ĠC riminal
Ġsn ipp
Ġdump ed
h oles
ĠV ik
ĠPlan ning
Ġperiod ically
Ġgreet ed
Ġcont amin
it ant
Des cription
ĠF inding
ĠV I
Ġscream s
Ġdra gging
ĠMount ains
c ultural
at ra
Ġf aded
ĠH air
ens ional
Ġsw ords
Ġcross es
ĠTest ing
ĠCap itol
z or
Ġs om
ĠCor p
Ġphilos ophers
sp oken
ian e
ĠBer keley
Ġqu ir
Ġpsych ologist
ci o
ĠSt ress
ĠCan adians
al ong
s i
Ġobl iv
in als
LE CT
ĠMy th
Ġquarter back
Ġend ors
Ġform ulas
Ġmin s
ĠB ee
b ish
bal anced
down s
Ġc iting
Ġaccess ibility
Ġcontrad iction
ed u
Ġdiscount s
se ver
T ur
Ġam munition
Ġfell ows
ĠSpe aker
Ġimp osing
zz le
ĠBang l
ograph ics
b ottom
ĠT W
Ġmut ually
Ġpoly nom
Ġpur ity
Ch oose
ĠFe atures
Ġpin ch
ĠDiam ond
Le ft
Ġmim ic
Ġlog istics
Ġf ren
Ġhe ap
Ġal ley
ap le
AL E
Ġbright ness
Ġmyster ies
Ġadvertis ement
Ġspot light
ĠG C
ĠAb d
Ġdwar f
Ġhypert ension
i ative
pl anes
Ġspe ar
95 4
or ig
ĠM asters
Ġengine ered
Ġus able
ĠRe ason
ĠCo ach
ns ic
s ided
Ġt ad
Ġhass le
Ġwe ighing
Ġske ptic
ĠL E
g rand
ĠJ P
Ġliter acy
N OW
Ġpa used
f n
irl ines
Ġreg istry
ier ra
Ġcent res
Ġnom inated
ĠX i
ĠWr ong
( &
ĠRed dit
Ġz oo
ĠW on
Ġinter change
Ġpres idents
F E
Ġdet ention
Sc reen
ic able
gr own
ans om
Ġstar ters
Ġth ief
Ġambig uous
Ġab bre
Ġc akes
Read er
Ġf action
V R
Ġth ru
ĠDef ines
ĠNon etheless
Ġh iking
Ġtransform ing
Ġr uth
b ull
Ġapprox imation
ĠNich olas
Ġamb ient
ump y
De ath
Ġdep ressing
Ġdisast rous
ĠF ro
ph ants
Ġclim ax
Ġacadem ics
Th omas
ĠD ry
cle ar
Ġspons or
act ing
ĠP ictures
27 0
ig ers
ĠU g
qu ire
ĠK B
Sim ple
ĠR S
Ġacceler ated
Ġdu o
ah an
Ġtempt ation
Ġdisc arded
ĠC rystal
Ġbill ing
Ġhall uc
c ock
im o
Ġan a
Ġfe ast
ĠBag hdad
Ġvol atility
å Ĭ
Ġrout ing
R a
ĠHar vey
Ġadmin ister
Ġbe gging
Ġgener ators
ĠAz ure
ĠBab ylon
Ġderiv atives
Ġweaken ed
ĠWH O
ĠMat rix
Ġaston ishing
abl ished
Ġpro claim
ĠWh ole
Ġskin ny
ow l
Ġst ellar
list ed
Ġsun shine
95 3
ĠT B
ant o
Ġassoci ates
ĠN OW
cle an
Ġbro kers
ĠPro gress
ĠMat hemat
Ġde lt
Ġhe n
Ġne phe
ĠBern ard
Ġnum b
Ġpra ised
h l
Ġb unk
Fact ory
Ġe lic
ĠN ine
ĠJ ama
Ġsub urban
l ocation
à §
Ġbar g
Ġnational ism
P DF
ar cer
ĠWr iter
ir ies
Ġconstra int
Ġbl oss
ogn itive
product ive
Ġca usal
F rench
ir ling
Ġaccomp any
Ġse l
Ġcoll agen
run ning
ett le
ĠK um
ĠPat ients
w ent
ĠAt hens
Ġdivide nds
ĠM oving
Ġrep s
Ġday light
Ġprote ctions
ĠExper t
Ġy arn
augh s
l ining
Ġhel m
33 3
c ache
Ġtra ction
ĠDef ault
T or
Ġmon arch
N ick
Ġst agger
Ġeconom ist
um en
Ġfut ures
Ġsixt y
E ar
Ġquestion na
ĠAss istant
ãģ ®
Mat thew
Ġcar rots
Ġswallow ed
Ġrail way
Ġconfig urations
Ġdownload ing
ĠN ut
Ġdist orted
v ings
ĠCh ase
ĠCir cle
ĠNE VER
Ġthere after
) ).
L ength
ul ators
Ġdict ate
å Ľ
Ġhaz ards
ĠH oney
ĠR i
Ġexec uting
Ġuns afe
ĠTra ck
ro be
Un it
Ġimpl ication
H en
Ġaccommod ation
ill as
Ġd ens
ĠT ot
iv ated
Ġn ude
av i
ĠPu erto
Ġintric ate
l asses
Ġcontrib utor
ien ced
2 12
ĠS ettings
Ġcl og
Ġcoll ateral
re ply
is ement
Ġf uzzy
r ators
Comp onent
Ġplaint iff
ĠLi u
Ġche es
Ġstrengthen ing
j upyter
Ġb ully
Ġdet rim
ĠNorm ally
ĠTe en
Bl ood
ĠÐ ¾
Ġdis respect
Ġrel ay
15 5
ĠR C
Ġacqu aint
ĠYOU R
M om
ĠP eters
p ull
ch annel
Ġcl a
ĠCom plex
Ġ: (
Mod ern
Ġ[ -
Ġster oid
ĠM iles
Ġg ee
Ġcomp ares
Ġclear ance
Ġl obb
Ġ( +
Ġtempt ing
alg ia
9 46
Ġmind ed
in ci
Ġu int
Ġres ide
ah o
ĠT ypes
ĠProv ide
c opy
ĠU P
ĠC rypt
ĠJ edi
rib uted
Ġimp at
Con f
s an
Ġhum ili
Ġimpress ions
ot rop
Ġbo oth
23 4
ĠR uth
Ġframe works
M obile
ĠLaw s
Ġfluct uations
Ġapprox imate
Ġexp ans
Å ¡
Ġpo ke
Ġsand w
v id
amp a
Ġcommit ments
Ġtend encies
D O
Ġan th
d im
Ġsupp ression
pro perty
Ġste er
7 20
c ulture
m atch
D raw
Ġcar p
Ġfest ivals
AP I
ĠS ter
Ġs orrow
ĠDem ocracy
Us ers
ĠCarl os
Ġlegitim acy
ont ent
h it
Ġmort gages
H ouse
se par
ĠSt age
orr h
2 60
ĠD erek
Ġutil ization
Ġenact ed
Ġneed les
Ġantib iotic
ĠAltern atively
ke es
Ġcou pling
it ars
us k
ĠAl cohol
Ġconfir ms
Ġpractition er
Ġs ights
Ġm aternal
Ġoffe nders
Ġcred ited
Ġdiagn ose
Ġpr ud
ĠAn imals
Ġpyram id
Ã ´
Ġmotiv ations
Ġun ve
p able
miss ible
Ġimmort al
Ġf al
Ġbank ers
ul ence
95 2
ĠJosh ua
Ġnick name
Ġdist ortion
ps hire
Ġmund ane
Ġst ing
ĠÏ Ģ
Ġreci pro
ĠEv idence
ĠB att
he e
Ġstress es
y on
in vest
cor rect
Ġhome owners
rop ortion
Ġqual ifications
s il
Ġske leton
ĠWal mart
: )
ST R
ph oto
psy ch
imm une
B rian
atic an
m and
Ġtelesc ope
ĠCon cept
not hing
RE AD
ĠCh anges
ĠTra in
Ġu pl
Ġdim ensional
b t
Ġsepar ating
Ġcor pse
12 9
Ġdi ary
d ates
Ġdo ck
Ġten ure
Ġtast ed
P rom
ic ol
ĠAm anda
Ġinacc urate
Ġc u
ĠHealth y
Ġcritic ize
Ġhaunt ed
m orph
Ġtheat ers
H a
Ġconv ictions
m ut
gr id
Ġpossess es
Un less
Ġb aff
R ock
ĠW ol
h ash
Ã ¦
Ġr im
Ġexped ition
ĠOper ation
Ġend angered
Ġcow ork
st it
in as
gg er
ĠBro oks
ne ed
Ġl att
ĠB ak
âĢ¦ "
Ġbefore hand
reg ulation
ĠMad rid
Ġworksh ops
UL T
ĠCris is
I AL
ĠMy SQL
nis one
ĠMan ual
Ġimprison ed
Ġmunicip al
Ġemer ges
ĠIn come
Ġair ports
ops is
Ġliber ation
ĠSp encer
des ign
Ġdescript ive
Ġecosystem s
ĠF itz
l ived
Ġany ways
Ġinto x
Ġc d
Ġp ent
ay an
ĠN y
Ġb ait
Ġy ang
Ð¾Ð ²
ĠColumb us
Ġ ie
ĠJ os
US E
Ġfr amed
ony ms
ĠA ur
Ġsu pers
ĠK o
Ġexception ally
Ġinter course
ot rans
aj a
}$ .
m ac
Ġbe verages
d ark
Ġdatas ets
* )
Ġpot s
! ?
Ġdecent ral
Ġexch anged
Ġlock ing
Ġsec uring
Ġlect ures
che t
Ġdest inations
Ġh id
Ġemploy ing
Ġcere al
p aid
Ġsy s
ps i
ĠSh aw
Ġdrag ons
h on
Ġpredict ive
ĠB rief
Ġtwent ieth
d ifferent
ĠD ating
weg ian
L ou
de ep
Ġindo ors
R ating
Ġn erd
Ġob solete
Ġpo lling
Ġhighlight ing
Ġt iger
9 43
Ġn ud
Ġrehe ars
Ġbe nding
Ġit eration
Int roduction
Ġbe ads
13 2
Ġvit ro
ãĢ Ĳ
S ection
Ġw iring
av in
ĠSn ap
ri o
M ass
f air
ou ched
Ġimp lements
Ġber ries
ĠBeat les
R on
Ġm ul
Ġgl am
ãĢ ĳ
Ġplay ground
ĠL il
Ġfre aking
Ġheaven s
al most
Ġd ancers
Ġrational e
Ġw ired
Ġyou tube
Ġexpend iture
pher d
Ġwh ale
Ġconflict ing
t aking
ĠL ily
Ġpersec ution
Ġterm ed
izz ard
Under standing
ithm etic
c ents
hy dro
p ub
Ġan om
tem plate
ant ics
pp ery
Ġhe pat
ĠR ange
p atch
ĠCr us
ĠPing back
Ġs ou
ĠA unt
Ġdetrim ental
c amp
Ġneighb ours
ĠStep han
` .
ih il
ach t
Ġunre asonable
Ġdecor ated
Ġted ious
gr owth
ĠRe yn
Ġsupp orter
ĠAdd ed
l at
Ġso b
ĠRe ci
im on
ien na
a ires
ab lo
Ġirrit ation
Ġo re
or ically
Ġtr am
Ġst al
ĠAdvent ure
è ®
ĠC atherine
Ġn ig
ĠD ylan
Ġbr oth
Ġhuge ly
Cont roller
Ġfreed oms
ĠC ob
m oney
ud o
æ ķ
ĠIde as
Ġcr ises
Ġsh rimp
Ġregul ating
Ġshut tle
ĠRena issance
Ġarch ives
board ing
Ġisol ate
Ġresil ience
B LE
ĠW A
ĠPitts burgh
Ġaccount ed
Ġcommand ed
s ix
ĠReg ular
ĠC urt
L ar
Ġarter ies
ĠGabri el
Ġsmok ers
Ġal gae
Ġcra cking
3 30
You ng
Ġun const
Ġpor ch
Ġpossess ions
Ġexceed s
ĠC ad
Ġpro jections
k k
or ian
Ġg ossip
Ġkill ers
I K
Ġadul thood
ĠA verage
ĠU l
j ar
Ġpar alle
car bon
Ġd addy
Ġk a
Ġeight h
Bas ically
Ġind ict
Ġoutrage ous
Ġcor al
Ġdemonstr ations
P owered
Ġb iting
ĠE lection
pl aced
ty p
ĠF alls
ans on
Ġtox icity
e an
B u
Ġgl aci
Ġdiff ering
Ġpadd ing
Ġre write
Ã© mon
ĠS ale
Ġthick er
Ġtheore tically
ĠDet erm
B i
t mp
ĠT S
ĠPart icip
D ave
ĠV ERY
ĠS aid
J ournal
ok i
Ġadvert ise
st at
Ġaccident al
ĠJul ie
Ġl od
Ġout we
Ġpet ty
Ġgig antic
ĠMem orial
ĠMan ufact
col m
Ġcyn ical
C ost
Ġexpress es
ib al
Ġdelight ed
Ġinstinct s
Ġdeb ug
Ġs inking
13 7
upun cture
Ġsupp ressed
Ġallev iate
unt il
ot ch
ut ory
Ġdest ined
Ġche wing
ĠS ah
ĠPak istani
8 80
ther net
ĠStar bucks
######## ########
W W
Ġcon e
Ġc ialis
Ġaff l
ij i
Ġcop ing
re lease
Ġinhib ition
ĠMont real
Ġpenet ration
Ġcorrespond ence
ĠPoke mon
Ġar ising
M ill
Ġdisp roportion
ĠQ ual
Ġben ign
Ġvamp ires
Ġapp ra
ok ia
ĠMet ro
4 80
ĠSt re
App arently
E qual
Ġhome land
Ġno on
T arget
Ġcontroll ers
or um
16 5
od us
vention al
ĠT it
ĠP T
Ġpron ounce
ĠValent ine
ĠY a
Ġtall er
ĠB ach
ĠO dd
Ġri pe
Ġmel an
Ġcor ros
ĠEx pect
Ġdeb it
ÂĢ Â
ĠAc cept
ĠR osen
ĠEx actly
ĠAnaly tics
ĠS eth
ex isting
ĠMay a
Ġsp icy
g od
oc ative
en able
app a
Ġv inyl
Ġembarrass ment
Ġpol ished
ĠPresident ial
Ġwh im
ud s
Ġresur rection
M ode
Ġetern ity
Ġp uls
Ġco operative
Ġa ux
ĠGi ants
Ġhazard ous
us sels
S us
Ġw ary
ĠSte am
most ly
en z
Ġback l
Ġang ular
Ġbe verage
Ġbeh old
Ġcruel ty
Ġpe el
Ġform ulation
om ics
ĠArm strong
Ã ¸
ĠCh ocolate
F OR
Ġbook ing
Ġkind ly
p olitical
Ġm apped
de ath
ĠCons umer
Ġdisappe ars
gu y
Ġsolid arity
Ġfa ctions
ĠC ause
Ġdom ination
Ġesc aping
PD ATE
Ġdispl aced
Ġres olutions
E ver
B T
ĠA irlines
ĠM M
Ġfear ful
Ġu ranium
Ġmemor ial
ĠW itch
Ġsymp ath
ĠImport ant
ag ent
ey e
L im
in formed
Ch inese
Ġsuperior ity
Z E
if ty
ĠF iction
dis cipl
g us
Ġrec reational
land o
Ġneu rological
Ġcock tail
d t
Ġchem otherapy
Ġloose ly
C ur
ĠM illion
act or
ET H
Ġl ime
Reg ister
In f
Ġch urn
Ġinc omes
S ay
Ġwork load
å ¾
ĠI con
ĠC ream
Ġsl ack
our ing
* ,
are a
m ember
fact or
Ġconc ise
ĠWalk ing
ĠH ob
ĠP ure
Ġsk ate
Ġenvironment ally
Ġpsych iatric
ĠMe an
ĠUlt imate
å į
AV E
c ases
im ming
Ġcoop erate
Ġst ern
Ġv ault
Ġmetall ic
epend ent
Ġupgr aded
% ).
ĠThe atre
ĠCreat ing
9 13
c reat
Ġkn ives
Ġcharacter ization
Ġd an
ĠREAL LY
Ġyour selves
Ġb ount
Ġbe ams
ong s
dra ul
er ick
ĠRand y
Ġintest inal
8 90
v ie
ĠPro duction
Ġvisual ization
Ġin box
ĠRe ference
Ġdo om
omet own
Ġcra ppy
ĠThe m
ĠDI Y
ĠL ux
Ġrad ically
Ġproud ly
Ġcow ard
ĠB oss
Ġsum m
orr or
leg raph
Ġmanifest ation
d ead
ys on
Ġd ia
by te
ĠPhilos ophy
sec ret
ĠSpe ech
Ġflu or
Ġdescend ed
ĠM end
ĠHer itage
Ġvill ains
Ġpe ppers
IT E
erg us
Go ing
Ġadvoc acy
v d
Ġro ster
d ream
arth y
Ã ¯
Ġentire ty
Ġflood ed
Ġext inct
Ġtri o
Ġrain bow
Ġfin ishes
an th
ĠViet namese
Ġren al
9 38
ad min
Ġdeleg ates
Ġanat omy
- $
Ġtast ing
Ġperson a
ĠDef inition
Ġgate way
ĠExt ra
Ġfur ious
play ed
oph obia
qu in
Ġfav ors
l aws
ĠE q
Mod ule
Ġa z
Ġbo iled
N orm
Ġcomp ilation
Ġpost p
ĠK i
Ġauthor itarian
ĠCe lebr
Supp ort
ĠMorm on
Ġliquid ity
ugg age
est ial
Add ress
Ġj ets
Ġgovernment al
Ġupload ed
ĠChamp ions
ĠB ert
Ġbra cket
Ġmembr anes
ĠReturn s
ĠC ounter
re port
ĠJ ill
Ġmat hematic
? .
ro ved
lear ning
Ġmuse ums
Ġcur ved
Ġsc ars
h m
Ġspecific s
App lication
ic ans
Ġshow case
x p
ab ad
O pt
Ġing en
ĠK ick
ric hed
ĠR s
ert ation
P rop
Ġdr astic
ĠSun ni
88 8
B Y
ĠComp are
Ġhum id
Ġstation ary
Ġpo op
Ġinc arcer
m oon
ĠL iked
Ġst amps
Ġj our
Ġfault y
ri ber
Ġme ats
Ġcontrib utors
Ã¼ r
e ctions
aa aa
d one
j ury
Ġseiz ures
ĠCon fig
Ġer osion
ĠP ale
Ġhist ories
Ġboard ing
Ġunc over
Ġtun es
Ġrecip ients
Ġmess ed
p u
Ġside walk
Ġt apes
Ġgast ro
W in
ĠR ah
ĠC ycl
Ġexhib its
Ġwise ly
effic ients
en o
p aste
D at
Ġredu ndant
Ġdec imal
ĠHait i
ĠKeep ing
Ġaff inity
T en
ĠM ack
Ġamb assador
Ġju ices
Ġent ropy
Ġover time
end ers
ĠAv ailable
ĠState ment
Ġrib s
ĠB ash
atter s
9 29
G erman
Ġhe mp
ĠN utrition
ĠCh oice
ĠCongress ional
ĠJo el
Ġbox ing
ĠVictor ian
Ġcataly st
ĠJ oint
ĠW ave
ind ust
h art
Ġtrad er
Ġsens ing
el ia
Ġhand ing
ron es
Ġweigh s
Work ing
Ġoun ce
Ġbr icks
ĠYou th
ĠCour se
Ġg ren
Ġdec isive
Ġpref ers
Out put
ĠEconom y
per fect
Ġreb oot
b ach
ĠB oom
Ġte aring
Ġmed al
Ġdism ant
â Ĩ
Ġide ally
C ast
Ġin efficient
Ġch ambers
Ġrein forced
Ġdis ks
el and
Ġpir ate
Ġwh ales
Ġmod eration
Sty le
T ask
Ġtoug her
ull ivan
Ġline up
ĠC elt
ĠC ovid
ĠMe asure
ĠKind le
Ġre pt
Ġbra nding
Ġremind ing
m om
Ġgl or
Ġbl oom
Ġplanet ary
Ġrecru ited
Ġli z
urd y
ĠC ultural
V A
Ġm int
Ġover r
Ġf ost
atto os
Ġe u
Ġspect ral
Ġresear ched
om id
Ġhum our
W ords
N a
Ġrel oad
v or
Ġcur tain
Ġathe ists
Ġo st
co al
Ġeld ers
IS S
* }
le q
Ġdownload s
ced es
ĠP ill
Ġscrew s
Â £
asp berry
i very
Ġaccomplish ments
Ġunder going
ĠV ideos
ĠC lient
Ġste alth
Ġcongest ion
ĠHe avy
Inc re
St ation
ĠWell s
ĠV ar
ĠAdd ing
Book s
Ġa pe
Ġb ob
Ġd olph
medi ately
Ġhyp not
t ask
ple ase
Ġrest s
Ġest rogen
Ġar ist
Ġtrave lled
n est
ĠD ial
Ġstat istic
Ġpir ates
Ġninet eenth
ĠBar celona
Ġj og
og lob
Ð ³
Ġpr isons
Ġsim ulated
Un iversity
ĠÐ ½
Ġclin ics
Ġstere o
ĠMel bourne
Ġc asc
in ar
Ġc ue
22 2
ing es
Ġem it
Å «
st ri
Ġim minent
Ġstupid ity
Ġartic ulate
St at
ĠSy l
E ric
st ones
ĠHug hes
ic us
Ġcan ned
Ġformat ting
Ġnom inal
ĠT X
Ġcosm etic
9 37
ĠH ERE
K im
Ġm isc
P rim
ĠH O
Att ribute
Ġnas al
Ġrespect ful
Ġat op
ĠFR OM
Ġwe eds
ne gative
Ġancest or
ĠM t
Ġgo ose
Ġant agon
Ġprogram mes
ĠCit izens
Ġconqu ered
Ġspeed ing
9 36
ĠG I
fil m
d k
ĠK il
Ġdisc rep
Ġin aug
cc oli
Ġapp la
Ġnames pace
ĠCase y
Ġped al
ĠFun ny
pl aces
8 70
Ġun even
37 5
ĠPre vention
Ġradical s
HT ML
Ġelectro ly
×ķ ×
Ġcertific ates
ĠN aturally
ĠBel ieve
ĠF uck
li able
Ġdisag reement
Ġag ile
ĠO UT
Ġ\ (
ĠÐ °
14 1
Col umn
Ġslee ve
Ġl ays
Ġs ib
ĠMe et
Ġtables poon
ĠW OR
Ġnom inee
Ġpestic ides
ĠP ul
in fty
Ġv ascular
flu ence
13 4
AN S
Ġdiscoura ge
Ġmet ast
ĠS hen
Ġrec urs
Ġdeep est
y g
Ġco oper
Ġjud gments
Over ride
Ġstimul ating
b uffer
ĠAs ide
Ġbron ze
Ġsp arse
Ġst aple
r ices
Ġl ongevity
Ġdiscl ose
av ier
Ġwra pping
Ġcont raction
ĠHud son
Ġsen iors
ans wered
ard i
Ġden ote
Ġalert s
Ġa il
ĠB erg
Ġunivers ally
ĠS K
Ġapp rent
Ġhon ored
Ġp hy
ĠSe b
aut o
head er
Ġparas ites
Ġparan oid
Ġcyl ind
ĠUnder stand
Ġfin ale
Ġsw ollen
ĠT A
ĠB ou
Ġcraft s
ies el
Ġintegr ating
ĠCont rib
Ġad apter
Ġl aps
Ar g
Ġfresh ly
Ġspons ors
ĠÙ Ī
Ġantioxid ants
Ġf uss
95 1
ĠFil ip
ĠAct ivity
P icture
B uffer
ap ons
J S
sh ield
Ġsquee zed
13 6
Ġparliament ary
A li
ĠN umer
ĠL ad
Ġun rest
ĠLog in
ĠK ash
Ġviol ating
Brit ish
Ġr att
Ġsh arks
Ġende avor
Ġh atch
os o
ĠN PC
ac et
r ows
Ġbe ers
ĠP interest
Ġchar itable
ĠTe h
Ġexcell ence
Ġha ul
ĠCh art
Ġlat ency
Ġpro gn
oy le
ĠApp s
Ġpl at
ĠIdent ify
G ot
Ġsp iders
Ù Ĥ
//////// ////////
Ġha ha
I ran
ĠK er
Ġreflect ive
Ġbond ing
Ġaggress ively
r ill
ĠB ald
Ġint e
Ġple asing
ĠDeb t
L anguage
ĠN ad
Ġcr icket
Ġend uring
Ġmile age
S ir
ĠP ie
qu ote
ink y
ump ing
Ġhair s
Ġvib e
Î ·
Ġst if
Ġex ile
erv ative
Ġ> =
Ġbroad band
ĠChamp ionship
Ġunbelie vable
Ġpart isan
13 8
ĠCol onel
Ġhook s
Ġco efficients
Al ways
ĠON LY
Ġdev otion
ĠZh ang
Rep ublic
ĠMess ages
Ġcaps ule
onel iness
f y
Ġso ak
m ile
Ġpo orer
Ġcomprehens ion
ĠJo an
ĠMont ana
Ġpl edge
col ored
G irl
ĠA U
ĠRod rig
p ire
Ġth ieves
ĠTr ad
Ġfault s
ĠCommon wealth
Ġinc umb
Ġdi abetic
aut ions
Ġvague ly
\ "
ic ator
Ġcomp artment
ĠMil k
Ġd aunting
ess a
ĠW o
Ġiss uing
Ġcler k
Ġsub way
Ġdub bed
Ġauthent icity
Ġur gency
Ġsk et
Ġmind ful
Ġdom est
ig ated
ĠD iana
par ams
ĠWork ers
Eng ine
Ġundert aken
Ġmeth ane
Ï ħ
ĠCol in
ĠRe asons
found er
Ġlab s
Ġteam mates
cir c
Ġterr itorial
ĠRel ated
F ar
ĠP ublished
Ġfemin ism
ĠV amp
ĠSh ield
ĠHam pshire
ĠPubl ishing
S che
oc re
Ġob jections
c ue
al ways
ĠB A
ĠH ood
ĠD rew
Ġnood les
W orks
Â ¢
Ġt apping
Ġrank ings
Ġopt ed
Ġcleans ing
Ġk o
OS S
mark ed
ĠRe quest
ĠAnge la
Ġlog ically
Ġenh ances
Ġsem antic
ĠM ull
o zy
em y
r ising
ert ility
Ġprophe cy
ah ah
Ġclick ed
ĠV atican
ĠW ine
ĠJ et
u o
ĠS ens
Ġsil icon
Ġban anas
Ġcr ushing
Ġexagger ated
Ġl b
ĠCl aim
Ð Ĥ
Ġg ears
G reg
Ġimprison ment
ĠM atch
Ġgen us
Ġl amps
op eration
Ġme ld
T y
Ġtext ures
Ġapart ments
i ya
Ġev id
Ġturn over
L inks
rec ogn
ĠPhill ips
Ġs ane
Ġf ries
Ġse ize
St ory
Ġle aked
Ġswe ll
Ġmir acles
ĠM AC
c ards
supp ort
Ġhead ers
Ġexc av
ĠChem ical
Ġbless ings
ĠTechn ologies
ĠW R
urg ical
ĠAsh ley
Ġscreens hot
ĠNep al
s ort
Ġp iles
ĠJ enny
ĠÏ ĥ
Ġcart oons
F ast
ĠS ally
hand le
Ġb iod
Res ource
ind y
ĠRead er
ĠMill enn
ĠHispan ic
Ġpartners hips
ĠC opy
s ac
ver ter
Ġhe aled
y ers
Ġch alk
Ġin mates
Ġcub ic
B U
sh ots
ĠCon vers
c racy
Ġacc l
ĠG n
Ġretail er
Ġswing ing
Ġreal ism
Ġ$ {
Ġmicrosc ope
h icle
Ġaccompl ishment
ĠBrand on
Ġprovin cial
Î ³
ellig ent
ĠB ub
th ings
c ities
16 8
Ġfel ony
Ġm ates
Ġe b
Ġfl ashing
id ian
ĠSchool s
Ġlifel ong
Ġvisual ize
old ing
Ġpriv at
ĠGr ade
Ġund o
Ġca ption
ĠB our
work er
ĠE agle
ĠColomb ia
ĠE yes
ĠStep s
Ġres igned
Ġ[ âĢ¦]
Ġquad r
ĠI O
ĠM ovies
ĠBr ady
ĠS om
u ish
ĠA er
14 2
ĠTw ilight
Ġcr us
Ġgo of
Ġl ament
em b
ur istic
Ġw akes
ma res
def ense
Ġdestro ys
ĠLim ited
ĠTop ics
? ,
Ġacid ic
) [
ĠB und
Ġinterven e
Ġa ura
Ġin verse
cent ric
Ġqual itative
Ġre active
Ġle gends
Ġmed s
ĉ Ċ
Ġno v
ĠSal v
Ġmisunder standing
Ġcomplement ary
ð Ŀ
Ġs ings
any a
Ġbur ger
ĠC ord
Ġgra ft
not es
Ġcultiv ation
ke ll
ĠB orn
s ame
ĠFl ore
Ġsett lers
M G
N or
_ .
ĠA id
Ġpenet rate
ĠRepresent atives
Ġreminis cent
le ad
Ġsim ulate
amp oo
ĠB iblical
Ġr ang
M or
ĠF oster
ĠK iss
Ġstack ed
ĠIntern al
field s
ĠLog an
Ġass ay
ĠJun ior
Ġnon profit
for ces
ĠFor ums
Ġlandsc apes
ĠR ank
gg le
Ġwar ns
Ġsh attered
Con nection
ĠBry an
Ġc ured
ĠE A
Ġmurd erer
ĠGon z
ĠAven gers
IS A
ĠOut side
c oll
sh ift
K evin
Ġconstitu ents
ĠPr ison
ĠT ol
ĠS r
ill in
ffect ed
Ġdream ed
C AR
Ġwell s
I ron
ĠHon estly
Â ±
Re lease
ĠRab bi
ĠM ouse
AM P
ĠPal m
Orig inally
Ġhus bands
ĠS ara
Ġwom b
Ġbi ography
ĠRe becca
Ġsqu at
Gen erally
ĠN T
ĠBell a
F eed
iter ate
ĠW ing
ĠSp ark
Ġin ward
Ġcollect ors
ĠS onic
Ġob j
N ull
Ġsw all
ĠFem ale
Ġweight ed
ĠSe qu
ue z
Ġconce al
O ften
C ut
Ġ* **
Ġdra ined
Ad vert
ur ous
Ġubiqu itous
Ġp ony
ĠH ash
Ġsan ction
C omb
Ġhand ic
Ġdisreg ard
t ry
Ġlibert arian
Ġm RNA
ass ed
Ġcult urally
Ġpost erior
Ġoptim ism
Ġampl itude
Ġpo etic
Ġmain land
Ġvolcan ic
ĠB O
h orn
ll or
Ġstart ups
ens on
asion ally
edd y
Ġre imb
per formance
Ġeduc ators
ĠCD s
ĠN HS
Ġins anity
Ġav iation
ĠKat ie
Ġmin ers
Ġopt imum
Ġfilm makers
ran ch
OS E
Ġme ga
umb les
Ġautom otive
ĠAM D
Ġpres ently
ĠL CD
cl amation
Ġprop oses
ĠF C
St ore
Ġmir ac
gener ated
Ġver tex
OL D
Ġgad gets
Ġbast ard
ĠU pper
Similar ly
ĠDecl aration
ĠFran co
ĠCD C
Ġped iatric
Ġhorn s
S a
ĠHung ary
Ġsl ows
Ġfam ously
Be yond
Ġenc oded
Ġge ometric
Ġgri ev
s ys
Ġvisual s
ĠInvest ment
ĠClin ical
Ġh tml
ĠM ann
ĠB og
Ġdis placement
Ġde le
qu is
ish i
T ree
Ġcurs or
è ¡
Ġb il
Ġpl ugged
D en
Ġresid ue
Ġamb itions
2 15
ĠT C
ĠH annah
Ġsol itary
ĠV ista
sh adow
Ġinv oke
ynt hesis
he astern
Ġch ina
ĠZ omb
b uck
ĠRe form
Ġinfl ict
ĠMost ly
Ġne on
C y
Y S
Ġwheel chair
Ġcorrid or
Ġy o
Ġcontin uation
Ġcann on
educ ated
8 60
ĠE state
ĠW ag
Ġconce aled
Ġex cel
ĠP am
m ust
Ġst ained
Ġdoc s
Ġpump ed
be y
B ur
Ġscan ner
Ġgu itars
ĠG ear
Ġg ems
Ġpa wn
ĠPC R
des cription
Ġembra cing
Ġfact ual
Ġnav y
D ifferent
e ither
act ually
ĠSo x
Ġab uses
15 1
Ġdelt a
Ġcomm em
ĠMar tha
Ġattract ing
0 25
Ġtransf erring
ĠCan on
Ġbutter fly
e on
M oney
ĠMen u
Ġerect ile
ĠFl ow
Char les
ĠLiver pool
W E
l ords
Ġstar ving
ĠF ill
ere rs
ĠAssoci ated
9 19
Ġspec s
Ġbar bar
Wind ow
un ing
Ġpath ogens
ĠT E
an ic
Re v
ak in
ĠSer b
Ġadm itting
7 80
uzz le
ĠJ S
Å ĵ
Ġrock y
ct ory
B uilding
14 3
Res ults
G ET
Ġdown stream
Ġrub bed
ĠEthi opia
ance ment
bro ken
ro e
ĠFl ag
Ġmisunder stood
Ġtest ify
For got
Ġcompet ence
Dig ital
c row
Ġpoll en
Ġcommun ism
Ġstre ak
cler osis
20 5
Ġrepe ats
Ġsnap shot
Ġsculpt ure
ock ing
Ġ[ '
Ġprofession ally
Ġg runt
ote chnology
ĠDi abetes
Ġincorrect ly
ĠB less
ab we
ĠE ug
ĠSome how
ĠBeaut iful
. ?
ĠI van
ĠRep orts
an throp
to ken
Ġv ivo
Ġle aking
Ġprinci p
Ġw aving
ĠS outheast
Ġpro ps
Ġinfant ry
B on
N ice
ĠMO RE
Ġg uts
ĠH C
ĠC ategory
ĠPl ugin
engu in
ĠS ke
Ġto pped
ĠB I
back ground
ĠMoh ammed
Ġimpair ment
13 9
Ġcens orship
b old
ĠS ense
f c
âĢ ĥ
Ġpromot ional
ĠD anish
Ġcall back
Ġl uggage
âĢĿ :
Ġsub urbs
Ġlive ly
Ġtax ed
ĠArk ansas
ĠG RE
J ose
umb ai
Ġ< =
te ll
Ġwind ing
Ġdefe nder
ĠProgram ming
ĠPan el
Ġdispos able
ĠRe peat
Ġcredit ors
l ists
ĠSol omon
Ġeyebr ows
M AT
ĠSt orage
ourge ois
i antly
3 01
Ġve to
Ġadvert ised
ĠVe get
Ġpitch ing
Ġpay load
Ġantioxid ant
fashion ed
Ġm ansion
Ġpl umbing
T ax
ik u
Ġcond itional
Ġen vy
Ġcra b
Ġpron unciation
Ġseiz ure
Ġrob otic
r ically
ĠG iant
Ġpet roleum
Wr iting
en stein
Ġten ants
ĠL un
ĠDun can
Ġcap ita
Ġlun ar
l ittle
Ġdraft ed
Ġf rog
ĠTr aditional
Ġunreal istic
Ġde ed
Ġap opt
Ġcomplex es
down load
am ination
Ù ģ
Ġde ception
Ġden om
og rams
Ġfire arm
ĠN umbers
Ġc ros
ãĢ ģ
Ġadvoc ating
Ġcere bral
2 17
ang ling
J ason
ĠO H
Ġro gue
Ġins omnia
Ġspin ach
M rs
ĠPh ase
Ġimplement ations
Ġliber ties
it ud
th ms
ĠElect ronic
ĠH off
Ġtw ists
Ġbe asts
14 7
Ġdepos ited
ĠPrim ary
Ġvan ished
ster dam
Ġcoord inated
fe el
Ġlif ts
Ġbur ial
ĠAnge ls
Ġfold ing
r ue
Ġref rain
bl ank
ĠAlex and
Ġlabel ing
ĠBapt ist
D iv
u int
} /
ĠThank fully
Ġunder graduate
ĠNar uto
Ġcost ing
Ġimpl ants
Ġmast urb
Ġbr ushing
pract ice
C ertain
ĠØ ¨
ĠIM F
Ġunch anged
ĠReg ion
Ġret aining
Ġdetect ing
ĠG ross
Ġexp ands
Ġstrange ly
P rivacy
it ures
Ġd ynasty
ĠH U
ĠV ote
ĠObs erv
ak ra
Ġdisg ust
u ously
Ġcru c
Ġexperiment ing
ĠPrem ier
ĠAngl o
W estern
ĠT yr
ĠE sp
ra vel
Ġthr iller
Ġmur m
or f
ĠBrad ley
ĠE lder
ĠUlt ra
ok a
Ġbi ases
Ġdeb ated
Ġas cend
n av
osc ope
ĠCost a
Ġmant ra
15 2
Intern ational
ĠProte in
F ortunately
Ġles ions
Ġb ash
ĠBar n
ĠC AS
Ġexam ines
Ġappe ll
ĠAfric ans
ĠC ards
Ġg le
ĠMaterial s
Ġsens ations
add ress
Def inition
Ġpe ar
Ġagree ing
ĠBangl adesh
Ġth inner
ĠF rost
Ġund en
.' "
ĠTry ing
ĠJ ourney
Ġult rasound
af ia
Ġlock er
Ġwor sh
ĠE arl
ov ich
Ġwel coming
Ġmar row
C reating
or ously
ĠC ult
amp ing
ĠBloom berg
å º
Ġl ithium
ĠB ass
Ġcoun ters
c ss
ĠN as
ru ce
imb abwe
Ġbreast feeding
ĠGand hi
ul atory
Ġflat ten
Ġsystem atically
Ġstain less
fol k
ĠBrother hood
Ġsub mitting
Ġpack aged
Ġcustom ize
ĠStand ards
Ġkidn apped
Ġo ve
ĠCh and
Ġconne ctor
Ġmass acre
iling ual
Ġass urance
pl ug
Ġco ated
ĠGu ess
Ġcommer cially
- ,
h all
3 10
ĠP ig
see ing
Ġban ning
ess im
Ġsur real
Ġbal d
ov ic
Ġav oc
O bs
ĠP ills
idel ine
Ġk ar
Ġliqu ids
1 99
ĠSim pson
ĠM aur
Ġrif les
ĠK as
Ġsp un
ĠIsrael is
L ord
sun ami
K at
Ġam mon
Ġpow d
Ġven ues
Ġpol ish
Ġshot gun
ĠB ros
Ġkn e
Ġrock ets
ĠHar bor
ess or
ĠH onda
Ġfun nel
Ġgl oom
ĠL iqu
Re ference
V ict
Ġmoist ur
Ġdub ious
Ġoff ence
P ot
Ġo mega
Ġm orn
ĠCh ad
ĠEmer gency
Ġspark ed
Ġs erm
Ġr ud
Ġal oud
br ush
sh irts
Ġexperiment ation
w ra
d oms
Ġl umin
Ġgang s
M ENT
d rive
Pl ace
Sec urity
a uth
mir al
Ġin ference
ĠR an
Ġsl ick
ĠT CP
Ġj ihad
Ġ; -)
Ġs q
Ind ia
Load ing
Ġadd itions
Ġwell being
Ġmigr ate
Ġman ga
ĠG E
ĠG reens
not ation
Ġextrem es
Ġpredecess or
d l
ĠDo ctors
Ġenc aps
ĠIn put
9 35
Ġdefend ers
erg arten
pe ace
ous ands
Ġw oo
unk y
Te am
b ott
Ġstr ay
N atural
W al
Ġparad ise
W R
ore an
Ġpl aque
ĠH il
ĠH aven
ĠL amb
Ġmem oir
Ġmascul ine
Ġkn ot
yn chron
ie u
Ġhol istic
Ġrub bish
Ġpump kin
Ġprepar ations
Ġant iqu
Ġje opard
ĠL ip
A H
ĠT ang
Ġdoub les
ĠStud ios
Ġpupp et
Ġup stream
Ġbell s
Ġden ies
Ġpil gr
odynam ic
it ime
ĠRec ogn
mo il
RN As
Ġsl ammed
or ption
ĠC red
=" "
ra z
Ġun for
oc ating
ov ak
Ġsed iment
80 2
Ġcollabor ate
Ġthink ers
Japan ese
I r
ĠSupp lement
Ġjuven ile
Ġscen ery
Ġelimin ates
ĠBroad way
Ġpre ach
ob acter
ĠPow ell
é Ģ
pp ings
ĠJ ur
Ġcare g
Ġprefer ably
Ġl ac
ergus on
l ace
p ick
Ġf ier
Ġro ok
Ġimper fect
iz ards
ĠTrans fer
Ġoblig ed
ĠD ell
dev ice
Ġsp raw
Ġb ir
Ġprev ailing
Ġh alls
9 34
Ġunder way
Ġag on
back ed
Ġw agon
ĠSt ark
Ġin advert
Ġlook up
ĠC bd
ĠE TF
ĠZ ach
ubl in
ĠSw itch
Ġa ired
ĠRe uters
ĠM ig
Ġart illery
Ġun cont
Ġaer ial
ID E
ĠI oT
ific ate
Ġdis connected
Ġtre k
Ġsix teen
Ġdelight ful
is o
Ġj ugg
Ġpop corn
Ġlifes pan
T re
Ġfundament als
++ )
t al
Ġgre ase
S ix
Ġcons oles
Ġdown stairs
Ġmem e
Ġepid em
chem ical
Ġrest ed
Ġsin us
ĠD oll
Ġretrie ved
ĠW izard
Ġmar ble
O cc
Ġh ull
âĢ ¨
Ġrent ed
Ġchat ting
ĠIncre ase
ĠHigh way
Ġp am
gr owing
Ġble ed
er ated
ĠP it
st en
Ġth irteen
ar is
ĠIn g
Ġuniform s
Ġa isle
ĠIn sp
Ġsurviv or
ĠConserv atives
ĠC roat
ugg er
L and
Ġv enge
Ġintrig ued
Ġth riving
IS H
xx xx
en os
ĠCh in
Ġswe ating
Us ually
Ġcriter ion
ath a
ĠA WS
pro duction
Ġst rap
Ġis ot
Ġimag ining
het ically
ĠD od
Ġexist ential
st ates
Ġethn icity
ron ics
Ġdrain age
n ative
inc eton
Sm ith
Ġtun nels
P in
Ġpro active
ĠIt em
organ isms
Ġcentral ized
th irds
ĠG ang
ĠBul gar
Ġse afood
Ġso fa
j ournal
wh atever
rib utes
Ġ: -
ĠJeff rey
ĠS MS
Ġra ils
Ġsal v
Ġsli pping
Ġsp lend
Ġinstall ment
Ġdep rived
J ava
ĠN atal
Ġen rolled
Ġaspir ations
il ot
Ġworld view
Ġgrand children
ĠSk ills
In formation
ave z
h man
Ġro ast
Ġclass mates
ĠDes ert
link ed
ĠF lex
Ġsummar ize
[ :
ĠT ip
ĠS hip
ge ons
Ġinj ections
Ġmosqu it
an alysis
Ġded uction
Ġincons ist
Ġfont s
b m
Ġterm ination
Ġcas ually
Ġcrew s
à¤ ¯
hist ory
R unning
ke red
ĠTechn ical
Am azon
Ġb amboo
p ipe
Ġsy nd
Ġm ans
Ġunus ually
ĠAl b
MA X
ĠG os
Ġen semble
ĠSt uart
Ġfriends hips
AT ED
Ġwor s
Ġcl ash
s ets
Ġreck less
Ġun used
Ġbatt ling
Ġsubt ract
Ġsyn th
Ġs ul
hh hh
ĠOtt oman
G rand
Ġbl and
ĠB order
Ġamazing ly
ĠP owers
Ġneat ly
Ġun load
Ġtime out
Ġinhib itors
ĠÎ ´
ĠMar riage
ood le
est inal
Ġsing ers
Ġver bs
Ġre use
app rox
ch lor
Ġfire wall
ĠĠĠĠĠĠĠĠ Ċ
Ġpain ter
ev il
W ashington
ĠBut ton
Ġ{ {
Ġox idation
Ġprohib ition
4 40
m onds
Ġd ances
ĠS omal
inst on
at ism
Ġse als
Ġmedi ocre
ĠL ith
Ġl oser
Ġrec omb
ĠV ed
J osh
l iving
uel ess
intend ed
Ġtrou bling
ĠNor wegian
I mp
ĠDis covery
Av g
ĠN J
R R
Ġcall er
Ġannoun cing
dri ver
ĠD ollar
Al ong
Ġmyst ical
Ġscript ure
ĠArist otle
ĠPok Ã©mon
ĠT ap
on line
ĠTim othy
Ġalter ing
Ġch ords
. \
Ġr all
Ġri ots
olit ics
ĠEss entially
e lement
} [
Ġviol ently
Ġscientific ally
Ġconver ter
aur ant
Ġadvertis ers
ĠL ives
z b
Ġcommun al
sm art
Ġfe ud
Ġring ing
ĠS ell
ric an
20 3
edd ings
Ġp es
ĠTe acher
Ġcurs ed
mat rix
Ġintim acy
ast ian
ĠLead ership
ĠAst ron
a ic
Ġrequest ing
z ant
Ġambul ance
Ġdisgu ise
Ġatt ractions
Ġn i
ĠBuff y
Ġe rection
ol ate
Ġdecl ares
ĠU h
rel igious
ĠCamb od
Ġimm oral
Ġmulti player
ĠAnn ie
} (\
ĠDo om
/ -
Ġas semble
con nection
f aced
op us
Ġp agan
AR N
Ġhorm onal
aw i
ur ai
in ous
Ġbl ond
ĠMar ines
Ġlegisl ators
Ġguard ian
9 32
Ġramp ant
EX T
Ġcontradict ory
Ġcool ed
Ġvent ilation
ĠHur ricane
Ġem itted
ĠSh ir
ĠC ave
res istant
Ġtr ilogy
ĠCom ics
Ġsuccess ive
Ġinhib it
S ound
Ġfertil izer
ĠPer u
Ġbudd ies
ĠM AN
D ar
Ġdisc s
Ġluc rative
Ġapplic ant
ĠCar n
Ġval uation
ĠT um
R ather
Ġdi agrams
ĠCast ro
Ġh ometown
Ġfore see
Ch arl
Ġhypocr isy
il age
ĠGal ile
Bet ter
Ġexpon ential
Ġr anged
ank ind
draul ic
Ï ī
is i
Ġund efined
yr us
9 25
Ġpred nisone
D irector
l ayer
es que
Ġbetray ed
9 12
Ġconstra ined
Sum mary
ĠS ie
Ġen closed
Bas ic
ĠF am
Ġs ack
Ġpre aching
co ins
ĠGreg ory
Ġdun geon
Ġcarbohy drate
Ġf res
Ġfl ipped
Ġconstruct or
ĠLl oyd
ĠP ere
ail ability
Ġgeneral ized
Ġvolunt arily
ĠChel sea
m ask
Ġl ure
ord able
Ġplay offs
He ight
H um
Ġs aint
ag i
Ġsh akes
Ġdiff usion
Ġg room
ist ol
ĠY ug
Ġbegin ners
ĠAct s
ĠGib son
ĠNapole on
ut ils
iv ist
Ġsp ins
P sych
Ġde ity
Ġso aked
Ġt ucked
ĠF ixed
Ġconsol idation
Ġresent ment
Ġdiscoura ged
l ot
G T
| \
Ġconvenient ly
Ġcompr ises
s ensitive
ĠYan kees
b read
Ġform ulated
Ġthe ological
Ġback drop
ĠW ILL
Ġvill agers
ĠU TC
bra nd
Ġfert ile
ĠG W
Ġcomfort ing
Ġconver gence
ĠD ynam
Ġun ite
Ġent ails
cons uming
14 6
Ġsandw iches
Ġtre mb
inst ance
gen eral
ĠC inem
Ġro asted
ĠSupp ose
Ġpul monary
Ġpneum onia
Ġh obb
ĠBr ussels
ĠHome page
Ġneglig ence
Ġbal con
Ġarrest s
Ġcompassion ate
Ġbag gage
Ġunexpected ly
F inding
ĠC raw
Ġqu asi
ĠK itchen
E conom
Ġst ains
get ting
Ġinv ade
ump ed
17 2
Ġtrust ing
P rep
od or
Ġorche str
ĠWeek ly
ĠSp art
Ġridic ulously
Ġdrive way
M ember
ĠC er
Up on
Ġcl aws
Ġrel iance
Sm art
Ġaccl aim
ĠShe ll
br aska
s aid
Ġt ut
riv ation
Ġvag inal
Ġshut ter
ĠF ight
N R
Ã «
ĠAn at
Ġshow ers
De ep
ĠFre ud
Ġexhaust ion
are l
Ġcont ag
Ġslog an
ĠB elt
id able
fl oor
Ġproceed ing
Ġres ervation
Ġdis li
pr ime
Ġemploy s
Ġ< >
Ġregul ator
Ġca fe
Ġcra ving
ĠDru gs
L i
ĠLe af
Ġspell ed
Ġimmense ly
s ch
Ġspect ra
ĠLeon ard
Ġfract ure
R ate
Ġt ails
Ġen lar
ĠIns ight
ĠW ash
Ġrest oring
Ġbegin ner
Ġdiss olve
[...]
