{
  "version": "1.0",
  "truncation": null,
  "padding": null,
  "added_tokens": [],
  "normalizer": null,
  "pre_tokenizer": {
    "type": "Sequence",
    "pretokenizers": [
      {
        "type": "Digits",
        "individual_digits": false
      },
      {
        "type": "Split",
        "pattern": {
          "Regex": "(?=(\\d{3})+(?!\\d))"
        },
        "behavior": "Isolated",
        "invert": false
      },
      {
        "type": "ByteLevel",
        "add_prefix_space": false,
        "trim_offsets": true,
        "use_regex": false
      }
    ]
  },
  "post_processor": null,
  "decoder": null,
  "model": {
    "type": "BPE",
    "dropout": null,
    "unk_token": null,
    "continuing_subword_prefix": null,
    "end_of_word_suffix": null,
    "fuse_unk": false,
    "byte_fallback": false,
    "ignore_merges": false,
    "vocab": {
      "!": 0,
      "\"": 1,
      "#": 2,
      "$": 3,
      "%": 4,
      "&": 5,
      "'": 6,
      "(": 7,
      ")": 8,
      "*": 9,
      "+": 10,
      ",": 11,
      "-": 12,
      ".": 13,
      "/": 14,
      "0": 15,
      "1": 16,
      "2": 17,
      "3": 18,
      "4": 19,
      "5": 20,
      "6": 21,
      "7": 22,
      "8": 23,
      "9": 24,
      ":": 25,
      ";": 26,
      "<": 27,
      "=": 28,
      ">": 29,
      "?": 30,
      "@": 31,
      "A": 32,
      "B": 33,
      "C": 34,
      "D": 35,
      "E": 36,
      "F": 37,
      "G": 38,
      "H": 39,
      "I": 40,
      "J": 41,
      "K": 42,
      "L": 43,
      "M": 44,
      "N": 45,
      "O": 46,
      "P": 47,
      "Q": 48,
      "R": 49,
      "S": 50,
      "T": 51,
      "U": 52,
      "V": 53,
      "W": 54,
      "X": 55,
      "Y": 56,
      "Z": 57,
      "[": 58,
      "\\": 59,
      "]": 60,
      "^": 61,
      "_": 62,
      "`": 63,
      "a": 64,
      "b": 65,
      "c": 66,
      "d": 67,
      "e": 68,
      "f": 69,
      "g": 70,
      "h": 71,
      "i": 72,
      "j": 73,
      "k": 74,
      "l": 75,
      "m": 76,
      "n": 77,
      "o": 78,
      "p": 79,
      "q": 80,
      "r": 81,
      "s": 82,
      "t": 83,
      "u": 84,
      "v": 85,
      "w": 86,
      "x": 87,
      "y": 88,
      "z": 89,
      "{": 90,
      "|": 91,
      "}": 92,
      "~": 93,
      "¡": 94,
      "¢": 95,
      "£": 96,
      "¤": 97,
      "¥": 98,
      "¦": 99,
      "§": 100,
      "¨": 101,
      "©": 102,
      "ª": 103,
      "«": 104,
      "¬": 105,
      "®": 106,
      "¯": 107,
      "°": 108,
      "±": 109,
      "²": 110,
      "³": 111,
      "´": 112,
      "µ": 113,
      "¶": 114,
      "·": 115,
      "¸": 116,
      "¹": 117,
      "º": 118,
      "»": 119,
      "¼": 120,
      "½": 121,
      "¾": 122,
      "¿": 123,
      "Â": 124,
      "Ã": 125,
      "Ä": 126,
      "Å": 127,
      "Æ": 128,
      "Ç": 129,
      "È": 130,
      "É": 131,
      "Ê": 132,
      "Ë": 133,
      "Ì": 134,
      "Í": 135,
      "Î": 136,
      "Ï": 137,
      "Ð": 138,
      "Ñ": 139,
      "Ò": 140,
      "Ó": 141,
      "Ô": 142,
      "Õ": 143,
      "Ö": 144,
      "×": 145,
      "Ø": 146,
      "Ù": 147,
      "Ú": 148,
      "Û": 149,
      "Ü": 150,
      "Ý": 151,
      "Þ": 152,
      "ß": 153,
      "à": 154,
      "á": 155,
      "â": 156,
      "ã": 157,
      "ä": 158,
      "å": 159,
      "æ": 160,
      "ç": 161,
      "è": 162,
      "é": 163,
      "ê": 164,
      "ë": 165,
      "ì": 166,
      "í": 167,
      "î": 168,
      "ï": 169,
      "ð": 170,
      "ñ": 171,
      "ò": 172,
      "ó": 173,
      "ô": 174,
      "Ā": 175,
      "ā": 176,
      "Ă": 177,
      "ă": 178,
      "Ą": 179,
      "ą": 180,
      "Ć": 181,
      "ć": 182,
      "Ĉ": 183,
      "ĉ": 184,
      "Ċ": 185,
      "ċ": 186,
      "Č": 187,
      "č": 188,
      "Ď": 189,
      "ď": 190,
      "Đ": 191,
      "đ": 192,
      "Ē": 193,
      "ē": 194,
      "Ĕ": 195,
      "ĕ": 196,
      "Ė": 197,
      "ė": 198,
      "Ę": 199,
      "ę": 200,
      "Ě": 201,
      "ě": 202,
      "Ĝ": 203,
      "ĝ": 204,
      "Ğ": 205,
      "ğ": 206,
      "Ġ": 207,
      "ġ": 208,
      "Ģ": 209,
      "ģ": 210,
      "Ĥ": 211,
      "ĥ": 212,
      "Ħ": 213,
      "ħ": 214,
      "Ĩ": 215,
      "ĩ": 216,
      "Ī": 217,
      "ī": 218,
      "Ĭ": 219,
      "ĭ": 220,
      "Į": 221,
      "į": 222,
      "İ": 223,
      "ı": 224,
      "Ĳ": 225,
      "ĳ": 226,
      "Ĵ": 227,
      "ĵ": 228,
      "Ķ": 229,
      "ķ": 230,
      "ĸ": 231,
      "Ĺ": 232,
      "ĺ": 233,
      "Ļ": 234,
      "ļ": 235,
      "Ľ": 236,
      "ľ": 237,
      "Ŀ": 238,
      "ŀ": 239,
      "Ł": 240,
      "ł": 241,
      "Ń": 242,
      "Ġt": 243,
      "Ġa": 244,
      "he": 245,
      "in": 246,
      "re": 247,
      "Ġthe": 248,
      "on": 249,
      "Ġs": 250,
      "er": 251,
      "Ġw": 252,
      "at": 253,
      "Ġo": 254,
      "Ġc": 255,
      "nd": 256,
      "it": 257,
      "is": 258,
      "Ġb": 259,
      "ou": 260,
      "es": 261,
      "en": 262,
      "ing": 263,
      "or": 264,
      "Ġf": 265,
      "Ġp": 266,
      "Ġm": 267,
      "an": 268,
      "ed": 269,
      "Ġto": 270,
      "al": 271,
      "Ġd": 272,
      "ar": 273,
      "Ġof": 274,
      "Ġin": 275,
      "Ġth": 276,
      "Ġand": 277,
      "Ġh": 278,
      "le": 279,
      "ic": 280,
      "as": 281,
      "om": 282,
      "ĠĠ": 283,
      "ion": 284,
      "Ġl": 285,
      "Ġn": 286,
      "Ġe": 287,
      "ll": 288,
      "ve": 289,
      "ly": 290,
      "st": 291,
      "ĠI": 292,
      "Ġg": 293,
      "ent": 294,
      "Ġre": 295,
      "Ġbe": 296,
      "ot": 297,
      "Ġy": 298,
      "Ġis": 299,
      "ct": 300,
      "ut": 301,
      "ow": 302,
      "et": 303,
      "âĢ": 304,
      "Ġthat": 305,
      "Ġyou": 306,
      "ro": 307,
      "se": 308,
      "id": 309,
      "ĠT": 310,
      "im": 311,
      "Ġon": 312,
      "ay": 313,
      "Ġu": 314,
      "Ġit": 315,
      "ad": 316,
      "Ġfor": 317,
      "ig": 318,
      "ce": 319,
      "ver": 320,
      "ld": 321,
      "am": 322,
      "Ġst": 323,
      "ur": 324,
      "ch": 325,
      "ĠA": 326,
      "ĠS": 327,
      "Ġhe": 328,
      "Ġwh": 329,
      "ith": 330,
      "ir": 331,
      "ation": 332,
      "Ġan": 333,
      "Ġas": 334,
      "Ġwith": 335,
      "Ġwe": 336,
      "Âł": 337,
      "if": 338,
      "ol": 339,
      "ke": 340,
      "ra": 341,
      "Ġha": 342,
      "il": 343,
      "ĠC": 344,
      "Ġare": 345,
      "ter": 346,
      "her": 347,
      "ill": 348,
      "od": 349,
      "ĠĠĠĠ": 350,
      "Ġcon": 351,
      "ul": 352,
      "ĠM": 353,
      "Ġor": 354,
      "ge": 355,
      "Ġwas": 356,
      "op": 357,
      "ĠThe": 358,
      "Ġse": 359,
      "ers": 360,
      "ck": 361,
      "ĠB": 362,
      "ore": 363,
      "ate": 364,
      "Ġde": 365,
      "âĢĻ": 366,
      "Ġ(": 367,
      "Ġcom": 368,
      "ri": 369,
      "ess": 370,
      "us": 371,
      "Ġpro": 372,
      "pe": 373,
      "Ġnot": 374,
      "ht": 375,
      "ĠW": 376,
      "Ġex": 377,
      "um": 378,
      "Ġat": 379,
      "ĠP": 380,
      "est": 381,
      "Ġhave": 382,
      "Ġr": 383,
      "ist": 384,
      "ab": 385,
      "ĠH": 386,
      "ould": 387,
      "th": 388,
      "Ġne": 389,
      "ant": 390,
      "rom": 391,
      "em": 392,
      "qu": 393,
      "Ġdo": 394,
      "Ġthis": 395,
      "pp": 396,
      "Ġv": 397,
      "Ġsu": 398,
      "Ġcan": 399,
      "nt": 400,
      "ain": 401,
      "ally": 402,
      "ĠD": 403,
      "os": 404,
      "ment": 405,
      "ive": 406,
      "res": 407,
      "Ġsh": 408,
      "ust": 409,
      "Ġal": 410,
      "ight": 411,
      "un": 412,
      "ome": 413,
      "ity": 414,
      "Ġch": 415,
      "Ġab": 416,
      "and": 417,
      "Ġfrom": 418,
      "Ġby": 419,
      "el": 420,
      "out": 421,
      "art": 422,
      "ĠR": 423,
      "Ġle": 424,
      "ĠF": 425,
      "Ġk": 426,
      "Ġthey": 427,
      "ort": 428,
      "Ġyour": 429,
      "ĠâĢ": 430,
      "ies": 431,
      "Ġgo": 432,
      "Ġbut": 433,
      "Ġj": 434,
      "Ġso": 435,
      "Ġwor": 436,
      "ie": 437,
      "ost": 438,
      "iv": 439,
      "Ġwhe": 440,
      "red": 441,
      "ĠN": 442,
      "all": 443,
      "ĠG": 444,
      "Ġme": 445,
      "ĠE": 446,
      "Ġall": 447,
      "ĠL": 448,
      "ak": 449,
      "oug": 450,
      "pt": 451,
      "ard": 452,
      "fe": 453,
      "Ġ\"": 454,
      "one": 455,
      "ĠĠĠ": 456,
      "oo": 457,
      "Ġint": 458,
      "ure": 459,
      "Ġpl": 460,
      "ide": 461,
      "Ġli": 462,
      "..": 463,
      "ci": 464,
      "Ġwill": 465,
      "ag": 466,
      "our": 467,
      "Ġus": 468,
      "ud": 469,
      "ast": 470,
      "ack": 471,
      "ther": 472,
      "ĠO": 473,
      "Ġout": 474,
      "pl": 475,
      "Ġtheir": 476,
      "ction": 477,
      "The": 478,
      "ind": 479,
      "ine": 480,
      "ich": 481,
      "ame": 482,
      "Ġtr": 483,
      "per": 484,
      "ous": 485,
      "ake": 486,
      "Ġhis": 487,
      "very": 488,
      "Ġup": 489,
      "Ġmore": 490,
      "ound": 491,
      "Ġmy": 492,
      "00": 493,
      "ong": 494,
      "Ġhas": 495,
      "age": 496,
      "Ġone": 497,
      "og": 498,
      "Ġabout": 499,
      "ĠJ": 500,
      "ime": 501,
      "ac": 502,
      "au": 503,
      "Ġlike": 504,
      "Ġen": 505,
      "Ġwho": 506,
      "ough": 507,
      "Ġim": 508,
      "ans": 509,
      "ĠTh": 510,
      "Ġar": 511,
      "iz": 512,
      "are": 513,
      "Ġsome": 514,
      "ook": 515,
      "Ġad": 516,
      "ated": 517,
      "act": 518,
      "so": 519,
      "Ġwould": 520,
      "Ġcomp": 521,
      "Ġte": 522,
      "Ġif": 523,
      "ice": 524,
      "Ġcl": 525,
      "Ġthere": 526,
      "ue": 527,
      "Ġpe": 528,
      "ap": 529,
      "Ġthem": 530,
      "Ġwhat": 531,
      "Ġfe": 532,
      "Ġother": 533,
      "Ġkn": 534,
      "Ġwhich": 535,
      "Ġman": 536,
      "able": 537,
      "Ġget": 538,
      "Ġcont": 539,
      "ven": 540,
      "cc": 541,
      "ĠU": 542,
      "Ġwhen": 543,
      "ep": 544,
      "ib": 545,
      "ink": 546,
      "ite": 547,
      "ople": 548,
      "ear": 549,
      "Ġwere": 550,
      "ical": 551,
      "Ġany": 552,
      "Ġbec": 553,
      "Ġhad": 554,
      "ĠIt": 555,
      "Ġun": 556,
      "ult": 557,
      "ions": 558,
      "own": 559,
      "ays": 560,
      "Ġjust": 561,
      "Ġqu": 562,
      "ry": 563,
      "orm": 564,
      "ass": 565,
      "Ġsa": 566,
      "Ġtime": 567,
      "ĠY": 568,
      "Ġres": 569,
      "ose": 570,
      "Ġher": 571,
      "ile": 572,
      "Ġ-": 573,
      "âĢĿ": 574,
      "ip": 575,
      "ance": 576,
      "Ġpeople": 577,
      "ace": 578,
      "Ġdis": 579,
      "ence": 580,
      "oc": 581,
      "ber": 582,
      "ĠIn": 583,
      "ase": 584,
      "ach": 585,
      "Ġwork": 586,
      "ire": 587,
      "ause": 588,
      "Ġag": 589,
      "ary": 590,
      "reat": 591,
      "Ġthan": 592,
      "ress": 593,
      "ings": 594,
      "Ġno": 595,
      "ations": 596,
      "ia": 597,
      "ign": 598,
      "Ġhow": 599,
      "ub": 600,
      "int": 601,
      "cl": 602,
      "du": 603,
      "ff": 604,
      "ĠĠĠĠĠĠĠĠ": 605,
      "Ġinto": 606,
      "Ġper": 607,
      "ru": 608,
      "ick": 609,
      "ĠK": 610,
      "Ġbeen": 611,
      "ne": 612,
      "Ġsp": 613,
      "Ġalso": 614,
      "Ġover": 615,
      "av": 616,
      "Ġpart": 617,
      "Ġgr": 618,
      "ĠâĢľ": 619,
      "hing": 620,
      "ount": 621,
      "vel": 622,
      "ens": 623,
      "Ġpr": 624,
      "Ġknow": 625,
      "ang": 626,
      "Ġspe": 627,
      "ove": 628,
      "ond": 629,
      "ree": 630,
      "Ġpre": 631,
      "ÂłÂł": 632,
      "ial": 633,
      "nder": 634,
      "ory": 635,
      "ord": 636,
      "Ġimp": 637,
      "te": 638,
      "Ġneed": 639,
      "Ġoff": 640,
      "Ġshe": 641,
      "ood": 642,
      "Ġour": 643,
      "Ġbl": 644,
      "Ġyear": 645,
      "ition": 646,
      "Ġpo": 647,
      "Ġonly": 648,
      "ail": 649,
      "ren": 650,
      "Ġam": 651,
      "Ġsc": 652,
      "Ġbet": 653,
      "ents": 654,
      "we": 655,
      "ild": 656,
      "ors": 657,
      "Ġcould": 658,
      "ark": 659,
      "ĠHe": 660,
      "form": 661,
      "Ġnew": 662,
      "Ġapp": 663,
      "sel": 664,
      "Ġbecause": 665,
      "ĠSt": 666,
      "hat": 667,
      "Ġdif": 668,
      "ov": 669,
      "itt": 670,
      "rent": 671,
      "Ġwant": 672,
      "ob": 673,
      "ect": 674,
      ").": 675,
      "Ġro": 676,
      "irst": 677,
      "Ġact": 678,
      "Ġthink": 679,
      "Ġdon": 680,
      "fter": 681,
      "Ġco": 682,
      "Ġtw": 683,
      "ces": 684,
      "Ġthen": 685,
      "ater": 686,
      "ĠCh": 687,
      "Ġhim": 688,
      "01": 689,
      "Ġmake": 690,
      "uch": 691,
      "ict": 692,
      "Ġmost": 693,
      "Ġmay": 694,
      "ons": 695,
      "ĠV": 696,
      "mer": 697,
      "ious": 698,
      "ish": 699,
      "ple": 700,
      "Ġevery": 701,
      "urn": 702,
      "Ġrec": 703,
      "ade": 704,
      "ĠThis": 705,
      "ual": 706,
      "Ġsee": 707,
      "Ġback": 708,
      "Ġits": 709,
      "Ġdid": 710,
      "Ġway": 711,
      "Ġeven": 712,
      "Ġthese": 713,
      "Ġthr": 714,
      "Ġuse": 715,
      "Ġdoes": 716,
      "Ġshould": 717,
      "Ġunder": 718,
      "Ġsaid": 719,
      "ell": 720,
      "Ġsy": 721,
      "...": 722,
      "omet": 723,
      "wn": 724,
      "ates": 725,
      "Ġfl": 726,
      "Ġlook": 727,
      "ian": 728,
      "oy": 729,
      "Ġcons": 730,
      "end": 731,
      "Ġdes": 732,
      "xt": 733,
      "hy": 734,
      "Ġacc": 735,
      "ft": 736,
      "ĠâĢ¢": 737,
      "ull": 738,
      "Ġwhere": 739,
      "Ġvery": 740,
      "Ġmuch": 741,
      "fore": 742,
      "erv": 743,
      "other": 744,
      "hed": 745,
      "Ġcomm": 746,
      "vers": 747,
      "ble": 748,
      "Ġfirst": 749,
      "fect": 750,
      "ually": 751,
      "Ġind": 752,
      "igh": 753,
      "Ġrel": 754,
      "Ġtwo": 755,
      "hen": 756,
      "ise": 757,
      "Ġgood": 758,
      "ating": 759,
      "Ġmany": 760,
      "Ġbu": 761,
      "Ġwr": 762,
      "ific": 763,
      "oss": 764,
      "Ġdiffe": 765,
      "ife": 766,
      "ath": 767,
      "Ġra": 768,
      "ks": 769,
      "Ġhel": 770,
      "Ġtra": 771,
      "ning": 772,
      "Ġem": 773,
      "Ġinc": 774,
      "Ġbeing": 775,
      "Ġsm": 776,
      "Ġthrough": 777,
      "lic": 778,
      "ily": 779,
      "ĠYou": 780,
      "Ġtoo": 781,
      "Ġnow": 782,
      "Ġbr": 783,
      "les": 784,
      "Ġinter": 785,
      "gr": 786,
      "iss": 787,
      "cess": 788,
      "cial": 789,
      "Ġke": 790,
      "ower": 791,
      "Ġwell": 792,
      "Ġright": 793,
      "Ġatt": 794,
      "ert": 795,
      "Ġafter": 796,
      "Ġhelp": 797,
      "erm": 798,
      "Ġgen": 799,
      "Ġrem": 800,
      "ĠAnd": 801,
      "ful": 802,
      "aking": 803,
      "Ġpers": 804,
      "ject": 805,
      "ange": 806,
      "Ġdown": 807,
      "ting": 808,
      "ock": 809,
      "ty": 810,
      "ments": 811,
      "get": 812,
      "ible": 813,
      "oll": 814,
      "Ġsomet": 815,
      "Ġadd": 816,
      "Ġ=": 817,
      "Ġsuch": 818,
      "Ġlong": 819,
      "10": 820,
      "ĠIf": 821,
      "aw": 822,
      "ph": 823,
      "oth": 824,
      "Ġev": 825,
      "pect": 826,
      "self": 827,
      "ĠWe": 828,
      "ced": 829,
      ".\"": 830,
      "ew": 831,
      "ular": 832,
      "Ġthose": 833,
      "--": 834,
      "Ġagain": 835,
      "ec": 836,
      "Ġinv": 837,
      "Ġob": 838,
      "),": 839,
      "Ġrep": 840,
      "lect": 841,
      "olog": 842,
      "li": 843,
      "Ġsay": 844,
      "stem": 845,
      "Ġyears": 846,
      "ics": 847,
      "ĠBut": 848,
      "Ġreally": 849,
      "Ġsim": 850,
      "iew": 851,
      "Ġown": 852,
      "old": 853,
      "Ġ$": 854,
      "Ġ'": 855,
      "ative": 856,
      "Ġstart": 857,
      "ars": 858,
      "Ġplay": 859,
      "ere": 860,
      "Ġgu": 861,
      "Ġcall": 862,
      "rib": 863,
      "Ġsame": 864,
      "Ġsupp": 865,
      "Ġused": 866,
      "Ġdec": 867,
      "ont": 868,
      "Ġinst": 869,
      "Ġprodu": 870,
      "clud": 871,
      "als": 872,
      "Ġend": 873,
      "Ġbel": 874,
      "Ġcr": 875,
      "In": 876,
      "Ġreg": 877,
      "its": 878,
      "Ġpoint": 879,
      "ility": 880,
      "Ġtake": 881,
      "Ġbefore": 882,
      "Ġgoing": 883,
      "Ġsec": 884,
      "ident": 885,
      "ever": 886,
      "alk": 887,
      "Ġstill": 888,
      "ffect": 889,
      "Ġread": 890,
      "Th": 891,
      "Ġac": 892,
      "day": 893,
      "ities": 894,
      "hes": 895,
      "Ġfind": 896,
      "Ġset": 897,
      "cept": 898,
      "ĠThey": 899,
      "ote": 900,
      "ows": 901,
      "Ġworld": 902,
      "ave": 903,
      "Ġdifferent": 904,
      "Ġpol": 905,
      "ased": 906,
      "Ġperson": 907,
      "ought": 908,
      "Ġreal": 909,
      "Ġcol": 910,
      "up": 911,
      "imes": 912,
      "Ġsub": 913,
      "Ġent": 914,
      "Ġaw": 915,
      "Ġph": 916,
      "ween": 917,
      "Ġsystem": 918,
      "ef": 919,
      "ied": 920,
      "Ġmod": 921,
      "Ġstud": 922,
      "Ġthings": 923,
      "ody": 924,
      "Ġsur": 925,
      "ax": 926,
      "Ġhand": 927,
      "ĠAs": 928,
      "Ġlife": 929,
      "cy": 930,
      "akes": 931,
      "ms": 932,
      "ving": 933,
      "Ġsomething": 934,
      "Ġhere": 935,
      "Ġhapp": 936,
      "Ġfeel": 937,
      "ather": 938,
      "ract": 939,
      "Ġche": 940,
      "Ġstr": 941,
      "read": 942,
      "Ġmade": 943,
      "Ġbetween": 944,
      "Ġins": 945,
      "Ġday": 946,
      "Ġprov": 947,
      "Ġwhile": 948,
      "Ġnum": 949,
      "Ġass": 950,
      "uring": 951,
      "ures": 952,
      "ution": 953,
      "Ġcar": 954,
      "ince": 955,
      "Ġexper": 956,
      "Ġaround": 957,
      "Ġchar": 958,
      "Ġsl": 959,
      "tern": 960,
      "gg": 961,
      "Ġgreat": 962,
      "ata": 963,
      "Ġhigh": 964,
      "Ġ[": 965,
      "owing": 966,
      "ĠSo": 967,
      "Ġpres": 968,
      "Ġmet": 969,
      "Ġfact": 970,
      "ĠAn": 971,
      "ying": 972,
      "thing": 973,
      "Ġtrans": 974,
      "ues": 975,
      "ward": 976,
      "ness": 977,
      "ize": 978,
      "ically": 979,
      "Ġlot": 980,
      "Ġexp": 981,
      "Ġmin": 982,
      "Ġinclud": 983,
      "Ġeach": 984,
      "Ġcount": 985,
      "ix": 986,
      "the": 987,
      "ool": 988,
      "ins": 989,
      "ited": 990,
      "ps": 991,
      "ism": 992,
      "any": 993,
      "ÂłĊ": 994,
      "Ġdef": 995,
      "alth": 996,
      "ng": 997,
      "Ġcre": 998,
      "Ġmon": 999,
      "ank": 1000,
      "led": 1001,
      "ĠHow": 1002,
      "air": 1003,
      "ittle": 1004,
      "Ġquest": 1005,
      "Ġfin": 1006,
      "ives": 1007,
      "Ġgener": 1008,
      "ctions": 1009,
      "arch": 1010,
      "ĠRe": 1011,
      "be": 1012,
      "ah": 1013,
      "velop": 1014,
      "com": 1015,
      "ĠUn": 1016,
      "gan": 1017,
      "ways": 1018,
      "atch": 1019,
      "Ġexam": 1020,
      "ines": 1021,
      "Ġret": 1022,
      "Ġmight": 1023,
      "Ġty": 1024,
      "20": 1025,
      "ĠĠĠĠĠĠĠ": 1026,
      "Ġmed": 1027,
      "Ġfun": 1028,
      "ten": 1029,
      "ason": 1030,
      "con": 1031,
      "Ġdet": 1032,
      "Ġproble": 1033,
      "ublic": 1034,
      "ĠThere": 1035,
      "Ġop": 1036,
      "ational": 1037,
      "meric": 1038,
      "Ġart": 1039,
      "ves": 1040,
      "Ġseem": 1041,
      "Ġfoll": 1042,
      "Ġfew": 1043,
      "Ġcor": 1044,
      "Ġval": 1045,
      "Ġear": 1046,
      "Ġnever": 1047,
      "Ġboth": 1048,
      "ists": 1049,
      "ss": 1050,
      "ork": 1051,
      "It": 1052,
      "Ġap": 1053,
      "und": 1054,
      "Ġcur": 1055,
      "Ġrequ": 1056,
      "Ġsign": 1057,
      "Ġform": 1058,
      "Ġchild": 1059,
      "ices": 1060,
      "ense": 1061,
      "Ġlittle": 1062,
      "ages": 1063,
      "der": 1064,
      "Ġusing": 1065,
      "Ġdisc": 1066,
      "Ġrun": 1067,
      "Ġwhy": 1068,
      "hip": 1069,
      "ved": 1070,
      "io": 1071,
      "less": 1072,
      "Ġimport": 1073,
      "Ġfam": 1074,
      "ale": 1075,
      "12": 1076,
      "Ġhum": 1077,
      "Ġbetter": 1078,
      "ys": 1079,
      "vern": 1080,
      "Ġfound": 1081,
      "iness": 1082,
      "ĠAl": 1083,
      "Ġser": 1084,
      "erest": 1085,
      "ex": 1086,
      "ner": 1087,
      "Ġposs": 1088,
      "Ġcle": 1089,
      "Ġfil": 1090,
      "ger": 1091,
      "pr": 1092,
      "ute": 1093,
      "Ġlast": 1094,
      "stand": 1095,
      "Ġput": 1096,
      "ĠFor": 1097,
      "ern": 1098,
      "Ġide": 1099,
      "Ġlet": 1100,
      "Ġgl": 1101,
      "ĠAmeric": 1102,
      "Ġcomple": 1103,
      "Ġanother": 1104,
      "Ġdevelop": 1105,
      "riend": 1106,
      "Ġexpl": 1107,
      "ouse": 1108,
      "Ġbest": 1109,
      "ric": 1110,
      "ention": 1111,
      "Ġcour": 1112,
      "fl": 1113,
      "Ġgot": 1114,
      "Ġmov": 1115,
      "Ġlead": 1116,
      "az": 1117,
      "Ġext": 1118,
      "oney": 1119,
      "Ġkeep": 1120,
      "Ġeffect": 1121,
      "uth": 1122,
      "Ġresult": 1123,
      "ized": 1124,
      "Ġbelie": 1125,
      "Ġlar": 1126,
      "Ġwithout": 1127,
      "Ġalways": 1128,
      "Ġsk": 1129,
      "Ġhard": 1130,
      "Ġbus": 1131,
      "ĠThat": 1132,
      "Ġmark": 1133,
      "Ġel": 1134,
      "arm": 1135,
      "Ġthing": 1136,
      "ably": 1137,
      "Ġpower": 1138,
      "Ġprocess": 1139,
      "Ġeas": 1140,
      "Ġdist": 1141,
      "Ġcome": 1142,
      "chn": 1143,
      "Ġstate": 1144,
      "ÂłÂłÂłÂł": 1145,
      "Ġi": 1146,
      "ient": 1147,
      "Ġless": 1148,
      "Ġinform": 1149,
      "ead": 1150,
      "Ġfr": 1151,
      "ts": 1152,
      "11": 1153,
      "ature": 1154,
      ",\"": 1155,
      "Ġturn": 1156,
      "gy": 1157,
      "ash": 1158,
      "Ġask": 1159,
      "Ġvar": 1160,
      "Ġserv": 1161,
      "ĠWhat": 1162,
      "Ġbig": 1163,
      "ets": 1164,
      "Ġmem": 1165,
      "000": 1166,
      "Ġpost": 1167,
      "ode": 1168,
      "Ġref": 1169,
      "Ġspec": 1170,
      "uss": 1171,
      "Ġca": 1172,
      "Ġsmall": 1173,
      "atter": 1174,
      "Ġbo": 1175,
      "ined": 1176,
      "Ġinterest": 1177,
      "uck": 1178,
      "This": 1179,
      "iting": 1180,
      "Ġhead": 1181,
      "Ġwom": 1182,
      "Ġplace": 1183,
      "ug": 1184,
      "Ġold": 1185,
      "ertain": 1186,
      "Ġhome": 1187,
      "pend": 1188,
      "Ġword": 1189,
      "Ġdata": 1190,
      "Ġdire": 1191,
      "uc": 1192,
      "here": 1193,
      "Ġav": 1194,
      "Ġmust": 1195,
      "Ġmean": 1196,
      "Ġdi": 1197,
      "sw": 1198,
      "Ġloc": 1199,
      "Ġresp": 1200,
      "Ġwater": 1201,
      "Ġbook": 1202,
      "Ġadv": 1203,
      "Ġlear": 1204,
      "ience": 1205,
      "ĠâĢĵ": 1206,
      "Ġsol": 1207,
      "ĠIs": 1208,
      "Ġgovern": 1209,
      "Ġcare": 1210,
      "Ġnumber": 1211,
      "ĠSh": 1212,
      "man": 1213,
      "ider": 1214,
      "ared": 1215,
      "Ġgrou": 1216,
      "Ġthought": 1217,
      ".âĢĿ": 1218,
      "chool": 1219,
      "ately": 1220,
      "Ġshow": 1221,
      "amp": 1222,
      "Ġclass": 1223,
      "Ġpass": 1224,
      "Ġincre": 1225,
      "Ġmain": 1226,
      "Ġpartic": 1227,
      "ption": 1228,
      "ants": 1229,
      "rol": 1230,
      "čĊ": 1231,
      "Ġwee": 1232,
      "ĠCom": 1233,
      "Ġplan": 1234,
      "Ġiss": 1235,
      "ames": 1236,
      "Ġunderstand": 1237,
      "15": 1238,
      "Ġactually": 1239,
      "err": 1240,
      "Ġmoney": 1241,
      "Ġsure": 1242,
      "Ġpat": 1243,
      "Ġsince": 1244,
      "Ġlevel": 1245,
      "ret": 1246,
      "Ġimportant": 1247,
      "Ġed": 1248,
      "Ġpay": 1249,
      "ology": 1250,
      "Ġtri": 1251,
      "Ġtell": 1252,
      "Ġthree": 1253,
      "view": 1254,
      "oun": 1255,
      "Ġagainst": 1256,
      "ired": 1257,
      "to": 1258,
      "ier": 1259,
      "ĠShe": 1260,
      "Ġdidn": 1261,
      "Ġbeh": 1262,
      "ee": 1263,
      "ural": 1264,
      "Ġenough": 1265,
      "Ġstand": 1266,
      "Ġtest": 1267,
      "What": 1268,
      "rop": 1269,
      "ases": 1270,
      "Ġcase": 1271,
      "Ġdoesn": 1272,
      "Ġduring": 1273,
      "ield": 1274,
      "osed": 1275,
      "Ġrest": 1276,
      "Ġoften": 1277,
      "ĠWh": 1278,
      "Ġmus": 1279,
      "ety": 1280,
      "Ġexample": 1281,
      "oh": 1282,
      "ruct": 1283,
      "Ġlist": 1284,
      "line": 1285,
      "ĠAr": 1286,
      "iving": 1287,
      "me": 1288,
      "Ġfriend": 1289,
      "Ġsays": 1290,
      "gram": 1291,
      "âĢĶ": 1292,
      "ross": 1293,
      "Ġvis": 1294,
      "Ġtechn": 1295,
      "br": 1296,
      "ters": 1297,
      "Ġkind": 1298,
      "Ġable": 1299,
      "Ġpop": 1300,
      "Ġinformation": 1301,
      "land": 1302,
      "Ġlaw": 1303,
      "bs": 1304,
      "You": 1305,
      "Ġhealth": 1306,
      "Ġaway": 1307,
      "Ġgame": 1308,
      "Ġbody": 1309,
      "aj": 1310,
      "Ġcent": 1311,
      "Ġpur": 1312,
      "Ġsupport": 1313,
      "Ġconf": 1314,
      "Ġgive": 1315,
      "ital": 1316,
      "Ġopen": 1317,
      "//": 1318,
      "Ġtalk": 1319,
      "Ġ*": 1320,
      "30": 1321,
      "rence": 1322,
      "Ġgra": 1323,
      "Ġcontin": 1324,
      ");": 1325,
      "Ġbre": 1326,
      "Ġunt": 1327,
      "Ġsecond": 1328,
      "Ġlove": 1329,
      "oot": 1330,
      "Ġchange": 1331,
      "Ġnext": 1332,
      "99": 1333,
      "Ġthough": 1334,
      "iven": 1335,
      "ĠWhen": 1336,
      "Ġbusiness": 1337,
      "Ġdri": 1338,
      "Ġpos": 1339,
      "Ġdr": 1340,
      "Ġdem": 1341,
      "Ġtop": 1342,
      "Ġbra": 1343,
      "ĠNew": 1344,
      "inal": 1345,
      "Ġcommun": 1346,
      "orn": 1347,
      "ĠĠĠĠĠ": 1348,
      "Ġconst": 1349,
      "Ġhappen": 1350,
      "ither": 1351,
      "âĢ¦": 1352,
      "dd": 1353,
      "Ġbuild": 1354,
      "Ġcharact": 1355,
      "Ġcalled": 1356,
      "ling": 1357,
      "Ġquestion": 1358,
      "If": 1359,
      "Ġsit": 1360,
      "Ġopp": 1361,
      "Ġproduct": 1362,
      "aug": 1363,
      "ok": 1364,
      "ides": 1365,
      "Ġname": 1366,
      "ality": 1367,
      "ĠDe": 1368,
      "ats": 1369,
      "Ġterm": 1370,
      "Ġfull": 1371,
      "ĠBr": 1372,
      "arent": 1373,
      "Ġchang": 1374,
      "Ġprof": 1375,
      "Ġ{": 1376,
      "Ġpublic": 1377,
      "Ġbas": 1378,
      "Ġproblem": 1379,
      "We": 1380,
      "Ġfar": 1381,
      "Ġfree": 1382,
      "Ġfood": 1383,
      "sh": 1384,
      "bers": 1385,
      "Ġleft": 1386,
      "Ġwar": 1387,
      "Ġschool": 1388,
      "Ġappe": 1389,
      "Ġprev": 1390,
      "port": 1391,
      "Ġgovernment": 1392,
      "Ġmeans": 1393,
      "Ġdoing": 1394,
      "Ġequ": 1395,
      "Ġsomeone": 1396,
      "Ġhuman": 1397,
      "Ġlight": 1398,
      "St": 1399,
      "50": 1400,
      "ember": 1401,
      "ently": 1402,
      "ivid": 1403,
      "Ġmove": 1404,
      "Ġbit": 1405,
      "not": 1406,
      "sc": 1407,
      "Ġreason": 1408,
      "Ġleg": 1409,
      "Ġprob": 1410,
      "Ġmaking": 1411,
      "Ġhaving": 1412,
      "lf": 1413,
      "Ġpri": 1414,
      "ik": 1415,
      "oad": 1416,
      "Ġprogram": 1417,
      "Ġcost": 1418,
      "Ġmakes": 1419,
      "ream": 1420,
      "Ġmonth": 1421,
      "ids": 1422,
      "reen": 1423,
      "Ġorder": 1424,
      "13": 1425,
      "ains": 1426,
      "Ġcertain": 1427,
      "Ġtimes": 1428,
      "ump": 1429,
      "gin": 1430,
      "ĠĠĠĠĠĠĠĠĠĠĠĠĠĠĠĠ": 1431,
      "ered": 1432,
      "Ġ.": 1433,
      "Ġansw": 1434,
      "ĠQ": 1435,
      "ator": 1436,
      "cent": 1437,
      "ĠOn": 1438,
      "ished": 1439,
      "Ġuntil": 1440,
      "Ġes": 1441,
      "Ġsw": 1442,
      "Ġhist": 1443,
      "Ġdesign": 1444,
      "Ġ|": 1445,
      "Ġmind": 1446,
      "ĠUS": 1447,
      "Ġdone": 1448,
      "Ġele": 1449,
      "Ġstory": 1450,
      "Ġjob": 1451,
      "Ġdirect": 1452,
      "Ġlarge": 1453,
      "Ġ--": 1454,
      "ploy": 1455,
      "med": 1456,
      "ĠPro": 1457,
      "Ġever": 1458,
      "ann": 1459,
      "14": 1460,
      "ien": 1461,
      "eng": 1462,
      "ering": 1463,
      "Ġleast": 1464,
      "Ġpar": 1465,
      "els": 1466,
      "cing": 1467,
      "conom": 1468,
      "Ġcap": 1469,
      "ready": 1470,
      "att": 1471,
      "icle": 1472,
      "Ġpolit": 1473,
      "Ġreturn": 1474,
      "Ġey": 1475,
      "ird": 1476,
      "uff": 1477,
      "16": 1478,
      "ision": 1479,
      "ining": 1480,
      "hys": 1481,
      "ott": 1482,
      "atic": 1483,
      "aring": 1484,
      "Ġve": 1485,
      "Ġfamily": 1486,
      "How": 1487,
      "Ġbecome": 1488,
      "ron": 1489,
      "Ġcourse": 1490,
      "Ġteam": 1491,
      "Ġside": 1492,
      "ope": 1493,
      "Ġdays": 1494,
      "Ġappro": 1495,
      "Ġinvest": 1496,
      "work": 1497,
      "Ġsing": 1498,
      "Ġmarket": 1499,
      "ustom": 1500,
      "Ġocc": 1501,
      "ization": 1502,
      "Ġpossible": 1503,
      "Ġperform": 1504,
      "itive": 1505,
      "ĠCl": 1506,
      "ised": 1507,
      "rist": 1508,
      "lease": 1509,
      "Ġcontrol": 1510,
      "Ġcurrent": 1511,
      "ccess": 1512,
      "Ġ&": 1513,
      "Ġben": 1514,
      "Ġet": 1515,
      "Ġalready": 1516,
      "Ġline": 1517,
      "Ġstop": 1518,
      "Ġair": 1519,
      "Ġorgan": 1520,
      "ories": 1521,
      "__": 1522,
      "ĠBe": 1523,
      "most": 1524,
      "Ġbad": 1525,
      "Ġothers": 1526,
      "Ġanything": 1527,
      "ĠâĢĺ": 1528,
      "Ġmen": 1529,
      "rap": 1530,
      "iqu": 1531,
      "Ġprot": 1532,
      "ĠZ": 1533,
      "ĠTo": 1534,
      "Ġgetting": 1535,
      "app": 1536,
      "iter": 1537,
      "Ġrese": 1538,
      "ional": 1539,
      "of": 1540,
      "Ġtry": 1541,
      "Ġchildren": 1542,
      "18": 1543,
      "ĠAt": 1544,
      "used": 1545,
      "ential": 1546,
      "**": 1547,
      "ulation": 1548,
      "ards": 1549,
      "Ġwithin": 1550,
      "ided": 1551,
      "Ġeng": 1552,
      "ĠBl": 1553,
      "ĠTr": 1554,
      "Ġ<": 1555,
      "aps": 1556,
      "An": 1557,
      "iron": 1558,
      "ton": 1559,
      "Ġproper": 1560,
      "ajor": 1561,
      "Ġsound": 1562,
      "Ġgroup": 1563,
      "by": 1564,
      "Ġcountry": 1565,
      "ified": 1566,
      "hod": 1567,
      "Ġview": 1568,
      "As": 1569,
      "ĠSe": 1570,
      "ane": 1571,
      "Ġ\\": 1572,
      "Ġpot": 1573,
      "ged": 1574,
      "ries": 1575,
      "Ġonce": 1576,
      "ox": 1577,
      "ior": 1578,
      "Ġhour": 1579,
      "ffic": 1580,
      "illion": 1581,
      "Ġreport": 1582,
      "Ġidea": 1583,
      "Ġeconom": 1584,
      "Ġpast": 1585,
      "So": 1586,
      "ians": 1587,
      "pro": 1588,
      "idd": 1589,
      "Ġlearn": 1590,
      "Ġmil": 1591,
      "Ġpa": 1592,
      "ured": 1593,
      "âĢľ": 1594,
      "Ġtyp": 1595,
      "ĠHowever": 1596,
      "Ġcell": 1597,
      "Ġmar": 1598,
      "Ġclear": 1599,
      "Ġelse": 1600,
      "aim": 1601,
      "Ġdra": 1602,
      "Ġmom": 1603,
      "Ġdev": 1604,
      "Ġris": 1605,
      "Ġshort": 1606,
      "ilar": 1607,
      "Ġexperience": 1608,
      "Ġcompany": 1609,
      "ument": 1610,
      "Ġest": 1611,
      "put": 1612,
      "25": 1613,
      "Ġcond": 1614,
      "And": 1615,
      "Ġsci": 1616,
      "Ġcame": 1617,
      "ral": 1618,
      "ina": 1619,
      "Ġelect": 1620,
      "Ġprobably": 1621,
      "ury": 1622,
      "Ġcreat": 1623,
      "Ġbelieve": 1624,
      "ividual": 1625,
      "Ġkill": 1626,
      "oid": 1627,
      "Ġnon": 1628,
      "Ġcommon": 1629,
      "Ġnight": 1630,
      "Ġpain": 1631,
      "Ġgiven": 1632,
      "ource": 1633,
      "Ġfore": 1634,
      "Ġ:": 1635,
      "Ġexpect": 1636,
      "Ġcomplete": 1637,
      "ination": 1638,
      "Ġmatter": 1639,
      "cially": 1640,
      "itions": 1641,
      "Ġlim": 1642,
      "ony": 1643,
      "side": 1644,
      "Ġwomen": 1645,
      "way": 1646,
      "let": 1647,
      "Ġtoday": 1648,
      "ability": 1649,
      "arr": 1650,
      "ĠInd": 1651,
      "ĠAll": 1652,
      "Ġdep": 1653,
      "Ġisn": 1654,
      "Ġprom": 1655,
      "ium": 1656,
      "ĠDo": 1657,
      "Ġhouse": 1658,
      "ush": 1659,
      "Ġpract": 1660,
      "17": 1661,
      "Ġoper": 1662,
      "Ġallow": 1663,
      "There": 1664,
      "selves": 1665,
      "cer": 1666,
      "over": 1667,
      "ivers": 1668,
      "oint": 1669,
      "cle": 1670,
      "outh": 1671,
      "ained": 1672,
      "19": 1673,
      "par": 1674,
      "ots": 1675,
      "aster": 1676,
      "Ġsocial": 1677,
      "Ġparticular": 1678,
      "Ġtem": 1679,
      "Ġtrying": 1680,
      "Ġeither": 1681,
      "But": 1682,
      "Ġmajor": 1683,
      "Ġself": 1684,
      "Ġtoget": 1685,
      "Ġworking": 1686,
      "Ġtogether": 1687,
      "ĠLe": 1688,
      "Ġwhole": 1689,
      "Ġsever": 1690,
      "ortun": 1691,
      "Ġbased": 1692,
      "Ġwent": 1693,
      "Ġanal": 1694,
      "oice": 1695,
      "Ġseen": 1696,
      "Ġener": 1697,
      "Ġspecific": 1698,
      "Ġdesc": 1699,
      "ĠGod": 1700,
      "Ġlow": 1701,
      "Ġrather": 1702,
      "alf": 1703,
      "Ġindividual": 1704,
      "ĠOr": 1705,
      "Ġlooking": 1706,
      "ived": 1707,
      "ĠMy": 1708,
      "ike": 1709,
      "Ġ/": 1710,
      "Ġdiff": 1711,
      "for": 1712,
      "Ġconne": 1713,
      "Ġcustom": 1714,
      "Ġlater": 1715,
      "uro": 1716,
      "Ġconsider": 1717,
      "ĠEx": 1718,
      "Ġactiv": 1719,
      "Ġnear": 1720,
      "ration": 1721,
      "uthor": 1722,
      "angu": 1723,
      "Ġknown": 1724,
      "gen": 1725,
      "ĠNo": 1726,
      "Ġnothing": 1727,
      "Ġpresent": 1728,
      "Ġfre": 1729,
      "Ġanswer": 1730,
      "Ġcomes": 1731,
      "Ġinvol": 1732,
      "ances": 1733,
      "Ġcheck": 1734,
      "Ġredu": 1735,
      "ply": 1736,
      "ER": 1737,
      "Ġtype": 1738,
      "----": 1739,
      "utes": 1740,
      "Ġaut": 1741,
      "Ġyet": 1742,
      "ĠÂł": 1743,
      "Ġphys": 1744,
      "Ġsuccess": 1745,
      "Ġorig": 1746,
      "Ġant": 1747,
      "Ġhold": 1748,
      "Ġvalue": 1749,
      "Ġintern": 1750,
      "Ġseems": 1751,
      "ĠAmerican": 1752,
      "ify": 1753,
      "Ġcal": 1754,
      "Ġseveral": 1755,
      "ĠCon": 1756,
      "ĠSp": 1757,
      "Ġident": 1758,
      "Ġamount": 1759,
      "ted": 1760,
      "Ġcult": 1761,
      "Ġincluding": 1762,
      "Ġlive": 1763,
      "min": 1764,
      "Ġfunction": 1765,
      "Ġdeal": 1766,
      "Ġrecord": 1767,
      "Ġfollowing": 1768,
      "Ġtrue": 1769,
      "Ġmiss": 1770,
      "Ġarg": 1771,
      "Ġaccount": 1772,
      "ĠPl": 1773,
      "ĠFr": 1774,
      "Ġmult": 1775,
      "Ġeverything": 1776,
      "Ġtreat": 1777,
      "iously": 1778,
      "Ġz": 1779,
      "Ġtax": 1780,
      "Ġhig": 1781,
      "Ġwon": 1782,
      "Ġmethod": 1783,
      "ĠX": 1784,
      "Ġland": 1785,
      "ched": 1786,
      "Ġpret": 1787,
      "Ġroom": 1788,
      "eral": 1789,
      "Ġfour": 1790,
      "Ġneeds": 1791,
      "Ġwa": 1792,
      "Ġcou": 1793,
      "aken": 1794,
      "Ġyoung": 1795,
      "Ġvers": 1796,
      "ware": 1797,
      "ggest": 1798,
      "Ġ#": 1799,
      "Ġface": 1800,
      "ery": 1801,
      "Ġstrong": 1802,
      "Ġimpro": 1803,
      "Ġtre": 1804,
      "Ġcharacter": 1805,
      "Ġquick": 1806,
      "Ġweek": 1807,
      "Ġwords": 1808,
      "Ġtook": 1809,
      "24": 1810,
      "He": 1811,
      "Ġbenef": 1812,
      "Ġalong": 1813,
      "ones": 1814,
      "mb": 1815,
      "Ġopt": 1816,
      "Ġlikely": 1817,
      "Ġago": 1818,
      "Ġenergy": 1819,
      "idence": 1820,
      "Ġalmost": 1821,
      "Ġproject": 1822,
      "Ġcreate": 1823,
      "Ġhy": 1824,
      "Ġpress": 1825,
      "ression": 1826,
      "ĠRep": 1827,
      "Ġwhether": 1828,
      "por": 1829,
      "Ġvari": 1830,
      "Ġstarted": 1831,
      "ole": 1832,
      "ctor": 1833,
      "itional": 1834,
      "Ġbro": 1835,
      "Ġrece": 1836,
      "uture": 1837,
      "ĠChrist": 1838,
      "ape": 1839,
      "Ġsal": 1840,
      "though": 1841,
      "Ġconc": 1842,
      "Ġfollow": 1843,
      "Ġpretty": 1844,
      "Ġsense": 1845,
      "wh": 1846,
      "irl": 1847,
      "ĠOne": 1848,
      "omm": 1849,
      "Ġavail": 1850,
      "ĠCan": 1851,
      "ĠThese": 1852,
      "Ġinf": 1853,
      "ills": 1854,
      "Ġwin": 1855,
      "Ġfoc": 1856,
      "\",": 1857,
      "Ġphot": 1858,
      "urther": 1859,
      "Ġsuggest": 1860,
      "Ġfail": 1861,
      "gs": 1862,
      "Ġexist": 1863,
      "pecially": 1864,
      "Ġtold": 1865,
      "lish": 1866,
      "Ġsex": 1867,
      "sy": 1868,
      "ama": 1869,
      "Ġtrad": 1870,
      "icult": 1871,
      "Ġquite": 1872,
      "aces": 1873,
      "use": 1874,
      "Ġ+": 1875,
      "Ġgrow": 1876,
      "Ġarea": 1877,
      "Ġemploy": 1878,
      "100": 1879,
      "21": 1880,
      "ully": 1881,
      "Ġcomput": 1882,
      "Ġprovide": 1883,
      "ĉĉ": 1884,
      "Ġmor": 1885,
      "viron": 1886,
      "Ġvide": 1887,
      "Ġmusic": 1888,
      "Ġstep": 1889,
      "Ġbuy": 1890,
      "Ġabove": 1891,
      "Ġmess": 1892,
      "Ġeveryone": 1893,
      "Ġheart": 1894,
      "ĠNot": 1895,
      "ohn": 1896,
      "Ġkey": 1897,
      "Ġclose": 1898,
      "Ġevent": 1899,
      "de": 1900,
      "urs": 1901,
      "ĠSc": 1902,
      "Ġattack": 1903,
      "ney": 1904,
      "ising": 1905,
      "Ġaccess": 1906,
      "ĠMar": 1907,
      "Ġentire": 1908,
      "ext": 1909,
      "Ġfall": 1910,
      "Ġinfl": 1911,
      "elt": 1912,
      "Ġobject": 1913,
      "Ġsimply": 1914,
      "Ġnet": 1915,
      ",âĢĿ": 1916,
      "Ġcut": 1917,
      "ients": 1918,
      "Ġclaim": 1919,
      "Ġsimilar": 1920,
      "ler": 1921,
      "gle": 1922,
      "ored": 1923,
      "Ġblood": 1924,
      "Ġpict": 1925,
      "Ġsingle": 1926,
      "22": 1927,
      "ison": 1928,
      "!!": 1929,
      "ording": 1930,
      "ches": 1931,
      "ĠĠĠĠĠĠĠĠĠĠĠ": 1932,
      "Ġdeb": 1933,
      "Ġusually": 1934,
      "Ch": 1935,
      "wards": 1936,
      "Ġbreak": 1937,
      "Ġlangu": 1938,
      "Ġhistory": 1939,
      "Ġfilm": 1940,
      "Ġdue": 1941,
      ".)": 1942,
      "Ġrelations": 1943,
      "uation": 1944,
      "my": 1945,
      "Ġspace": 1946,
      "nding": 1947,
      "For": 1948,
      "ĠWith": 1949,
      "unt": 1950,
      "When": 1951,
      "Ġnat": 1952,
      "where": 1953,
      "ĠEng": 1954,
      "Ġlocal": 1955,
      "orth": 1956,
      "ĠMay": 1957,
      "Ġabs": 1958,
      "anks": 1959,
      "Ġfuture": 1960,
      "Ġcomb": 1961,
      "soci": 1962,
      "40": 1963,
      "ples": 1964,
      "ĠPr": 1965,
      "Ġanim": 1966,
      "Ġwatch": 1967,
      "aut": 1968,
      "Ġdeath": 1969,
      "Ġmeas": 1970,
      "Ġmag": 1971,
      "Ġfriends": 1972,
      "iod": 1973,
      "ĠAd": 1974,
      "Ġavailable": 1975,
      "co": 1976,
      "Ġbegin": 1977,
      "Ġdiscuss": 1978,
      "yn": 1979,
      "pped": 1980,
      "olution": 1981,
      "ively": 1982,
      "urity": 1983,
      "Ġmot": 1984,
      "Ġmeet": 1985,
      "Ġtot": 1986,
      "Ġtaking": 1987,
      "Ġdifficult": 1988,
      "ene": 1989,
      "Ġwalk": 1990,
      "Ġnorm": 1991,
      "Ġage": 1992,
      "Ġrepl": 1993,
      "Ġfield": 1994,
      "Ġblack": 1995,
      "ental": 1996,
      "Ġoffic": 1997,
      "Ġresearch": 1998,
      "Ġwrong": 1999,
      "ially": 2000,
      "Ġsuper": 2001,
      "Ġearly": 2002,
      "Ġsent": 2003,
      "lling": 2004,
      ".,": 2005,
      "ript": 2006,
      "rect": 2007,
      "Ġcir": 2008,
      "str": 2009,
      "Ġwond": 2010,
      "Ġeasy": 2011,
      "acy": 2012,
      "Ġnecess": 2013,
      "Ġthemselves": 2014,
      "resent": 2015,
      "aterial": 2016,
      "Ġetc": 2017,
      "Ġcause": 2018,
      "Ġinstead": 2019,
      "Ġissue": 2020,
      "fer": 2021,
      "Ġcra": 2022,
      "Ġwind": 2023,
      "Ġsignific": 2024,
      "Ġsoft": 2025,
      "rodu": 2026,
      "Ġprop": 2027,
      "Ġwanted": 2028,
      "Ġenc": 2029,
      "Ġhalf": 2030,
      "vironment": 2031,
      "Ġlab": 2032,
      "Ġapplic": 2033,
      "like": 2034,
      "Ġfund": 2035,
      "?\"": 2036,
      "Ġcannot": 2037,
      "val": 2038,
      "Ġsn": 2039,
      "aining": 2040,
      "lement": 2041,
      "Ġparent": 2042,
      "Ġstudy": 2043,
      "Ġworks": 2044,
      "Ġsimple": 2045,
      "oud": 2046,
      "Ġtext": 2047,
      "Ġacross": 2048,
      "imate": 2049,
      "Ġproblems": 2050,
      "leep": 2051,
      "ĠSome": 2052,
      "ask": 2053,
      "rew": 2054,
      "ma": 2055,
      "Ġla": 2056,
      "istic": 2057,
      "IN": 2058,
      "ĠPh": 2059,
      "ires": 2060,
      "Ġways": 2061,
      "Ġdam": 2062,
      "Ġdepend": 2063,
      "empt": 2064,
      "ogn": 2065,
      "ume": 2066,
      "Ġhowever": 2067,
      "ources": 2068,
      "60": 2069,
      "ges": 2070,
      "joy": 2071,
      "Ġlink": 2072,
      "igure": 2073,
      "Ġpie": 2074,
      "ites": 2075,
      "orts": 2076,
      "oose": 2077,
      "ules": 2078,
      "ique": 2079,
      "enn": 2080,
      "une": 2081,
      "Ġexact": 2082,
      "Ġspecial": 2083,
      "Ġnews": 2084,
      "23": 2085,
      "Ġitself": 2086,
      "Ġresults": 2087,
      "Ġ}": 2088,
      "iol": 2089,
      "Ġespecially": 2090,
      "ley": 2091,
      "ried": 2092,
      "son": 2093,
      "Ġcolle": 2094,
      "ĠUnited": 2095,
      "Ġpolitical": 2096,
      "ands": 2097,
      "Ġcity": 2098,
      "Ġindust": 2099,
      "verse": 2100,
      "oon": 2101,
      "Ġquestions": 2102,
      "ging": 2103,
      "Ġanyone": 2104,
      "verage": 2105,
      "98": 2106,
      "Ġasked": 2107,
      "ister": 2108,
      "ateg": 2109,
      "ule": 2110,
      "Ġarticle": 2111,
      "Ġpoints": 2112,
      "Ġlog": 2113,
      "Ġmass": 2114,
      "Ġbehind": 2115,
      "Re": 2116,
      "Ġhours": 2117,
      "Ġess": 2118,
      "asing": 2119,
      "Ġstudents": 2120,
      "Ġfav": 2121,
      "Ġfight": 2122,
      "book": 2123,
      "Ġhigher": 2124,
      "Ġcomment": 2125,
      "Ġauthor": 2126,
      "yle": 2127,
      "Ġmodel": 2128,
      "Ġrisk": 2129,
      "Ġpriv": 2130,
      "uses": 2131,
      "ibility": 2132,
      "body": 2133,
      "Ġdeterm": 2134,
      "Ġpersonal": 2135,
      "Ġcred": 2136,
      "Ġbar": 2137,
      "Ġcompan": 2138,
      "Ġdescrib": 2139,
      "Ġbring": 2140,
      "âĢĵ": 2141,
      "Ġstay": 2142,
      "Ġinclude": 2143,
      "Ġ,": 2144,
      "Ġperiod": 2145,
      "irt": 2146,
      "Ġneg": 2147,
      "ault": 2148,
      "Wh": 2149,
      "Ġlo": 2150,
      "oke": 2151,
      "itor": 2152,
      "urope": 2153,
      "Ġsum": 2154,
      "Ġgeneral": 2155,
      "Ġservice": 2156,
      "Ġaccept": 2157,
      "Ġmonths": 2158,
      "ued": 2159,
      "Ġpick": 2160,
      "Ġrespons": 2161,
      "Ġrequire": 2162,
      "Ġeyes": 2163,
      "Ġtakes": 2164,
      "Ġrelationship": 2165,
      "Ġamong": 2166,
      "che": 2167,
      "Ġyourself": 2168,
      "Ġrad": 2169,
      "\".": 2170,
      "arget": 2171,
      "Ġdest": 2172,
      "orr": 2173,
      "unch": 2174,
      "AT": 2175,
      "ledge": 2176,
      "Ġmaterial": 2177,
      "Ġpolic": 2178,
      "omes": 2179,
      "Ġstruct": 2180,
      "Ġdetail": 2181,
      "bo": 2182,
      "reme": 2183,
      "ency": 2184,
      "osp": 2185,
      "ude": 2186,
      "Ġrele": 2187,
      "Ġdou": 2188,
      "Ġneeded": 2189,
      "face": 2190,
      "Ġdefin": 2191,
      "Ġcode": 2192,
      "back": 2193,
      "error": 2194,
      "Ġgoes": 2195,
      "Ġsignificant": 2196,
      "ift": 2197,
      "Ġimm": 2198,
      "orld": 2199,
      "Ġwasn": 2200,
      "itch": 2201,
      "Ġlonger": 2202,
      "Ġgets": 2203,
      "ference": 2204,
      "Ġmoment": 2205,
      "Ġtaken": 2206,
      "Ġobs": 2207,
      "Ġmedia": 2208,
      "Ġenjoy": 2209,
      "Ġvol": 2210,
      "erc": 2211,
      "Ġfront": 2212,
      "Ġann": 2213,
      "ĠJohn": 2214,
      "Ġstra": 2215,
      "nds": 2216,
      "Ġred": 2217,
      "action": 2218,
      "ai": 2219,
      "Ġissues": 2220,
      "Ġenvironment": 2221,
      "ilt": 2222,
      "==": 2223,
      "ication": 2224,
      "haps": 2225,
      "Ġsaying": 2226,
      "Ġsoci": 2227,
      "Ġcop": 2228,
      "vert": 2229,
      "ological": 2230,
      "go": 2231,
      "ON": 2232,
      "augh": 2233,
      "Ġvideo": 2234,
      "ĠTe": 2235,
      "ĠStates": 2236,
      "On": 2237,
      "Ġwhite": 2238,
      "ĠYour": 2239,
      "itting": 2240,
      "Ġfile": 2241,
      "ators": 2242,
      "Ġfurther": 2243,
      "Ġsaw": 2244,
      "Ġposition": 2245,
      "Ġcompl": 2246,
      "Ġonline": 2247,
      "Ġeduc": 2248,
      "ips": 2249,
      "ĠAm": 2250,
      "ĠAfter": 2251,
      "ĠNow": 2252,
      "aced": 2253,
      "ĠGr": 2254,
      "Ġchanges": 2255,
      "light": 2256,
      "Ġcontent": 2257,
      "icro": 2258,
      "iet": 2259,
      "Ġlanguage": 2260,
      "Ġgirl": 2261,
      "Ġdevelopment": 2262,
      "Ġminutes": 2263,
      "Ġbehav": 2264,
      "raph": 2265,
      "Ġmovie": 2266,
      "miss": 2267,
      "Ġmillion": 2268,
      "Ġprote": 2269,
      "Ġprofess": 2270,
      "Ġtool": 2271,
      "set": 2272,
      "gress": 2273,
      "To": 2274,
      "bl": 2275,
      "itten": 2276,
      "ĠWhy": 2277,
      "ring": 2278,
      "uge": 2279,
      "Ġground": 2280,
      "uly": 2281,
      "ĠEurope": 2282,
      "ĠâĢĶ": 2283,
      "Ġstat": 2284,
      "Ġoutside": 2285,
      "hers": 2286,
      "Ġliving": 2287,
      "AR": 2288,
      "Ġfive": 2289,
      "Ġchall": 2290,
      "play": 2291,
      "Ġweight": 2292,
      "iction": 2293,
      "Ġcamp": 2294,
      "Ġcrit": 2295,
      "ables": 2296,
      "Ġaddress": 2297,
      "Al": 2298,
      "Ġremember": 2299,
      "Ġprotect": 2300,
      "Ġcy": 2301,
      "eed": 2302,
      "ecause": 2303,
      "Ġwoman": 2304,
      "Ġsens": 2305,
      "iding": 2306,
      "Ġpred": 2307,
      "Ġx": 2308,
      "Ġworth": 2309,
      "Ġvarious": 2310,
      "Ġrelig": 2311,
      "roll": 2312,
      "Ġcompanies": 2313,
      "ĠRes": 2314,
      "ĠIm": 2315,
      "28": 2316,
      "Ġcoming": 2317,
      "iddle": 2318,
      "ensive": 2319,
      "Ġstuff": 2320,
      "Ġblog": 2321,
      "()": 2322,
      "ĠSy": 2323,
      "mit": 2324,
      "Ġport": 2325,
      "Ġcompet": 2326,
      "Ġthinking": 2327,
      "head": 2328,
      "Ġste": 2329,
      "ĠOb": 2330,
      "Ġoil": 2331,
      "chie": 2332,
      "na": 2333,
      "Ġsize": 2334,
      "ubl": 2335,
      "ĠThen": 2336,
      "Ġfire": 2337,
      "Ġaffect": 2338,
      "Ġdru": 2339,
      "Ġhope": 2340,
      "onse": 2341,
      "ĠMan": 2342,
      "ster": 2343,
      "Ġdoc": 2344,
      "aged": 2345,
      "ĠCol": 2346,
      "Ġhimself": 2347,
      "Ġones": 2348,
      "Ġrunning": 2349,
      "Ġrate": 2350,
      "27": 2351,
      "Ġpack": 2352,
      "iversity": 2353,
      "osing": 2354,
      "Ġupon": 2355,
      "Ġreview": 2356,
      "Ġkids": 2357,
      "....": 2358,
      "oms": 2359,
      "Ġsubject": 2360,
      "ĠHis": 2361,
      "97": 2362,
      "ĠPe": 2363,
      "Ġconv": 2364,
      "Ġaud": 2365,
      "Ġinside": 2366,
      "ung": 2367,
      "Ġeff": 2368,
      "Ġdig": 2369,
      "Ġincrease": 2370,
      "Ġmention": 2371,
      "umb": 2372,
      "Ġmembers": 2373,
      "Ġsearch": 2374,
      "tt": 2375,
      "Ġrepresent": 2376,
      "Ġdom": 2377,
      "Ġnatural": 2378,
      "ST": 2379,
      "Ġprice": 2380,
      "Ġsoon": 2381,
      "right": 2382,
      "Ġsometimes": 2383,
      "ĠAmerica": 2384,
      "Ġill": 2385,
      "Ġstore": 2386,
      "ĠCar": 2387,
      "Ġwrite": 2388,
      "af": 2389,
      "atures": 2390,
      "mon": 2391,
      "lt": 2392,
      "ĠJust": 2393,
      "Ġattempt": 2394,
      "ilities": 2395,
      "Ġlower": 2396,
      "Ġmother": 2397,
      "Ġsong": 2398,
      "Ġaction": 2399,
      "Ġtechnology": 2400,
      "Ġmanage": 2401,
      "26": 2402,
      "Ġleave": 2403,
      "fully": 2404,
      "itary": 2405,
      "oogle": 2406,
      "Ġsort": 2407,
      "era": 2408,
      "ĠApp": 2409,
      "Ġblock": 2410,
      "ming": 2411,
      "Ġwriting": 2412,
      "medi": 2413,
      "That": 2414,
      "rel": 2415,
      "Ġrole": 2416,
      "Sh": 2417,
      "Ġconsum": 2418,
      "AN": 2419,
      "Ġperfect": 2420,
      "Ġpage": 2421,
      "Ġlost": 2422,
      "Ġcases": 2423,
      "Ġdeep": 2424,
      "Ġterms": 2425,
      "Ġrespect": 2426,
      "Ġassoci": 2427,
      "aving": 2428,
      "Ġmach": 2429,
      "Ġshare": 2430,
      "Ġlay": 2431,
      "mber": 2432,
      "tend": 2433,
      "Ġheard": 2434,
      "Ġbi": 2435,
      "Ġsleep": 2436,
      "Ġcommunity": 2437,
      "Ġtrack": 2438,
      "Ġgames": 2439,
      "Ġpath": 2440,
      "ray": 2441,
      "oved": 2442,
      "Ġparty": 2443,
      "Ġhot": 2444,
      "ze": 2445,
      "Ġspeak": 2446,
      "Ġinit": 2447,
      "Ġviol": 2448,
      "reg": 2449,
      "Ġpercent": 2450,
      "Ġpotential": 2451,
      "Ġtarget": 2452,
      "Ġdifference": 2453,
      "Ġfocus": 2454,
      "ĠMe": 2455,
      "Ġdise": 2456,
      "utions": 2457,
      "Ġimag": 2458,
      "Ġwebs": 2459,
      "Ġbecame": 2460,
      "ili": 2461,
      "Ġbrain": 2462,
      "ĠFl": 2463,
      "ocr": 2464,
      "Ġconcern": 2465,
      "izing": 2466,
      "Ġinteresting": 2467,
      "Ġpull": 2468,
      "Ġmaybe": 2469,
      "Ġsystems": 2470,
      "ĠSu": 2471,
      "Ġimpact": 2472,
      "Ġshows": 2473,
      "ises": 2474,
      "cul": 2475,
      "Ġhands": 2476,
      "Ġapproach": 2477,
      "Ġprim": 2478,
      "Ġaff": 2479,
      "Ġclean": 2480,
      "Ġfelt": 2481,
      "ĠBy": 2482,
      "Ġpicture": 2483,
      "Ġreading": 2484,
      "Ġcreated": 2485,
      "Ġcountries": 2486,
      "ification": 2487,
      "eb": 2488,
      "overed": 2489,
      "Ġep": 2490,
      "Ġpaper": 2491,
      "ĠĊ": 2492,
      "amed": 2493,
      "anger": 2494,
      "eth": 2495,
      "oor": 2496,
      "Ġmyself": 2497,
      "usion": 2498,
      "Ġsituation": 2499,
      "ences": 2500,
      "Ġeat": 2501,
      "Ġversion": 2502,
      "Ġknew": 2503,
      "ommend": 2504,
      "Ġens": 2505,
      "Ġtalking": 2506,
      "Ġhear": 2507,
      "Ġsource": 2508,
      "ĠAf": 2509,
      "Ġcompletely": 2510,
      "sp": 2511,
      "Ġsite": 2512,
      "Ġcouple": 2513,
      "oes": 2514,
      "Ġtable": 2515,
      "Ġexc": 2516,
      "Ġcorrect": 2517,
      "Ġquickly": 2518,
      "RE": 2519,
      "Ġevidence": 2520,
      "asons": 2521,
      "Ġcard": 2522,
      "aves": 2523,
      "No": 2524,
      "Ġphone": 2525,
      "Ġsat": 2526,
      "Ġproducts": 2527,
      "Ġpurp": 2528,
      "ĠWar": 2529,
      "Ġlives": 2530,
      "Ġability": 2531,
      "Ġswe": 2532,
      "ysis": 2533,
      "bit": 2534,
      "Ġimage": 2535,
      "Ġbuilding": 2536,
      "My": 2537,
      "Ġseries": 2538,
      "ems": 2539,
      "Ġcomputer": 2540,
      "Ġloss": 2541,
      "ev": 2542,
      "Ġslow": 2543,
      "Ġboy": 2544,
      "):": 2545,
      "80": 2546,
      "Ġpopular": 2547,
      "eter": 2548,
      "Ġachie": 2549,
      "Ġimprove": 2550,
      "ĠQu": 2551,
      "ese": 2552,
      "apt": 2553,
      "isc": 2554,
      "ening": 2555,
      "Ġexactly": 2556,
      "Ġuser": 2557,
      "ÂłÂłÂłÂłÂłÂłÂłÂł": 2558,
      "ĠGu": 2559,
      "Ġ@": 2560,
      "obal": 2561,
      "Ġopportun": 2562,
      "Ã©": 2563,
      "Ġconnect": 2564,
      "reet": 2565,
      "Ġquality": 2566,
      "lex": 2567,
      "Ġknowledge": 2568,
      "ĠEn": 2569,
      "ourn": 2570,
      "idered": 2571,
      "Ġbelow": 2572,
      "Ġoffer": 2573,
      "Ġoriginal": 2574,
      "Ġskin": 2575,
      "Ġinflu": 2576,
      "Ġrecogn": 2577,
      "Ġexperien": 2578,
      "come": 2579,
      "Ġlooked": 2580,
      "ball": 2581,
      "Ġconcept": 2582,
      "ades": 2583,
      "Ġfoot": 2584,
      "itted": 2585,
      "urch": 2586,
      "Ġlevels": 2587,
      "ĠPres": 2588,
      "Ġhappened": 2589,
      "Ġdel": 2590,
      "Ġfair": 2591,
      "Ġcomplex": 2592,
      "Ġeffects": 2593,
      "oe": 2594,
      "atever": 2595,
      "Ġcoun": 2596,
      "Ġdead": 2597,
      "ped": 2598,
      "29": 2599,
      "gest": 2600,
      "Ġengine": 2601,
      "Ġdark": 2602,
      "Ġsqu": 2603,
      "add": 2604,
      "Ġfinan": 2605,
      "Ġregard": 2606,
      "Ġphysical": 2607,
      "012": 2608,
      "Ġlack": 2609,
      "Ġexcept": 2610,
      "ement": 2611,
      "Ġtravel": 2612,
      "Ġfac": 2613,
      "ned": 2614,
      "Ġbegan": 2615,
      "Ġextra": 2616,
      "Ġbeaut": 2617,
      "Ġfast": 2618,
      "ĠInst": 2619,
      "Ġsepar": 2620,
      "Ġhit": 2621,
      "Ġcells": 2622,
      "Ġconsidered": 2623,
      "load": 2624,
      "Ġservices": 2625,
      "Ġdrink": 2626,
      "duct": 2627,
      "://": 2628,
      "Ġbott": 2629,
      "Ġparents": 2630,
      "Ġappear": 2631,
      "Ġball": 2632,
      "ny": 2633,
      "ached": 2634,
      "zy": 2635,
      "oring": 2636,
      "ĠWhile": 2637,
      "ams": 2638,
      "Ġsecurity": 2639,
      "ober": 2640,
      "cious": 2641,
      "Ġrequired": 2642,
      "Ġsurpr": 2643,
      "etic": 2644,
      "Ġforce": 2645,
      "Ġcontinue": 2646,
      "fort": 2647,
      "Ġbal": 2648,
      "=\"": 2649,
      "Ġrecommend": 2650,
      "90": 2651,
      "Ġscient": 2652,
      "ĠÂ": 2653,
      "Ġtried": 2654,
      "ground": 2655,
      "mp": 2656,
      "ĠBrit": 2657,
      "Ġjud": 2658,
      "Ġcirc": 2659,
      "Ġspeed": 2660,
      "NA": 2661,
      "Ġfill": 2662,
      "Ġstates": 2663,
      "Ġattention": 2664,
      "Ġfather": 2665,
      "Ġmat": 2666,
      "Ġlooks": 2667,
      "ressed": 2668,
      "ĠDon": 2669,
      "Ġstri": 2670,
      "Ġut": 2671,
      "ĠAb": 2672,
      "ĠPer": 2673,
      "ana": 2674,
      "irth": 2675,
      "Ġcoll": 2676,
      "ops": 2677,
      "Ġnormal": 2678,
      "Ġfavor": 2679,
      "Ġnice": 2680,
      "].": 2681,
      "Ġavoid": 2682,
      "ĠMr": 2683,
      "Ġsus": 2684,
      "Ġlearning": 2685,
      "à¤": 2686,
      "Ġindic": 2687,
      "ari": 2688,
      "Ġaren": 2689,
      "Ġmeaning": 2690,
      "Ġnature": 2691,
      "hel": 2692,
      "Ġmis": 2693,
      "Ġsafe": 2694,
      "Ġareas": 2695,
      "Ġobv": 2696,
      "Ġbab": 2697,
      "Ġresponse": 2698,
      "pping": 2699,
      "Why": 2700,
      "Ġrange": 2701,
      "ran": 2702,
      "Ex": 2703,
      "Ġsun": 2704,
      "Ġemot": 2705,
      "Ġdiv": 2706,
      "ĠWorld": 2707,
      "wise": 2708,
      "time": 2709,
      "Ġindustry": 2710,
      "sych": 2711,
      "Ġturned": 2712,
      "ffe": 2713,
      "Ġcam": 2714,
      "Ġvot": 2715,
      "Ġtotal": 2716,
      "Ġtypes": 2717,
      "Ġgroups": 2718,
      "ival": 2719,
      "Ġfix": 2720,
      "Ġperformance": 2721,
      "het": 2722,
      "aff": 2723,
      "leg": 2724,
      "Ġtowards": 2725,
      "arily": 2726,
      "unk": 2727,
      "Ġeasily": 2728,
      "Ġwritten": 2729,
      "astic": 2730,
      "Ġmultip": 2731,
      "erson": 2732,
      "chan": 2733,
      "Ġbed": 2734,
      "Ġwonder": 2735,
      "Con": 2736,
      "Ġemb": 2737,
      "tain": 2738,
      "Ġprevent": 2739,
      "hem": 2740,
      "atory": 2741,
      "ivil": 2742,
      "Ġhon": 2743,
      "Ġguy": 2744,
      "vent": 2745,
      "rences": 2746,
      "Ġpolice": 2747,
      "Ġdefe": 2748,
      "uel": 2749,
      "ĠWell": 2750,
      "Ġparts": 2751,
      "ĠGerm": 2752,
      "ID": 2753,
      "Ġnecessary": 2754,
      "inary": 2755,
      "ĠTw": 2756,
      "ivity": 2757,
      "Ġsociety": 2758,
      "Ġcontrib": 2759,
      "lying": 2760,
      "Ġhuge": 2761,
      "Ġinvolved": 2762,
      "Ġnetwork": 2763,
      "ibly": 2764,
      "attle": 2765,
      "ww": 2766,
      "just": 2767,
      "Ġroad": 2768,
      "Ġri": 2769,
      "Ġfeeling": 2770,
      "Ġsoftware": 2771,
      "Ġtit": 2772,
      "sequ": 2773,
      "Ġregular": 2774,
      "lim": 2775,
      "using": 2776,
      "Ġbank": 2777,
      "Ġcredit": 2778,
      "One": 2779,
      "ĠSec": 2780,
      "',": 2781,
      "Is": 2782,
      "apan": 2783,
      "Ġcolor": 2784,
      "Ġwouldn": 2785,
      "now": 2786,
      "Ġyes": 2787,
      "Ġfat": 2788,
      "Ġlate": 2789,
      "Ġextreme": 2790,
      "ĠEven": 2791,
      "ĠMed": 2792,
      "Ġplaying": 2793,
      "Ġthreat": 2794,
      "Ġbox": 2795,
      "iff": 2796,
      "pite": 2797,
      "Ġdoor": 2798,
      "aught": 2799,
      "Ġcat": 2800,
      "oph": 2801,
      "Ġimmedi": 2802,
      "</": 2803,
      "Ġcool": 2804,
      "Ġcook": 2805,
      "Ġprin": 2806,
      "Ġhair": 2807,
      "Ġge": 2808,
      "Ġcover": 2809,
      "anced": 2810,
      "Ġrev": 2811,
      "Ġreach": 2812,
      "fficient": 2813,
      "35": 2814,
      "urt": 2815,
      "Ġwants": 2816,
      "Ġoccur": 2817,
      "45": 2818,
      "more": 2819,
      "Ġthird": 2820,
      "ha": 2821,
      "ĠMc": 2822,
      "Ġpoor": 2823,
      "ruction": 2824,
      "Ġestab": 2825,
      "Ġeconomic": 2826,
      "erve": 2827,
      "epend": 2828,
      "Ġsil": 2829,
      "Ġgave": 2830,
      "Ġfrequ": 2831,
      "ĠCal": 2832,
      "Ġforward": 2833,
      "Ġmilitary": 2834,
      "011": 2835,
      "Ġtemper": 2836,
      "Ġwall": 2837,
      "ength": 2838,
      "mm": 2839,
      "ĠGo": 2840,
      "irit": 2841,
      "Ġcollect": 2842,
      "013": 2843,
      "Ġgrowth": 2844,
      "reng": 2845,
      "itution": 2846,
      "Ġfeed": 2847,
      "Ġbooks": 2848,
      "Ġchance": 2849,
      "ription": 2850,
      "Ġmodern": 2851,
      "ension": 2852,
      "Ġprep": 2853,
      "Ġrecent": 2854,
      "They": 2855,
      "Ġdecided": 2856,
      "Ġsold": 2857,
      "urance": 2858,
      "ĠEnglish": 2859,
      "icles": 2860,
      "Ġguess": 2861,
      "Ġfem": 2862,
      "ĠGen": 2863,
      "ĠEd": 2864,
      "Ġstandard": 2865,
      "rict": 2866,
      "ĠGe": 2867,
      "010": 2868,
      "Ġintrodu": 2869,
      "ĠCont": 2870,
      "Ġmedical": 2871,
      "Ġsix": 2872,
      "Ġdeg": 2873,
      "Ġaccording": 2874,
      "Ġcouldn": 2875,
      "Ġweeks": 2876,
      "resh": 2877,
      "ager": 2878,
      "lear": 2879,
      "Ġfinal": 2880,
      "amm": 2881,
      "Ġchoose": 2882,
      "Ġaverage": 2883,
      "rest": 2884,
      "Ġtend": 2885,
      "ĠWill": 2886,
      "Ġtraining": 2887,
      "egr": 2888,
      "ees": 2889,
      "Ġnumbers": 2890,
      "ĠYork": 2891,
      "Ġscience": 2892,
      "Ġoption": 2893,
      "OR": 2894,
      "Ġhappens": 2895,
      "Ġevents": 2896,
      "Ġcontact": 2897,
      "Ġtreatment": 2898,
      "ishing": 2899,
      "uted": 2900,
      "Ġsurv": 2901,
      "Ġce": 2902,
      "Ġtou": 2903,
      "olic": 2904,
      "Ġhop": 2905,
      "Ġheav": 2906,
      "ĠPart": 2907,
      "Ġur": 2908,
      "Ġdecision": 2909,
      "Ġpressure": 2910,
      "Ġrights": 2911,
      "ĠHere": 2912,
      "Ġcomments": 2913,
      "amb": 2914,
      "ino": 2915,
      "hood": 2916,
      "Ġchoice": 2917,
      "fact": 2918,
      "Ġpositive": 2919,
      "Ġcourt": 2920,
      "Ġdrive": 2921,
      "Ġculture": 2922,
      "Le": 2923,
      "Ġhost": 2924,
      "Ġliter": 2925,
      "Ġpractice": 2926,
      "Ġjo": 2927,
      "aur": 2928,
      "sec": 2929,
      "Ġaddition": 2930,
      "ceed": 2931,
      "Ġda": 2932,
      "artment": 2933,
      "agn": 2934,
      "Ġconditions": 2935,
      "ĠUs": 2936,
      "Ġbase": 2937,
      "cies": 2938,
      "Ġgives": 2939,
      "EN": 2940,
      "Ġemail": 2941,
      "ĠJan": 2942,
      "aging": 2943,
      "Ġhappy": 2944,
      "yond": 2945,
      "Ġinj": 2946,
      "irm": 2947,
      "Ġagree": 2948,
      "Ġwebsite": 2949,
      "Ġsolution": 2950,
      "arth": 2951,
      "oura": 2952,
      "imum": 2953,
      "ened": 2954,
      "Ġalone": 2955,
      "Ġreasons": 2956,
      "Ġpolicy": 2957,
      "ĠRuss": 2958,
      "ales": 2959,
      "Ġpopulation": 2960,
      "Ġcharacters": 2961,
      "Ġdraw": 2962,
      "Ġscreen": 2963,
      "off": 2964,
      "omb": 2965,
      "Ġsell": 2966,
      "32": 2967,
      "Ġinstall": 2968,
      "AS": 2969,
      "Ġseason": 2970,
      "omp": 2971,
      "Ġprivate": 2972,
      "ĠMost": 2973,
      "aling": 2974,
      "Ġworked": 2975,
      "Ġpurch": 2976,
      "Ġproduction": 2977,
      "Ġstru": 2978,
      "cell": 2979,
      "Ġuses": 2980,
      "Ġunderstanding": 2981,
      "Ġnational": 2982,
      "Ġrelated": 2983,
      "su": 2984,
      "Ġgun": 2985,
      "ero": 2986,
      "uments": 2987,
      "ĠPresident": 2988,
      "oses": 2989,
      "AL": 2990,
      "ief": 2991,
      "olute": 2992,
      "ĠOf": 2993,
      "Ġteac": 2994,
      "ners": 2995,
      "Ġvict": 2996,
      "Ġrock": 2997,
      "Ġconvers": 2998,
      "Ġideas": 2999,
      "Ġwide": 3000,
      "Ġdecl": 3001,
      "Ġign": 3002,
      "Ġmultiple": 3003,
      "Ġadded": 3004,
      "ux": 3005,
      "Ġfiles": 3006,
      "Ġpiece": 3007,
      "Ġtown": 3008,
      "Ġcross": 3009,
      "Ġtruth": 3010,
      "Ġagre": 3011,
      "Ġweb": 3012,
      "Ġautom": 3013,
      "ounds": 3014,
      "Ġcand": 3015,
      "Ġexec": 3016,
      "Ġgas": 3017,
      "::": 3018,
      "Ġobserv": 3019,
      "Ġplayers": 3020,
      "minist": 3021,
      "Ġbur": 3022,
      "Ġfine": 3023,
      "king": 3024,
      "Ġpan": 3025,
      "itter": 3026,
      "antly": 3027,
      "osition": 3028,
      "Ġsett": 3029,
      "key": 3030,
      "oul": 3031,
      "ĠSte": 3032,
      "Ġden": 3033,
      "Ġmorning": 3034,
      "word": 3035,
      "ada": 3036,
      "70": 3037,
      "Ġpubl": 3038,
      "ĠDem": 3039,
      "ping": 3040,
      "Ġver": 3041,
      "ĠChina": 3042,
      "##": 3043,
      "Ġfinancial": 3044,
      "OT": 3045,
      "Ġson": 3046,
      "Ġlegal": 3047,
      "Ġmix": 3048,
      "Ġdro": 3049,
      "Ġinn": 3050,
      "Ġeye": 3051,
      "ĠCent": 3052,
      "ament": 3053,
      "Ġwhatever": 3054,
      "Ġpresident": 3055,
      "008": 3056,
      "gar": 3057,
      "Ġgiving": 3058,
      "inally": 3059,
      "Ġoffice": 3060,
      "96": 3061,
      "Ġfa": 3062,
      "Ġrules": 3063,
      "Ġmiddle": 3064,
      "Ġsubst": 3065,
      "ĠIntern": 3066,
      "Ġanalysis": 3067,
      "Ġallows": 3068,
      "atives": 3069,
      "ederal": 3070,
      "lier": 3071,
      "ĠJapan": 3072,
      "Cl": 3073,
      "Ġdisease": 3074,
      "Ġstreng": 3075,
      "Ġbuilt": 3076,
      "iday": 3077,
      "Now": 3078,
      "ĠDr": 3079,
      "Ġleaders": 3080,
      "Ġtrust": 3081,
      "Ġrecently": 3082,
      "ĠUniversity": 3083,
      "Ġexerc": 3084,
      "Ġfit": 3085,
      "Ġgenerally": 3086,
      "Ġvalues": 3087,
      "Ġusers": 3088,
      "Ġcertainly": 3089,
      "Ġoptions": 3090,
      "aign": 3091,
      "ĠMus": 3092,
      "Ġopin": 3093,
      "ĠInt": 3094,
      "asc": 3095,
      "cient": 3096,
      "Ġfinally": 3097,
      "!\"": 3098,
      "dom": 3099,
      "By": 3100,
      "Ġmessage": 3101,
      "ĠBar": 3102,
      "ky": 3103,
      "iles": 3104,
      "ĠÂłĠÂł": 3105,
      "Ġdoll": 3106,
      "Ġstock": 3107,
      "Ġperhaps": 3108,
      "Ġeffective": 3109,
      "Ġinvestig": 3110,
      "Ġhor": 3111,
      "Ġselect": 3112,
      "95": 3113,
      "Ġdream": 3114,
      "ĠAlso": 3115,
      "Ġallowed": 3116,
      "Ġfigure": 3117,
      "Ġpen": 3118,
      "Ġchem": 3119,
      "Ġmoving": 3120,
      "iment": 3121,
      "iny": 3122,
      "--------": 3123,
      "ously": 3124,
      "oming": 3125,
      "Ġreve": 3126,
      "ES": 3127,
      "IT": 3128,
      "Ġparticip": 3129,
      "Ġlif": 3130,
      "Ġmechan": 3131,
      "Ġbenefits": 3132,
      "Ġdistrib": 3133,
      "Ġrelative": 3134,
      "Ġdocument": 3135,
      "aries": 3136,
      "Ġimplement": 3137,
      "Ġdirectly": 3138,
      "Ġreality": 3139,
      "Ġcold": 3140,
      "itely": 3141,
      "Ġord": 3142,
      "Ġupd": 3143,
      "Ġheld": 3144,
      "009": 3145,
      "imin": 3146,
      "ĠNe": 3147,
      "ken": 3148,
      "ĠRepublic": 3149,
      "icated": 3150,
      "ĠEvery": 3151,
      "Pro": 3152,
      "Ġchanged": 3153,
      "Ġspend": 3154,
      "pre": 3155,
      "hib": 3156,
      "Ġcosts": 3157,
      "Ġemer": 3158,
      "ĠAct": 3159,
      "Ġsave": 3160,
      "Be": 3161,
      "ĠObama": 3162,
      "Ġaware": 3163,
      "Ġactual": 3164,
      "Ġeducation": 3165,
      "Ġload": 3166,
      "nes": 3167,
      "IS": 3168,
      "rit": 3169,
      "Ġfear": 3170,
      "ĠHar": 3171,
      "Ġalthough": 3172,
      "33": 3173,
      "Ġbreat": 3174,
      "Ġrout": 3175,
      "order": 3176,
      "____": 3177,
      "ĠDes": 3178,
      "Ġbasic": 3179,
      "Ġcit": 3180,
      "Ġgoal": 3181,
      "ĠLet": 3182,
      "ĠMin": 3183,
      "Ġbrought": 3184,
      "At": 3185,
      "Ph": 3186,
      "Ġpattern": 3187,
      "rael": 3188,
      "pper": 3189,
      "Ġdemon": 3190,
      "ĠBecause": 3191,
      "Ġthous": 3192,
      "Ġteach": 3193,
      "Ġunique": 3194,
      "Ġconsist": 3195,
      "Ġmeasure": 3196,
      "Ġofficial": 3197,
      "Ġbirth": 3198,
      "eah": 3199,
      "ĠSm": 3200,
      "Ġple": 3201,
      "Ġcapt": 3202,
      "Ġglobal": 3203,
      "Ġapplication": 3204,
      "room": 3205,
      "Ġvoice": 3206,
      "Ġshown": 3207,
      "year": 3208,
      "ests": 3209,
      "Ġpurpose": 3210,
      "pir": 3211,
      "udd": 3212,
      "Ġvisit": 3213,
      "Ġplayer": 3214,
      "Ġproperty": 3215,
      "ĠAfric": 3216,
      "Ġcry": 3217,
      "aly": 3218,
      "ropri": 3219,
      "ashing": 3220,
      "Ġtheory": 3221,
      "Ġcapital": 3222,
      "oup": 3223,
      "ession": 3224,
      "Ġbecomes": 3225,
      "ograp": 3226,
      "Ġheat": 3227,
      "vant": 3228,
      "Ġfeatures": 3229,
      "Ġbehavior": 3230,
      "Ġarri": 3231,
      "Ġflow": 3232,
      "mission": 3233,
      "ĠSouth": 3234,
      "but": 3235,
      "Ġpsych": 3236,
      "Ġdoub": 3237,
      "Ġready": 3238,
      "Ġlines": 3239,
      "Ar": 3240,
      "Ġpatients": 3241,
      "Ġ...": 3242,
      "Ġfra": 3243,
      "Ġknows": 3244,
      "ellig": 3245,
      "Ġgone": 3246,
      "Ġvote": 3247,
      "Ġactivity": 3248,
      "Ġwarm": 3249,
      "Ġplaces": 3250,
      "ED": 3251,
      "ĠCo": 3252,
      "iful": 3253,
      "Ġled": 3254,
      "All": 3255,
      "Ġaltern": 3256,
      "Ġsurface": 3257,
      "isions": 3258,
      "aul": 3259,
      "rench": 3260,
      "With": 3261,
      "Ġir": 3262,
      "imately": 3263,
      "Ġdanger": 3264,
      "zz": 3265,
      "Ġnote": 3266,
      "ties": 3267,
      "ournal": 3268,
      "Ġhelps": 3269,
      "ĠTV": 3270,
      "iced": 3271,
      "arc": 3272,
      "ĠNorth": 3273,
      "based": 3274,
      "Ġprevious": 3275,
      "uk": 3276,
      "Ġdog": 3277,
      "itude": 3278,
      "Ġserious": 3279,
      "mpt": 3280,
      "Ġsam": 3281,
      "enty": 3282,
      "Ġparticularly": 3283,
      "ĠYes": 3284,
      "Ġcarry": 3285,
      "Ġten": 3286,
      "ighb": 3287,
      "ĠMore": 3288,
      "Ġrepe": 3289,
      "ĠAust": 3290,
      "tr": 3291,
      "Ġstyle": 3292,
      "Ġstructure": 3293,
      "Ġplayed": 3294,
      "ĠJew": 3295,
      "undred": 3296,
      "Ġprinci": 3297,
      "Ġsuff": 3298,
      "entially": 3299,
      "Ġnut": 3300,
      "Ġmovement": 3301,
      "Ġadvant": 3302,
      "Ġeasier": 3303,
      "Ġdamage": 3304,
      "Ġbeyond": 3305,
      "Ġcondition": 3306,
      "Ġshot": 3307,
      "36": 3308,
      "ĠKe": 3309,
      "Ġult": 3310,
      "Ġstories": 3311,
      "rupt": 3312,
      "Ġearth": 3313,
      "rast": 3314,
      "Ġplant": 3315,
      "Ġfeet": 3316,
      "31": 3317,
      "Ġcampaign": 3318,
      "Ġburn": 3319,
      "Ġwait": 3320,
      "Ġweap": 3321,
      "Ġeconomy": 3322,
      "Ġexplain": 3323,
      "ĠGoogle": 3324,
      "500": 3325,
      "Ġgreen": 3326,
      "lection": 3327,
      "Ġincreasing": 3328,
      "issue": 3329,
      "ograph": 3330,
      "Ġmist": 3331,
      "Ġslight": 3332,
      "AC": 3333,
      "ĠAre": 3334,
      "ech": 3335,
      "Ġund": 3336,
      "Ġphoto": 3337,
      "atform": 3338,
      "Ġformer": 3339,
      "ype": 3340,
      "oles": 3341,
      "Ġdate": 3342,
      "Ġresources": 3343,
      "Ġcontract": 3344,
      "Ġstraight": 3345,
      "idge": 3346,
      "Ġcustomers": 3347,
      "Ġband": 3348,
      "Ġindividuals": 3349,
      "Ġdemand": 3350,
      "Ġwrote": 3351,
      "Ġstress": 3352,
      "Ġcivil": 3353,
      "014": 3354,
      "Ġanti": 3355,
      "Ġdeli": 3356,
      "Ġâ": 3357,
      "ĠĠĠĠĠĠĠĠĠĠĠĠĠĠĠ": 3358,
      "Ġpaid": 3359,
      "ights": 3360,
      "Ġguys": 3361,
      "Ġwife": 3362,
      "hold": 3363,
      "Ġlose": 3364,
      "Ġplease": 3365,
      "Ġthus": 3366,
      "Ġvac": 3367,
      "Ġprior": 3368,
      "Ġdesigned": 3369,
      "Ġabsolute": 3370,
      "AM": 3371,
      "Ġfell": 3372,
      "Ġ>": 3373,
      "Ġbeginning": 3374,
      "aughter": 3375,
      "Ġprogress": 3376,
      "ara": 3377,
      "how": 3378,
      "Ġvia": 3379,
      "Ġmachine": 3380,
      "Ġensure": 3381,
      "Ġwhose": 3382,
      "hern": 3383,
      "airs": 3384,
      "Un": 3385,
      "Ġcontain": 3386,
      "ancy": 3387,
      "Ġmemory": 3388,
      "Ġcentury": 3389,
      "Ġuseful": 3390,
      "IC": 3391,
      "ĠAug": 3392,
      "Ġclos": 3393,
      "Ġshoot": 3394,
      "rely": 3395,
      "ĠAny": 3396,
      "onym": 3397,
      "aches": 3398,
      "Ġnegative": 3399,
      "****": 3400,
      "bed": 3401,
      "Ġskills": 3402,
      "Ġintegr": 3403,
      "ald": 3404,
      "Ġthroughout": 3405,
      "Ġchalleng": 3406,
      "Ġgrad": 3407,
      "Ġmanagement": 3408,
      "Ġstar": 3409,
      "Ġspent": 3410,
      "Ġhaven": 3411,
      "Ġanimals": 3412,
      "Ġlimit": 3413,
      "Ġassociated": 3414,
      "ĠKing": 3415,
      "ĠGl": 3416,
      "Ġspread": 3417,
      "acebook": 3418,
      "Ġproduce": 3419,
      "Ġmax": 3420,
      "Ġmeant": 3421,
      "ores": 3422,
      "which": 3423,
      "ĠState": 3424,
      "ĠFirst": 3425,
      "?âĢĿ": 3426,
      "ĠPeople": 3427,
      "Not": 3428,
      "Ġmatch": 3429,
      "Ġharm": 3430,
      "Ġincreased": 3431,
      "Ġdat": 3432,
      "ĠFrom": 3433,
      "Ġdeveloped": 3434,
      "She": 3435,
      "ags": 3436,
      "ram": 3437,
      "Ġprovided": 3438,
      "Ġexpected": 3439,
      "Ġrespond": 3440,
      "Ġcommand": 3441,
      "ĠAdd": 3442,
      "Ġstick": 3443,
      "Ġpowerful": 3444,
      "Ġprint": 3445,
      "Ġunf": 3446,
      "Ġpow": 3447,
      "han": 3448,
      "Ġimpl": 3449,
      "Ġprovides": 3450,
      "Ġneighb": 3451,
      "ĠArt": 3452,
      "alse": 3453,
      "Ġtherefore": 3454,
      "ĠJes": 3455,
      "37": 3456,
      "Ġhistor": 3457,
      "ĠHer": 3458,
      "Ġhighly": 3459,
      "what": 3460,
      "band": 3461,
      "Ġesc": 3462,
      "Ġindepend": 3463,
      "lam": 3464,
      "ĠIsrael": 3465,
      "ils": 3466,
      "Ġscen": 3467,
      "Ġstarting": 3468,
      "uary": 3469,
      "Ġreduce": 3470,
      "ications": 3471,
      "Ġspirit": 3472,
      "Ġhundred": 3473,
      "ĠChe": 3474,
      "Here": 3475,
      "ĠPar": 3476,
      "Ġsounds": 3477,
      "Ġhealthy": 3478,
      "ĠEl": 3479,
      "Ġassum": 3480,
      "ĠSim": 3481,
      "Ġbroad": 3482,
      "Ġgreater": 3483,
      "Ġstudies": 3484,
      "rs": 3485,
      "Ġbrother": 3486,
      "Ġtast": 3487,
      "Ġnation": 3488,
      "istance": 3489,
      "Ġcancer": 3490,
      "Ġcurrently": 3491,
      "Ġsend": 3492,
      "Ġbaby": 3493,
      "ufact": 3494,
      "Ġcustomer": 3495,
      "Ġlarger": 3496,
      "Ġgold": 3497,
      "estern": 3498,
      "Ġeffort": 3499,
      "48": 3500,
      "ĠChar": 3501,
      "Ġveh": 3502,
      "Ġcomfort": 3503,
      "Ġspecies": 3504,
      "Ġtele": 3505,
      "Ġdevice": 3506,
      "ube": 3507,
      "Ġsequ": 3508,
      "Ġcompon": 3509,
      "Ġsupposed": 3510,
      "Ġmid": 3511,
      "yl": 3512,
      "ĠDav": 3513,
      "nown": 3514,
      "iant": 3515,
      "Ġstrugg": 3516,
      "omen": 3517,
      "Ġcontext": 3518,
      "Ġaspect": 3519,
      "roy": 3520,
      "ĠBra": 3521,
      "Ġcho": 3522,
      "Ġcompared": 3523,
      "Ġlimited": 3524,
      "mark": 3525,
      "Ġseeing": 3526,
      "Ġopportunity": 3527,
      "Ġinsurance": 3528,
      "Ġcaused": 3529,
      "Ġimmediately": 3530,
      "Ġ//": 3531,
      "ĠOct": 3532,
      "bon": 3533,
      "38": 3534,
      "ĠMany": 3535,
      "Ġbill": 3536,
      "ĠApr": 3537,
      "Ġnuc": 3538,
      "âĢĿ.": 3539,
      "Ġshop": 3540,
      "Ġcreating": 3541,
      "Ġmur": 3542,
      "Ġtrou": 3543,
      "Ġarch": 3544,
      "Ġachieve": 3545,
      "Ġnarr": 3546,
      "oly": 3547,
      "Ġkid": 3548,
      "gn": 3549,
      "Ġmember": 3550,
      "umn": 3551,
      "Ġtouch": 3552,
      "Ġfactors": 3553,
      "Ġanaly": 3554,
      "eration": 3555,
      "007": 3556,
      "ĠRom": 3557,
      "{\\": 3558,
      "Ġnearly": 3559,
      "ĠHouse": 3560,
      "Ġsecret": 3561,
      "Ġdiet": 3562,
      "down": 3563,
      "azing": 3564,
      "Ġseemed": 3565,
      "Ġrule": 3566,
      "Ġrelease": 3567,
      "aled": 3568,
      "orks": 3569,
      "ĠEm": 3570,
      "ĠMon": 3571,
      "ae": 3572,
      "imal": 3573,
      "Ġmicro": 3574,
      "Ġadminist": 3575,
      "cont": 3576,
      "Ġdrug": 3577,
      "ĠBritish": 3578,
      "uild": 3579,
      "Ġlat": 3580,
      "Ġadditional": 3581,
      "Ġtrade": 3582,
      "ĠTra": 3583,
      "Ġinterview": 3584,
      "Ġcitiz": 3585,
      "ĠEarth": 3586,
      "ategy": 3587,
      "Ġstudent": 3588,
      "ĠĠĠĠĠĠ": 3589,
      "Ġinterested": 3590,
      "enge": 3591,
      "Ġclearly": 3592,
      "ortunately": 3593,
      "row": 3594,
      "ica": 3595,
      "Ġmob": 3596,
      "Ġmethods": 3597,
      "Ġdetails": 3598,
      "ague": 3599,
      "34": 3600,
      "Ġtal": 3601,
      "Ġlearned": 3602,
      "ĠDis": 3603,
      "ĠComp": 3604,
      "cast": 3605,
      "Ġ`": 3606,
      "ĠSpe": 3607,
      "Ġboard": 3608,
      "Ġstage": 3609,
      "Ġkept": 3610,
      "016": 3611,
      "Ġencoura": 3612,
      "col": 3613,
      "Ġearlier": 3614,
      "Ġeventually": 3615,
      "Ġshall": 3616,
      "Ġrequires": 3617,
      "Sc": 3618,
      "Ġnames": 3619,
      "Ġinstance": 3620,
      "ĠSw": 3621,
      "Ġflu": 3622,
      "200": 3623,
      "that": 3624,
      "Ġcast": 3625,
      "kes": 3626,
      "Ġenter": 3627,
      "round": 3628,
      "fra": 3629,
      "Ġkilled": 3630,
      "Ġaccur": 3631,
      ".[": 3632,
      "Ġblue": 3633,
      "??": 3634,
      "Ġmentioned": 3635,
      "After": 3636,
      "Ġsection": 3637,
      "ĠLike": 3638,
      "aker": 3639,
      "Ġpredict": 3640,
      "))": 3641,
      "Ġincome": 3642,
      "OC": 3643,
      "reci": 3644,
      "Ġgrowing": 3645,
      "board": 3646,
      "ÂłÂłÂł": 3647,
      "with": 3648,
      "05": 3649,
      "ĠAg": 3650,
      "Ġthoughts": 3651,
      "org": 3652,
      "Ġdie": 3653,
      "Ġitems": 3654,
      "iation": 3655,
      "Ġlength": 3656,
      "Ġlaws": 3657,
      "cles": 3658,
      "Ġarm": 3659,
      "Ġadult": 3660,
      "Ġmoved": 3661,
      "Ġliber": 3662,
      "Ġregul": 3663,
      "izes": 3664,
      "ĠMark": 3665,
      "ĠSch": 3666,
      "Ġwat": 3667,
      "Ġscene": 3668,
      "ris": 3669,
      "Ġplatform": 3670,
      "Ġmount": 3671,
      "Ġsuccessful": 3672,
      "Ġstrength": 3673,
      "rief": 3674,
      "iled": 3675,
      "ĠCor": 3676,
      "istics": 3677,
      "Ġdisplay": 3678,
      "Ġmajority": 3679,
      "Ġtools": 3680,
      "Ġhosp": 3681,
      "OS": 3682,
      "osis": 3683,
      "Ġvirt": 3684,
      "ccording": 3685,
      "abor": 3686,
      "aper": 3687,
      "inese": 3688,
      "lebr": 3689,
      "Ġtransl": 3690,
      "Ġrace": 3691,
      "edom": 3692,
      "new": 3693,
      "ani": 3694,
      "Ġrob": 3695,
      "Ġargument": 3696,
      "Ġpeace": 3697,
      "Ġtask": 3698,
      "ĠOur": 3699,
      "Ġclot": 3700,
      "Ġdefinitely": 3701,
      "Ġdaily": 3702,
      "odes": 3703,
      "pes": 3704,
      "Ġmer": 3705,
      "Some": 3706,
      "Ġmouth": 3707,
      "Ġtraditional": 3708,
      "Ġpatient": 3709,
      "itation": 3710,
      "ĠII": 3711,
      "ĠComm": 3712,
      "Ġnamed": 3713,
      "change": 3714,
      "dden": 3715,
      "acter": 3716,
      "Ġmostly": 3717,
      "Ġworse": 3718,
      "Ġcopy": 3719,
      "Ġborn": 3720,
      "Ġwatching": 3721,
      "015": 3722,
      "Ġfully": 3723,
      "Ġelements": 3724,
      "Ġdirection": 3725,
      "Ġonto": 3726,
      "Ġbeautiful": 3727,
      "Ġcollege": 3728,
      "part": 3729,
      "Ġappropri": 3730,
      "Ġreported": 3731,
      "ĠOther": 3732,
      "Ġcommit": 3733,
      "Ġroll": 3734,
      "ett": 3735,
      "ET": 3736,
      "inger": 3737,
      "Ġcenter": 3738,
      "Ġwish": 3739,
      "Ġbenefit": 3740,
      "ĠSince": 3741,
      "ĠCons": 3742,
      "ocol": 3743,
      "text": 3744,
      "Ġnovel": 3745,
      "Ġtemperature": 3746,
      "Ġnotice": 3747,
      "Ġbelief": 3748,
      "Ġcounter": 3749,
      "ĠPre": 3750,
      "equ": 3751,
      "earch": 3752,
      "44": 3753,
      "Ġframe": 3754,
      "itable": 3755,
      "Ġmanufact": 3756,
      "Ġtruly": 3757,
      "Ġcandid": 3758,
      "ception": 3759,
      "no": 3760,
      "flict": 3761,
      "Ġreceived": 3762,
      "iling": 3763,
      "ĠJesus": 3764,
      "Ġcru": 3765,
      "Ġsudden": 3766,
      "orry": 3767,
      "Ġprograms": 3768,
      "Ġcalcul": 3769,
      "atur": 3770,
      "Ġfig": 3771,
      "Ġmill": 3772,
      "],": 3773,
      "Ġolder": 3774,
      "Ġcharge": 3775,
      "Ġsaf": 3776,
      "Ġround": 3777,
      "Your": 3778,
      "ael": 3779,
      "ĠRed": 3780,
      "onymous": 3781,
      "Ġgrand": 3782,
      "08": 3783,
      "Ġvir": 3784,
      "Ġeating": 3785,
      "LL": 3786,
      "Ġjobs": 3787,
      "Ġwilling": 3788,
      "Ġforces": 3789,
      "ĠNational": 3790,
      "Ġtitle": 3791,
      "Ġforeign": 3792,
      "inct": 3793,
      "raft": 3794,
      "ĠChristian": 3795,
      "Ġoffe": 3796,
      "Do": 3797,
      "Ġactions": 3798,
      "Ġbud": 3799,
      "Ġprefer": 3800,
      "(\"": 3801,
      "Ġinternet": 3802,
      "Ġregion": 3803,
      "Ġsteps": 3804,
      "anc": 3805,
      "resp": 3806,
      "ij": 3807,
      "Ġreligious": 3808,
      "Ġstatement": 3809,
      "Ġopinion": 3810,
      "Ġextremely": 3811,
      "Ġtour": 3812,
      "ĠAmericans": 3813,
      "Ġbackground": 3814,
      "Ġincluded": 3815,
      "see": 3816,
      "Ġquant": 3817,
      "Ġremain": 3818,
      "Ġpassed": 3819,
      "men": 3820,
      "rab": 3821,
      "ĠFeb": 3822,
      "ĠFrench": 3823,
      "Ġprofessional": 3824,
      "ifying": 3825,
      "ndom": 3826,
      "ĠPost": 3827,
      "Ġcauses": 3828,
      "Ġhumans": 3829,
      "Ġactivities": 3830,
      "ĠTH": 3831,
      "Ġinternational": 3832,
      "Ġrates": 3833,
      "Ġwood": 3834,
      "ĠPol": 3835,
      "kay": 3836,
      "75": 3837,
      "nect": 3838,
      "Ġincludes": 3839,
      "iers": 3840,
      "Ġsales": 3841,
      "ĠCong": 3842,
      "Ġwild": 3843,
      "actions": 3844,
      "Ġintellig": 3845,
      "Ġfollowed": 3846,
      "Ġprec": 3847,
      "pective": 3848,
      "Ġbasis": 3849,
      "Ġsympt": 3850,
      "orge": 3851,
      "OM": 3852,
      "Ġdied": 3853,
      "ĠBlack": 3854,
      "iam": 3855,
      "Ġsmaller": 3856,
      "ares": 3857,
      "ĠTrump": 3858,
      "ĠSer": 3859,
      "arian": 3860,
      "Ġlocation": 3861,
      "bum": 3862,
      "ĠUK": 3863,
      "iring": 3864,
      "atically": 3865,
      "Ġdetermine": 3866,
      "ĠDemocr": 3867,
      "Ġpark": 3868,
      "iver": 3869,
      "Ġid": 3870,
      "aint": 3871,
      "ptember": 3872,
      "isf": 3873,
      "Ġreflect": 3874,
      "Ġleading": 3875,
      "Ġelectric": 3876,
      "ĠCour": 3877,
      "term": 3878,
      "Ġdoctor": 3879,
      "ĠWest": 3880,
      "Ġstrategy": 3881,
      "opt": 3882,
      "Ġbottom": 3883,
      "Ġerror": 3884,
      "US": 3885,
      "Ġdisp": 3886,
      "Ġfavorite": 3887,
      "que": 3888,
      "Ġrequest": 3889,
      "oday": 3890,
      "Ġfloor": 3891,
      "Ġunc": 3892,
      "Ġbeg": 3893,
      "ĠOnce": 3894,
      "Ġmeeting": 3895,
      "Ġfru": 3896,
      "Ġbalance": 3897,
      "Ġsmart": 3898,
      "39": 3899,
      "Ġang": 3900,
      "Ġtoward": 3901,
      "Ġtree": 3902,
      "Ġconduct": 3903,
      "Ġeth": 3904,
      "Ġoverall": 3905,
      "Ġglass": 3906,
      "ava": 3907,
      "ilos": 3908,
      "Tr": 3909,
      "07": 3910,
      "Ġrid": 3911,
      "Ġdebt": 3912,
      "Ġlock": 3913,
      "Ġcateg": 3914,
      "inated": 3915,
      "Ġprimary": 3916,
      "Ġreleased": 3917,
      "ustr": 3918,
      "Ġdescribed": 3919,
      "Ġmut": 3920,
      "ĠCity": 3921,
      "ronic": 3922,
      "ked": 3923,
      "Ġenem": 3924,
      "Ġhus": 3925,
      "unction": 3926,
      "->": 3927,
      "Ġappears": 3928,
      "Ġreceive": 3929,
      "Ġdry": 3930,
      "Ġlots": 3931,
      "Ġsetting": 3932,
      "ternal": 3933,
      "06": 3934,
      "ĠOh": 3935,
      "Ġgod": 3936,
      "Ġrat": 3937,
      "Ġmale": 3938,
      "urb": 3939,
      "Ġsexual": 3940,
      "ius": 3941,
      "AP": 3942,
      "vision": 3943,
      "anch": 3944,
      "Ġdemonstr": 3945,
      "Ġpublished": 3946,
      "Ġaudience": 3947,
      "adem": 3948,
      "Ġfuck": 3949,
      "Ġqual": 3950,
      "Ġunless": 3951,
      "spe": 3952,
      "Ġforms": 3953,
      "cks": 3954,
      "Ġcareer": 3955,
      "Ġbrand": 3956,
      "Ġice": 3957,
      "Ġimages": 3958,
      "Ġexpress": 3959,
      "ĠWind": 3960,
      "ls": 3961,
      "Ġble": 3962,
      "Ġrich": 3963,
      "006": 3964,
      "alt": 3965,
      "mitted": 3966,
      "Ġconnection": 3967,
      "Ġterror": 3968,
      "Ġexercise": 3969,
      "this": 3970,
      "iber": 3971,
      "Ġder": 3972,
      "asion": 3973,
      "ĠMich": 3974,
      "riage": 3975,
      "Ġfeature": 3976,
      "Ġter": 3977,
      "lied": 3978,
      "Ġfederal": 3979,
      "Ġasking": 3980,
      "Ġcorpor": 3981,
      "From": 3982,
      "Ġcelebr": 3983,
      "09": 3984,
      "04": 3985,
      "ĠIndia": 3986,
      "Ġbattle": 3987,
      "Ġvariety": 3988,
      "Ġdegree": 3989,
      "Ġtells": 3990,
      "gment": 3991,
      "Ġtrain": 3992,
      "vere": 3993,
      "ĠChinese": 3994,
      "Ġpus": 3995,
      "While": 3996,
      "Ġsafety": 3997,
      "Ġmarketing": 3998,
      "Ġapply": 3999,
      "ection": 4000,
      "point": 4001,
      "Ġmental": 4002,
      "Ġrefer": 4003,
      "vey": 4004,
      "Ġfol": 4005,
      "apter": 4006,
      "ham": 4007,
      "Ġdetect": 4008,
      "la": 4009,
      "Ġstatus": 4010,
      "formation": 4011,
      "Ġconflict": 4012,
      "force": 4013,
      "cember": 4014,
      "55": 4015,
      "Ġdespite": 4016,
      "Ġcalls": 4017,
      "Ġ)": 4018,
      "Ġvictim": 4019,
      "Ġluck": 4020,
      "Ġhyp": 4021,
      "Ġhtt": 4022,
      "Ġpun": 4023,
      "ĠĠĠĠĠĠĠĠĠ": 4024,
      "Ġworkers": 4025,
      "Ġfresh": 4026,
      "odies": 4027,
      "ĠMarch": 4028,
      "Ġadvantage": 4029,
      "ĠÎ": 4030,
      "Ġgain": 4031,
      "Ġgraph": 4032,
      "Ġcup": 4033,
      "Ġlisten": 4034,
      "well": 4035,
      "Ġinfluence": 4036,
      "64": 4037,
      "Ġapparent": 4038,
      "raw": 4039,
      "otic": 4040,
      "Ġresponsible": 4041,
      "clus": 4042,
      "Ġheavy": 4043,
      "icks": 4044,
      "ĠGra": 4045,
      "Ġcompar": 4046,
      "Well": 4047,
      "====": 4048,
      "Ġremind": 4049,
      "pen": 4050,
      "Bl": 4051,
      "ros": 4052,
      "Ġbillion": 4053,
      "Ġdecide": 4054,
      "Im": 4055,
      "onday": 4056,
      "Ġweak": 4057,
      "Ġhonest": 4058,
      "Ġvs": 4059,
      "017": 4060,
      "orrow": 4061,
      "you": 4062,
      "Ġactive": 4063,
      "Ġdigital": 4064,
      "Don": 4065,
      "Ġorganization": 4066,
      "ĠJune": 4067,
      "Ġattract": 4068,
      "ĠAustral": 4069,
      "ynam": 4070,
      "Ġserver": 4071,
      "Ġepis": 4072,
      "ovember": 4073,
      "def": 4074,
      "ĠMaybe": 4075,
      "coh": 4076,
      "place": 4077,
      "Ġexpression": 4078,
      "Ġsummer": 4079,
      "Ġrandom": 4080,
      "Or": 4081,
      "Ġreb": 4082,
      "Ġanimal": 4083,
      "cience": 4084,
      "xy": 4085,
      "ĠJanuary": 4086,
      "raq": 4087,
      "icate": 4088,
      "Ġappreci": 4089,
      "ography": 4090,
      "Ġ$\\": 4091,
      "Ġchemical": 4092,
      "ossible": 4093,
      "pret": 4094,
      "name": 4095,
      "Ġprices": 4096,
      "uration": 4097,
      "Ġaim": 4098,
      "Ġconcent": 4099,
      "ĠWho": 4100,
      "Ġessential": 4101,
      "iverse": 4102,
      "Ġegg": 4103,
      "ady": 4104,
      "Ġhous": 4105,
      "Ġing": 4106,
      "ometimes": 4107,
      "ĠGreat": 4108,
      "box": 4109,
      "Ġslightly": 4110,
      "Ġacqu": 4111,
      "Ġobvious": 4112,
      "gu": 4113,
      "Ġshowed": 4114,
      "Ġstarts": 4115,
      "Ġestabl": 4116,
      "ĠRec": 4117,
      "ilies": 4118,
      "ulate": 4119,
      "Ġspl": 4120,
      "Ġfemale": 4121,
      "ĠÂłĊ": 4122,
      "Ġfarm": 4123,
      "Ġcars": 4124,
      "ulf": 4125,
      "Ġpet": 4126,
      "Ġcatch": 4127,
      "igr": 4128,
      "Yes": 4129,
      "Ġbul": 4130,
      "ek": 4131,
      "Ġjump": 4132,
      "Ġconsequ": 4133,
      "Ġmodels": 4134,
      "Ġsche": 4135,
      "Ġdoubt": 4136,
      "ĠApril": 4137,
      "oving": 4138,
      "Ġ%": 4139,
      "ĠAugust": 4140,
      "aven": 4141,
      "tered": 4142,
      "Ġstaff": 4143,
      "Ġforget": 4144,
      "rial": 4145,
      "ĠEuropean": 4146,
      "Ġreplace": 4147,
      "ugg": 4148,
      "hest": 4149,
      "Ġcommer": 4150,
      "ading": 4151,
      "Ġfaith": 4152,
      "Ġworry": 4153,
      "lin": 4154,
      "Ġscript": 4155,
      "Ġwindow": 4156,
      "Ġvill": 4157,
      "LE": 4158,
      "aming": 4159,
      "47": 4160,
      "Ġfish": 4161,
      "Ġamazing": 4162,
      "Ġsources": 4163,
      "BC": 4164,
      "wood": 4165,
      "ctors": 4166,
      "Ġnor": 4167,
      "OU": 4168,
      "AD": 4169,
      "Ġotherwise": 4170,
      "iliar": 4171,
      "Ġtypically": 4172,
      "Ġimagine": 4173,
      "ĠNet": 4174,
      "Ġleaving": 4175,
      "Ġwaiting": 4176,
      "Ġchurch": 4177,
      "ĠSen": 4178,
      "Ġcontinu": 4179,
      "Ġbound": 4180,
      "ĠDay": 4181,
      "pid": 4182,
      "uman": 4183,
      "Ġfalse": 4184,
      "wr": 4185,
      "Ġeval": 4186,
      "known": 4187,
      "Ġoutput": 4188,
      "ache": 4189,
      "ĠPal": 4190,
      "unday": 4191,
      "Ġmagn": 4192,
      "Ġcentral": 4193,
      "Ġfinding": 4194,
      "ĠUp": 4195,
      "Ġdistance": 4196,
      "Ġdevices": 4197,
      "ĠAlthough": 4198,
      "Ġsymb": 4199,
      "Ġdestroy": 4200,
      "Ġexpensive": 4201,
      "Ġspot": 4202,
      "Ġproduced": 4203,
      "Ġcritical": 4204,
      "Ġsugar": 4205,
      "Ġbudget": 4206,
      "Ġdouble": 4207,
      "ĠJuly": 4208,
      "Cont": 4209,
      "ĠVal": 4210,
      "Ġcamera": 4211,
      "PS": 4212,
      "htt": 4213,
      "ĠGood": 4214,
      "Ġrealize": 4215,
      "edd": 4216,
      "ĠGet": 4217,
      "ĠÐ": 4218,
      "Ġseparate": 4219,
      "iforn": 4220,
      "Ġsurround": 4221,
      "Ġnuclear": 4222,
      "Ġproced": 4223,
      "ĠStud": 4224,
      "Ġfactor": 4225,
      "Ġdrop": 4226,
      "Ġoffers": 4227,
      "Ġchann": 4228,
      "Ġemployees": 4229,
      "Ġannoun": 4230,
      "Ġplants": 4231,
      "Qu": 4232,
      "Ġcontinued": 4233,
      "ipment": 4234,
      "Ġchallenge": 4235,
      "Ġscale": 4236,
      "ga": 4237,
      "ĠÃ": 4238,
      "eds": 4239,
      "Ġshape": 4240,
      "icit": 4241,
      "Ġinput": 4242,
      "Ġsupply": 4243,
      "Ġgar": 4244,
      "Ġlibr": 4245,
      "rie": 4246,
      "Ġer": 4247,
      "ĠPaul": 4248,
      "Let": 4249,
      "Ġfeels": 4250,
      "ĠIraq": 4251,
      "ĠWhite": 4252,
      "Ġplans": 4253,
      "Ġbatter": 4254,
      "Ġahead": 4255,
      "ula": 4256,
      "Ġelement": 4257,
      "Ġstrateg": 4258,
      "Ġclosed": 4259,
      "Ġinitial": 4260,
      "Us": 4261,
      "Pl": 4262,
      "Ġalbum": 4263,
      "Ġmovies": 4264,
      "anging": 4265,
      "Ġeight": 4266,
      "><": 4267,
      "Ġremove": 4268,
      "Ġremains": 4269,
      "ĠDep": 4270,
      "ĠSeptember": 4271,
      "Ġhar": 4272,
      "ĠIS": 4273,
      "02": 4274,
      "Ġcoffe": 4275,
      "005": 4276,
      "Ġletter": 4277,
      "do": 4278,
      "Ġprotein": 4279,
      "Ġhate": 4280,
      "Ġpromot": 4281,
      "rapy": 4282,
      "ĠRem": 4283,
      "Ġkeeping": 4284,
      "Ġdiscussion": 4285,
      "Ġrise": 4286,
      "Ġadjust": 4287,
      "ĠIslam": 4288,
      "Ġspeech": 4289,
      "Ġsymptoms": 4290,
      "gers": 4291,
      "Ġdriving": 4292,
      "illed": 4293,
      "ulated": 4294,
      "Ġparam": 4295,
      "irect": 4296,
      "Ġappropriate": 4297,
      "Ġschools": 4298,
      "Ġputting": 4299,
      "asy": 4300,
      "Ġpoll": 4301,
      "rim": 4302,
      "Ġdrugs": 4303,
      "Ġbasically": 4304,
      "Ġtelling": 4305,
      "rough": 4306,
      "Ġbecoming": 4307,
      "Get": 4308,
      "Ġcash": 4309,
      "ails": 4310,
      "rain": 4311,
      "ĠJack": 4312,
      "Ġforg": 4313,
      "Ġconserv": 4314,
      "Ġstream": 4315,
      "ĠThanks": 4316,
      "ĠPC": 4317,
      "igned": 4318,
      "isl": 4319,
      "ĠMet": 4320,
      "ror": 4321,
      "46": 4322,
      "Ġassess": 4323,
      "itc": 4324,
      "Ġfreedom": 4325,
      "Ġhusband": 4326,
      "Ġdecre": 4327,
      "ĠPat": 4328,
      "Ġfuel": 4329,
      "inter": 4330,
      "ait": 4331,
      "Ġfan": 4332,
      "oto": 4333,
      "Ġexamples": 4334,
      "ĠMod": 4335,
      "izations": 4336,
      "Ġhandle": 4337,
      "ashington": 4338,
      "ifornia": 4339,
      "Ġvalid": 4340,
      "Ġmaintain": 4341,
      "ipe": 4342,
      "Ġhelped": 4343,
      "Ġplanet": 4344,
      "ey": 4345,
      "Ġthousands": 4346,
      "Ġchanging": 4347,
      "itness": 4348,
      "import": 4349,
      "Ġclick": 4350,
      "Ġintend": 4351,
      "Ġtransport": 4352,
      "ĠSam": 4353,
      "Ġsites": 4354,
      "aked": 4355,
      "gency": 4356,
      "Ġfaster": 4357,
      "Ġminor": 4358,
      "ĠCongress": 4359,
      "ios": 4360,
      "Ġsea": 4361,
      "\":": 4362,
      "Ġcoffee": 4363,
      "inner": 4364,
      "Ġpresence": 4365,
      "Ġadvice": 4366,
      "These": 4367,
      "idents": 4368,
      "Ġhero": 4369,
      "Ġturns": 4370,
      "Can": 4371,
      "ooth": 4372,
      "vis": 4373,
      "ĠReg": 4374,
      "Ġfunctions": 4375,
      "Ġspect": 4376,
      "iable": 4377,
      "Ġhospital": 4378,
      "Ġleader": 4379,
      "Ġtim": 4380,
      "field": 4381,
      "Ġleaves": 4382,
      "Ġsweet": 4383,
      "can": 4384,
      "ĠIran": 4385,
      "acity": 4386,
      "Ġcore": 4387,
      "ml": 4388,
      "Ġlic": 4389,
      "soft": 4390,
      "inc": 4391,
      "Ġgirls": 4392,
      "ĠPM": 4393,
      "Ġsitting": 4394,
      "Ġforced": 4395,
      "Ġ?": 4396,
      "idden": 4397,
      "Ġpossibly": 4398,
      "vest": 4399,
      "Ġcircum": 4400,
      "uesday": 4401,
      "However": 4402,
      "Ġarr": 4403,
      "Com": 4404,
      "Ġcitizens": 4405,
      "New": 4406,
      "ĠNews": 4407,
      "Ġsad": 4408,
      "Ġclaims": 4409,
      "abase": 4410,
      "ĠDecember": 4411,
      "math": 4412,
      "Ġspending": 4413,
      "ername": 4414,
      "Ġstreet": 4415,
      "Tw": 4416,
      "Ġded": 4417,
      "Ġprem": 4418,
      "ĠApple": 4419,
      "owd": 4420,
      "Ġwear": 4421,
      "Ġdecisions": 4422,
      "Ġil": 4423,
      "ĠTheir": 4424,
      "Ġhom": 4425,
      "ref": 4426,
      "ĠCourt": 4427,
      "_{": 4428,
      "Ġreci": 4429,
      "ban": 4430,
      "Ġsatisf": 4431,
      "ĠKore": 4432,
      "arter": 4433,
      "ico": 4434,
      "Ġmap": 4435,
      "Ġgoals": 4436,
      "Ġstring": 4437,
      "ĠNovember": 4438,
      "Ġfamilies": 4439,
      "Ġelection": 4440,
      "overy": 4441,
      "encies": 4442,
      "Ġscientific": 4443,
      "Ġapplications": 4444,
      "ondon": 4445,
      "amin": 4446,
      "Ġreligion": 4447,
      "Ġowners": 4448,
      "ille": 4449,
      "ING": 4450,
      "iques": 4451,
      "cohol": 4452,
      "Ġcards": 4453,
      "Ġlived": 4454,
      "ingly": 4455,
      "urg": 4456,
      "ĠMuslim": 4457,
      "Ġbiggest": 4458,
      "Ġsolid": 4459,
      "works": 4460,
      "Ġinvestment": 4461,
      "rad": 4462,
      "ruary": 4463,
      "ste": 4464,
      "Ġcontains": 4465,
      "Ġexisting": 4466,
      "Ġterr": 4467,
      "Ġshut": 4468,
      "mod": 4469,
      "03": 4470,
      "Ġanyway": 4471,
      "antic": 4472,
      "Ġtotally": 4473,
      "Ġtopic": 4474,
      "ĠDavid": 4475,
      "EC": 4476,
      "rible": 4477,
      "Ġhell": 4478,
      "Ġabsolutely": 4479,
      "Ġwealth": 4480,
      "itute": 4481,
      "Ġmaterials": 4482,
      "Ġcrime": 4483,
      "Ġodd": 4484,
      "uate": 4485,
      "Oh": 4486,
      "Ġdefined": 4487,
      "Ġloved": 4488,
      "Ġcommunication": 4489,
      "arant": 4490,
      "ĠMac": 4491,
      "Res": 4492,
      "ĠSl": 4493,
      "ĠLaw": 4494,
      "Ġclimate": 4495,
      "Ġmaster": 4496,
      "Ġbird": 4497,
      "rian": 4498,
      "Ġequal": 4499,
      "ednes": 4500,
      "Ġconversation": 4501,
      "Ġsoul": 4502,
      "Ġidentify": 4503,
      "anted": 4504,
      "uations": 4505,
      "osure": 4506,
      "Ġentirely": 4507,
      "ocal": 4508,
      "ĠGree": 4509,
      "Ġtesting": 4510,
      "aid": 4511,
      "Ġdaughter": 4512,
      "Ġleads": 4513,
      "Ġcris": 4514,
      "Ġserve": 4515,
      "Ġpush": 4516,
      "ĠLib": 4517,
      "Fr": 4518,
      "ĠJe": 4519,
      "ervice": 4520,
      "Ġadvert": 4521,
      "Leave": 4522,
      "Ġvisual": 4523,
      "Ġdangerous": 4524,
      "Ġast": 4525,
      "Ġpieces": 4526,
      "ĠAc": 4527,
      "Ġlatest": 4528,
      "ya": 4529,
      "ĠAM": 4530,
      "Ġpaying": 4531,
      "Ġbeat": 4532,
      "Ġprison": 4533,
      "âĢĿ,": 4534,
      "umber": 4535,
      "Ġnumer": 4536,
      "ym": 4537,
      "Ġphilos": 4538,
      "clusion": 4539,
      "Ġship": 4540,
      "ĠAnt": 4541,
      "osh": 4542,
      "ĠOctober": 4543,
      "ednesday": 4544,
      "Ġwaste": 4545,
      "ĠTrans": 4546,
      "iency": 4547,
      "hens": 4548,
      "dro": 4549,
      "Ġshowing": 4550,
      "Ġhappening": 4551,
      "Ġdifferences": 4552,
      "Ġnone": 4553,
      "ĠCO": 4554,
      "Ab": 4555,
      "Ġlabor": 4556,
      "Ġstopped": 4557,
      "Ġobjects": 4558,
      "Ġafford": 4559,
      "ayer": 4560,
      "cellent": 4561,
      "ĠEast": 4562,
      "olf": 4563,
      "Ġtrip": 4564,
      "001": 4565,
      "igation": 4566,
      "Ġunit": 4567,
      "oves": 4568,
      "Ġincred": 4569,
      "ipp": 4570,
      "Ġmissing": 4571,
      "42": 4572,
      "Ġadapt": 4573,
      "Ġalternative": 4574,
      "ĠOver": 4575,
      "ĠWashington": 4576,
      "istry": 4577,
      "ĠCount": 4578,
      "yr": 4579,
      "Ġviolence": 4580,
      "Ġgeneration": 4581,
      "orage": 4582,
      "Ġarms": 4583,
      "018": 4584,
      "Ġswitch": 4585,
      "olar": 4586,
      "Ġplaced": 4587,
      "Ġdefend": 4588,
      "ĠCalifornia": 4589,
      "Ġreference": 4590,
      "ĠSan": 4591,
      "Ġdefault": 4592,
      "enses": 4593,
      "Ġinfe": 4594,
      "Ġshock": 4595,
      "ĠFacebook": 4596,
      "upid": 4597,
      "Ġefficient": 4598,
      "iance": 4599,
      "Ġcontroll": 4600,
      "ursday": 4601,
      "osite": 4602,
      "mas": 4603,
      "Ġexperiences": 4604,
      "Ġdiagn": 4605,
      "De": 4606,
      "Ġtransfer": 4607,
      "Ġcheap": 4608,
      "ĠLog": 4609,
      "Ġbond": 4610,
      "Ad": 4611,
      "Ġbrief": 4612,
      "Ġtests": 4613,
      "ĠAP": 4614,
      "Ġimpossible": 4615,
      "Ġban": 4616,
      "ĠDoes": 4617,
      "Ġequipment": 4618,
      "Ġpure": 4619,
      "cil": 4620,
      "top": 4621,
      "Ġherself": 4622,
      "Ġdollars": 4623,
      "49": 4624,
      "Post": 4625,
      "Ġexpand": 4626,
      "edia": 4627,
      "prove": 4628,
      "Ġanswers": 4629,
      "Ġpregn": 4630,
      "reate": 4631,
      "bre": 4632,
      "Ġwhom": 4633,
      "Ġweapons": 4634,
      "Ġsust": 4635,
      "Ġmulti": 4636,
      "from": 4637,
      "za": 4638,
      "urrent": 4639,
      ".'": 4640,
      "Ġthanks": 4641,
      "Ġfailed": 4642,
      "Ġtrouble": 4643,
      "gor": 4644,
      "Ġbought": 4645,
      "ologies": 4646,
      "Ġcaught": 4647,
      "Ġslowly": 4648,
      "Ġmetal": 4649,
      "Ġstanding": 4650,
      "tended": 4651,
      "ĠSee": 4652,
      "Ġpros": 4653,
      "Ġking": 4654,
      "Ġprojects": 4655,
      "rem": 4656,
      "Ġparties": 4657,
      "Ġestim": 4658,
      "Ġpurchase": 4659,
      "Ġmort": 4660,
      "asks": 4661,
      "Ġproviding": 4662,
      "ours": 4663,
      "Ġrelatively": 4664,
      "ĠInternet": 4665,
      "uries": 4666,
      "ĠBill": 4667,
      "olec": 4668,
      "rees": 4669,
      "xi": 4670,
      "Ġclient": 4671,
      "Se": 4672,
      "cket": 4673,
      "Ġmir": 4674,
      "Ġpages": 4675,
      "Add": 4676,
      "Ġdiscovered": 4677,
      "ords": 4678,
      "Ġcloud": 4679,
      "Ġmotiv": 4680,
      "Ġfighting": 4681,
      "Ġyell": 4682,
      "Ġsuspect": 4683,
      "Ġbow": 4684,
      "Ġbroken": 4685,
      "class": 4686,
      "ka": 4687,
      "edy": 4688,
      "ourney": 4689,
      "Ġtom": 4690,
      "Ġindeed": 4691,
      "ferences": 4692,
      "oom": 4693,
      "Ġfirm": 4694,
      "gl": 4695,
      "roid": 4696,
      "Ġreports": 4697,
      "Ġradio": 4698,
      "Ġfailure": 4699,
      "asure": 4700,
      "Ġassist": 4701,
      "ĠGerman": 4702,
      "Ġvision": 4703,
      "Ġteams": 4704,
      "craft": 4705,
      "house": 4706,
      "ensity": 4707,
      "Ġmiles": 4708,
      "opy": 4709,
      "IM": 4710,
      "``": 4711,
      "Ġbuying": 4712,
      "Ġapart": 4713,
      "Ġsick": 4714,
      "Ġhurt": 4715,
      "istan": 4716,
      "Ġreached": 4717,
      "ribe": 4718,
      "ĠInstead": 4719,
      "Ġfamiliar": 4720,
      "acing": 4721,
      "\")": 4722,
      "Ġremoved": 4723,
      "inn": 4724,
      "Ġrestaur": 4725,
      "ĠMicro": 4726,
      "Ġended": 4727,
      "ĠEv": 4728,
      "Ġholding": 4729,
      "ĠOut": 4730,
      "icians": 4731,
      "char": 4732,
      "Ġproperly": 4733,
      "Ġinterpret": 4734,
      "('": 4735,
      "Ġseconds": 4736,
      "Ġevolution": 4737,
      "Ġattacks": 4738,
      "Ġconnected": 4739,
      "Ġknowing": 4740,
      "ĠWhere": 4741,
      "Ġrul": 4742,
      "65": 4743,
      "ander": 4744,
      "Ġpictures": 4745,
      "ashion": 4746,
      "Ġefforts": 4747,
      "ĠSun": 4748,
      "kin": 4749,
      "ĠJames": 4750,
      "ĠBen": 4751,
      "Ġfant": 4752,
      "Ġmedic": 4753,
      "Ġcrowd": 4754,
      "upp": 4755,
      "Ġenh": 4756,
      "Ġdim": 4757,
      "Ġfoods": 4758,
      "isms": 4759,
      "Ġminute": 4760,
      "cription": 4761,
      "Ġmarriage": 4762,
      "More": 4763,
      "lies": 4764,
      "rey": 4765,
      "Ġran": 4766,
      "Ġadding": 4767,
      "Me": 4768,
      "Ġperspective": 4769,
      "Ġcovered": 4770,
      "akers": 4771,
      "Ġsac": 4772,
      "Ġrelevant": 4773,
      "ĠLa": 4774,
      "Ġtick": 4775,
      "Ġweather": 4776,
      "Ġliqu": 4777,
      "tained": 4778,
      "Ġfamous": 4779,
      "Ġcommercial": 4780,
      "ums": 4781,
      "Ġmo": 4782,
      "Just": 4783,
      "ĠReply": 4784,
      "Ġbusinesses": 4785,
      "Ġreaction": 4786,
      "Ġinternal": 4787,
      "Ġunlike": 4788,
      "Ġreven": 4789,
      "rary": 4790,
      "Ġrot": 4791,
      "eters": 4792,
      "alled": 4793,
      "Ġclasses": 4794,
      "Ġbigger": 4795,
      "ĠLondon": 4796,
      "Ġscore": 4797,
      "Ġplanning": 4798,
      "Ġdescribe": 4799,
      "ki": 4800,
      "004": 4801,
      "Ġobviously": 4802,
      "ĠPark": 4803,
      "Ġdefinition": 4804,
      "Ġwalking": 4805,
      "erry": 4806,
      "Ġseven": 4807,
      "mar": 4808,
      "comp": 4809,
      "Ġprocesses": 4810,
      "Ġtrig": 4811,
      "Ðµ": 4812,
      "Ġfilled": 4813,
      "Ġroot": 4814,
      "icon": 4815,
      "Ġveget": 4816,
      "Ġiron": 4817,
      "Ġshared": 4818,
      "ĠWindows": 4819,
      "Ġmeat": 4820,
      "Ġconfig": 4821,
      "OP": 4822,
      "Ġbag": 4823,
      "Ġsen": 4824,
      "Ġexpert": 4825,
      "ĠRussia": 4826,
      "SS": 4827,
      "Ġdeveloping": 4828,
      "ĠSystem": 4829,
      "Ġproperties": 4830,
      "300": 4831,
      "Ġconstruct": 4832,
      "Ġsets": 4833,
      "();": 4834,
      "Ġdial": 4835,
      "respond": 4836,
      "ria": 4837,
      "aturday": 4838,
      "Ġdynam": 4839,
      "Ġilleg": 4840,
      "Ġflat": 4841,
      "Ġton": 4842,
      "ĠBel": 4843,
      "appe": 4844,
      "riv": 4845,
      "Ġexplan": 4846,
      "bing": 4847,
      "Ġtraffic": 4848,
      "ĠCanada": 4849,
      "Ġcultural": 4850,
      "âĢ¢": 4851,
      "Ġraised": 4852,
      "Ġstation": 4853,
      "Ġjournal": 4854,
      "itect": 4855,
      "Ġruns": 4856,
      "met": 4857,
      "Ġemp": 4858,
      "Ġtrial": 4859,
      "Ġspeaking": 4860,
      "Ġpolitics": 4861,
      "ĠHigh": 4862,
      "ĠAss": 4863,
      "Ġclub": 4864,
      "Ġhearing": 4865,
      "Ġindependent": 4866,
      "Ġsymbol": 4867,
      "care": 4868,
      "Ġclin": 4869,
      "Ġsand": 4870,
      "ented": 4871,
      "Ġsem": 4872,
      "Ġthank": 4873,
      "Ġjudge": 4874,
      "ĠHealth": 4875,
      "Ġexperienced": 4876,
      "41": 4877,
      "Ġapplied": 4878,
      "Ġteacher": 4879,
      "Of": 4880,
      "Ġmanaged": 4881,
      "Ġengage": 4882,
      "ĠDef": 4883,
      "Ġfans": 4884,
      "under": 4885,
      "II": 4886,
      "Ġaccident": 4887,
      "Ġphen": 4888,
      "Ġsimpl": 4889,
      "Ġstars": 4890,
      "Ġtight": 4891,
      "lor": 4892,
      "list": 4893,
      "ĠFebruary": 4894,
      "Ġoptim": 4895,
      "semb": 4896,
      "Ġevil": 4897,
      "Ġnotes": 4898,
      "racy": 4899,
      "Ġmassive": 4900,
      "Ġtaste": 4901,
      "Ġdownload": 4902,
      "88": 4903,
      "\">": 4904,
      "look": 4905,
      "EM": 4906,
      "Ġworst": 4907,
      "Ġthrow": 4908,
      "Ġincor": 4909,
      "Ġnoticed": 4910,
      "Ġpoly": 4911,
      "Ġestablished": 4912,
      "alle": 4913,
      "Ġguide": 4914,
      "Ġcolumn": 4915,
      "gorith": 4916,
      "Ġbelong": 4917,
      "oking": 4918,
      "road": 4919,
      "Ġmode": 4920,
      "hetic": 4921,
      "iders": 4922,
      "ogen": 4923,
      "Ġacid": 4924,
      "Ġlegisl": 4925,
      "Ġconcerned": 4926,
      "Ġisland": 4927,
      "ĠĠĠĠĠĠĠĠĠĠĠĠĠĠĠĠĠĠĠĠĠĠĠĠĠĠĠĠĠĠĠĠ": 4928,
      "Ġnav": 4929,
      "while": 4930,
      "erate": 4931,
      "Then": 4932,
      "Ġlargest": 4933,
      "Ġprotection": 4934,
      "olved": 4935,
      "arden": 4936,
      "ta": 4937,
      "Ġrecords": 4938,
      "Ġtrees": 4939,
      "Ġcarbon": 4940,
      "Ġpair": 4941,
      "Ġdogs": 4942,
      "Ġkick": 4943,
      "Ġscr": 4944,
      "Ġmine": 4945,
      "rag": 4946,
      "Ð¾": 4947,
      "username": 4948,
      "Ġcritic": 4949,
      "Ġalcohol": 4950,
      "Ġancient": 4951,
      "Ġconstant": 4952,
      "itz": 4953,
      "Ġopening": 4954,
      "Ġempt": 4955,
      "Ġarrest": 4956,
      "Ġvehicle": 4957,
      "Ġassume": 4958,
      "Sp": 4959,
      "erg": 4960,
      "Ġallowing": 4961,
      "ĠEach": 4962,
      "Ġbehavi": 4963,
      "ida": 4964,
      "Ġemotional": 4965,
      "Ġdepending": 4966,
      "itors": 4967,
      "Ġcloser": 4968,
      "Ġmuscle": 4969,
      "Ġconscious": 4970,
      "Ġhelpful": 4971,
      "Ġrelationships": 4972,
      "Ġrapid": 4973,
      "ses": 4974,
      "Ġaccom": 4975,
      "active": 4976,
      "Ġcycle": 4977,
      "OL": 4978,
      "Ġcas": 4979,
      "Ġcalling": 4980,
      "Ġmobile": 4981,
      "Ġinnov": 4982,
      "Ġcrim": 4983,
      "Ġquiet": 4984,
      "zen": 4985,
      "ĠAN": 4986,
      "Ġraise": 4987,
      "Ġbodies": 4988,
      "oyal": 4989,
      "Ġourselves": 4990,
      "Ġprove": 4991,
      "Ġplot": 4992,
      "ĠGermany": 4993,
      "Ġthick": 4994,
      "Ġoffered": 4995,
      "berg": 4996,
      "020": 4997,
      "Ġsides": 4998,
      "Ġsomewhere": 4999,
      "Ġmission": 5000,
      "ĠIndian": 5001,
      "Ġrestrict": 5002,
      "Ġregarding": 5003,
      "Ġbelieved": 5004,
      "Ġamb": 5005,
      "Ġdesire": 5006,
      "Ġutil": 5007,
      "Ġmonitor": 5008,
      "Ġpal": 5009,
      "Ġsuddenly": 5010,
      "Ġtaxes": 5011,
      "Ġcombination": 5012,
      "Ġexcellent": 5013,
      "Ġposts": 5014,
      "Ġsongs": 5015,
      "tra": 5016,
      "Ġdebate": 5017,
      "Ġedge": 5018,
      "ĠBig": 5019,
      "Ġends": 5020,
      "host": 5021,
      "Ġmilk": 5022,
      "Ġtransform": 5023,
      "ĠCr": 5024,
      "En": 5025,
      "ĠIts": 5026,
      "hand": 5027,
      "Ġhol": 5028,
      "ĠMex": 5029,
      "Ġdu": 5030,
      "Ġstrange": 5031,
      "ĠStar": 5032,
      "type": 5033,
      "net": 5034,
      "Ġbright": 5035,
      "Ġinstr": 5036,
      "itory": 5037,
      "Ġstupid": 5038,
      "Ġuniverse": 5039,
      "Ġerr": 5040,
      "Ġopened": 5041,
      "Ġshouldn": 5042,
      "Ġtechniques": 5043,
      "abet": 5044,
      "Ġplays": 5045,
      "free": 5046,
      "Ġcities": 5047,
      "ĠSuper": 5048,
      "ipped": 5049,
      "kend": 5050,
      "Ġstim": 5051,
      "Ð°": 5052,
      "Ġexplained": 5053,
      "ĠInc": 5054,
      "inate": 5055,
      "rm": 5056,
      "ario": 5057,
      "ĠThose": 5058,
      "Ġdefense": 5059,
      "Ġclim": 5060,
      "Ġsch": 5061,
      "ĠFrance": 5062,
      "Ġhelping": 5063,
      "Ġaccompl": 5064,
      "Ġlabel": 5065,
      "Most": 5066,
      "Ġhighest": 5067,
      "orter": 5068,
      "Ġdecades": 5069,
      "fig": 5070,
      "www": 5071,
      "state": 5072,
      "Ġseek": 5073,
      "Ġsignificantly": 5074,
      "Ġdatabase": 5075,
      "Ġspecifically": 5076,
      "ĠJapanese": 5077,
      "ĠConst": 5078,
      "ato": 5079,
      "idth": 5080,
      "Ġimportance": 5081,
      "Ġthread": 5082,
      "Ġfixed": 5083,
      "Ġhur": 5084,
      "share": 5085,
      "Ġbutton": 5086,
      "Ġfunny": 5087,
      "ĠMal": 5088,
      "Ġcollection": 5089,
      "ĠOff": 5090,
      "Ġexperiment": 5091,
      "ĠAfrica": 5092,
      "Ġplenty": 5093,
      "UT": 5094,
      "Ġattrib": 5095,
      "Ġsolutions": 5096,
      "Ġidentity": 5097,
      "ĠLin": 5098,
      "Ġcircumst": 5099,
      "Ġjoin": 5100,
      "Ġment": 5101,
      "Read": 5102,
      "Ġ:)": 5103,
      "ĠWeb": 5104,
      "ĠUse": 5105,
      "}}": 5106,
      "Ġrain": 5107,
      "ML": 5108,
      "Ġearn": 5109,
      "43": 5110,
      "Ġdetermined": 5111,
      "Ġkinds": 5112,
      "Ġrub": 5113,
      "Ġexistence": 5114,
      "Ġfairly": 5115,
      "Ġfeelings": 5116,
      "Ġitem": 5117,
      "rate": 5118,
      "ĠEngland": 5119,
      "ĠMichael": 5120,
      "ĠMor": 5121,
      "ĠAir": 5122,
      "irty": 5123,
      "Ġoccup": 5124,
      "ĠTherefore": 5125,
      "apers": 5126,
      "Ġjourney": 5127,
      "ford": 5128,
      "osen": 5129,
      "ĠMake": 5130,
      "file": 5131,
      "ĠGovern": 5132,
      "ishes": 5133,
      "ĠTime": 5134,
      "inding": 5135,
      "tes": 5136,
      "ias": 5137,
      "Ġmanner": 5138,
      "85": 5139,
      "Ġrequirements": 5140,
      "Ġflav": 5141,
      "Ġreturned": 5142,
      "illing": 5143,
      "ĠRob": 5144,
      "Ġcapacity": 5145,
      "Ġselling": 5146,
      "Ġdepends": 5147,
      "ĠThus": 5148,
      "Ġpartner": 5149,
      "Ġfollows": 5150,
      "clude": 5151,
      "Ġexchange": 5152,
      "First": 5153,
      "Ġpolicies": 5154,
      "Ġvolume": 5155,
      "night": 5156,
      "phone": 5157,
      "estion": 5158,
      "print": 5159,
      "agon": 5160,
      "Ġlocated": 5161,
      "ĠGeorge": 5162,
      "Ġfacts": 5163,
      "anda": 5164,
      "003": 5165,
      "fortunately": 5166,
      "ulations": 5167,
      "ĠSub": 5168,
      "Ġcrisis": 5169,
      "cean": 5170,
      "Ġreduced": 5171,
      "Ġcontinues": 5172,
      "Ġdeliver": 5173,
      "IP": 5174,
      "Ġsyn": 5175,
      "ĠMart": 5176,
      "ront": 5177,
      "ĠBo": 5178,
      "Ġmel": 5179,
      "mail": 5180,
      "Ġrough": 5181,
      "utor": 5182,
      "ission": 5183,
      "Ġresearc": 5184,
      "Ġformat": 5185,
      "Our": 5186,
      "Ġ_": 5187,
      "Ġapprox": 5188,
      "phas": 5189,
      "Ed": 5190,
      "gery": 5191,
      "uy": 5192,
      "Ġcrazy": 5193,
      "ĠHel": 5194,
      "Ġcart": 5195,
      "olly": 5196,
      "Ġcorrespond": 5197,
      "ĠLook": 5198,
      "ĠArab": 5199,
      "uit": 5200,
      "stood": 5201,
      "Ġsignal": 5202,
      "rig": 5203,
      "Ġminimum": 5204,
      "Ġcausing": 5205,
      "omy": 5206,
      "Ġmarried": 5207,
      "she": 5208,
      "porary": 5209,
      "Ġdistribution": 5210,
      "ii": 5211,
      "ancing": 5212,
      "ĠDNA": 5213,
      "ĠRober": 5214,
      "ĠMag": 5215,
      "bal": 5216,
      "Ġrealized": 5217,
      "Ġwitness": 5218,
      "ĠLord": 5219,
      "mosp": 5220,
      "Ġbegins": 5221,
      "ĠSa": 5222,
      "Ġbacter": 5223,
      "anish": 5224,
      "ago": 5225,
      "stream": 5226,
      "Ġviews": 5227,
      "isation": 5228,
      "Ġdriver": 5229,
      "Ġmagic": 5230,
      "Ġstret": 5231,
      "Ġfilms": 5232,
      "Ġloan": 5233,
      "ĠFe": 5234,
      "Ġprepared": 5235,
      "den": 5236,
      "arp": 5237,
      "Ġtro": 5238,
      "EL": 5239,
      "icing": 5240,
      "Ġque": 5241,
      "asp": 5242,
      "ãģ": 5243,
      "Ġsav": 5244,
      "Ġunivers": 5245,
      "Ġchallenges": 5246,
      "Ġpreviously": 5247,
      "Ġtreated": 5248,
      "apping": 5249,
      "atin": 5250,
      "ĠGreen": 5251,
      "ĠAp": 5252,
      "icip": 5253,
      "ĠCD": 5254,
      "olve": 5255,
      "Ġperformed": 5256,
      "Ġindex": 5257,
      "uke": 5258,
      "Ġbare": 5259,
      "ingu": 5260,
      "Ġaccepted": 5261,
      "Pr": 5262,
      "Ġbreath": 5263,
      "ĠRich": 5264,
      "019": 5265,
      "Ġguarant": 5266,
      "Ġcomponents": 5267,
      "Ġincreases": 5268,
      "esome": 5269,
      "Ġsky": 5270,
      "Ġinterests": 5271,
      "ĠBush": 5272,
      "Ġepisode": 5273,
      "Ġ^": 5274,
      "Ġcriminal": 5275,
      "Ġfinished": 5276,
      "Ġadministration": 5277,
      "Ġestablish": 5278,
      "EO": 5279,
      "Ġmal": 5280,
      "yth": 5281,
      "sm": 5282,
      "Ġfle": 5283,
      "Ġflo": 5284,
      "''": 5285,
      "Ġcontrast": 5286,
      "Ġopposite": 5287,
      "Ġsigns": 5288,
      "ĠWr": 5289,
      "Ġteeth": 5290,
      "Ġdiscover": 5291,
      "Ġcreation": 5292,
      "Ġdress": 5293,
      "ĠâĢ¦": 5294,
      "onna": 5295,
      "Ġnecessarily": 5296,
      "ĠAnge": 5297,
      "iot": 5298,
      "Ġpool": 5299,
      "ixt": 5300,
      "azon": 5301,
      "ÂŃ": 5302,
      "Ġchick": 5303,
      "Ġfly": 5304,
      "Ġsports": 5305,
      "vention": 5306,
      "Ġelimin": 5307,
      "igration": 5308,
      "utive": 5309,
      "ĠParty": 5310,
      "Ġintelligence": 5311,
      "Ġfolks": 5312,
      "rum": 5313,
      "Ġowner": 5314,
      "Ġuns": 5315,
      "Ġlawy": 5316,
      "ĠAv": 5317,
      "Ġideal": 5318,
      "och": 5319,
      "urally": 5320,
      "Ġplus": 5321,
      "Ġwriter": 5322,
      "ĠInter": 5323,
      "eper": 5324,
      "Ġsmell": 5325,
      "Ġmurder": 5326,
      "Ġstandards": 5327,
      "ĠBoth": 5328,
      "Ġconstantly": 5329,
      "Ġsentence": 5330,
      "Ġmolec": 5331,
      "Ġmotion": 5332,
      "IV": 5333,
      "Ġhistorical": 5334,
      "Ġentertain": 5335,
      "arn": 5336,
      "wide": 5337,
      "Ġfold": 5338,
      "improve": 5339,
      "Ġdiss": 5340,
      "ipping": 5341,
      "Ġrare": 5342,
      "86": 5343,
      "002": 5344,
      "terday": 5345,
      "Every": 5346,
      "Ġalgorith": 5347,
      "Ġpulled": 5348,
      "Ġmillions": 5349,
      "Ġappeared": 5350,
      "Ġsituations": 5351,
      "Ġoperations": 5352,
      "ĠBook": 5353,
      "aks": 5354,
      "ado": 5355,
      "ĠAccording": 5356,
      "Ġscientists": 5357,
      "Ġneighbor": 5358,
      "Ġpresented": 5359,
      "Ġeffectively": 5360,
      "Ġsomewhat": 5361,
      "rier": 5362,
      "Ġtwice": 5363,
      "Ġwearing": 5364,
      "Ġfocused": 5365,
      "Ġcorner": 5366,
      "ĠGold": 5367,
      "Ġ!": 5368,
      "CC": 5369,
      "ĠAnsw": 5370,
      "Any": 5371,
      "related": 5372,
      "ĠWhich": 5373,
      "illy": 5374,
      "ĠRel": 5375,
      "ĠNOT": 5376,
      "ĠReview": 5377,
      "Name": 5378,
      "lock": 5379,
      "ĠThank": 5380,
      "rix": 5381,
      "ĠChurch": 5382,
      "Ġrent": 5383,
      "Ġseriously": 5384,
      "ĠMat": 5385,
      "ĠUnder": 5386,
      "ION": 5387,
      "Int": 5388,
      "iate": 5389,
      "ĠPlease": 5390,
      "Ġwel": 5391,
      "Ø§": 5392,
      "View": 5393,
      "aped": 5394,
      "Ġingred": 5395,
      "Ġlibrary": 5396,
      "uzz": 5397,
      "Ġsuggests": 5398,
      "Ġdescription": 5399,
      "Ġturning": 5400,
      "estic": 5401,
      "Ġlie": 5402,
      "Ġstorage": 5403,
      "Ġvit": 5404,
      "Ġrelax": 5405,
      "Ġcomfortable": 5406,
      "ĠST": 5407,
      "Ġhttp": 5408,
      "pm": 5409,
      "Ġvast": 5410,
      "Ġanymore": 5411,
      "SA": 5412,
      "Ġbanks": 5413,
      "Ġaffected": 5414,
      "Ġcontro": 5415,
      "Ġentry": 5416,
      "ĠTom": 5417,
      "Ġplastic": 5418,
      "Ġexcess": 5419,
      "mary": 5420,
      "Ġresponsibility": 5421,
      "Ġtypical": 5422,
      "Ġkilling": 5423,
      "App": 5424,
      "77": 5425,
      "Ġexperim": 5426,
      "Ġnorth": 5427,
      "Ġfruit": 5428,
      "esh": 5429,
      "Ġquot": 5430,
      "Ġchoices": 5431,
      "erved": 5432,
      "abilities": 5433,
      "Ġtun": 5434,
      "ocracy": 5435,
      "See": 5436,
      "ructure": 5437,
      "ĠTwo": 5438,
      "OD": 5439,
      "Ġfields": 5440,
      "Man": 5441,
      "ĠHave": 5442,
      "Ġoperation": 5443,
      "Ġsnow": 5444,
      "Ġtiny": 5445,
      "uts": 5446,
      "Ġwinter": 5447,
      "ĠAnother": 5448,
      "Ġdirector": 5449,
      "ini": 5450,
      "Ġflight": 5451,
      "hab": 5452,
      "outs": 5453,
      "ogue": 5454,
      "ĠOnly": 5455,
      "400": 5456,
      "ighter": 5457,
      "ĠWestern": 5458,
      "Ġalle": 5459,
      "ĠRet": 5460,
      "Ġsample": 5461,
      "Google": 5462,
      "Another": 5463,
      "'.": 5464,
      "Ġsister": 5465,
      "Ġwonderful": 5466,
      "CH": 5467,
      "ĠSur": 5468,
      "Ġconsult": 5469,
      "Ġconver": 5470,
      "FF": 5471,
      "Ġteaching": 5472,
      "oper": 5473,
      "Ġobserved": 5474,
      "itionally": 5475,
      "Ġreact": 5476,
      "Ġsynt": 5477,
      "ĠCommun": 5478,
      "Ġanywhere": 5479,
      "Ġtrick": 5480,
      "Ġaspects": 5481,
      "Ġcreative": 5482,
      "Ġusual": 5483,
      "ĠSchool": 5484,
      "Ġmotor": 5485,
      "][": 5486,
      "uh": 5487,
      "iveness": 5488,
      "amental": 5489,
      "Ġzero": 5490,
      "Ġphr": 5491,
      "Rel": 5492,
      "Ġempty": 5493,
      "Ġtow": 5494,
      "ĠUSA": 5495,
      "Ġtruck": 5496,
      "Ġintended": 5497,
      "Ġlosing": 5498,
      "Ġring": 5499,
      "Ġapparently": 5500,
      "Ġgro": 5501,
      "Ġproof": 5502,
      "ĠDec": 5503,
      "Ġatmosp": 5504,
      "Ġlayer": 5505,
      "ĠWork": 5506,
      "Ġsin": 5507,
      "Ġclothes": 5508,
      "Ġhundreds": 5509,
      "Ind": 5510,
      "idel": 5511,
      "Ġcompetition": 5512,
      "ãĢ": 5513,
      "Ġflex": 5514,
      "Ġhorr": 5515,
      "Des": 5516,
      "Ġpossibility": 5517,
      "56": 5518,
      "Ġmatters": 5519,
      "Ġagreement": 5520,
      "Ġteen": 5521,
      "Ġauthority": 5522,
      "Ġdut": 5523,
      "Ġadvanced": 5524,
      "Ġlinks": 5525,
      "alls": 5526,
      "ĠBet": 5527,
      "Ġwalked": 5528,
      "Ġstre": 5529,
      "Ġintroduced": 5530,
      "Ġpatterns": 5531,
      "Ġfrequently": 5532,
      "Ġabsor": 5533,
      "war": 5534,
      "ĠLife": 5535,
      "Ġfashion": 5536,
      "standing": 5537,
      "ĠHome": 5538,
      "Ġconsidering": 5539,
      "uable": 5540,
      "Ġfunds": 5541,
      "Ġkeeps": 5542,
      "ĠAI": 5543,
      "Ġstated": 5544,
      "ĠTur": 5545,
      "Ġharder": 5546,
      "comment": 5547,
      "Ġacadem": 5548,
      "!)": 5549,
      "xiety": 5550,
      "Ġsouth": 5551,
      "Ġoperating": 5552,
      "Ġthinks": 5553,
      "ĠGeneral": 5554,
      "Please": 5555,
      "Ġserved": 5556,
      "OW": 5557,
      "outhern": 5558,
      "ulous": 5559,
      "Ġlegs": 5560,
      "Ġboys": 5561,
      "Ġweren": 5562,
      "icted": 5563,
      "ĠHist": 5564,
      "ĠAlex": 5565,
      "arsh": 5566,
      "Ġadvance": 5567,
      "Ġsomehow": 5568,
      "RA": 5569,
      "Ġgenerate": 5570,
      "Ġwatched": 5571,
      "Ġjoint": 5572,
      "Ġ;": 5573,
      "Ġopportunities": 5574,
      "ĠDid": 5575,
      "ensions": 5576,
      "Ġinvolve": 5577,
      "ship": 5578,
      "ĠDuring": 5579,
      "Ġpractices": 5580,
      "lo": 5581,
      "rency": 5582,
      "May": 5583,
      "Ġexists": 5584,
      "cher": 5585,
      "Ġclients": 5586,
      "lig": 5587,
      "Ġarchitect": 5588,
      "Ġeffic": 5589,
      "Ġcapable": 5590,
      "orders": 5591,
      "Ġbunch": 5592,
      "Ġarticles": 5593,
      "Ġenvironmental": 5594,
      "ĠStr": 5595,
      "real": 5596,
      "ĠJewish": 5597,
      "Ġec": 5598,
      "Ġmeasures": 5599,
      "Ġtechnical": 5600,
      "ĠStreet": 5601,
      "gypt": 5602,
      "ĠID": 5603,
      "ĠTex": 5604,
      "AA": 5605,
      "},": 5606,
      "log": 5607,
      "ĠRussian": 5608,
      "Ġju": 5609,
      "rog": 5610,
      "ads": 5611,
      "Ġmoral": 5612,
      "rome": 5613,
      "uster": 5614,
      "Ġshit": 5615,
      "Ġcarried": 5616,
      "Ġphotos": 5617,
      "Ġweird": 5618,
      "ĠJul": 5619,
      "icial": 5620,
      "Ġremark": 5621,
      "ĠWhe": 5622,
      "ophy": 5623,
      "ĠSometimes": 5624,
      "Ġforest": 5625,
      "iler": 5626,
      "cons": 5627,
      "Ġmaximum": 5628,
      "Ġphase": 5629,
      "Ob": 5630,
      "Ġsolve": 5631,
      "tee": 5632,
      "bar": 5633,
      "eding": 5634,
      "Ġsmooth": 5635,
      "Ġhomes": 5636,
      "anged": 5637,
      "ĠIP": 5638,
      "level": 5639,
      "Ã¡": 5640,
      "iest": 5641,
      "okes": 5642,
      "Ġsorry": 5643,
      "Pe": 5644,
      "fraid": 5645,
      "Ġfort": 5646,
      "Ġlies": 5647,
      "Ġorganizations": 5648,
      "Ġteachers": 5649,
      "ĠSocial": 5650,
      "ora": 5651,
      "Ġshift": 5652,
      "Ġmanufacture": 5653,
      "Ġtaught": 5654,
      "Ġcircumstances": 5655,
      "Ġpowers": 5656,
      "Ġprofession": 5657,
      "Ġsecure": 5658,
      "uing": 5659,
      "Ġrank": 5660,
      "Ġpartners": 5661,
      "ormal": 5662,
      "Are": 5663,
      "Ġsurprised": 5664,
      "ĠMicrosoft": 5665,
      "Ġconstruction": 5666,
      "Ġchain": 5667,
      "Ġafraid": 5668,
      "Ġhighlight": 5669,
      "Ġbull": 5670,
      "itchen": 5671,
      "rical": 5672,
      "ker": 5673,
      "Ġconcerns": 5674,
      "ĠThom": 5675,
      "Col": 5676,
      "Ġreform": 5677,
      "illa": 5678,
      "Ġultimately": 5679,
      "usiness": 5680,
      "Ġofficials": 5681,
      "Ġmarkets": 5682,
      "abel": 5683,
      "ĠDOC": 5684,
      "Ġpackage": 5685,
      "Ġmanager": 5686,
      "Ġillegal": 5687,
      "Ġtough": 5688,
      "win": 5689,
      "sub": 5690,
      "ĠAustralia": 5691,
      "ocation": 5692,
      "Ġbrows": 5693,
      "cript": 5694,
      "Ġalive": 5695,
      "Ġneither": 5696,
      "57": 5697,
      "uthors": 5698,
      "MS": 5699,
      "Ġgreatest": 5700,
      "Ġdistinct": 5701,
      "oster": 5702,
      "Ġnumerous": 5703,
      "agers": 5704,
      "Ġinsp": 5705,
      "Ġliquid": 5706,
      "ĠYet": 5707,
      "Ġaccounts": 5708,
      "Ġprofit": 5709,
      "Ġsalt": 5710,
      "Ġneck": 5711,
      "Ġadvent": 5712,
      "da": 5713,
      "friend": 5714,
      "Ġgrew": 5715,
      "life": 5716,
      "Ġplane": 5717,
      "Ġupdate": 5718,
      "itle": 5719,
      "Ġcert": 5720,
      "ĠTechn": 5721,
      "IL": 5722,
      "ĠIN": 5723,
      "ĠStep": 5724,
      "athy": 5725,
      "aying": 5726,
      "Ġ=>": 5727,
      "ĠPort": 5728,
      "requ": 5729,
      "ups": 5730,
      "Ġaccurate": 5731,
      "yp": 5732,
      "Ġenemy": 5733,
      "Ġarmy": 5734,
      "Ġgrab": 5735,
      "ĠAfrican": 5736,
      "Ġdisappe": 5737,
      "Ġheight": 5738,
      "Ġsuggested": 5739,
      "date": 5740,
      "Ġtelevision": 5741,
      "aching": 5742,
      "Ġidentified": 5743,
      "ython": 5744,
      "Ġliterally": 5745,
      "Ġisol": 5746,
      "Ġnormally": 5747,
      "Ġstood": 5748,
      "Ġsharing": 5749,
      "Ġcolon": 5750,
      "Ġfing": 5751,
      "Ġmoves": 5752,
      "Ġvary": 5753,
      "cking": 5754,
      "Ġvacc": 5755,
      "going": 5756,
      "Ġsupported": 5757,
      "ĠUnion": 5758,
      "Ġmedium": 5759,
      "Who": 5760,
      "Ġunits": 5761,
      "Ġemphas": 5762,
      "âĢĺ": 5763,
      "Ġmoments": 5764,
      "Ġwrit": 5765,
      "lete": 5766,
      "ĠRepublican": 5767,
      "Ġwave": 5768,
      "ĠBre": 5769,
      "Ġdance": 5770,
      "Ġsmile": 5771,
      "Ġforth": 5772,
      "abled": 5773,
      "ĠHam": 5774,
      "Ġperfectly": 5775,
      "Ġmessages": 5776,
      "Ġfinish": 5777,
      "ashed": 5778,
      "Ġseat": 5779,
      "esides": 5780,
      "Ġgene": 5781,
      "IG": 5782,
      "Ġreaders": 5783,
      "nel": 5784,
      "Ġexplore": 5785,
      "Ġrevolution": 5786,
      "ĠMo": 5787,
      "Ġtasks": 5788,
      "!âĢĿ": 5789,
      "orthern": 5790,
      "Ġformed": 5791,
      "Americ": 5792,
      "Ġsquare": 5793,
      "ih": 5794,
      "Ġbrings": 5795,
      "RL": 5796,
      "Ġrepeated": 5797,
      "Ġfootball": 5798,
      "ĠCam": 5799,
      "ita": 5800,
      "iki": 5801,
      "Ġunable": 5802,
      "Ġunderstood": 5803,
      "ena": 5804,
      "hered": 5805,
      "enced": 5806,
      "data": 5807,
      "Ġconsequences": 5808,
      "ĠChristmas": 5809,
      "omic": 5810,
      "Gen": 5811,
      "itar": 5812,
      "Ġweekend": 5813,
      "Ġjustice": 5814,
      "Ġleadership": 5815,
      "Ġhorse": 5816,
      "ĠTake": 5817,
      "lines": 5818,
      "Ġresistance": 5819,
      "Ġnoise": 5820,
      "ĠDa": 5821,
      "aded": 5822,
      "ĠCenter": 5823,
      "Ġride": 5824,
      "Ġwine": 5825,
      "ĠMil": 5826,
      "Ġbath": 5827,
      "ortion": 5828,
      "Ġsan": 5829,
      "ĠJud": 5830,
      "Ġessentially": 5831,
      "bra": 5832,
      "ĠSal": 5833,
      "Ġbear": 5834,
      "Ġremote": 5835,
      "Ġsufficient": 5836,
      "urd": 5837,
      "erves": 5838,
      "Ġoccurs": 5839,
      "Ġbreast": 5840,
      "Ġadm": 5841,
      "Ġbattery": 5842,
      "pet": 5843,
      "SP": 5844,
      "Ġamounts": 5845,
      "Ġdrinking": 5846,
      "Ġpaint": 5847,
      "----------------": 5848,
      "Ġprecise": 5849,
      "Ġreasonable": 5850,
      "Ġsurprise": 5851,
      "ĠRight": 5852,
      "Ġproposed": 5853,
      "ĠDel": 5854,
      "ĠEr": 5855,
      "Ġbomb": 5856,
      "Ġstuck": 5857,
      "Ġequival": 5858,
      "ĠMary": 5859,
      "Ġnoted": 5860,
      "ollow": 5861,
      "Ġfif": 5862,
      "Ġautomatically": 5863,
      "cel": 5864,
      "cal": 5865,
      "ĠSecond": 5866,
      "ounter": 5867,
      "Id": 5868,
      "Ġcandidate": 5869,
      "Ġvideos": 5870,
      "Ġexplanation": 5871,
      "ĠRoman": 5872,
      "Ġappearance": 5873,
      "Ġaid": 5874,
      "Ġlistening": 5875,
      "Ġsustain": 5876,
      "Ġprocessing": 5877,
      "Ġposted": 5878,
      "Many": 5879,
      "Ġokay": 5880,
      "Ġrecognize": 5881,
      "Even": 5882,
      "Ġhabit": 5883,
      "ĠFriday": 5884,
      "Ġdram": 5885,
      "Ġinjury": 5886,
      "Ĥ¬": 5887,
      "Ġresulting": 5888,
      "Ġnegot": 5889,
      "Ġhunt": 5890,
      "Ġchart": 5891,
      "Ġcommunities": 5892,
      "Ġappoint": 5893,
      "ĠToday": 5894,
      "ĠSupp": 5895,
      "atural": 5896,
      "ĠTest": 5897,
      "dule": 5898,
      "Ġproceed": 5899,
      "Ġdinner": 5900,
      "coming": 5901,
      "Ġwire": 5902,
      "ĠTwitter": 5903,
      "ĠScience": 5904,
      "Ġinvolves": 5905,
      "Ġbrown": 5906,
      "ona": 5907,
      "}$": 5908,
      "Ġspin": 5909,
      "Ġspiritual": 5910,
      "Ġpossess": 5911,
      "Ġsurgery": 5912,
      "Out": 5913,
      "Ġlargely": 5914,
      "cknow": 5915,
      "Ġtherapy": 5916,
      "py": 5917,
      "inating": 5918,
      "Ġsevere": 5919,
      "fo": 5920,
      "Ġtechnique": 5921,
      "Ġescape": 5922,
      "Ġabuse": 5923,
      "58": 5924,
      "Ġfault": 5925,
      "Ġattend": 5926,
      "Ġskill": 5927,
      "Also": 5928,
      "Ġvent": 5929,
      "à¥": 5930,
      "water": 5931,
      "Ġtips": 5932,
      "oken": 5933,
      "Ġsequence": 5934,
      "ĠAtt": 5935,
      "CT": 5936,
      "inton": 5937,
      "ician": 5938,
      "Ġthin": 5939,
      "ĠMad": 5940,
      "Ġdesk": 5941,
      "ĠTimes": 5942,
      "Ġdegrees": 5943,
      "ching": 5944,
      "ellect": 5945,
      "Ġphenomen": 5946,
      "Where": 5947,
      "Ġextent": 5948,
      "Ġvan": 5949,
      "Ġsight": 5950,
      "Ġexternal": 5951,
      "Ġloud": 5952,
      "800": 5953,
      "then": 5954,
      "********": 5955,
      "Ġagreed": 5956,
      "dis": 5957,
      "Ġvul": 5958,
      "Ġcombined": 5959,
      "Ġgoods": 5960,
      "uls": 5961,
      "ĠJews": 5962,
      "rage": 5963,
      "pic": 5964,
      "Ġencourage": 5965,
      "Ġstruggle": 5966,
      "ĠDepartment": 5967,
      "ĠEgypt": 5968,
      "Ġupper": 5969,
      "iat": 5970,
      "Ġchannel": 5971,
      "ructions": 5972,
      "rant": 5973,
      "Ġoccasion": 5974,
      "Ġadults": 5975,
      "Ġbeauty": 5976,
      "wing": 5977,
      "Ġsuc": 5978,
      "adow": 5979,
      "hesis": 5980,
      "ĠInternational": 5981,
      "Ġyounger": 5982,
      "ĠJoe": 5983,
      "oma": 5984,
      "Ġorg": 5985,
      "reens": 5986,
      "Type": 5987,
      "Ġpassion": 5988,
      "ĠPeter": 5989,
      "uting": 5990,
      "Ġguard": 5991,
      "Ġhasn": 5992,
      "aning": 5993,
      "ĠĠĠĠĠĠĠĠĠĠĠĠĠĠĠĠĠĠĠ": 5994,
      "oin": 5995,
      "ĠSunday": 5996,
      "bel": 5997,
      "Ġmail": 5998,
      "ye": 5999,
      "Ġgenes": 6000,
      "odd": 6001,
      "aph": 6002,
      "ĠBas": 6003,
      "Ġreturns": 6004,
      "Ġargue": 6005,
      "Ġprofile": 6006,
      "Rec": 6007,
      "Ġcommonly": 6008,
      "inking": 6009,
      "Ġalt": 6010,
      "Ġvolunt": 6011,
      "Ġbusy": 6012,
      "ĠOpen": 6013,
      "Ġpayment": 6014,
      "ĠFrank": 6015,
      "Ġliked": 6016,
      "Ġrom": 6017,
      "Ġresearchers": 6018,
      "Ġfundamental": 6019,
      "ceived": 6020,
      "Ġgather": 6021,
      "Ġartist": 6022,
      "Ġcreates": 6023,
      "ĠBack": 6024,
      "Ġcompre": 6025,
      "Ġlaugh": 6026,
      "66": 6027,
      "rete": 6028,
      "Phone": 6029,
      "DA": 6030,
      "Ġbread": 6031,
      "Ġhole": 6032,
      "cers": 6033,
      "ĠFin": 6034,
      "Ġmerely": 6035,
      "Ġofficer": 6036,
      "isher": 6037,
      "acc": 6038,
      "Ġexplains": 6039,
      "Ġhydro": 6040,
      "Ġfasc": 6041,
      "efully": 6042,
      "Ġspring": 6043,
      "Ġdisci": 6044,
      "Anonymous": 6045,
      "Ġcab": 6046,
      "Ġvirtual": 6047,
      "Ġacts": 6048,
      "Ġspr": 6049,
      "Ġstorm": 6050,
      "Ġremaining": 6051,
      "Ġconven": 6052,
      "Ġsuffering": 6053,
      "Ġchest": 6054,
      "Ġcomplicated": 6055,
      "osal": 6056,
      "List": 6057,
      "icity": 6058,
      "fast": 6059,
      "des": 6060,
      "ĠProf": 6061,
      "TS": 6062,
      "IA": 6063,
      "Ġanxiety": 6064,
      "Ġassert": 6065,
      "Ġrevealed": 6066,
      "Ġarrived": 6067,
      "ĠJim": 6068,
      "ĠDet": 6069,
      "Ġlanguages": 6070,
      "Ġforgot": 6071,
      "ĠMiss": 6072,
      "Ġinstit": 6073,
      "Ġroutine": 6074,
      "itutional": 6075,
      "hent": 6076,
      "Ġborder": 6077,
      "ĠTexas": 6078,
      "cked": 6079,
      "ĠCath": 6080,
      "alian": 6081,
      "Ġmedicine": 6082,
      "Ġyield": 6083,
      "Ġpil": 6084,
      "ville": 6085,
      "Ġevening": 6086,
      "bits": 6087,
      "Ġcolors": 6088,
      "ĠTop": 6089,
      "Ġresist": 6090,
      "Ġcream": 6091,
      "inations": 6092,
      "Ġconvin": 6093,
      "Ġpassword": 6094,
      "Ġdefine": 6095,
      "Ġperman": 6096,
      "plate": 6097,
      "rep": 6098,
      "ĠBro": 6099,
      "Ġblind": 6100,
      "Ġtalked": 6101,
      "Ġsession": 6102,
      "zing": 6103,
      "Ġnaturally": 6104,
      "Ġchair": 6105,
      "Ġfeedback": 6106,
      "Ġmainly": 6107,
      "pal": 6108,
      "Ġmac": 6109,
      "Ġconvention": 6110,
      "Ġasks": 6111,
      "Ġgrown": 6112,
      "Ġcomparison": 6113,
      "Once": 6114,
      "Ġ==": 6115,
      "ano": 6116,
      "Since": 6117,
      "Ġlaunch": 6118,
      "Ġmachines": 6119,
      "ns": 6120,
      "Ġdealing": 6121,
      "Ġheads": 6122,
      "Ġreader": 6123,
      "Ġstores": 6124,
      "ĠPerhaps": 6125,
      "Ġvaluable": 6126,
      "Ġcomponent": 6127,
      "Ġacknow": 6128,
      "ĠQue": 6129,
      "Ġwalls": 6130,
      "uous": 6131,
      "Ġbutter": 6132,
      "oding": 6133,
      "Ġlights": 6134,
      "Ġdepth": 6135,
      "Ġsubt": 6136,
      "Ġdetailed": 6137,
      "Ġcrew": 6138,
      "abetes": 6139,
      "ĠIsland": 6140,
      "Ġreject": 6141,
      "Ġaside": 6142,
      "ĠSil": 6143,
      "lements": 6144,
      "Ġsurvive": 6145,
      "Ġpractical": 6146,
      "ĠOld": 6147,
      "Up": 6148,
      "Ġru": 6149,
      "Ġhidden": 6150,
      "Ġje": 6151,
      "Ġconsistent": 6152,
      "Ġsoldiers": 6153,
      "Ġspell": 6154,
      "!!!": 6155,
      "Ġagent": 6156,
      "ĠTre": 6157,
      "ĠAut": 6158,
      "Ġconsumer": 6159,
      "Ġhyper": 6160,
      "Ġdisapp": 6161,
      "^{": 6162,
      "Ġhat": 6163,
      "Ġacting": 6164,
      "Ġsolar": 6165,
      "ĠLast": 6166,
      "Ġglad": 6167,
      "ibilities": 6168,
      "pack": 6169,
      "BS": 6170,
      "Ġtag": 6171,
      "Ġpump": 6172,
      "ressive": 6173,
      "atar": 6174,
      "Ġgonna": 6175,
      "Ġeverybody": 6176,
      "Over": 6177,
      "Ġtox": 6178,
      "taining": 6179,
      "Te": 6180,
      "Ġboost": 6181,
      "ette": 6182,
      "ï¼": 6183,
      "uated": 6184,
      "Ġgay": 6185,
      "ĠPower": 6186,
      "Ġlatter": 6187,
      "page": 6188,
      "Ġpurposes": 6189,
      "omething": 6190,
      "azine": 6191,
      "Ġappreciate": 6192,
      "ocolate": 6193,
      "Ġpicked": 6194,
      "Ġsoil": 6195,
      "Ġselection": 6196,
      "PR": 6197,
      "Ġdocuments": 6198,
      "anges": 6199,
      "Ġfinds": 6200,
      "Ġpotentially": 6201,
      "Ġtum": 6202,
      "sey": 6203,
      "Ġstands": 6204,
      "ĠHill": 6205,
      "ĠPress": 6206,
      "Ġcollabor": 6207,
      "Ġarguments": 6208,
      "ĠAgain": 6209,
      "Ġsucceed": 6210,
      "yan": 6211,
      "Ġsubstant": 6212,
      "resents": 6213,
      "weet": 6214,
      "dr": 6215,
      "ĠFurther": 6216,
      "Ġexcited": 6217,
      "Ġpositions": 6218,
      "________": 6219,
      "inst": 6220,
      "Ġknock": 6221,
      "Ġgenetic": 6222,
      "999": 6223,
      "Ġmeal": 6224,
      "Ġfilter": 6225,
      "pha": 6226,
      "hi": 6227,
      "Ġawesome": 6228,
      "Ġtheme": 6229,
      "ĠArch": 6230,
      "Ġvariable": 6231,
      "rd": 6232,
      "TH": 6233,
      "Ġsport": 6234,
      "Ġsale": 6235,
      "Ġsurprising": 6236,
      "ĠTim": 6237,
      "onic": 6238,
      "ĠDi": 6239,
      "Ġcarefully": 6240,
      "bert": 6241,
      "Sub": 6242,
      "Ġoffering": 6243,
      "Ġyesterday": 6244,
      "Ġconfidence": 6245,
      "Ġkitchen": 6246,
      "Ġenhance": 6247,
      "Ġdomain": 6248,
      "Ġath": 6249,
      "aser": 6250,
      "apes": 6251,
      "celer": 6252,
      "Ġimmune": 6253,
      "Ġrac": 6254,
      "bor": 6255,
      "Ġfrequency": 6256,
      "ĠSmith": 6257,
      "Ġreferred": 6258,
      "Spe": 6259,
      "hemat": 6260,
      "Ġforever": 6261,
      "Ġdiscussed": 6262,
      "ican": 6263,
      "Ġmath": 6264,
      "Ġmyth": 6265,
      "elf": 6266,
      "Ġjoy": 6267,
      "lets": 6268,
      "ĠPlan": 6269,
      "Ġscream": 6270,
      "Ġpin": 6271,
      "Per": 6272,
      "Ġexperts": 6273,
      "Ġoxy": 6274,
      "Ġillness": 6275,
      "mes": 6276,
      "Ġexposure": 6277,
      "ĠCap": 6278,
      "Ġassign": 6279,
      "59": 6280,
      "ua": 6281,
      "Ġera": 6282,
      "Ġmuscles": 6283,
      "Ġcro": 6284,
      "ĠVir": 6285,
      "Go": 6286,
      "Ġgender": 6287,
      "Ġfab": 6288,
      "Ġobtain": 6289,
      "Ġchosen": 6290,
      "Ġgotten": 6291,
      "Ġdrag": 6292,
      "Ġcock": 6293,
      "Ġinteract": 6294,
      "Ġshif": 6295,
      "Ġessay": 6296,
      "Ġstrategies": 6297,
      "ifies": 6298,
      "they": 6299,
      "Ġbringing": 6300,
      "ĠResearch": 6301,
      "Ġprocedure": 6302,
      "onent": 6303,
      "Ġmistake": 6304,
      "Ġcorporate": 6305,
      "Ġdoctors": 6306,
      "Ġinfection": 6307,
      "Ġtired": 6308,
      "Ġholds": 6309,
      "Ġstom": 6310,
      "ĠScott": 6311,
      "Ġsle": 6312,
      "Ġeggs": 6313,
      "Ġlinked": 6314,
      "Ġske": 6315,
      "Ġarray": 6316,
      "cend": 6317,
      "ĠAmazon": 6318,
      "Ġrestaurant": 6319,
      "Ġvirus": 6320,
      "ĠLou": 6321,
      "ĠAssoci": 6322,
      "Ġrisks": 6323,
      "raction": 6324,
      "Ġassets": 6325,
      "sl": 6326,
      "ĠTHE": 6327,
      "Ġdisag": 6328,
      "bi": 6329,
      "appy": 6330,
      "apped": 6331,
      "Because": 6332,
      "Ġextract": 6333,
      "Ġlikes": 6334,
      "Ġpassing": 6335,
      "Ġconsumption": 6336,
      "Ġstone": 6337,
      "Ġdepression": 6338,
      "function": 6339,
      "Ġemotions": 6340,
      "Ġconsumers": 6341,
      "Ġgenerated": 6342,
      "Ġsplit": 6343,
      "Ġoccurred": 6344,
      "Ġneut": 6345,
      "ĠKeep": 6346,
      "andon": 6347,
      "}\\": 6348,
      "ĠEU": 6349,
      "run": 6350,
      "?)": 6351,
      "Ġreplaced": 6352,
      "Ġletters": 6353,
      "gent": 6354,
      "ystem": 6355,
      "Ġwal": 6356,
      "Ġrecommended": 6357,
      "Ġsees": 6358,
      "Ġsmoke": 6359,
      "Ġweapon": 6360,
      "Ġdistrict": 6361,
      "oman": 6362,
      "race": 6363,
      "Ġcoord": 6364,
      "ployment": 6365,
      "Ġsector": 6366,
      "ample": 6367,
      "Ġbell": 6368,
      "Ġstructures": 6369,
      "Ġdiseases": 6370,
      "Ġnations": 6371,
      "52": 6372,
      "Ġofficers": 6373,
      "ĠIns": 6374,
      "Ġreward": 6375,
      "Ġadvoc": 6376,
      "Ġintention": 6377,
      "ĠFree": 6378,
      "Ġmanip": 6379,
      "adian": 6380,
      "Ġnom": 6381,
      "87": 6382,
      "long": 6383,
      "ĠHT": 6384,
      "cific": 6385,
      "ographic": 6386,
      "PC": 6387,
      "Ġrepresents": 6388,
      "Ġspoke": 6389,
      "QL": 6390,
      "Ġmoon": 6391,
      "ĠPhil": 6392,
      "Â°": 6393,
      "Ð¸": 6394,
      "ĠBible": 6395,
      "izer": 6396,
      "iller": 6397,
      "iger": 6398,
      "Ġadop": 6399,
      "Ġimproved": 6400,
      "Ġdropped": 6401,
      "greg": 6402,
      "orney": 6403,
      "Ġkiss": 6404,
      "Ġplate": 6405,
      "Ġfalling": 6406,
      "Ġquarter": 6407,
      "Ġatmosphere": 6408,
      "Ġshooting": 6409,
      "Ġwidely": 6410,
      "Ġexception": 6411,
      "ĠYeah": 6412,
      "ĠSing": 6413,
      "Back": 6414,
      "Ġemployee": 6415,
      "Ġsomebody": 6416,
      "pected": 6417,
      "Ġfro": 6418,
      "Ġopposed": 6419,
      "Med": 6420,
      "Ġnetworks": 6421,
      "Ġwheel": 6422,
      "Ġcommitted": 6423,
      "whel": 6424,
      "Ġiniti": 6425,
      "Ġunknown": 6426,
      "Ġpersonally": 6427,
      "ears": 6428,
      "Ġyouth": 6429,
      "atus": 6430,
      "Ġcraft": 6431,
      "ĠBob": 6432,
      "Ġauthors": 6433,
      "test": 6434,
      "Ġfellow": 6435,
      "bles": 6436,
      "Ġhardware": 6437,
      "Ġbroke": 6438,
      "ĠSk": 6439,
      "Ġplug": 6440,
      "Ġnative": 6441,
      "Ġcharges": 6442,
      "Ġtail": 6443,
      "nam": 6444,
      "Ġthousand": 6445,
      "Ġexposed": 6446,
      "Ġorigin": 6447,
      "Ġfinger": 6448,
      "ĠBer": 6449,
      "Ġeverywhere": 6450,
      "ĠRev": 6451,
      "Ġax": 6452,
      "ĠList": 6453,
      "ĠCoun": 6454,
      "Ġmixed": 6455,
      "Ġhang": 6456,
      "Ġcontrolled": 6457,
      "51": 6458,
      "Ġlogic": 6459,
      "Last": 6460,
      "Ġwinning": 6461,
      "oral": 6462,
      "Ġcareful": 6463,
      "Ġcategory": 6464,
      "ĠVol": 6465,
      "Ġdivid": 6466,
      "wered": 6467,
      "Ġcontem": 6468,
      "Ġfigures": 6469,
      "ĠIT": 6470,
      "post": 6471,
      "ĠRead": 6472,
      "Ġexhib": 6473,
      "Ġclar": 6474,
      "Ġequivalent": 6475,
      "osm": 6476,
      "aren": 6477,
      "oration": 6478,
      "Ġinterface": 6479,
      "ĠBefore": 6480,
      "')": 6481,
      "Ġfeat": 6482,
      "ĠRock": 6483,
      "Val": 6484,
      "Ġtables": 6485,
      "600": 6486,
      "Ġrecorded": 6487,
      "obe": 6488,
      "Ġcomputers": 6489,
      "iform": 6490,
      "IR": 6491,
      "Ġconclusion": 6492,
      "tw": 6493,
      "Ġstronger": 6494,
      "Am": 6495,
      "ĠMa": 6496,
      "ĠUN": 6497,
      "Ġincreasingly": 6498,
      "rastructure": 6499,
      "ĠGreek": 6500,
      "Ġcharged": 6501,
      "Ġintellect": 6502,
      "ĠData": 6503,
      "ĠTor": 6504,
      "ĠSecurity": 6505,
      "Ġingredients": 6506,
      "ĠRobert": 6507,
      "ĠRE": 6508,
      "Ġreviews": 6509,
      "LA": 6510,
      "Ġcere": 6511,
      "Ġresource": 6512,
      "ĠAD": 6513,
      "150": 6514,
      "Ġoriginally": 6515,
      "Ġnobody": 6516,
      "Ġhook": 6517,
      "allow": 6518,
      "born": 6519,
      "Ġdecent": 6520,
      "cluding": 6521,
      "PM": 6522,
      "Ġapps": 6523,
      "Other": 6524,
      "Ġterrible": 6525,
      "Ġeditor": 6526,
      "ĠKorea": 6527,
      "Ġclassic": 6528,
      "Ġpointed": 6529,
      "Ġdepartment": 6530,
      "ĠMiddle": 6531,
      "Ġbacteria": 6532,
      "Ġinner": 6533,
      "ulture": 6534,
      "Ġbone": 6535,
      "Ġintent": 6536,
      "Ġratio": 6537,
      "990": 6538,
      "Ġprinciple": 6539,
      "ala": 6540,
      "Ġincorpor": 6541,
      "Ġpromote": 6542,
      "Ġobtained": 6543,
      "ĠPR": 6544,
      "Ġtact": 6545,
      "Ã¢": 6546,
      "Ġprinciples": 6547,
      "ĠFore": 6548,
      "ansion": 6549,
      "Ġgarden": 6550,
      "Ġcompare": 6551,
      "Ġhide": 6552,
      "Ġenforce": 6553,
      "Ġvib": 6554,
      "Ġsuffer": 6555,
      "Ġdecade": 6556,
      "Ġswim": 6557,
      "Ġwondering": 6558,
      "Ġblame": 6559,
      "Ġtissue": 6560,
      "ĠJer": 6561,
      "Ġjoined": 6562,
      "hips": 6563,
      "Rep": 6564,
      "Ġgift": 6565,
      "amily": 6566,
      "Ġannoy": 6567,
      "ildren": 6568,
      "Ġemergency": 6569,
      "ifications": 6570,
      "Ġcoast": 6571,
      "ĉĉĉĉ": 6572,
      "orters": 6573,
      "ĠPet": 6574,
      "Ġyellow": 6575,
      "rip": 6576,
      "PA": 6577,
      "Ġtor": 6578,
      "Ġillustr": 6579,
      "Ġartists": 6580,
      "lege": 6581,
      "Ġriver": 6582,
      "arl": 6583,
      "Ġtall": 6584,
      "Ġpercentage": 6585,
      "Ġboss": 6586,
      "Ġdelic": 6587,
      "zed": 6588,
      "ĠWall": 6589,
      "div": 6590,
      "53": 6591,
      "ĠÂ£": 6592,
      "Ġregist": 6593,
      "ÂłÂłĊ": 6594,
      "Ġcutting": 6595,
      "ĠBest": 6596,
      "Ġtrading": 6597,
      "Ġlegit": 6598,
      "Ġregardless": 6599,
      "Wr": 6600,
      "ĠLove": 6601,
      "ĠHy": 6602,
      "claim": 6603,
      "Ġangry": 6604,
      "SE": 6605,
      "Ġfingers": 6606,
      "Ġvulner": 6607,
      "etry": 6608,
      "Ġregions": 6609,
      "isters": 6610,
      "ideo": 6611,
      "Ġcombat": 6612,
      "Ġmissed": 6613,
      "Monday": 6614,
      "Ġtrib": 6615,
      "code": 6616,
      "herent": 6617,
      "Ġtank": 6618,
      "Ġlimits": 6619,
      "Ġproud": 6620,
      "Ġchief": 6621,
      "Data": 6622,
      "ĠBritain": 6623,
      "Ġadmit": 6624,
      "Ġbeliefs": 6625,
      "Ġincident": 6626,
      "Ġprogramming": 6627,
      "Ġrevenue": 6628,
      "ola": 6629,
      "Ġsaved": 6630,
      "Ġcoverage": 6631,
      "ether": 6632,
      "otal": 6633,
      "Ġhouses": 6634,
      "Ġ*/": 6635,
      "Ġhadn": 6636,
      "Ġregularly": 6637,
      "Ġconfir": 6638,
      "ĠClass": 6639,
      "Ġgrav": 6640,
      "Ġshoes": 6641,
      "asm": 6642,
      "Ġsole": 6643,
      "Ġnewsp": 6644,
      "aa": 6645,
      "aws": 6646,
      "Ġhorm": 6647,
      "Ġstomach": 6648,
      "Ġindu": 6649,
      "angle": 6650,
      "ĠMonday": 6651,
      "Ġtransition": 6652,
      "ÂłÂłÂłÂłÂłÂłÂłÂłÂłÂłÂłÂłÂłÂłÂłÂł": 6653,
      "Ġclock": 6654,
      "ĠRepublicans": 6655,
      "Ġsuit": 6656,
      "grade": 6657,
      "stein": 6658,
      "ilit": 6659,
      "Ġdivers": 6660,
      "ĠBrown": 6661,
      "ĠDemocrats": 6662,
      "Ġsubsequ": 6663,
      "Ġseeking": 6664,
      "lder": 6665,
      "ĠMcC": 6666,
      "size": 6667,
      "Ġfacing": 6668,
      "https": 6669,
      "Ġinstitutions": 6670,
      "Ġdad": 6671,
      "Ġtries": 6672,
      "ĠClinton": 6673,
      "Ġtechnologies": 6674,
      "ĠSup": 6675,
      "icago": 6676,
      "Ġgiant": 6677,
      "Ġtrend": 6678,
      "kins": 6679,
      "inder": 6680,
      "ura": 6681,
      "Mod": 6682,
      "ologist": 6683,
      "ÑĤ": 6684,
      "Ġbon": 6685,
      "ĠUsing": 6686,
      "ĠBank": 6687,
      "Ġped": 6688,
      "Ġprimarily": 6689,
      "Ġoutcome": 6690,
      "Ġbreaking": 6691,
      "Ġputs": 6692,
      "ĠSol": 6693,
      "Ġroute": 6694,
      "Ġassemb": 6695,
      "Ġsubs": 6696,
      "ilty": 6697,
      "Ġcompleted": 6698,
      "aine": 6699,
      "Ġdisappoint": 6700,
      "Ġsubsc": 6701,
      "Ġschedule": 6702,
      "Ġinvestigation": 6703,
      "Ġagency": 6704,
      "Ġbuildings": 6705,
      "Ġannounced": 6706,
      "Ġportion": 6707,
      "ĠFire": 6708,
      "Ġtone": 6709,
      "Ġselected": 6710,
      "Ġsensitive": 6711,
      "tenance": 6712,
      "ĠFlor": 6713,
      "who": 6714,
      "Ġlaug": 6715,
      "Ġstored": 6716,
      "Ġefficiency": 6717,
      "Ġtested": 6718,
      "Ġgrass": 6719,
      "ĠMen": 6720,
      "Ġchicken": 6721,
      "ruption": 6722,
      "ghan": 6723,
      "Ġbat": 6724,
      "anta": 6725,
      "pass": 6726,
      "umps": 6727,
      "ĠId": 6728,
      "Ġclosely": 6729,
      "Ġmad": 6730,
      "icide": 6731,
      "Ġunw": 6732,
      "inks": 6733,
      "anned": 6734,
      "ĠJava": 6735,
      "Ġsigned": 6736,
      "Ġhall": 6737,
      "pring": 6738,
      "stract": 6739,
      "Ġflying": 6740,
      "ca": 6741,
      "ĠUnfortunately": 6742,
      "Ġdust": 6743,
      "Ġindustrial": 6744,
      "lla": 6745,
      "ĠSpanish": 6746,
      "ĠâĪ": 6747,
      "comfort": 6748,
      "Ġhung": 6749,
      "Comp": 6750,
      "ints": 6751,
      "Ġsacr": 6752,
      "ĠÂłĠÂłĠÂłĠÂł": 6753,
      "inity": 6754,
      "Ġindicate": 6755,
      "Ġrarely": 6756,
      "ĠSand": 6757,
      "Ġcrucial": 6758,
      "Ġlit": 6759,
      "Ġtoler": 6760,
      "Ġcooking": 6761,
      "Ġliterature": 6762,
      "Wednesday": 6763,
      "Ġraw": 6764,
      "According": 6765,
      "Ġinnoc": 6766,
      "Ġstro": 6767,
      "Ġvotes": 6768,
      "ifest": 6769,
      "ĠGovernment": 6770,
      "Ġuniversity": 6771,
      "aze": 6772,
      "Ġdish": 6773,
      "Ġfool": 6774,
      "Ġbelieves": 6775,
      "Ġvisible": 6776,
      "ishment": 6777,
      "Ġfunding": 6778,
      "Ġmood": 6779,
      "Ġinvent": 6780,
      "Ġenjoyed": 6781,
      "Ġinteraction": 6782,
      "Ġinfo": 6783,
      "ptions": 6784,
      "ĠNever": 6785,
      "press": 6786,
      "Ġsupporting": 6787,
      "ĠAbout": 6788,
      "Ġstreets": 6789,
      "Gr": 6790,
      "ayers": 6791,
      "Ġsettings": 6792,
      "Ġvictims": 6793,
      "Ġparameters": 6794,
      "Ġimper": 6795,
      "ĠFre": 6796,
      "Ġclaimed": 6797,
      "RI": 6798,
      "Ġhypot": 6799,
      "sect": 6800,
      "Ġwake": 6801,
      "Although": 6802,
      "ota": 6803,
      "Ġwhenever": 6804,
      "user": 6805,
      "Ġversions": 6806,
      "Ġquote": 6807,
      "Ġelectricity": 6808,
      "van": 6809,
      "ĠSum": 6810,
      "Ġvehicles": 6811,
      "Ġemotion": 6812,
      "Ġgent": 6813,
      "Ġoverwhel": 6814,
      "Ġwet": 6815,
      "gend": 6816,
      "Ġflag": 6817,
      "Tuesday": 6818,
      "sters": 6819,
      "Ġmechanism": 6820,
      "ĠLong": 6821,
      "ports": 6822,
      "Thanks": 6823,
      "Ġyeah": 6824,
      "Ġelev": 6825,
      "Ġabandon": 6826,
      "ä¸": 6827,
      "Ġstatic": 6828,
      "Ġpersonality": 6829,
      "Ġconfident": 6830,
      "Ġdelivery": 6831,
      "Ġattempts": 6832,
      "erring": 6833,
      "Ġvoid": 6834,
      "Ġresolution": 6835,
      "Ġretail": 6836,
      "Ġoxygen": 6837,
      "edding": 6838,
      "Ġcharacteristics": 6839,
      "ĠIr": 6840,
      "ĠService": 6841,
      "Ġgovernments": 6842,
      "Ġcorrectly": 6843,
      "agram": 6844,
      "Ġexpressed": 6845,
      "burg": 6846,
      "ĠBlog": 6847,
      "Ġchapter": 6848,
      "ĠDevelop": 6849,
      "Ġmyst": 6850,
      "Ġvillage": 6851,
      "Ġscenes": 6852,
      "John": 6853,
      "Ġlisted": 6854,
      "uine": 6855,
      "Like": 6856,
      "Ġinvestors": 6857,
      "Ġnose": 6858,
      "Ġending": 6859,
      "Ġsending": 6860,
      "Ġentered": 6861,
      "Inst": 6862,
      "itis": 6863,
      "ĠWil": 6864,
      "SC": 6865,
      "ĠBur": 6866,
      "utation": 6867,
      "ĠNor": 6868,
      "Ġprompt": 6869,
      "Ġextended": 6870,
      "ĠMem": 6871,
      "rich": 6872,
      "Ġdelay": 6873,
      "Ġshopping": 6874,
      "BA": 6875,
      "rive": 6876,
      "ogy": 6877,
      "cr": 6878,
      "return": 6879,
      "Ġhousehold": 6880,
      "Ġguns": 6881,
      "Ġchose": 6882,
      "Ġplain": 6883,
      "ĠAT": 6884,
      "About": 6885,
      "Ġpromise": 6886,
      "uct": 6887,
      "Ġagents": 6888,
      "gage": 6889,
      "Ġhoping": 6890,
      "eting": 6891,
      "Ġstable": 6892,
      "Ġbirds": 6893,
      "ĠFound": 6894,
      "Ġridic": 6895,
      "var": 6896,
      "Ġtwenty": 6897,
      "acle": 6898,
      "Ġtea": 6899,
      "Ġdomin": 6900,
      "ĠWater": 6901,
      "Ġexclus": 6902,
      "Ġdollar": 6903,
      "anna": 6904,
      "Ġstack": 6905,
      "Ġpenal": 6906,
      "54": 6907,
      "ificial": 6908,
      "Ġstatements": 6909,
      "67": 6910,
      "ĠHuman": 6911,
      "Ġocean": 6912,
      "ĠAnswer": 6913,
      "ĠFranc": 6914,
      "ĠMexico": 6915,
      "igen": 6916,
      "orough": 6917,
      "Ġvariables": 6918,
      "Ġreprodu": 6919,
      "Ġrational": 6920,
      "Ġrow": 6921,
      "Ġscenario": 6922,
      "inem": 6923,
      "Ġadopt": 6924,
      "Ġbeer": 6925,
      "Ġprepare": 6926,
      "Ġinspir": 6927,
      "Ġwindows": 6928,
      "xual": 6929,
      "Ġapproximately": 6930,
      "Ġunus": 6931,
      "ĠCounty": 6932,
      "String": 6933,
      "ĠJournal": 6934,
      "Ġretire": 6935,
      "parent": 6936,
      "Ġreducing": 6937,
      "Ġgall": 6938,
      "âĢĻ.": 6939,
      "ycl": 6940,
      "teen": 6941,
      "Ġdeeper": 6942,
      "Ġpill": 6943,
      "Ġstrict": 6944,
      "ĠiPhone": 6945,
      "allel": 6946,
      "eline": 6947,
      "ĠVis": 6948,
      "Ġcontribute": 6949,
      "Che": 6950,
      "ĠHen": 6951,
      "Ġvital": 6952,
      "ĠLear": 6953,
      "olit": 6954,
      "ferent": 6955,
      "ĠOK": 6956,
      "aniel": 6957,
      "Ġinfrastructure": 6958,
      "apse": 6959,
      "orted": 6960,
      "Ġorders": 6961,
      "http": 6962,
      "IF": 6963,
      "Ġpig": 6964,
      "Friday": 6965,
      "Ġattached": 6966,
      "Ġinstalled": 6967,
      "Ġinstructions": 6968,
      "Sec": 6969,
      "Ġshell": 6970,
      "Ġignore": 6971,
      "Ġlunch": 6972,
      "Ġcheese": 6973,
      "agement": 6974,
      "ĠDev": 6975,
      "ĠNote": 6976,
      "Ġremained": 6977,
      "Ġsurrounding": 6978,
      "ĠHarry": 6979,
      "isted": 6980,
      "Ġcandidates": 6981,
      "Thursday": 6982,
      "gal": 6983,
      "DF": 6984,
      "lean": 6985,
      "980": 6986,
      "ĠMer": 6987,
      "Ġneighborhood": 6988,
      "Ġdestroyed": 6989,
      "Ġdiam": 6990,
      "ĠRad": 6991,
      "omin": 6992,
      "ĠNov": 6993,
      "Ġminds": 6994,
      "Ġlifest": 6995,
      "Ġmetab": 6996,
      "Ġzone": 6997,
      "Ġdreams": 6998,
      "Ġrecovery": 6999,
      "Ġcontrols": 7000,
      "Ġfaces": 7001,
      "emic": 7002,
      "ĠMass": 7003,
      "Ġloans": 7004,
      "fit": 7005,
      "Ġauto": 7006,
      "Ġmand": 7007,
      "ĠCP": 7008,
      "ket": 7009,
      "Ġrein": 7010,
      "Ġfulf": 7011,
      "Ġprosec": 7012,
      "Ġliberal": 7013,
      "nic": 7014,
      "Ġstrike": 7015,
      "Ġpushed": 7016,
      "Ġgrade": 7017,
      "ĠVe": 7018,
      "Ġwra": 7019,
      "haust": 7020,
      "duc": 7021,
      "va": 7022,
      "Ġboat": 7023,
      "Ġwrites": 7024,
      "comm": 7025,
      "anny": 7026,
      "ĠStill": 7027,
      "ĠWould": 7028,
      "========": 7029,
      "ĠEmp": 7030,
      "there": 7031,
      "const": 7032,
      "Ġrig": 7033,
      "jection": 7034,
      "tending": 7035,
      "Ġblow": 7036,
      "ĠAnn": 7037,
      "Ġcapture": 7038,
      "Ġaudio": 7039,
      "eless": 7040,
      "ĠMel": 7041,
      "Ġrecon": 7042,
      "DP": 7043,
      "Ġantib": 7044,
      "angers": 7045,
      "ĠHol": 7046,
      "path": 7047,
      "person": 7048,
      "Ġattitude": 7049,
      "Ġvoters": 7050,
      "Ġexplo": 7051,
      "car": 7052,
      "Ġsurvey": 7053,
      "ĠCentral": 7054,
      "Ġdepos": 7055,
      "ushed": 7056,
      "Sim": 7057,
      "Ġwelcome": 7058,
      "nce": 7059,
      "BI": 7060,
      "Ġworried": 7061,
      "Ġdesper": 7062,
      "Ġnic": 7063,
      "edit": 7064,
      "Ġsuccessfully": 7065,
      "ĠFlorida": 7066,
      "Ġestate": 7067,
      "ĠGal": 7068,
      "ÙĦ": 7069,
      "Related": 7070,
      "Ġves": 7071,
      "Ġimmediate": 7072,
      "Ġconservative": 7073,
      "start": 7074,
      "Ġflash": 7075,
      "Ġconference": 7076,
      "etime": 7077,
      "Ġdemocracy": 7078,
      "ÃŃ": 7079,
      "ĠPak": 7080,
      "pan": 7081,
      "Ġtort": 7082,
      "####": 7083,
      "Ġdriven": 7084,
      "useum": 7085,
      "ĠSar": 7086,
      "Ġintense": 7087,
      "ĠFinally": 7088,
      "%.": 7089,
      "MA": 7090,
      "Ġwhereas": 7091,
      "Ġtradition": 7092,
      "Ġadds": 7093,
      "Ġimplementation": 7094,
      "Ġinstrument": 7095,
      "eries": 7096,
      "Ġreply": 7097,
      "inet": 7098,
      "++": 7099,
      "ENT": 7100,
      "Ġannual": 7101,
      "ĠHell": 7102,
      "Ġfalls": 7103,
      "Ġerrors": 7104,
      "Ġincredibly": 7105,
      "Ġnine": 7106,
      "ĠWilliam": 7107,
      "ĠChange": 7108,
      "ĠHistory": 7109,
      "Ġconcepts": 7110,
      "Ġnarrow": 7111,
      "Ġcoal": 7112,
      "Ġdiabetes": 7113,
      "Ġchamp": 7114,
      "Ġmenu": 7115,
      "Ġsharp": 7116,
      "Ġwriters": 7117,
      "flow": 7118,
      "Ġads": 7119,
      "ĠStart": 7120,
      "erver": 7121,
      "uan": 7122,
      "Facebook": 7123,
      "Ġloose": 7124,
      "ĠSet": 7125,
      "lar": 7126,
      "Ġdevelopers": 7127,
      "lib": 7128,
      "Ġvo": 7129,
      "ĠPut": 7130,
      "ĠSuch": 7131,
      "quest": 7132,
      "Ġproport": 7133,
      "ston": 7134,
      "uilding": 7135,
      "Ġdraft": 7136,
      "Ġlicense": 7137,
      "Ġinfect": 7138,
      "Ġdeeply": 7139,
      "Ġcow": 7140,
      "Rem": 7141,
      "ras": 7142,
      "abs": 7143,
      "asty": 7144,
      "People": 7145,
      "Ġreduction": 7146,
      "ĠNext": 7147,
      "ĠShould": 7148,
      "Ġarrange": 7149,
      "Ġpoliticians": 7150,
      "Ġsty": 7151,
      "Ġtech": 7152,
      "draw": 7153,
      "zer": 7154,
      "Ġbridge": 7155,
      "Ġsuppose": 7156,
      "Ġopposition": 7157,
      "Ġappeal": 7158,
      "Ġorganic": 7159,
      "called": 7160,
      "Ġdepart": 7161,
      "Ġtomorrow": 7162,
      "ĠTem": 7163,
      "umin": 7164,
      "Ġfrustr": 7165,
      "Ġwis": 7166,
      "Ġengineering": 7167,
      "ĠSure": 7168,
      "Ġmeasured": 7169,
      "Ġchances": 7170,
      "Ġbeings": 7171,
      "Ġequally": 7172,
      "Ġphilosophy": 7173,
      "cluded": 7174,
      "ĠVer": 7175,
      "Ġconfused": 7176,
      "Ġelectronic": 7177,
      "Ġshel": 7178,
      "Ġlaun": 7179,
      "anes": 7180,
      "ĠSat": 7181,
      "Dr": 7182,
      "pel": 7183,
      "Ġdrawn": 7184,
      "Ġeveryday": 7185,
      "ĠAtl": 7186,
      "comes": 7187,
      "ĠComment": 7188,
      "Ġcalm": 7189,
      "ĠCheck": 7190,
      "Ġtrained": 7191,
      "Ġachieved": 7192,
      "Ġaccomp": 7193,
      "ĠThough": 7194,
      "Ġtroops": 7195,
      "Ġsurvival": 7196,
      "Ġgenuine": 7197,
      "Ġprotected": 7198,
      "Ġtalks": 7199,
      "Ġnerv": 7200,
      "ĠMS": 7201,
      "Ġflood": 7202,
      "Step": 7203,
      "ivered": 7204,
      "Ġrepair": 7205,
      "Ġcomprehens": 7206,
      "Ġawareness": 7207,
      "Ġplanned": 7208,
      "Ġchat": 7209,
      "udes": 7210,
      "ĠThomas": 7211,
      "Ġdomestic": 7212,
      "ĠÏ": 7213,
      "Ġsmoking": 7214,
      "Ġdict": 7215,
      "UN": 7216,
      "bered": 7217,
      "Ġpm": 7218,
      "Ġblocks": 7219,
      "ÂłĠ": 7220,
      "Ġbuff": 7221,
      "Ġpipe": 7222,
      "scape": 7223,
      "ĠNav": 7224,
      "ĠJeff": 7225,
      "ĠCat": 7226,
      "asters": 7227,
      "Ġcontaining": 7228,
      "Ġhealthcare": 7229,
      "Ġblank": 7230,
      "Ġtur": 7231,
      "Ġbless": 7232,
      "ĠWal": 7233,
      "Connect": 7234,
      "Time": 7235,
      "ĠMike": 7236,
      "Ġtip": 7237,
      "Ġheavily": 7238,
      "Ġsenior": 7239,
      "Ġrecru": 7240,
      "ĠSaturday": 7241,
      "Ġwarning": 7242,
      "Ġsau": 7243,
      "Ġcompens": 7244,
      "ĠMax": 7245,
      "Ġproteins": 7246,
      "Image": 7247,
      "ĠAsia": 7248,
      "Ġparticipants": 7249,
      "Ġbottle": 7250,
      "mat": 7251,
      "ĠSupreme": 7252,
      "}{": 7253,
      "rior": 7254,
      "Ġdrivers": 7255,
      "Ġacceler": 7256,
      "Ġfriendly": 7257,
      "noon": 7258,
      "Ġinsert": 7259,
      "rated": 7260,
      "Ġcommunicate": 7261,
      "ĠBay": 7262,
      "liament": 7263,
      "89": 7264,
      "Ġfavour": 7265,
      "inent": 7266,
      "even": 7267,
      "ĠCa": 7268,
      "Ġresponses": 7269,
      "Ġphrase": 7270,
      "Ã³": 7271,
      "ĠDist": 7272,
      ">>": 7273,
      "ĠSov": 7274,
      "asant": 7275,
      "Ġcurrency": 7276,
      "Ġhotel": 7277,
      "unning": 7278,
      "ĠElect": 7279,
      "Ġformal": 7280,
      "Ġauthent": 7281,
      "ĠGame": 7282,
      "Ġstrongly": 7283,
      "ĠSenate": 7284,
      "Ġjack": 7285,
      "Ġadvertising": 7286,
      "po": 7287,
      "ĠLu": 7288,
      "ĠOS": 7289,
      "Ġordered": 7290,
      "Ġclinical": 7291,
      "Ġhun": 7292,
      "Look": 7293,
      "ĠChicago": 7294,
      "Ġchocolate": 7295,
      "ba": 7296,
      "Ġstead": 7297,
      "ĠArmy": 7298,
      "roat": 7299,
      "Ġpul": 7300,
      "VER": 7301,
      "Ġtrigger": 7302,
      "ĠCatholic": 7303,
      "Ġmountain": 7304,
      "Ġcomplain": 7305,
      "Ġmovements": 7306,
      "Ġbehaviour": 7307,
      "Comm": 7308,
      "Ġresc": 7309,
      "ĠAfghan": 7310,
      "left": 7311,
      "Ġdating": 7312,
      "Ġwest": 7313,
      "value": 7314,
      "Ġguilty": 7315,
      "Ġconnections": 7316,
      "Ġbarely": 7317,
      "ĠAcc": 7318,
      "Ġwhis": 7319,
      "Ġans": 7320,
      "Ġmemories": 7321,
      "ĠPerson": 7322,
      "Ġtong": 7323,
      "Ġformula": 7324,
      "weight": 7325,
      "ĠGrand": 7326,
      "GB": 7327,
      "Ġcarrying": 7328,
      "Pre": 7329,
      "ixture": 7330,
      "Ġsched": 7331,
      "ĠFil": 7332,
      "ĠDown": 7333,
      "Ġbutt": 7334,
      "Ġalgorithm": 7335,
      "ĠItalian": 7336,
      "Ġenable": 7337,
      "coin": 7338,
      "ME": 7339,
      "ðŁ": 7340,
      "Ġrelief": 7341,
      "ikip": 7342,
      "ĠLight": 7343,
      "Ġsamples": 7344,
      "Ġmusical": 7345,
      "Ġcircle": 7346,
      "obs": 7347,
      "ĠParis": 7348,
      "Ġurban": 7349,
      "ounded": 7350,
      "ĠInstitute": 7351,
      "ĠJun": 7352,
      "ĠCouncil": 7353,
      "Ġprotest": 7354,
      "Ġ->": 7355,
      "ĠTry": 7356,
      "Ġburning": 7357,
      "Ġanger": 7358,
      "Ġfluid": 7359,
      "Ġdynamic": 7360,
      "enny": 7361,
      "Fl": 7362,
      "isco": 7363,
      "Ġgap": 7364,
      "Figure": 7365,
      "ĠSteve": 7366,
      "Ġformation": 7367,
      "hus": 7368,
      "Ġhousing": 7369,
      "Ġcig": 7370,
      "Ġguitar": 7371,
      "ĠBab": 7372,
      "Thank": 7373,
      "021": 7374,
      "Ġ/>": 7375,
      "Ñģ": 7376,
      "ught": 7377,
      "Ġunion": 7378,
      "Ġrely": 7379,
      "Ne": 7380,
      "orse": 7381,
      "ĠForm": 7382,
      "Ġusage": 7383,
      "Ġrecognized": 7384,
      "Today": 7385,
      "Ġnull": 7386,
      "df": 7387,
      "250": 7388,
      "Ġwaves": 7389,
      "essage": 7390,
      "Ġstimul": 7391,
      "nda": 7392,
      "Ġrefers": 7393,
      "Ġpit": 7394,
      "Ġsupports": 7395,
      "Ġviolent": 7396,
      "atell": 7397,
      "icy": 7398,
      "Ġdedicated": 7399,
      "plete": 7400,
      "Ġaward": 7401,
      "Ġrising": 7402,
      "Ġframework": 7403,
      "Ġexciting": 7404,
      "Ġcuts": 7405,
      "Ġcats": 7406,
      "Mar": 7407,
      "Ġlucky": 7408,
      "vy": 7409,
      "âĤ¬": 7410,
      "rypt": 7411,
      "CE": 7412,
      "gressive": 7413,
      "Ġmaintenance": 7414,
      "Ġfewer": 7415,
      "Ġlets": 7416,
      "Ġobjective": 7417,
      "Ġlocations": 7418,
      "Part": 7419,
      "Ġpayments": 7420,
      "ĠProject": 7421,
      "ĠMinister": 7422,
      "ĠDisc": 7423,
      "Ġexplos": 7424,
      "Ġshoulder": 7425,
      "Ġlapt": 7426,
      "Ġbother": 7427,
      "Ġobst": 7428,
      "Ġenemies": 7429,
      "Ġminim": 7430,
      "(\\": 7431,
      "Ġexhaust": 7432,
      "Ġlun": 7433,
      "ĠReal": 7434,
      "Ġhits": 7435,
      "Ġhardly": 7436,
      "Ġproven": 7437,
      "ikipedia": 7438,
      "prise": 7439,
      "ĠGroup": 7440,
      "ĠPage": 7441,
      "Ġacademic": 7442,
      "ĠFederal": 7443,
      "azz": 7444,
      "cest": 7445,
      "obile": 7446,
      "istent": 7447,
      "onents": 7448,
      "Ġfourth": 7449,
      "Ġsurf": 7450,
      "Ġpounds": 7451,
      "Ġletting": 7452,
      "Ġoperate": 7453,
      "Reg": 7454,
      "Ġrecipe": 7455,
      "CD": 7456,
      "umes": 7457,
      "ĠMember": 7458,
      "usal": 7459,
      "ĠEnd": 7460,
      "Ġcontrovers": 7461,
      "ĠFigure": 7462,
      "vin": 7463,
      "ocratic": 7464,
      "ãĤ": 7465,
      "ÑĢ": 7466,
      "ãĥ": 7467,
      "Ġunex": 7468,
      "fol": 7469,
      "agues": 7470,
      "Ġbranch": 7471,
      "ĠTuesday": 7472,
      "ĠArticle": 7473,
      "Ġinspired": 7474,
      "Ġshr": 7475,
      "ĠBi": 7476,
      "ĠJose": 7477,
      "oked": 7478,
      "FL": 7479,
      "Ġauthorities": 7480,
      "Ġdivided": 7481,
      "ĠJon": 7482,
      "Ġnearby": 7483,
      "Ġinhib": 7484,
      "ĠFood": 7485,
      "Ġlesson": 7486,
      "Ġpanel": 7487,
      "Ġnarrative": 7488,
      "Ġbike": 7489,
      "viously": 7490,
      "Ġelected": 7491,
      "Ġdiscipl": 7492,
      "Ġinev": 7493,
      "Ġnutr": 7494,
      "Ġgal": 7495,
      "ĠLee": 7496,
      "yes": 7497,
      "âĢ¦.": 7498,
      "Take": 7499,
      "Er": 7500,
      "ĠChristians": 7501,
      "Ġ~": 7502,
      "inos": 7503,
      "Ġwebsites": 7504,
      "ĠWord": 7505,
      "Ġfucking": 7506,
      "Ġfib": 7507,
      "agraph": 7508,
      "Ġroles": 7509,
      "Ġsilver": 7510,
      "Ġsteel": 7511,
      "was": 7512,
      "Ġfiction": 7513,
      "Ð½": 7514,
      "world": 7515,
      "Ġstudied": 7516,
      "Ġrhy": 7517,
      "Ġestimated": 7518,
      "ĠRiver": 7519,
      "bb": 7520,
      "Ġremem": 7521,
      "Ġbreaks": 7522,
      "umer": 7523,
      "ials": 7524,
      "rc": 7525,
      "ĠColor": 7526,
      "Ġcable": 7527,
      "zil": 7528,
      "Ġsaving": 7529,
      "Ġrapidly": 7530,
      "Ġangle": 7531,
      "Ġvictory": 7532,
      "eties": 7533,
      "ĠKn": 7534,
      "boy": 7535,
      "ollywood": 7536,
      "Ġregime": 7537,
      "Ġcriter": 7538,
      "Twitter": 7539,
      "ĠIll": 7540,
      "Ġpra": 7541,
      "Ġreceiving": 7542,
      "Ġexpectations": 7543,
      "Ġcogn": 7544,
      "VD": 7545,
      "Ġfees": 7546,
      "ĠExper": 7547,
      "Ġmathemat": 7548,
      "Ġupdated": 7549,
      "CA": 7550,
      "lessly": 7551,
      "Ġneur": 7552,
      "Ġgear": 7553,
      "izz": 7554,
      "Ġtheore": 7555,
      ")$": 7556,
      "Ġwise": 7557,
      "Ġdisorder": 7558,
      "Ġchallenging": 7559,
      "Ġpushing": 7560,
      "Ġheaven": 7561,
      "970": 7562,
      "ĠDar": 7563,
      "ĠProt": 7564,
      "ĠProgram": 7565,
      "iner": 7566,
      "gged": 7567,
      "Note": 7568,
      "Ġdoors": 7569,
      "Ġwanting": 7570,
      "Ġlawyer": 7571,
      "ĠHaw": 7572,
      "Ġlying": 7573,
      "Ġvessel": 7574,
      "eps": 7575,
      "ĠWas": 7576,
      "Ġmistakes": 7577,
      "ĠMount": 7578,
      "Ġsubjects": 7579,
      "ĠSecret": 7580,
      "frac": 7581,
      "Ġscan": 7582,
      "Ġproducing": 7583,
      "ĠDen": 7584,
      "ĠSoci": 7585,
      "Ġoccas": 7586,
      "Ġdescribes": 7587,
      "oted": 7588,
      "Ġsleeping": 7589,
      "Ġdifferently": 7590,
      "Ġprotocol": 7591,
      "string": 7592,
      "Ġconcentration": 7593,
      "Ġfee": 7594,
      "Ġconducted": 7595,
      "Ġshares": 7596,
      "iac": 7597,
      "Ġcomprom": 7598,
      "Ġhumanity": 7599,
      "Ġscrew": 7600,
      "Ġhoriz": 7601,
      "elly": 7602,
      "Ġlifestyle": 7603,
      "ĠWithout": 7604,
      "alysis": 7605,
      "idelines": 7606,
      "Ġclothing": 7607,
      "Ġwestern": 7608,
      "ĠChris": 7609,
      "ĠBoy": 7610,
      "pat": 7611,
      "after": 7612,
      "lled": 7613,
      "Ġgreatly": 7614,
      "Ġ]": 7615,
      "Ġrespectively": 7616,
      "ĠJo": 7617,
      "Ġdrawing": 7618,
      "ĠDemocratic": 7619,
      "Ġimmigr": 7620,
      "bet": 7621,
      "Good": 7622,
      "Ġtopics": 7623,
      "osc": 7624,
      "Ġadministr": 7625,
      "Ġsignals": 7626,
      "Ġham": 7627,
      "Ġbrill": 7628,
      "ĠWay": 7629,
      "Ġpleasure": 7630,
      "olars": 7631,
      "Ġafternoon": 7632,
      "Ġrecall": 7633,
      "Ġserving": 7634,
      "ĠPublic": 7635,
      "Ġgang": 7636,
      "ogether": 7637,
      "Ġlad": 7638,
      "Ġfraud": 7639,
      "ĠBusiness": 7640,
      "Ġapproaches": 7641,
      "ĉĉĉ": 7642,
      "agan": 7643,
      "Ġduty": 7644,
      "Ġsuffe": 7645,
      "ersion": 7646,
      "Äģ": 7647,
      "lands": 7648,
      "Ġdestruction": 7649,
      "ĠBudd": 7650,
      "redit": 7651,
      "CP": 7652,
      "Ġthorough": 7653,
      "ĠCollege": 7654,
      "ĠEs": 7655,
      ".âĢĻ": 7656,
      "ĠThink": 7657,
      "Ġspaces": 7658,
      "Ġrail": 7659,
      "Ġloyal": 7660,
      "ĠCarol": 7661,
      "Ġdivide": 7662,
      "cker": 7663,
      "Ġbub": 7664,
      "68": 7665,
      "ifier": 7666,
      "MP": 7667,
      "issions": 7668,
      "](": 7669,
      "Ġrice": 7670,
      "Ġexplicit": 7671,
      "Ġ(\"": 7672,
      "ja": 7673,
      "ĠMartin": 7674,
      "Ġdistingu": 7675,
      "American": 7676,
      "ĠDark": 7677,
      "imp": 7678,
      "Ġaircraft": 7679,
      "Ġfunctional": 7680,
      "Ġunlikely": 7681,
      "ĠMur": 7682,
      "Ġloves": 7683,
      "udi": 7684,
      "Ġowned": 7685,
      "anwhile": 7686,
      "ĠRichard": 7687,
      "enth": 7688,
      "Ġdifficulty": 7689,
      "Next": 7690,
      "ĠMP": 7691,
      "begin": 7692,
      "Ġpregnant": 7693,
      "Ġroof": 7694,
      "Ġunderlying": 7695,
      "ĠWood": 7696,
      "Ġflour": 7697,
      "Ġpharm": 7698,
      "TP": 7699,
      "Ġbreathing": 7700,
      "mo": 7701,
      "ashes": 7702,
      "Ġanswered": 7703,
      "trans": 7704,
      "Ġcha": 7705,
      "lers": 7706,
      "Ġlaid": 7707,
      "Ġelections": 7708,
      "Ġfurn": 7709,
      "Ġconfirm": 7710,
      "Ġnutri": 7711,
      "rection": 7712,
      "Ġpregnancy": 7713,
      "ensus": 7714,
      "Ġ</": 7715,
      "ypes": 7716,
      "ĠVict": 7717,
      "His": 7718,
      "cho": 7719,
      "Ġrepeat": 7720,
      "blog": 7721,
      "orce": 7722,
      "Ġsuperior": 7723,
      "urse": 7724,
      "ĠStand": 7725,
      "Ġuncertain": 7726,
      "Ġnervous": 7727,
      "Ġassistance": 7728,
      "Share": 7729,
      "Tube": 7730,
      "Ġvoting": 7731,
      "Ġicon": 7732,
      "ali": 7733,
      "Ġsod": 7734,
      "olt": 7735,
      "Ġfindings": 7736,
      "Ġpitch": 7737,
      "html": 7738,
      "Ġcoc": 7739,
      "astern": 7740,
      "Ġconsciousness": 7741,
      "ĠItaly": 7742,
      "Ġsavings": 7743,
      "Ġathlet": 7744,
      "Ġdesired": 7745,
      "Ġdecrease": 7746,
      "Ġvert": 7747,
      "Ġcompetitive": 7748,
      "ĠDC": 7749,
      "Ġcleaning": 7750,
      "Ġprime": 7751,
      "otes": 7752,
      "Ġalter": 7753,
      "obby": 7754,
      "ĠPlay": 7755,
      "uz": 7756,
      "Ġradical": 7757,
      "Ġuniform": 7758,
      "ĠZe": 7759,
      "Ġdelivered": 7760,
      "rand": 7761,
      "Ġlady": 7762,
      "Ġordinary": 7763,
      "Ġmild": 7764,
      "ĠGar": 7765,
      "section": 7766,
      "Ġoh": 7767,
      "Ġà¤": 7768,
      "ener": 7769,
      "Ġinitially": 7770,
      "ĠExpl": 7771,
      "Ġrenew": 7772,
      "Ġphones": 7773,
      "ds": 7774,
      "Have": 7775,
      "law": 7776,
      "Source": 7777,
      "fr": 7778,
      "Ġnotion": 7779,
      "ĠØ": 7780,
      "Ġemployment": 7781,
      "eness": 7782,
      "essions": 7783,
      "xx": 7784,
      "Ġtracks": 7785,
      "sum": 7786,
      "Ġassault": 7787,
      "Ġmurd": 7788,
      "Ġnurs": 7789,
      "ushing": 7790,
      "ĠCN": 7791,
      "Ġlegislation": 7792,
      "etary": 7793,
      "Ġjoke": 7794,
      "ĠCanadian": 7795,
      "ĠDiv": 7796,
      "Ġtalent": 7797,
      "ifferent": 7798,
      "ĠPot": 7799,
      "Ġpuzz": 7800,
      "Ġinformed": 7801,
      "Ġcolour": 7802,
      "Ġcoach": 7803,
      "Ġperiods": 7804,
      "Ġopinions": 7805,
      "Ġbrowser": 7806,
      "ithub": 7807,
      "Ġmanual": 7808,
      "Ġfaced": 7809,
      "enger": 7810,
      "nergy": 7811,
      "ĠHas": 7812,
      "Before": 7813,
      "ologists": 7814,
      "Ġsorts": 7815,
      "atively": 7816,
      "Sunday": 7817,
      "Ġimprovement": 7818,
      "ĠFed": 7819,
      "Ġreliable": 7820,
      "Ġcurious": 7821,
      "Ġpermanent": 7822,
      "Ġcryst": 7823,
      "Ġeast": 7824,
      "endment": 7825,
      "ften": 7826,
      "ĠBeing": 7827,
      "Ġcalories": 7828,
      "ĠLatin": 7829,
      "utch": 7830,
      "ĠDespite": 7831,
      "pload": 7832,
      "power": 7833,
      "Ġbiological": 7834,
      "Ġseed": 7835,
      "Ġpron": 7836,
      "ĠAPI": 7837,
      "eras": 7838,
      "ults": 7839,
      "Ġcrimes": 7840,
      "Ġsuitable": 7841,
      "Ġmask": 7842,
      "Ġjail": 7843,
      "Ġscheme": 7844,
      "ĠNY": 7845,
      "Ġgam": 7846,
      "ĠMedic": 7847,
      "ĠMic": 7848,
      "Ġcollected": 7849,
      "sole": 7850,
      "âĢĻ,": 7851,
      "ĠRemember": 7852,
      "Ġgre": 7853,
      "Cons": 7854,
      "Ġgentle": 7855,
      "ĠLo": 7856,
      "Ġcorrel": 7857,
      "ĠSn": 7858,
      "pg": 7859,
      "Act": 7860,
      "ĠName": 7861,
      "eping": 7862,
      "ĠĠĠĠĠĠĠĠĠĠĠĠĠ": 7863,
      "Ġrecognition": 7864,
      "iated": 7865,
      "crib": 7866,
      "Ġrecording": 7867,
      "Ġagencies": 7868,
      "Ġupset": 7869,
      "Ġhonor": 7870,
      "Ġ''": 7871,
      "Ġrelation": 7872,
      "tical": 7873,
      "ĠCharles": 7874,
      "Ġfo": 7875,
      "ĠRon": 7876,
      "some": 7877,
      "Ġdemands": 7878,
      "Ġintellectual": 7879,
      "Ġagric": 7880,
      "ĠMuslims": 7881,
      "Ġbirthday": 7882,
      "organ": 7883,
      "icking": 7884,
      "asts": 7885,
      "Ġextension": 7886,
      "ĠCamp": 7887,
      "Will": 7888,
      "Ġsed": 7889,
      "Ġmit": 7890,
      "atoes": 7891,
      "ao": 7892,
      "Ġfert": 7893,
      "aste": 7894,
      "making": 7895,
      "awn": 7896,
      "Ġpub": 7897,
      "ĠPan": 7898,
      "rec": 7899,
      "Ġpursu": 7900,
      "ester": 7901,
      "Ġinvolving": 7902,
      "onds": 7903,
      "Ġmarked": 7904,
      "Ġlips": 7905,
      "ĠDesign": 7906,
      "Ġmic": 7907,
      "Ġconfiguration": 7908,
      "GE": 7909,
      "Ġapartment": 7910,
      "ultural": 7911,
      "Ġversus": 7912,
      "ĠBlue": 7913,
      "Ġok": 7914,
      "Ġloop": 7915,
      "Ġbeach": 7916,
      "Ġrepresented": 7917,
      "Ġinstruct": 7918,
      "hh": 7919,
      "Ġvegetables": 7920,
      "Ġfur": 7921,
      "TA": 7922,
      "ĠMont": 7923,
      "Ġrecover": 7924,
      "Ġadvis": 7925,
      "lymp": 7926,
      "ĠIslamic": 7927,
      "Ġmoist": 7928,
      "ĠMot": 7929,
      "pers": 7930,
      "ami": 7931,
      "Ġphysically": 7932,
      "Ġdensity": 7933,
      "Ġpurs": 7934,
      "fall": 7935,
      "ĠLab": 7936,
      "ĠGM": 7937,
      "ĠCare": 7938,
      "oured": 7939,
      "uma": 7940,
      "Ġelectrical": 7941,
      "Ġchildhood": 7942,
      "ĠPop": 7943,
      "Ġabilities": 7944,
      "normal": 7945,
      "Ġfake": 7946,
      "ĠInformation": 7947,
      "iture": 7948,
      "ĠEconom": 7949,
      "arly": 7950,
      "Ġinsight": 7951,
      "Ġchannels": 7952,
      "Ġtherm": 7953,
      "ĠSS": 7954,
      "Ġalleged": 7955,
      "Ġspir": 7956,
      "Ġorient": 7957,
      "ĠDan": 7958,
      "only": 7959,
      "Ġtill": 7960,
      "ĠSyria": 7961,
      "ĠPhys": 7962,
      "Mr": 7963,
      "gments": 7964,
      "ĠVirgin": 7965,
      "Ġindicates": 7966,
      "Ġultimate": 7967,
      "Ġrecept": 7968,
      "style": 7969,
      "998": 7970,
      "ĠSpace": 7971,
      "Ġcrack": 7972,
      "Ġorganized": 7973,
      "ĠThursday": 7974,
      "ĠOffice": 7975,
      "Ġequation": 7976,
      "Ġignor": 7977,
      "Ġrum": 7978,
      "Ġcovers": 7979,
      "Ġbatt": 7980,
      "ĠSqu": 7981,
      "Ġfoundation": 7982,
      "Ġunusual": 7983,
      "Ġphysics": 7984,
      "ĠLinux": 7985,
      "Ġhealing": 7986,
      "Ġincredible": 7987,
      "Ġprofessor": 7988,
      "Ġelectron": 7989,
      "Ġparallel": 7990,
      "Ġexperiments": 7991,
      "Ġencounter": 7992,
      "Does": 7993,
      "Ġalien": 7994,
      "Ġaccum": 7995,
      "ĠSoviet": 7996,
      "verty": 7997,
      "Ġenorm": 7998,
      "arry": 7999,
      "version": 8000,
      "Ġpapers": 8001,
      "Ġox": 8002,
      "Ġresidents": 8003,
      "ĠConstitution": 8004,
      "ĠFar": 8005,
      "core": 8006,
      "Ġbills": 8007,
      "cut": 8008,
      "...\"": 8009,
      "Ġshots": 8010,
      "Ġinflation": 8011,
      "Ke": 8012,
      "ĠPalest": 8013,
      "Ġbits": 8014,
      "ĠCharl": 8015,
      "Ġdrives": 8016,
      "Ġprivacy": 8017,
      "Ġpoverty": 8018,
      "Ġtack": 8019,
      "Ġreporting": 8020,
      "Ġdying": 8021,
      "%,": 8022,
      "connect": 8023,
      "Ġreveal": 8024,
      "Ġpersons": 8025,
      "Ġcrypt": 8026,
      "Ġexecutive": 8027,
      "Ġkeys": 8028,
      "agger": 8029,
      "Ġinstant": 8030,
      "iah": 8031,
      "ĠTable": 8032,
      "iox": 8033,
      "Ġexpansion": 8034,
      "Ġtemperatures": 8035,
      "ĠHaving": 8036,
      "Ġelsewhere": 8037,
      "aneously": 8038,
      "Ġmemor": 8039,
      "ĠOrgan": 8040,
      "Ġq": 8041,
      "ĠHall": 8042,
      "ĠWednesday": 8043,
      "Ġsubstance": 8044,
      "anguage": 8045,
      "Ġaffects": 8046,
      "DS": 8047,
      "Ġrefused": 8048,
      "otted": 8049,
      "OV": 8050,
      "Ġconstit": 8051,
      "Ġhorror": 8052,
      "Log": 8053,
      "Ġcategories": 8054,
      "ĠMaster": 8055,
      "ĠLouis": 8056,
      "ĠAdam": 8057,
      "ourse": 8058,
      "Set": 8059,
      "Ġyog": 8060,
      "Ġcrash": 8061,
      "ĠKim": 8062,
      "Ġarrested": 8063,
      "ĠNaz": 8064,
      "case": 8065,
      "ervices": 8066,
      "Ġprocedures": 8067,
      "ho": 8068,
      "Ġactors": 8069,
      "inction": 8070,
      "ĠCir": 8071,
      "ĠWomen": 8072,
      "Ġdistributed": 8073,
      "Ġperforming": 8074,
      "Ġexceed": 8075,
      "ĠAssociation": 8076,
      "Art": 8077,
      "Ġimmun": 8078,
      "Ġroughly": 8079,
      "ĠAuthor": 8080,
      "words": 8081,
      "OO": 8082,
      "Ġprivile": 8083,
      "Ġparticles": 8084,
      "orph": 8085,
      "je": 8086,
      "ĠShow": 8087,
      "Ġancest": 8088,
      "Ġregister": 8089,
      "Ġspark": 8090,
      "orous": 8091,
      "een": 8092,
      "Ġdirected": 8093,
      "arrass": 8094,
      "Ġnode": 8095,
      "prene": 8096,
      "Ġalert": 8097,
      "Su": 8098,
      "Ġroots": 8099,
      "Ġinteractions": 8100,
      "Ġmedication": 8101,
      "aping": 8102,
      "Ġstages": 8103,
      "Ġyours": 8104,
      "Ġtongue": 8105,
      "During": 8106,
      "Ġmanifest": 8107,
      "ĠDig": 8108,
      "Ġinches": 8109,
      "exp": 8110,
      "ĠThrough": 8111,
      "Ġdecline": 8112,
      "ĠAR": 8113,
      "rick": 8114,
      "Ġdies": 8115,
      "Ġbabies": 8116,
      "Ġparticipate": 8117,
      "Ġpoison": 8118,
      "Ġchecked": 8119,
      "?!": 8120,
      "Ġconsists": 8121,
      "Did": 8122,
      "theless": 8123,
      "reprene": 8124,
      "Ġradiation": 8125,
      "ested": 8126,
      "Ġadopted": 8127,
      "LY": 8128,
      "igan": 8129,
      "Ġpace": 8130,
      "grad": 8131,
      "rid": 8132,
      "Ġtonight": 8133,
      "120": 8134,
      "ĠPlus": 8135,
      "Ġparagraph": 8136,
      "Ġfemin": 8137,
      "Ġchronic": 8138,
      "Ġfed": 8139,
      "Ġwisdom": 8140,
      "Ġtargets": 8141,
      "Ġconfront": 8142,
      "Ġears": 8143,
      "ibl": 8144,
      "Ġchoosing": 8145,
      "ĠNone": 8146,
      "Ġpod": 8147,
      "Ġdont": 8148,
      "rics": 8149,
      "Ġbasket": 8150,
      "960": 8151,
      "Ġlayers": 8152,
      "Ġfet": 8153,
      "ĠKen": 8154,
      "Ġchecking": 8155,
      "Ġengaged": 8156,
      "ustration": 8157,
      "ĠCub": 8158,
      "Ã¶": 8159,
      "Ġcenturies": 8160,
      "Ġlessons": 8161,
      "ements": 8162,
      "abil": 8163,
      "Ġconfirmed": 8164,
      "ĠExt": 8165,
      "Ġprofessionals": 8166,
      "Ġarchitecture": 8167,
      "ĠDam": 8168,
      "TC": 8169,
      "Ã¼": 8170,
      "Sm": 8171,
      "aus": 8172,
      "Ġbinary": 8173,
      "ji": 8174,
      "UR": 8175,
      "riers": 8176,
      "Ġdismiss": 8177,
      "Yeah": 8178,
      "erman": 8179,
      "Ġconsideration": 8180,
      "Ġguarantee": 8181,
      "Ġaccompan": 8182,
      "group": 8183,
      "Which": 8184,
      "Ġsheet": 8185,
      "ĠProfess": 8186,
      "DE": 8187,
      "Ġassessment": 8188,
      "Ġanybody": 8189,
      "Ġseeds": 8190,
      "ocument": 8191,
      "opyright": 8192,
      "\";": 8193,
      "Ġsecondary": 8194,
      "ĠEveryone": 8195,
      "Ġtooth": 8196,
      "Ġsurely": 8197,
      "rets": 8198,
      "Ġtape": 8199,
      "Ġreputation": 8200,
      "oric": 8201,
      "Ġfest": 8202,
      "Ġwedding": 8203,
      "ĠFind": 8204,
      "ĠMedia": 8205,
      "Ġsearching": 8206,
      "ĠBad": 8207,
      "pled": 8208,
      "ikes": 8209,
      "69": 8210,
      "Ġna": 8211,
      "Ġgate": 8212,
      "Ġgif": 8213,
      "ĠCEO": 8214,
      "ĠCapt": 8215,
      "ĠLand": 8216,
      "oval": 8217,
      "Ġles": 8218,
      "78": 8219,
      "ĠCast": 8220,
      "Ġmirror": 8221,
      "arg": 8222,
      "othe": 8223,
      "ĠUk": 8224,
      "Ġdeals": 8225,
      "Ġcultures": 8226,
      "ĠEmpire": 8227,
      "such": 8228,
      "Ġterritory": 8229,
      "aret": 8230,
      "Ġmodule": 8231,
      "Ġinflamm": 8232,
      "stone": 8233,
      "Ġliver": 8234,
      "Ġsupplement": 8235,
      "ĠJohnson": 8236,
      "Ġflavor": 8237,
      "Ġunem": 8238,
      "Ġdeploy": 8239,
      "Ġpills": 8240,
      "Ġtheories": 8241,
      "Ġdiscovery": 8242,
      "Ġconvinced": 8243,
      "Ġreaching": 8244,
      "label": 8245,
      "ĠJones": 8246,
      "Ġimplemented": 8247,
      "ĠAND": 8248,
      "ĠPac": 8249,
      "Ġinjuries": 8250,
      "Ġoutcomes": 8251,
      "pace": 8252,
      "athan": 8253,
      "Ġconcrete": 8254,
      "Ġintroduction": 8255,
      "Ġadequ": 8256,
      "ĠPay": 8257,
      "Ġpainting": 8258,
      "EE": 8259,
      "uana": 8260,
      "Def": 8261,
      "ĠSign": 8262,
      "bow": 8263,
      "Ġlists": 8264,
      "Ġgig": 8265,
      "âĦ": 8266,
      "Ġstudying": 8267,
      "Ġimproving": 8268,
      "Ġrose": 8269,
      "Ġplatforms": 8270,
      "Ġvolunte": 8271,
      "Ġcheaper": 8272,
      "Book": 8273,
      "ĠThree": 8274,
      "Ġattorney": 8275,
      "otype": 8276,
      "Ġshame": 8277,
      "sts": 8278,
      "Ġdirectory": 8279,
      "when": 8280,
      "ĠTal": 8281,
      "ĠViet": 8282,
      "sis": 8283,
      "ĠCall": 8284,
      "HT": 8285,
      "acks": 8286,
      "Ġanticip": 8287,
      "Ġcake": 8288,
      "Ġmixture": 8289,
      "Ġtab": 8290,
      "ĠLos": 8291,
      "width": 8292,
      "pending": 8293,
      "Ġrepresentation": 8294,
      "Ġcycl": 8295,
      "ĠNob": 8296,
      "Ġdependent": 8297,
      "Ġthrown": 8298,
      "Ġovercome": 8299,
      "Ġcommitment": 8300,
      "cs": 8301,
      "ureau": 8302,
      "ilst": 8303,
      "icked": 8304,
      "Ġpeak": 8305,
      "ĠTurn": 8306,
      "Ġbowl": 8307,
      "Ġcreatures": 8308,
      "ĠON": 8309,
      "ĠEnter": 8310,
      "Ġenthus": 8311,
      "Ġhappiness": 8312,
      "Ġages": 8313,
      "Ġinterpretation": 8314,
      "Ġgained": 8315,
      "Ġmg": 8316,
      "Ġhence": 8317,
      "archy": 8318,
      "Ġdrunk": 8319,
      "ĠAndroid": 8320,
      "ĠProp": 8321,
      "Ġuncle": 8322,
      "Ġstudio": 8323,
      "Ġships": 8324,
      "ĠĠĠĠĠĠĠĠĠĠ": 8325,
      "uled": 8326,
      "ndrome": 8327,
      "CL": 8328,
      "Ġlean": 8329,
      "ĠCompany": 8330,
      "Ġadvantages": 8331,
      "Ġcontained": 8332,
      "Ġprospect": 8333,
      "Ġdamn": 8334,
      "Ġmyster": 8335,
      "Connecting": 8336,
      "Two": 8337,
      "ĠHard": 8338,
      "Ġboot": 8339,
      "Ġdeaths": 8340,
      "ulin": 8341,
      "Ġstatistics": 8342,
      "Ġissued": 8343,
      "Ġren": 8344,
      "Ġfabric": 8345,
      "gly": 8346,
      "orses": 8347,
      "cia": 8348,
      "Ġwarming": 8349,
      "Ġye": 8350,
      "Ġreverse": 8351,
      "aka": 8352,
      "Ġregulations": 8353,
      "])": 8354,
      "Ġarmed": 8355,
      "Ġdeclared": 8356,
      "ĠYouTube": 8357,
      "ĠFour": 8358,
      "Ġpresentation": 8359,
      "Ġpropag": 8360,
      "Ġuniversal": 8361,
      "occ": 8362,
      "Ġactor": 8363,
      "amps": 8364,
      "Ġwars": 8365,
      "Ġproved": 8366,
      "Ġconvert": 8367,
      "good": 8368,
      "Ġparad": 8369,
      "Top": 8370,
      "ko": 8371,
      "Ġconventional": 8372,
      "fil": 8373,
      "Ġveter": 8374,
      "Tra": 8375,
      "Ġfacilities": 8376,
      "irector": 8377,
      "ĠLead": 8378,
      "Ġdisaster": 8379,
      "Ġconstra": 8380,
      "ĠCy": 8381,
      "ĠKnow": 8382,
      "oded": 8383,
      "Saturday": 8384,
      "Ġhabits": 8385,
      "Ġattractive": 8386,
      "gel": 8387,
      "Ġlogical": 8388,
      "Ġsuffered": 8389,
      "Hey": 8390,
      "Ġscope": 8391,
      "Ġpsychological": 8392,
      "olving": 8393,
      "west": 8394,
      "itarian": 8395,
      "ĠKh": 8396,
      "Ġcounsel": 8397,
      "atching": 8398,
      "Met": 8399,
      "omed": 8400,
      "ĠBrazil": 8401,
      "ĠFurthermore": 8402,
      "ĠSP": 8403,
      "Ġease": 8404,
      "Ġadventure": 8405,
      "Ġalign": 8406,
      "Ġfacilit": 8407,
      "Dis": 8408,
      "ĠCreat": 8409,
      "ouble": 8410,
      "Ġapproved": 8411,
      "ĠRam": 8412,
      "agine": 8413,
      "ĠCode": 8414,
      "Text": 8415,
      "Ġproduces": 8416,
      "ĠOlymp": 8417,
      "Ġdiverse": 8418,
      "Ġpassage": 8419,
      "Ġvolt": 8420,
      "Ġreplied": 8421,
      "ira": 8422,
      "Ġbeneficial": 8423,
      "Ġhttps": 8424,
      "Ġaccomplish": 8425,
      "Ġgut": 8426,
      "being": 8427,
      "Ġprobability": 8428,
      "ĠWhether": 8429,
      "Ġbones": 8430,
      "Ð¾Ð": 8431,
      "Ġabsence": 8432,
      "Ġrooms": 8433,
      "ĠSea": 8434,
      "Ġholiday": 8435,
      "Ġdiscount": 8436,
      "uns": 8437,
      "ĠEduc": 8438,
      "Ġimpression": 8439,
      "Ġgranted": 8440,
      "Ġtub": 8441,
      "ĠHenry": 8442,
      "Ġstops": 8443,
      "igma": 8444,
      "Ġtension": 8445,
      "ĠHi": 8446,
      "map": 8447,
      "Ġhire": 8448,
      "Ġcommenting": 8449,
      "indu": 8450,
      "Ġenforcement": 8451,
      "ĠType": 8452,
      "////": 8453,
      "Ġassumed": 8454,
      "fire": 8455,
      "Ġminimal": 8456,
      "Par": 8457,
      "Ġfought": 8458,
      "berry": 8459,
      "Ġtears": 8460,
      "Ġsimult": 8461,
      "Ġongoing": 8462,
      "mers": 8463,
      "ĠBit": 8464,
      "Ġentit": 8465,
      "ĠConf": 8466,
      "ĠBell": 8467,
      "Ġprepar": 8468,
      "Ġquery": 8469,
      "Ġwash": 8470,
      "js": 8471,
      "ctr": 8472,
      "Ġmagazine": 8473,
      "Ġproposal": 8474,
      "rav": 8475,
      ",'": 8476,
      "ĠNight": 8477,
      "ouch": 8478,
      "Ġcriteria": 8479,
      "Ġmortgage": 8480,
      "Ġartificial": 8481,
      "Key": 8482,
      "esis": 8483,
      "Ġserves": 8484,
      "Ġquantum": 8485,
      "ĠYear": 8486,
      "Trans": 8487,
      "ĠSep": 8488,
      "link": 8489,
      "foot": 8490,
      "700": 8491,
      "RS": 8492,
      "Ġcourts": 8493,
      "assion": 8494,
      "\");": 8495,
      "CS": 8496,
      "âĦ¢": 8497,
      "Ġmaintaining": 8498,
      "aved": 8499,
      "ĠSociety": 8500,
      "Ġchemicals": 8501,
      "Ġcorn": 8502,
      "cip": 8503,
      "Ġstability": 8504,
      "don": 8505,
      "erior": 8506,
      "Ġraising": 8507,
      "Ġsetup": 8508,
      "Ġtranslation": 8509,
      "Ġgenerations": 8510,
      "Ġsauce": 8511,
      "Ġaccused": 8512,
      "owered": 8513,
      "Ġembarrass": 8514,
      "param": 8515,
      "dated": 8516,
      "ĠEngine": 8517,
      "Ġbreakfast": 8518,
      "ĠNeed": 8519,
      "Ġassociation": 8520,
      "Ġaccuracy": 8521,
      "ila": 8522,
      "Ġholes": 8523,
      "Ġfantastic": 8524,
      "Ġtied": 8525,
      "ifer": 8526,
      "Ġstayed": 8527,
      "ĠEss": 8528,
      "Ġfigured": 8529,
      "ader": 8530,
      "Ġaccessible": 8531,
      "ĠRay": 8532,
      "Ġprohib": 8533,
      "Ġincent": 8534,
      "Ġwage": 8535,
      "Ġcircuit": 8536,
      "ĠMoreover": 8537,
      "brid": 8538,
      "ĠCould": 8539,
      "ulating": 8540,
      "Ġcann": 8541,
      "mg": 8542,
      "Ġbot": 8543,
      "ĠAh": 8544,
      "ĠLink": 8545,
      "Ġdivision": 8546,
      "Ġscholars": 8547,
      "Ġexpenses": 8548,
      "Ġwithdraw": 8549,
      "ĠRef": 8550,
      "Ġdesert": 8551,
      "Ġcompe": 8552,
      "Ġhanging": 8553,
      "Ġpainful": 8554,
      "AY": 8555,
      "hyl": 8556,
      "Ġassigned": 8557,
      "ima": 8558,
      "Ġintelligent": 8559,
      "ieve": 8560,
      "Ġreplacement": 8561,
      "Ġfired": 8562,
      "Ġmanufacturing": 8563,
      "jo": 8564,
      "$.": 8565,
      "github": 8566,
      "ĠJustice": 8567,
      "Ġderived": 8568,
      "Ġpulling": 8569,
      "ĠLi": 8570,
      "Ġstaying": 8571,
      "Ġinher": 8572,
      "Ge": 8573,
      "ĠControl": 8574,
      "uction": 8575,
      "live": 8576,
      "Ġapplies": 8577,
      "through": 8578,
      "ĠLeague": 8579,
      "ĠAsian": 8580,
      "File": 8581,
      "seless": 8582,
      "pop": 8583,
      "ĠCommission": 8584,
      "ĠSir": 8585,
      "oston": 8586,
      "Ġperception": 8587,
      "reated": 8588,
      "Gu": 8589,
      "raine": 8590,
      "omatic": 8591,
      "Ã¤": 8592,
      "Ġspectrum": 8593,
      "Ġpoem": 8594,
      "Ġlaptop": 8595,
      "Ġoblig": 8596,
      "public": 8597,
      "Ġsatell": 8598,
      "has": 8599,
      "Ġweakness": 8600,
      "ailed": 8601,
      "span": 8602,
      "Ġlaunched": 8603,
      "ĠCard": 8604,
      "igate": 8605,
      "Ġestimate": 8606,
      "Ġbug": 8607,
      "Ġrefuge": 8608,
      "Ġsegment": 8609,
      "Ġvisited": 8610,
      "Ġdemonstrate": 8611,
      "EG": 8612,
      "ĠPakistan": 8613,
      "Ġconvenient": 8614,
      "onder": 8615,
      "ĠPosts": 8616,
      "ĠLic": 8617,
      "url": 8618,
      "Ġeducational": 8619,
      "eling": 8620,
      "Ġcorresponding": 8621,
      "Ġreactions": 8622,
      "Ġrating": 8623,
      "Ġrefe": 8624,
      "Ġvoc": 8625,
      "ĠJac": 8626,
      "away": 8627,
      "Ġven": 8628,
      "ĠAfghanistan": 8629,
      "rend": 8630,
      "Ġlinear": 8631,
      "Ġvel": 8632,
      "ĠVery": 8633,
      "Ste": 8634,
      "ĠDeath": 8635,
      "Ġtransaction": 8636,
      "Ġcomprehensive": 8637,
      "Ġmonthly": 8638,
      "bably": 8639,
      "Ġtends": 8640,
      "Ġextensive": 8641,
      "Ġdemonstrated": 8642,
      "Ġsuicide": 8643,
      "ĠPS": 8644,
      "997": 8645,
      "ĠSpain": 8646,
      "Ġcaptured": 8647,
      "Ġdisagree": 8648,
      "pling": 8649,
      "thm": 8650,
      "Ġstruck": 8651,
      "roph": 8652,
      "bell": 8653,
      "Ġfantasy": 8654,
      "ocks": 8655,
      "ĠFact": 8656,
      "Ġinnocent": 8657,
      "ĠConsider": 8658,
      "necess": 8659,
      "Ġhopes": 8660,
      "Finally": 8661,
      "Ġrender": 8662,
      "Ġdialogue": 8663,
      "itivity": 8664,
      "Ġpocket": 8665,
      "ĠCreate": 8666,
      "Ġbrothers": 8667,
      "hist": 8668,
      "Ġsouthern": 8669,
      "Ġreferences": 8670,
      "Ġstruggling": 8671,
      "Ġinnovation": 8672,
      "Ġadmitted": 8673,
      "Ġscar": 8674,
      "ommod": 8675,
      "Ġupdates": 8676,
      "Î±": 8677,
      "Ġcosm": 8678,
      "Ġimpressive": 8679,
      "Ġimmigration": 8680,
      "encing": 8681,
      "Ġoccasionally": 8682,
      "Ġdisk": 8683,
      "ugs": 8684,
      "ĠString": 8685,
      "oop": 8686,
      "struct": 8687,
      "Ġboxes": 8688,
      "Ġsuspic": 8689,
      "Ġunexpected": 8690,
      "ĠHollywood": 8691,
      "Ġfails": 8692,
      "Ġcameras": 8693,
      "Ġcentre": 8694,
      "Ġsections": 8695,
      "Ġmeals": 8696,
      "sell": 8697,
      "Ġscores": 8698,
      "âĢī": 8699,
      "Ġprofits": 8700,
      "Ġspecified": 8701,
      "Ġsinging": 8702,
      "Ġhandling": 8703,
      "Ġsilence": 8704,
      "Ġutter": 8705,
      "Ġridiculous": 8706,
      "Ġheaded": 8707,
      "Ġsupplies": 8708,
      "Ġcommission": 8709,
      "including": 8710,
      "cor": 8711,
      "Ġbes": 8712,
      "Ġphenomenon": 8713,
      "Ġarrive": 8714,
      "isa": 8715,
      "Ġattach": 8716,
      "Ġsake": 8717,
      "Ġfir": 8718,
      "olicy": 8719,
      "Ġsymp": 8720,
      "ĠIre": 8721,
      "inite": 8722,
      "ounce": 8723,
      "Ġpermission": 8724,
      "bf": 8725,
      "Ġsne": 8726,
      "Ġflowers": 8727,
      "Ġsurve": 8728,
      "geon": 8729,
      "ati": 8730,
      "Ġalarm": 8731,
      "ĠWalk": 8732,
      "Ġought": 8733,
      "ĠRome": 8734,
      "Ġlandscape": 8735,
      "iana": 8736,
      "open": 8737,
      "Ġjudgment": 8738,
      "ocy": 8739,
      "ĠView": 8740,
      "Ġeliminate": 8741,
      "Ġregulation": 8742,
      "ĠLittle": 8743,
      "Ġticket": 8744,
      "Ġhip": 8745,
      "rogen": 8746,
      "Ġmigr": 8747,
      "gression": 8748,
      "rug": 8749,
      "ĠPrime": 8750,
      "ione": 8751,
      "Ġregional": 8752,
      "Ġroads": 8753,
      "Ġmodified": 8754,
      "ĠCommit": 8755,
      "Photo": 8756,
      "Ġretirement": 8757,
      "Ġacceptable": 8758,
      "ĠYOU": 8759,
      "aneous": 8760,
      "Ġmatrix": 8761,
      "ĠForce": 8762,
      "Ġdiagnosis": 8763,
      "Ġmouse": 8764,
      "ĠMoon": 8765,
      "ĠEp": 8766,
      "Ġprovider": 8767,
      "Christ": 8768,
      "LC": 8769,
      "acles": 8770,
      "Ġresulted": 8771,
      "ĠCivil": 8772,
      "Ġdefic": 8773,
      "amber": 8774,
      "ckets": 8775,
      "Ġmainstream": 8776,
      "itual": 8777,
      "ĠNetwork": 8778,
      "wan": 8779,
      "79": 8780,
      "ĠOnline": 8781,
      "Ġlift": 8782,
      "Ġcurve": 8783,
      "Ġsli": 8784,
      "Ġnewspaper": 8785,
      "Ġcontainer": 8786,
      "Ġignored": 8787,
      "996": 8788,
      "Ġtemporary": 8789,
      "tery": 8790,
      "dri": 8791,
      "ĠOF": 8792,
      "ĠHD": 8793,
      "ussion": 8794,
      "Ġtrem": 8795,
      "Ġdose": 8796,
      "Ġshout": 8797,
      "ĠWH": 8798,
      "Ġargued": 8799,
      "ĠCra": 8800,
      "ĠPython": 8801,
      "Ġminister": 8802,
      "Ġattacked": 8803,
      "Ġpopulations": 8804,
      "ĠNon": 8805,
      "Ġmonitoring": 8806,
      "Ġthroat": 8807,
      "Ġpreferred": 8808,
      "ptic": 8809,
      "got": 8810,
      "ĠPen": 8811,
      "Ġprecisely": 8812,
      "ĠHa": 8813,
      "Ġrequirement": 8814,
      "Ġlocked": 8815,
      "ĠAngeles": 8816,
      "ĠYoung": 8817,
      "ĠNothing": 8818,
      "Ġcapabilities": 8819,
      "rons": 8820,
      "Ġfarmers": 8821,
      "Ġannounce": 8822,
      "Ġentertainment": 8823,
      "ĠScot": 8824,
      "Ġgir": 8825,
      "ĠInvest": 8826,
      "ĠAri": 8827,
      "Ġhorrible": 8828,
      "Ġgenre": 8829,
      "Ġgaming": 8830,
      "VID": 8831,
      "Ġgeneric": 8832,
      "itty": 8833,
      "Ġsought": 8834,
      "Ġconce": 8835,
      "ĠRand": 8836,
      "Ġdirty": 8837,
      "Mon": 8838,
      "Ġmini": 8839,
      "ĠURL": 8840,
      "iano": 8841,
      "Ġstretch": 8842,
      "olves": 8843,
      "ownt": 8844,
      "Ġwid": 8845,
      "cerning": 8846,
      "```": 8847,
      "Ġgrant": 8848,
      "annel": 8849,
      "Ġvulnerable": 8850,
      "Ġextend": 8851,
      "Sk": 8852,
      "izza": 8853,
      "Maybe": 8854,
      "rooms": 8855,
      "Ġdil": 8856,
      "Ġbags": 8857,
      "Ġenormous": 8858,
      "Ġbars": 8859,
      "td": 8860,
      "Ġmeetings": 8861,
      "Ġdys": 8862,
      "Ġvirtually": 8863,
      "CO": 8864,
      "ĠAdditionally": 8865,
      "Ġpasses": 8866,
      "Ġquit": 8867,
      "ĠEqu": 8868,
      "ĠDaniel": 8869,
      "ĠProv": 8870,
      "Ġmystery": 8871,
      "Ġimportantly": 8872,
      "Ġborrow": 8873,
      "Ġopens": 8874,
      "Ġconfusion": 8875,
      "yal": 8876,
      "obb": 8877,
      "imens": 8878,
      "ĠAustralian": 8879,
      "imm": 8880,
      "Ġswing": 8881,
      "Ġsoph": 8882,
      "itative": 8883,
      "!!!!": 8884,
      "ĠKingdom": 8885,
      "ĠKorean": 8886,
      "Ġcasual": 8887,
      "Ġjuice": 8888,
      "Ġindicated": 8889,
      "aron": 8890,
      "include": 8891,
      "Ġmechanisms": 8892,
      "itals": 8893,
      "Ġtrail": 8894,
      "cycl": 8895,
      "worth": 8896,
      "iams": 8897,
      "Ġstere": 8898,
      "['": 8899,
      "Ġcalculated": 8900,
      "Ġbands": 8901,
      "Ġspeaker": 8902,
      "Ġentr": 8903,
      "Ġcomplexity": 8904,
      "ifice": 8905,
      "Ġvitamin": 8906,
      "Ġbonds": 8907,
      "una": 8908,
      "Ġdeliber": 8909,
      "ĠMusic": 8910,
      "Ġmere": 8911,
      "ĠCost": 8912,
      "Ġampl": 8913,
      "Ġcontrad": 8914,
      "Ġtube": 8915,
      "Ġhoney": 8916,
      "ĠCH": 8917,
      "ĠÙ": 8918,
      "endar": 8919,
      "Ġworldwide": 8920,
      "Gl": 8921,
      "Ġfocusing": 8922,
      "Ġdisorders": 8923,
      "Ġdipl": 8924,
      "Ġpriority": 8925,
      "Ġcolleagues": 8926,
      "ĠResp": 8927,
      "Ġfrequent": 8928,
      "AB": 8929,
      "ĠHot": 8930,
      "made": 8931,
      "Ġwing": 8932,
      "ĠDO": 8933,
      "Ġkil": 8934,
      "FC": 8935,
      "Ġcomic": 8936,
      "Ġscared": 8937,
      "Ġphotograph": 8938,
      "ĠRoad": 8939,
      "ijuana": 8940,
      "neys": 8941,
      "Ġintervention": 8942,
      "Ġbathroom": 8943,
      "Ġparameter": 8944,
      "Ġirrit": 8945,
      "Ġperpet": 8946,
      "Ġsubstantial": 8947,
      "Ġdeserve": 8948,
      "Ġaccommod": 8949,
      "Ġintr": 8950,
      "ĠStory": 8951,
      "Ġcute": 8952,
      "itches": 8953,
      "fix": 8954,
      "ĠSky": 8955,
      "Ġdrops": 8956,
      "may": 8957,
      "Ġstir": 8958,
      "Ġdisturb": 8959,
      "ĠPoint": 8960,
      "Ġghost": 8961,
      "Ġemissions": 8962,
      "Ġporn": 8963,
      "nders": 8964,
      "ĠWars": 8965,
      "$,": 8966,
      "Ġstocks": 8967,
      "Ġpreced": 8968,
      "achel": 8969,
      "Ġthrowing": 8970,
      "Ġpilot": 8971,
      "Ġchecks": 8972,
      "ĠFox": 8973,
      "alog": 8974,
      "Ġagenda": 8975,
      "Ġseemingly": 8976,
      "Ġentering": 8977,
      "makers": 8978,
      "ĠQueen": 8979,
      "ĠVan": 8980,
      "Ġdumb": 8981,
      "ĠHit": 8982,
      "arts": 8983,
      "Ġmeaningful": 8984,
      "ĠMain": 8985,
      "thew": 8986,
      "Ġforgotten": 8987,
      "':": 8988,
      "earing": 8989,
      "ĠNO": 8990,
      "ĠHop": 8991,
      "ĠAS": 8992,
      "ĠMars": 8993,
      "BM": 8994,
      "Ġbrilliant": 8995,
      "eek": 8996,
      "cm": 8997,
      "opher": 8998,
      "Ġjun": 8999,
      "ĠOper": 9000,
      "Ġarbit": 9001,
      "osexual": 9002,
      "Ġmagnetic": 9003,
      "995": 9004,
      "Ġdrama": 9005,
      "ĠNAS": 9006,
      "Click": 9007,
      "Ġproviders": 9008,
      "Ġdates": 9009,
      "ools": 9010,
      "Ġsilent": 9011,
      "itudes": 9012,
      "Ġinstances": 9013,
      "esc": 9014,
      "ictionary": 9015,
      "aire": 9016,
      "Ġseats": 9017,
      "lyn": 9018,
      "Ġspoken": 9019,
      "Ġemployer": 9020,
      "Ġpurchased": 9021,
      "Ġlifetime": 9022,
      "ĠUlt": 9023,
      "Ġdump": 9024,
      "Ġemployed": 9025,
      "Ġstrategic": 9026,
      "ĠMult": 9027,
      "ethe": 9028,
      "lfriend": 9029,
      "Ġsummary": 9030,
      "PG": 9031,
      "Ġsilly": 9032,
      "Ġtransportation": 9033,
      "Ġcontinuous": 9034,
      "ĠGiven": 9035,
      "Ġbin": 9036,
      "vironments": 9037,
      "Ġattempted": 9038,
      "Ġshower": 9039,
      "Ġloving": 9040,
      "Ġenzy": 9041,
      "Ġhonestly": 9042,
      "Ġneutral": 9043,
      "Ġguidelines": 9044,
      "Ġdecor": 9045,
      "utors": 9046,
      "ĠManagement": 9047,
      "Ġruling": 9048,
      "Ġtheat": 9049,
      "Ġthreats": 9050,
      "Ġsubsequent": 9051,
      "Ġcompat": 9052,
      "azy": 9053,
      "Ġapplying": 9054,
      "ito": 9055,
      "natural": 9056,
      "Ġexecution": 9057,
      "ĠJackson": 9058,
      "Ġmile": 9059,
      "FA": 9060,
      "everal": 9061,
      "72": 9062,
      "Ġstatist": 9063,
      "uten": 9064,
      "Ġbroadcast": 9065,
      "Ġabstract": 9066,
      "Ġservers": 9067,
      "ĠMach": 9068,
      "pie": 9069,
      "Ġexcuse": 9070,
      "phones": 9071,
      "Ġtreatments": 9072,
      "Ġwins": 9073,
      "eric": 9074,
      "Ġdispl": 9075,
      "Ġdocumentation": 9076,
      "Ġdefeat": 9077,
      "ĠIndeed": 9078,
      "Ġvisitors": 9079,
      "Ġtransmission": 9080,
      "arters": 9081,
      "Ġrequests": 9082,
      "jud": 9083,
      "Ġlovely": 9084,
      "Ġfacility": 9085,
      "Ġvend": 9086,
      "ĠOR": 9087,
      "ĠThings": 9088,
      "ĠBat": 9089,
      "ĠRub": 9090,
      "effect": 9091,
      "%)": 9092,
      "Ġclosing": 9093,
      "Ġengines": 9094,
      "Ġdamaged": 9095,
      "Ġdiversity": 9096,
      "Ġintroduce": 9097,
      "ĠMatt": 9098,
      "ĠIM": 9099,
      "User": 9100,
      "Ps": 9101,
      "Ġinsect": 9102,
      "Sign": 9103,
      "Ġaggressive": 9104,
      "Ġnorthern": 9105,
      "nded": 9106,
      "Object": 9107,
      "Ġabund": 9108,
      "Ġentity": 9109,
      "Ġpresidential": 9110,
      "Ġtoile": 9111,
      "Ġwidth": 9112,
      "dev": 9113,
      "lected": 9114,
      "ĠOk": 9115,
      "Ġirre": 9116,
      "ĠVictor": 9117,
      "ĠRights": 9118,
      "ĠColl": 9119,
      "aylor": 9120,
      "ĠHim": 9121,
      "ĠSwed": 9122,
      "Ġdisg": 9123,
      "ĠHelp": 9124,
      "stra": 9125,
      ".....": 9126,
      "Ġmarks": 9127,
      "ervation": 9128,
      "Ġpresents": 9129,
      "Ġdirections": 9130,
      "Ġhal": 9131,
      "ĠCur": 9132,
      "vious": 9133,
      "Ġworker": 9134,
      "ui": 9135,
      "Ġdrinks": 9136,
      "ĠWild": 9137,
      "Ġpowder": 9138,
      "Ġdelight": 9139,
      "ĠCR": 9140,
      "ntil": 9141,
      "ĠFig": 9142,
      "Ġodds": 9143,
      "State": 9144,
      "ĠBern": 9145,
      "Ġshirt": 9146,
      "Ġinherent": 9147,
      "Ġpink": 9148,
      "Ġsemi": 9149,
      "Ġbene": 9150,
      "900": 9151,
      "ĠGirl": 9152,
      "Eng": 9153,
      "about": 9154,
      "ĠEll": 9155,
      "Ġcollective": 9156,
      "Ġcollapse": 9157,
      "Ġshadow": 9158,
      "Ġoven": 9159,
      "Ġearned": 9160,
      "Co": 9161,
      "inds": 9162,
      "vas": 9163,
      "chers": 9164,
      "ĠPolit": 9165,
      "sem": 9166,
      "isting": 9167,
      "Ġboring": 9168,
      "Ġnewly": 9169,
      "ĠInterest": 9170,
      "idance": 9171,
      "Ġbench": 9172,
      "ounding": 9173,
      "Ġlosses": 9174,
      "Ġtons": 9175,
      "Ġspons": 9176,
      "Ġcitizen": 9177,
      "ensed": 9178,
      "olds": 9179,
      "Ġcognitive": 9180,
      "Ġcopyright": 9181,
      "Ġcourses": 9182,
      "ucky": 9183,
      "osph": 9184,
      "Ġtempt": 9185,
      "Ġnit": 9186,
      "Ġmanagers": 9187,
      "bage": 9188,
      "ĠKat": 9189,
      "ĠIII": 9190,
      "Ġstem": 9191,
      "Ġinjured": 9192,
      "elcome": 9193,
      "Ġabortion": 9194,
      "Ġcoop": 9195,
      "Ġviewed": 9196,
      "Ġportray": 9197,
      "Ġmetabol": 9198,
      "front": 9199,
      "ĠReport": 9200,
      "Ùİ": 9201,
      "evin": 9202,
      "Ġouts": 9203,
      "Press": 9204,
      "Ġvoted": 9205,
      "aunt": 9206,
      "Ġtracking": 9207,
      "Ġelectro": 9208,
      "missions": 9209,
      "ĠEth": 9210,
      "isp": 9211,
      "Inter": 9212,
      "ĠDonald": 9213,
      "ĠSpirit": 9214,
      "ĠPo": 9215,
      "throp": 9216,
      "Ġpand": 9217,
      "\"\"": 9218,
      "ĠSoft": 9219,
      "Ġhes": 9220,
      "ĠAge": 9221,
      "Ġfiber": 9222,
      "Ġhitting": 9223,
      "ĠSimilar": 9224,
      "mates": 9225,
      "Ġelder": 9226,
      "Mark": 9227,
      "ollowing": 9228,
      "Ġentreprene": 9229,
      "because": 9230,
      "ĠMom": 9231,
      "Ġsizes": 9232,
      "ĠHead": 9233,
      "Ġpremium": 9234,
      "ĠCustom": 9235,
      "Ġsuggestions": 9236,
      "ĠDead": 9237,
      "ictions": 9238,
      "Form": 9239,
      "athered": 9240,
      "Ġcovering": 9241,
      "will": 9242,
      "Ġworship": 9243,
      "ĠTeam": 9244,
      "Ġinqu": 9245,
      "Ġgradually": 9246,
      "cture": 9247,
      "Ġstyles": 9248,
      "sim": 9249,
      "ĠAcadem": 9250,
      "Ġasset": 9251,
      "ĠEverything": 9252,
      "Ġcontinuing": 9253,
      "isk": 9254,
      "950": 9255,
      "ĠNE": 9256,
      "apor": 9257,
      "Ġconspir": 9258,
      "ĠEvent": 9259,
      "count": 9260,
      "Ġexercises": 9261,
      "ĠiP": 9262,
      "Ġtraveling": 9263,
      "Ġlimitations": 9264,
      "Ġresident": 9265,
      "Av": 9266,
      "Ġrobot": 9267,
      "father": 9268,
      "Ġpicking": 9269,
      "ĠDVD": 9270,
      "Ġsword": 9271,
      "Ġdestination": 9272,
      "ador": 9273,
      "Ġattempting": 9274,
      "62": 9275,
      "iy": 9276,
      "mal": 9277,
      "Ġnavigation": 9278,
      "Ġstrengthen": 9279,
      "abeth": 9280,
      "Ġfruits": 9281,
      "Ġconversations": 9282,
      "Ġuncomfort": 9283,
      "Ġheading": 9284,
      "Ġtrends": 9285,
      "Ġmatches": 9286,
      "Ġparking": 9287,
      "Ġremoving": 9288,
      "axy": 9289,
      "Ġstake": 9290,
      "ĠAdv": 9291,
      "tion": 9292,
      "fs": 9293,
      "Ġspots": 9294,
      "Ġgolden": 9295,
      "Ġdramatic": 9296,
      "Ġedition": 9297,
      "holders": 9298,
      "Ġbaseball": 9299,
      "have": 9300,
      "Ġdefect": 9301,
      "Ġposting": 9302,
      "ATE": 9303,
      "ĠSon": 9304,
      "ĠIreland": 9305,
      "ĠLeg": 9306,
      "Ġresolve": 9307,
      "ĠBow": 9308,
      "Ġstations": 9309,
      "uming": 9310,
      "Ġperceived": 9311,
      "Ġcriticism": 9312,
      "ĠPolice": 9313,
      "asses": 9314,
      "ĠSher": 9315,
      "Ġbeneath": 9316,
      "Ġtap": 9317,
      "ĠHand": 9318,
      "ĠGuide": 9319,
      "Ġgrid": 9320,
      "NS": 9321,
      "Ġbrands": 9322,
      "mn": 9323,
      "Ġindependence": 9324,
      "Ġoverwhelming": 9325,
      "Ġbrut": 9326,
      "last": 9327,
      "ĠTreat": 9328,
      "Ġjury": 9329,
      "ĠEnergy": 9330,
      "Ġdesigns": 9331,
      "minute": 9332,
      "ĠWikipedia": 9333,
      "ĠPsych": 9334,
      "gain": 9335,
      "Ġgym": 9336,
      "ĠĠĠĠĠĠĠĠĠĠĠĠĠĠĠĠĠĠĠĠĠĠĠ": 9337,
      "Ġballs": 9338,
      "ĠPrin": 9339,
[...]
