#version: 0.2
e Ġ
Ġ t
s Ġ
i n
Ġt h
t Ġ
e r
a n
d Ġ
o n
e n
o r
y Ġ
Ġth eĠ
, Ġ
o u
a r
o Ġ
a l
a t
in g
r e
. Ġ
t h
o f
s t
a Ġ
Ġ Ġ
i t
i c
an dĠ
ing Ġ
e s
o m
i on
e dĠ
i sĠ
Ġt oĠ
er Ġ
e l
of Ġ
i l
a c
a tĠ
i s
a s
. Ċ
o w
e d
e sĠ
e c
f or
in Ġ
h a
â Ģ
w h
y ou
o l
u s
an Ġ
c h
i m
T h
v eĠ
en t
p l
r o
e m
al l
e t
a m
al Ġ
u r
a sĠ
i g
en Ġ
i d
ĠĠ ĠĠ
i r
a b
Ġ s
i th
u n
eĠ th
a d
Ġ w
e v
o s
Ġ c
Ġth atĠ
at ion
a g
i tĠ
u l
Â ł
an d
i f
e x
Ġ m
a y
ar eĠ
l e
n o
k Ġ
p ro
eĠ t
il l
o o
Ġ b
w ith
u t
l yĠ
Ġth e
i v
.Ġ Th
re s
en tĠ
of ĠtheĠ
Ġ d
f r
c on
a p
o p
c om
in t
eĠ s
e ,Ġ
âĢ Ļ
a k
ig h
on Ġ
.Ġ I
or Ġ
er eĠ
u m
s ,Ġ
for Ġ
e ar
ou l
v er
Ġt o
ha veĠ
u p
l i
b e
h Ġ
' sĠ
s h
ou n
q u
ec t
b eĠ
ou r
r i
o c
in ĠtheĠ
e p
u tĠ
ac t
n e
a yĠ
oul dĠ
n Ġ
b l
p er
o t
e st
no tĠ
fr om
Ġ andĠ
u c
o th
: Ġ
ou tĠ
eĠ w
you r
i st
el l
en c
an t
ion Ġ
I Ġ
o d
you Ġ
s e
all yĠ
Ġth isĠ
er sĠ
on eĠ
g r
w or
c l
p e
ar t
es s
ou g
eĠt oĠ
a in
p r
eĠth eĠ
with Ġ
e f
eĠ ofĠ
an c
en d
n ow
i veĠ
s u
e tĠ
l eĠ
Ġt r
s oĠ
Th eĠ
Ġthe yĠ
ed ĠtoĠ
u d
.Ġ A
y ,Ġ
ou t
li k
Ġ h
W h
in d
st r
ation Ġ
b yĠ
at eĠ
on g
, ĠtheĠ
0 0
a v
w asĠ
p or
an g
l o
re c
m or
b utĠ
t er
g o
,Ġ andĠ
sĠ andĠ
t r
' tĠ
Ġth at
ĠĠĠĠ ĠĠĠĠ
âĢĻ sĠ
us tĠ
Ġthe ir
ev er
sĠ ofĠ
eĠ d
Ġ p
it yĠ
an yĠ
e w
s p
w e
s om
i z
h isĠ
ing ĠtheĠ
ic Ġ
eĠ c
ch Ġ
o v
oug h
a f
er s
as s
wh ic
e .Ġ
ha sĠ
a w
eĠ m
ill Ġ
igh tĠ
o g
ac k
Ġto ĠtheĠ
a us
for m
i esĠ
p os
) Ġ
o pl
e th
igh t
h e
. .
ar d
i dĠ
.ĠTh eĠ
oth erĠ
i p
f Ġ
os tĠ
e yĠ
f er
t erĠ
o b
eĠ andĠ
es ,Ġ
all Ġ
d er
on ĠtheĠ
m ent
a st
h ow
in c
from Ġ
k now
? Ġ
pe opl
s .Ġ
aĠ s
âĢ ľ
âĢ Ŀ
e .Ċ
wh oĠ
Âł Ġ
s ĠtoĠ
Ġth em
es tĠ
ing ĠtoĠ
a dĠ
d o
ol l
your Ġ
at h
en s
p o
b r
b ec
wh atĠ
t ion
f l
? Ċ
Ġw ith
ab outĠ
m ak
o ver
v i
Ġt im
ac h
p ar
m yĠ
c anĠ
ic alĠ
a il
es sĠ
p re
u g
j ustĠ
ul t
an s
u re
por t
ĠtheĠ s
at edĠ
S t
i alĠ
I n
l y
Ġ ofĠ
d r
ha dĠ
p h
ow n
el yĠ
e as
oo k
d uc
p res
tĠ ofĠ
a inĠ
and ĠtheĠ
wh enĠ
int er
" Ġ
y ear
ne w
h eĠ
C h
Ġ f
oo dĠ
it sĠ
s el
d is
.Ġ S
al soĠ
w ay
s .Ċ
Âł Âł
ar g
m Ġ
if Ġ
u st
an tĠ
eĠ aĠ
ou sĠ
e g
be enĠ
r it
oun d
.Ġ H
ar Ġ
l in
ig n
ou s
h erĠ
s tĠ
ur eĠ
d i
Ġc anĠ
s c
n oĠ
- Ġ
ac c
at t
Y ou
m entĠ
of f
no t
f ir
Ġth ereĠ
whic hĠ
eĠth atĠ
) Ċ
u sĠ
s id
ab l
as tĠ
for ĠtheĠ
aĠ m
A n
it y
is h
Ġw asĠ
g etĠ
f in
at ĠtheĠ
re m
ar yĠ
it ion
s i
er e
Ġt ak
e y
am eĠ
Ġtheir Ġ
re l
con t
0 1
re at
f e
on lyĠ
d e
wor k
: Ċ
com m
aĠ c
ic k
oun dĠ
b ut
f ul
er v
sĠ areĠ
ab leĠ
w eĠ
mor eĠ
w ereĠ
aĠ b
i es
Ġth in
ha p
g et
or d
com p
an y
ev erĠ
ag eĠ
ac kĠ
ow Ġ
âĢ ¢
ev el
it t
.Ġ B
m ostĠ
ed ĠtheĠ
w ouldĠ
h im
,Ġ butĠ
n 'tĠ
d oĠ
âĢĻ tĠ
re as
m e
ver yĠ
our Ġ
bec aus
en er
y ĠtheĠ
Ġ (
aĠ l
re ad
om eĠ
es eĠ
lik eĠ
h el
s ĠtheĠ
th Ġ
p art
l l
os eĠ
er ,Ġ
Ġc on
s ĠthatĠ
.ĠI tĠ
y st
if fer
I '
âĢ¢ Ġ
int oĠ
e Ċ
i re
s Ċ
o ĠtheĠ
Ġth r
m in
aĠ f
- -
ev enĠ
peopl eĠ
oo kĠ
Ġ isĠ
em b
ing ,Ġ
b et
ar k
pro v
edĠ byĠ
y p
d ay
. ÂłĠ
ow nĠ
ar dĠ
re t
en g
t oĠ
un der
enc eĠ
w ill
re g
from ĠtheĠ
ar i
ed ,Ġ
edĠ inĠ
ol dĠ
u b
ic eĠ
sĠ inĠ
w oĠ
pl ac
oug hĠ
oo d
r eĠ
c r
whic h
en dĠ
ec tĠ
ch ang
up Ġ
a id
ad d
id e
is ĠtheĠ
.ĠTh isĠ
m an
i Ġ
el Ġ
per s
on 'tĠ
in v
ap p
o st
a ir
w ell
ur n
l if
or yĠ
g u
, Ġth
1 0
ent sĠ
m er
ol og
Ġc om
ĠĠ âĢ¢Ġ
h igh
d es
er t
ic t
ex t
k ingĠ
pro duc
m on
il eĠ
Ġs h
um b
m u
as ĠtheĠ
ch o
e -
eĠw asĠ
yst em
hel p
u allyĠ
le ar
b u
ab out
U n
ol d
ec on
f ect
esĠ andĠ
st at
Ġth anĠ
ar r
y ĠtoĠ
s o
if ic
som eĠ
im pl
oun t
ing sĠ
with ĠtheĠ
pl ay
h er
aĠ g
ec h
b as
" Ċ
Ġwith Ġ
; Ġ
un d
l ong
d iffer
u bl
cl ud
itĠ isĠ
! Ġ
O n
p ol
.Ġ W
w illĠ
am Ġ
Ġthat ĠtheĠ
wh ereĠ
a x
Wh atĠ
f ac
C on
g l
e b
it eĠ
I Ġw
p t
u alĠ
p on
re qu
i al
.Ġ M
o y
ov erĠ
ac hĠ
d ec
Ġ inĠ
en ĠtheĠ
re allyĠ
t ingĠ
an n
esĠ ofĠ
a ,Ġ
eĠ inĠ
.ĠA n
oc k
a veĠ
st ud
eĠ isĠ
n am
ar e
hap p
fir stĠ
com pl
it 'sĠ
e ep
ew Ġ
s ur
s up
is tĠ
ag ain
am pl
m at
l ook
em ent
! Ċ
oul d
c re
d ef
ion sĠ
j ect
an sĠ
ever y
b ack
el i
f act
in st
in clud
be ingĠ
= Ġ
; Ċ
per i
A Ġ
you Ġw
of t
v al
m anyĠ
d at
an k
I Ġd
pro c
is s
st or
a Ġt
c or
c ur
sel f
Th isĠ
âĢĿ Ġ
.ĠI Ġ
ant ĠtoĠ
th eĠ
a z
c as
âĢ ĵ
st and
es ĠtoĠ
.Ġ F
ex p
m ed
anc eĠ
i b
edĠ b
r un
ionĠ ofĠ
at ingĠ
ation sĠ
t im
qu est
ar m
be for
le g
th ingĠ
in eĠ
w at
st art
y s
o tĠ
wor l
isĠ aĠ
in dĠ
Âł Ċ
sh ip
bl em
c o
ingĠ aĠ
em entĠ
n umb
i aĠ
or g
A r
T r
C om
ha v
su chĠ
e k
oth er
f un
af terĠ
h ear
l at
e .
ch il
i k
f il
pers on
s ay
p ow
Ġ S
âĢ Ķ
g ener
n at
ou p
b o
2 0
ne ed
s erv
) ,Ġ
of Ġth
s l
il yĠ
A l
eĠ ofĠtheĠ
pro blem
al th
as h
a idĠ
ul ar
ep t
evel op
m ad
r ic
ro s
Ġth enĠ
F r
es .Ċ
f ic
i x
ingĠ andĠ
Ġm or
mer ic
bl eĠ
.ĠI n
oll ow
E n
ar tĠ
re eĠ
is su
m ayĠ
sp ec
o k
r at
r ight
su b
c ar
es ĠtheĠ
Ġt woĠ
prov id
A meric
g iv
new Ġ
v is
s m
.ĠTh eyĠ
un t
con tr
ouldĠ beĠ
ol ut
or sĠ
ver s
as k
ab il
w er
.Ġ Wh
vi ew
or t
d ayĠ
str uc
erĠ ofĠ
.Ġ P
t yĠ
1 2
s,Ġ andĠ
g oĠ
wh at
ex pl
re atĠ
rec t
k eep
e qu
u eĠ
becaus eĠ
ha d
c ri
im port
id ent
i anĠ
h um
p ec
you ĠcanĠ
.Ġ N
pro t
edĠ andĠ
I tĠ
h and
res s
Ġthin kĠ
o ,Ġ
ĠtoĠ beĠ
l oc
w rit
m od
Ġt e
p ubl
l iv
r a
pos si
you '
y .Ċ
u th
asĠ aĠ
r ightĠ
Ġb eĠ
know Ġ
Ġb e
res pon
n everĠ
al way
Ġthem Ġ
Ġm yĠ
yĠ andĠ
in form
n ingĠ
c all
our c
bet we
Ġth is
il Ġ
fr i
erĠ andĠ
Ġthr ough
r is
po int
abl eĠtoĠ
som eth
Ġthin k
haveĠ toĠ
ex ampl
o veĠ
, Ċ
g oodĠ
S h
d own
y m
f ollow
el ect
l essĠ
p ut
R e
f am
ed .Ċ
re al
wor kĠ
.Ġ D
ever yĠ
b od
p at
how Ġ
n âĢĻtĠ
er n
g am
1 1
ap pl
ÂłÂł ÂłÂł
ac tĠ
ech n
m ov
ex c
gr oup
H ow
con c
ne edĠtoĠ
er r
eĠs h
is m
a ut
.ĠI t
00 0
inĠ aĠ
is hĠ
ing ĠthatĠ
all y
go ver
le ad
er m
e,Ġ andĠ
ĠĠĠĠĠĠĠĠ ĠĠĠĠĠĠĠĠ
pres s
ab le
Ġ M
ationĠ ofĠ
mak eĠ
ic allyĠ
itt leĠ
ation alĠ
Ġtr ans
w ayĠ
bu il
ĠĠĠĠ ĠĠ
or Ġs
l evel
a h
, ĠtheyĠ
oc i
por tĠ
i el
I t
gover n
ch ar
um p
e ir
d et
ex tĠ
in tĠ
S Ġ
Ġth ough
ex peri
ent lyĠ
Ġtim eĠ
l et
us eĠ
v ari
.Ġ Âł
.ĠI nĠ
.Ġ You
b re
om Ġ
at iveĠ
l im
E x
us edĠ
d on
con s
itĠ wasĠ
re d
ĉ ĉ
fe el
e achĠ
cho ol
eĠth eyĠ
c ol
alway sĠ
.ĠI fĠ
.. .Ċ
č Ċ
l ow
for c
al k
us in
es ĠthatĠ
s k
se em
1 5
P ro
inc reas
l aw
ell Ġ
c ap
s eĠ
v ir
âĢ ¦
I nĠ
it edĠ
d ep
Ġw or
go ingĠtoĠ
all ĠtheĠ
b oth
c ouldĠ
all ow
. "Ċ
am p
ul l
haveĠ beenĠ
c an
an otherĠ
wh er
Ġth eseĠ
int oĠtheĠ
Ġc an
al sĠ
.Ġ T
be g
se eĠ
it iesĠ
esĠ areĠ
ol v
dis c
.ĠAn dĠ
in s
j ust
b ackĠ
ef fect
b ab
ad v
differ entĠ
l ookĠ
part ic
i a
eĠt r
ll Ġ
youĠ areĠ
wh yĠ
year sĠ
d evelop
us ingĠ
st illĠ
.Ġ L
ro p
le f
e veĠ
.Ġ O
l arg
happ en
n or
i ousĠ
val u
i ent
canĠ beĠ
ic kĠ
Ġb yĠ
pr of
a j
p ur
l astĠ
id eĠ
you Ġd
as sĠ
I fĠ
m eĠ
Ġ A
wh ileĠ
a ug
Ġth oseĠ
a int
fin dĠ
ation ,Ġ
mu chĠ
u f
aĠ h
et t
ing .Ċ
p op
d ist
g iveĠ
c t
ot t
i allyĠ
iv ers
eĠc anĠ
w as
gr am
aĠ lo
for Ġs
mu ch
/ /
l os
3 0
yĠ ofĠ
act uallyĠ
b eli
in u
c our
sh ow
Ġ P
c ent
p utĠ
9 9
em pl
for t
.Ġ C
e :Ġ
about ĠtheĠ
.. .
uc k
ap pro
char act
ap h
Ġs e
con sid
B utĠ
esĠ inĠ
struc t
iv id
Ġ asĠ
eĠt o
ar oundĠ
en ,Ġ
l y,Ġ
Ġ C
c aus
y Ċ
s ystem
om e
Ġtak eĠ
s er
c oun
, Ġt
and Ġt
ed ĠthatĠ
Ġto oĠ
.ĠB utĠ
f re
emb erĠ
a im
forĠ aĠ
Ġm e
m ark
o dĠ
J o
es Ċ
hasĠ beenĠ
ri but
.Ġ E
im ag
fri end
if i
Ġthe y
th erĠ
p ass
ever ,Ġ
li st
o x
b eĠs
inter est
sĠ ofĠtheĠ
âĢ ĺ
ed g
at esĠ
on e
s aid
) .Ċ
y ingĠ
uc c
I ĠwasĠ
ion ,Ġ
cl os
5 0
b estĠ
reas on
in k
do esĠ
eĠth anĠ
ear ch
b ig
st op
som e
F or
or der
act iv
sĠ (
ityĠ ofĠ
res ult
n et
wh il
edĠ withĠ
with outĠ
ath er
asĠ well
us h
ur alĠ
le as
u str
n on
Ġ B
w om
produc t
go tĠ
1 3
j ob
in n
g en
in it
s it
oft enĠ
ul tĠ
app ear
aĠ d
org an
Ġd o
s .
isĠ notĠ
do es
it ,Ġ
I' mĠ
eth erĠ
ec aus
com eĠ
.Ġ "
er g
re v
ingĠ inĠ
n ect
' Ġ
ereĠ areĠ
er s,Ġ
sh eĠ
G r
st ill
* *
l ess
eĠth isĠ
j o
1 4
inc eĠ
Ġt yp
aug h
i pl
per form
ak eĠ
act ion
An dĠ
âĢĿ Ċ
ong Ġ
pre t
sĠ forĠ
on ,Ġ
M ar
h ard
d ur
d em
art ic
u al
af ter
po st
h ist
B r
1 6
it y,Ġ
Ġth ere
] Ġ
day ,Ġ
someth ingĠ
k ill
he ad
i an
experi enc
worl d
.Ġ R
betwe enĠ
pr om
cur r
U S
youĠ haveĠ
P h
edĠb yĠtheĠ
c tion
compl et
pol it
for Ġm
l ight
IĠ haveĠ
sh ouldĠ
i eĠ
edĠ inĠtheĠ
w ar
f ig
eĠt oĠtheĠ
Ġthr oughĠ
A d
P r
ef ul
now Ġ
ion alĠ
quest ion
oneĠ ofĠtheĠ
al read
b or
on c
chil dr
er ĠtoĠ
C l
is eĠ
pres ent
i enc
re dĠ
' t
y n
s impl
_ _
comm un
e at
it âĢĻsĠ
econ om
gr ow
off ic
Ġ D
wor d
p erĠ
lo g
ne edĠ
requ ire
, ĠthereĠ
Ġc ouldĠ
t o
Wh enĠ
aĠ p
eĠt im
e ith
W eĠ
ig nĠ
l and
r ac
1 8
tĠ ofĠtheĠ
um Ġ
ro om
i qu
n g
pro gram
a uth
e al
ol Ġ
pos it
er .Ċ
c al
inv est
on d
c reat
ri st
s pe
ust om
s ign
ir eĠ
op er
pl an
edĠ onĠ
lo veĠ
f ind
, ĠthatĠ
n ec
sel fĠ
e 'sĠ
m us
v ent
suchĠ asĠ
b yĠtheĠ
m ar
pr act
wh en
m iss
outĠ ofĠ
ch ec
all y,Ġ
e ach
p ect
wh ol
m ightĠ
ic sĠ
er c
et im
st ep
I âĢĻ
ur nĠ
Ġth an
O r
y l
Ġto Ġt
pro bab
e ad
n ear
at eg
) ;Ċ
at iv
in alĠ
h om
I Ġs
mad eĠ
ing Ġt
Ġb et
b ro
m anĠ
he alth
u chĠ
Ġmor eĠ
] Ċ
S oĠ
d idĠ
consid er
2 5
id d
r ul
er nĠ
i es,Ġ
of ĠthisĠ
en ough
re am
k indĠ
oc ialĠ
is ĠthatĠ
befor eĠ
y Ġt
ingĠ ofĠ
ar ound
Ġm ayĠ
s ec
Ġb utĠ
an al
ĠtheyĠ areĠ
lin eĠ
r yĠ
ind ivid
worl dĠ
, ĠthisĠ
eĠw or
e ,ĠtheĠ
T oĠ
s Ġt
f oundĠ
proc ess
im il
sĠ inĠtheĠ
over ĠtheĠ
it ch
d el
E R
ic al
re adĠ
' reĠ
at or
e adĠ
gr aph
d ition
p ot
pr is
sel v
is ,Ġ
ic ation
him Ġ
re alĠ
N ewĠ
1 7
iz edĠ
it ut
in ĠthisĠ
. ÂłĊ
c ert
ri p
Q u
Ġth es
.ĠH ow
eĠth at
1 9
ay sĠ
alread yĠ
id n'tĠ
lear n
ed ĠtoĠtheĠ
You Ġ
er min
ha m
again stĠ
t t
s et
W or
or ig
ener g
bec om
ath erĠ
m et
h op
on t
Ġc l
} Ċ
im p
n extĠ
b le
a kĠ
qu al
ang u
i entĠ
in e
is ĠtoĠ
b ook
eĠth eĠs
ul arĠ
i -
aw ayĠ
ful l
m il
echn olog
fir st
ex ist
edĠ aĠ
en ef
Ġ T
ag e
h al
fl u
us s
w ant
re w
-- --
at ch
exp ect
d ownĠ
on âĢĻtĠ
ir l
e,Ġ butĠ
se tĠ
Ġth ing
B l
empl oy
on Ġs
g ood
re duc
ingĠ s
is c
pl ayĠ
ev en
sĠ aĠ
eĠth eir
.Ġ G
cont inu
ev ent
po intĠ
em pt
at elyĠ
ersĠ andĠ
h as
get tingĠ
Ġth er
le tĠ
ad eĠ
el y
whichĠ isĠ
your Ġb
probab lyĠ
of fĠ
w r
m un
ous lyĠ
Ġcon t
atĠ le
v ot
it .Ċ
hum anĠ
cl ass
under st
a ud
pro per
wouldĠ beĠ
u res
Americ anĠ
re f
. "Ġ
you âĢĻ
econ dĠ
h ous
bod yĠ
you ng
g est
oo t
> Ġ
, "
r on
p ay
h ereĠ
ĠtoĠ s
com ment
med i
lo v
av ail
Ġw ouldĠ
L e
I N
ever alĠ
re fer
op en
di rect
an im
withĠ aĠ
an kĠ
c le
,Ġ s
um ent
Ġm on
id entĠ
govern mentĠ
rel ation
y ingĠtoĠ
ur r
sĠ onĠ
Ġw ill
m y
rec e
.Ġ On
w antĠtoĠ
d on'tĠ
numb erĠofĠ
p ri
end ingĠ
Ġw e
s :Ġ
me an
g reat
2 4
.Ġ (
ak ingĠ
it ies
b usin
,Ġth enĠ
olut ion
out ĠtheĠ
, ĠtoĠ
aĠ andĠ
eĠth em
ep tĠ
ter n
under stand
h eĠwasĠ
h y
eĠw ouldĠ
j ectĠ
nor m
ity ĠtoĠ
p s
* Ġ
f iel
we ek
P l
f ectĠ
and ĠthenĠ
{ Ċ
look ingĠ
v ide
ed uc
d om
l ab
re port
us edĠtoĠ
p i
ret urn
r ol
g reatĠ
Ġto g
F orĠ
e _
er Ċ
at ed
l ittleĠ
k id
it alĠ
ac eĠ
m ag
Ġ atĠ
h or
s .ĠTh
i oĠ
.ĠIt 'sĠ
Ġw eĠ
edĠ asĠ
und erĠ
Ġw illĠ
an ,Ġ
S p
) ĠandĠ
nec ess
Ġ R
Ġth ingsĠ
t op
b in
st artĠ
1 00
2 1
d oc
I' veĠ
ĠĠĠĠĠĠĠĠ ĠĠĠĠ
vir on
Ġ ofĠtheĠ
ic h
D r
om eth
go ingĠ
buil d
kindĠ ofĠ
ionĠ ofĠtheĠ
haveĠ aĠ
ure sĠ
b i
b it
cl aim
f ound
ain ingĠ
u ch
con nect
A sĠ
ough tĠ
c oll
.ĠH eĠ
v o
inv olv
Jo h
n ess
fun ction
ing Ċ
f oc
su g
of Ġt
import antĠ
al mostĠ
An d
Ch rist
b er
eĠd o
res sĠ
d u
pow er
ver t
A p
r ow
M yĠ
b y
e eĠ
n es
he adĠ
Ġwith ĠtheĠ
on ly
. S
ch e
ear chĠ
lef tĠ
ent ialĠ
or Ġd
ch arg
r ad
I s
ic esĠ
ation ĠandĠ
l dĠ
2 2
et c
b el
al ong
un g
, "Ġ
is ion
Ġ forĠ
,Ġ itĠ
l angu
S c
li veĠ
uf f
s w
Ġ orĠ
.ĠI '
m ustĠ
e .ĠTh
s :Ċ
call edĠ
Ġsh ouldĠ
fam il
if fic
coun tr
l esĠ
ph ys
.ĠI f
w ard
or eĠ
l ightĠ
A T
l edg
ha ir
publ ic
al ,Ġ
hav ingĠ
h ol
Ch in
4 0
know nĠ
c ount
es pec
Wh yĠ
Ġtr ad
h old
o -
f ail
econ d
ex tr
pol ic
re st
.ĠA sĠ
in Ġt
lif eĠ
iz eĠ
ĠtheĠs am
will ĠbeĠ
ex per
op tion
ab s
D Ġ
d ev
ay ,Ġ
O b
e br
ch em
W ith
en n
Ġthat ĠtheyĠ
ar eĠtheĠ
man ag
re leas
us uallyĠ
ist sĠ
A c
ro t
p Ġ
ereĠ isĠ
ag re
ph ot
en viron
Ġm in
n essĠ
ou th
al eĠ
help Ġ
ac ros
r ang
bas edĠ
.ĠItĠ isĠ
add ition
f ar
mak esĠ
aĠf ew
ould n'tĠ
ro c
aĠg oodĠ
f ut
pro veĠ
N or
with Ġs
ucc ess
pr iv
er yĠ
non -
fe at
eith erĠ
.ĠA l
et sĠ
b ar
x Ġ
le ep
f ur
des cri
des ign
C Ġ
O N
dr iv
St at
qu ick
n ight
mor eĠthanĠ
erĠ isĠ
or tĠ
you Ġs
s ens
c lear
bet terĠ
Ġd oĠ
plac eĠ
Ġthat 'sĠ
s ayĠ
a Ċ
or y
o sĠ
onĠ aĠ
str ong
pr im
s ol
a it
ent ion
ĠthatĠ isĠ
b il
A R
H eĠ
you' reĠ
aĠlo tĠofĠ
pl eas
e kĠ
Un itedĠ
gr ad
og n
pret tyĠ
6 0
sp ect
T Ġ
lo b
lik eĠaĠ
eĠw ill
sid eĠ
your Ġs
g re
.ĠW eĠ
Ġthrough ĠtheĠ
partic ular
2 3
st ateĠ
any thingĠ
b enef
ou pl
al kĠ
E u
ful Ġ
h on
B e
En gl
R es
- -Ġ
v ol
s ,ĠtheĠ
ar y
prot ect
R ep
ill ion
A N
I' m
imil ar
W e
pers onĠ
or ,Ġ
sĠ wereĠ
9 8
Ġh isĠ
you Ġm
ans wer
ar en
as eĠ
ure dĠ
atĠle astĠ
l es
tĠ andĠ
.ĠS oĠ
E Ġ
pos ition
,Ġ IĠ
Ġt urn
ent r
ear lyĠ
.. .Ġ
edĠ forĠ
inform ationĠ
mak ingĠ
f terĠ
ere 'sĠ
includ ingĠ
comp ut
we b
o il
p ict
ire dĠ
,Ġ and
Th eyĠ
st oryĠ
all eng
ob ject
wh enĠtheĠ
d en
m om
eng th
al i
c ul
ityĠ andĠ
k ey
se qu
ĠtheĠ t
ur g
ĠtheĠs ameĠ
relation ship
st itut
as kĠ
c od
s .ĠTheĠ
A s
st ar
g irl
oun c
ain sĠ
it er
el f
am oun
ag g
ant sĠ
M on
oci et
m all
E l
aĠl ittleĠ
O f
ĠthereĠ isĠ
a ver
eth od
wat erĠ
notĠ beĠ
or Ġm
,Ġ but
at e
ag esĠ
= =
g ot
fe elĠ
res earch
,Ġ orĠ
ard sĠ
comp an
Ġb ecaus
s um
Ġt ri
C ol
e h
' s
.Ġ J
at 'sĠ
eth er
ans w
âĢĵ Ġ
is mĠ
fil m
rec ord
eĠw illĠ
ing ĠtoĠtheĠ
at er
ay beĠ
acc ess
espec iallyĠ
ersĠ areĠ
lin k
c ell
Ġ year
E v
s,Ġ butĠ
,Ġ "
P res
o Ċ
ĠthereĠ areĠ
Ġ L
per c
prof ess
Ġt w
e z
ud g
th atĠ
ha vi
com par
con f
ation .Ċ
edĠ up
ionĠ isĠ
f oodĠ
yĠ isĠ
c op
. Âł
.ĠWh enĠ
contr ol
if ĠtheĠ
.ĠTh atĠ
Ġthem selv
beli eveĠ
organ iz
B ut
rel ig
m ind
sp ir
c ult
al kingĠ
sĠ withĠ
Ġ F
n er
s on
.ĠThisĠ isĠ
il d
Ġs oĠ
does n'tĠ
It 'sĠ
Y ourĠ
ch alleng
inter n
Ġ -Ġ
con v
auth or
if icĠ
Ġth os
m aj
pro ject
no thingĠ
,Ġ aĠ
ain edĠ
U .S
. âĢĿĊ
r ap
every thingĠ
no v
av or
id enc
Ġ H
y -
emb er
er i
unt il
Ġtr yingĠtoĠ
it ĠtoĠ
l andĠ
IĠ amĠ
pow erĠ
.ĠAn d
p ath
ing leĠ
b eĠtheĠ
n ameĠ
A m
Ġthough t
acc ount
edĠ atĠ
or Ġc
t on
way ĠtoĠ
R E
etim esĠ
att ack
s chool
chang eĠ
or ĠtheĠ
keep Ġ
m ult
fam ilyĠ
ers ĠtoĠ
ex press
Ġ G
o graph
ur ingĠ
y cl
r iv
sup port
oc kĠ
f air
d oneĠ
p an
ind ow
oo g
fl ow
childr enĠ
p ap
2 8
Ġbet we
re ach
th er
chec k
vi ol
an ag
r id
pr ic
ap t
it em
det ermin
ar ch
i um
follow ingĠ
av o
ide aĠ
Ġb l
T im
le av
f all
polit icalĠ
e .ĠTheĠ
Th atĠ
am in
es ,ĠandĠ
IĠd on'tĠ
Ġd is
how ĠtoĠ
dat aĠ
E m
h eĠs
Ġwor k
e el
inst eadĠ
Ġd i
ir dĠ
in kĠ
for eĠ
ing ĠthisĠ
lo ad
ough t
bl og
ass oci
ed it
loc alĠ
Ġte am
2 7
con dition
your Ġc
unt ilĠ
li p
long Ġ
,Ġ soĠ
wat ch
Ġt est
w areĠ
e ?Ġ
9 7
wh etherĠ
p ayĠ
,Ġ M
f el
S T
m is
both Ġ
se enĠ
work ingĠ
d am
w id
at eĠtheĠ
ec ut
I ĠthinkĠ
.ĠA Ġ
ationĠ ofĠtheĠ
eĠc ouldĠ
.Ġ WhatĠ
I ĠcanĠ
you ĠtoĠ
cre ateĠ
f und
th ing
ed Ċ
p it
dr aw
ifĠ youĠ
Ġ N
enc yĠ
edĠ s
h our
giv enĠ
w asĠtheĠ
> Ċ
d iffic
ab oveĠ
Ġt op
bet ter
your Ġp
ofĠ aĠ
C ar
ens iveĠ
esĠ (
ed Ġto
P ar
r up
eĠw ereĠ
op enĠ
lik eĠtheĠ
,Ġ asĠ
I f
your Ġh
2 6
ist r
mon eyĠ
ic Ġs
r ather
p ingĠ
u k
.ĠF orĠ
p edĠ
im m
exampl e,Ġ
oth ersĠ
ach i
sĠtoĠ beĠ
re present
In ter
fr on
be h
Ġ inĠtheĠ
person alĠ
de b
sh ar
< /
or e
ers .Ċ
some oneĠ
c ustom
al t
bec omeĠ
G u
fin anc
peopleĠ whoĠ
d est
op t
if t
IĠw ouldĠ
In di
er -
at ter
rec tĠ
a -
gr ound
reg ard
ingĠ isĠ
rece iv
ex act
ect ion
h ere
lef t
U s
S tr
a ur
I D
pop ul
f ill
pi ec
c areĠ
c am
eĠ (
' veĠ
k eyĠ
up ĠtoĠ
P Ġ
m ot
p et
beg in
vari ousĠ
a .Ċ
im in
ment sĠ
m eas
esĠ aĠ
ep ar
en ĠtoĠ
I m
e atĠ
str ateg
how Ġm
r om
will Ġb
W ell
w it
inform ation
vi ousĠ
ext rem
ig g
o ol
comp et
Ġt ow
Ġt ell
gr oundĠ
ain lyĠ
port un
A L
whol eĠ
ro duc
esĠ inĠtheĠ
av el
Ġto t
edĠ with
t enĠ
nat uralĠ
ir c
possi bl
sh ouldĠbeĠ
ou se
ul yĠ
f our
p ack
respon si
hadĠ beenĠ
s ourc
u Ġ
order ĠtoĠ
at ur
know ledg
oneĠ ofĠ
e ed
N oĠ
tim eĠ
d id
int o
i et
b all
er ingĠ
he av
e an
appro ach
h ar
y t
e ?Ċ
do ingĠ
| Ġ
O R
onc eĠ
is n'tĠ
ic tion
wh o
r oll
ind ic
E d
F l
wor dĠ
Ġ yearsĠ
re view
energ yĠ
s ĠtoĠtheĠ
rec ogn
sm all
acc ept
Con t
,Ġ w
olog icalĠ
f iveĠ
r ough
m em
again st
ou ch
mark et
el s
ne tĠ
g ameĠ
su f
of fer
ish edĠ
s ex
ed er
em per
for Ġd
y ch
op portun
c rit
f ood
8 0
t woĠ
un ch
res ourc
em ot
Ġb r
ofĠth eseĠ
on esĠ
Ġth re
differ ent
ist ic
it iveĠ
in flu
oc cur
en sĠ
ful lyĠ
G re
al s
def in
f arĠ
iesĠ ofĠ
ear Ġ
A b
Ã ©
B rit
or s
th isĠ
underst andĠ
y,Ġ andĠ
f ix
st re
Ġ =Ġ
C an
S up
or dĠ
ÂłÂłÂłÂł ÂłÂłÂłÂł
on der
G od
ag ainĠ
it ionĠ
proc essĠ
par tĠofĠ
,Ġ whichĠ
âĢĻ Ġ
e (
m oveĠ
p ull
Un ivers
anal ys
ur s
n ightĠ
Ġth ingĠ
Ġw ereĠ
l a
publ icĠ
I Ġthink
.ĠB ut
ant lyĠ
wr ong
sp ac
every oneĠ
er edĠ
comp anyĠ
get sĠ
doesĠ notĠ
Ġd es
s aidĠ
A S
. com
ing lyĠ
att empt
b ir
im prov
curr entĠ
im proveĠ
M r
M ic
s af
m ost
c ost
us ,Ġ
c over
anc e,Ġ
ill ionĠ
ent alĠ
ifi edĠ
i bleĠ
he 'sĠ
acc ord
cl us
2 9
I S
f ast
le aveĠ
y etĠ
ri veĠ
Ġh eĠ
in ,Ġ
:Ġ "
. ,Ġ
A ll
m ess
ure ,Ġ
on sĠ
01 2
Ġte ach
ep end
om b
ra is
er ĠthanĠ
bre ak
D oĠ
af fect
re comm
y ĠthatĠ
ersĠ ofĠ
h eĠw
cons um
A M
of Ġthem
d iv
pur pos
high Ġ
e )
b al
sug gest
: //
ef fic
respon d
aĠ w
ag e,Ġ
ro ad
I Ġm
ÂłĠ ÂłĠ
E N
and ĠthatĠ
% Ġ
around ĠtheĠ
com ingĠ
C r
environ ment
mon th
e.Ġ S
us si
eĠ forĠ
9 0
od yĠ
= "
simpl yĠ
if yĠ
al ter
Th eĠs
ĠthisĠ isĠ
d ou
.ĠItĠ wasĠ
esĠ ofĠtheĠ
j our
had ĠtoĠ
w w
i enceĠ
M us
pract ic
iv elyĠ
any oneĠ
par tĠ
mod el
H owĠ
erĠ inĠ
anc eĠofĠ
p ast
.ĠTh eĠs
on eĠs
g e
Ġtr u
be havi
ind ustr
Ġmin ut
lim it
ometh ingĠ
out sid
s )
l d
res pect
u aryĠ
govern ment
m itt
aĠg reatĠ
D ec
c ha
à ¤
w ardĠ
om at
.ĠIn ĠtheĠ
. âĢĿĠ
ail Ġ
aĠb itĠ
of ĠtheirĠ
est abl
e gr
e Âł
Ġth reeĠ
,Ġ S
or Ġb
p rec
s everalĠ
Ġp o
n ic
ur ityĠ
i o
pl at
ingĠ forĠ
+ Ġ
e am
year Ġ
com esĠ
re li
e enĠ
G oog
Ġs p
mayĠ beĠ
par tĠofĠtheĠ
s inceĠ
ag eĠofĠ
i edĠ
onĠ andĠ
mak eĠs
not ic
Ġcan 'tĠ
ak esĠ
Ġs ystem
vide oĠ
Ġm od
H e
M ed
weĠ areĠ
In ĠtheĠ
P ol
act iveĠ
e opl
a u
edĠtoĠ beĠ
asĠwell ĠasĠ
de ep
m ainĠ
D i
k ind
E ar
it ud
J an
eĠth atĠtheĠ
for Ġc
,Ġ inĠ
em entsĠ
fir m
ab lyĠ
I Ġc
b adĠ
spec ific
p astĠ
outĠ ofĠtheĠ
abil ityĠ
iesĠ andĠ
b itĠ
on e,Ġ
is Ġt
Ġtr yĠtoĠ
ing Ġto
fiel d
hist or
ĠĠ Ġ
aw ay
ThisĠ isĠ
after ĠtheĠ
qu it
C O
N ew
mat er
A t
l ay
un ivers
Ġthough tĠ
fac eĠ
in sĠ
.Ġ Y
o on
c ut
bo x
leg alĠ
go esĠ
im medi
edĠ hisĠ
import ant
af f
err or
in sid
edĠ m
l ast
j oy
j ur
doĠ notĠ
wher eĠtheĠ
f lo
avail ableĠ
Y or
s ameĠ
i ous
N ow
pres entĠ
haveĠ th
be aut
Ġthan ĠtheĠ
disc uss
ad dĠ
Joh nĠ
if f
int roduc
it aryĠ
I sĠ
ur eĠofĠ
ar kĠ
Eu ro
com bin
.ĠI Ġd
h ardĠ
compl ex
bu yĠ
ingĠ itĠ
r out
don âĢĻtĠ
G e
ou thĠ
n 't
ass um
int ell
of Ġtheir
F ir
.ĠHow ever,Ġ
en oughĠ
er 'sĠ
ĠtoĠ aĠ
3 5
I T
ob serv
4 5
ord erĠ
s ocialĠ
Ġc our
cour s
am ong
at orĠ
chil d
ur b
h omeĠ
f a
amoun tĠofĠ
.ĠYou Ġ
orig inalĠ
âĢĻ t
reg ul
enc eĠofĠ
c it
ne g
f ew
ig r
j udg
uc kĠ
01 1
b ookĠ
but ĠtheĠ
ch as
serv ic
01 3
p en
! !
eĠm yĠ
and ĠtheyĠ
Ġbe ingĠ
,Ġ andĠtheĠ
re di
f ight
pro g
m aint
wom enĠ
& Ġ
h andĠ
sĠ isĠ
end edĠ
ationĠ isĠ
g un
respon s
' sĠtheĠ
ech an
p ag
eĠtheir Ġ
beli ev
mentĠ ofĠ
g aveĠ
Ġb eli
it self
rem ov
c eĠ
A C
,Ġ which
it u
h tt
s al
Ġs aid
reas onĠ
a 'sĠ
v ict
i erĠ
not ĠtheĠ
ing Ġthem
y 'sĠ
e âĢĻsĠ
ens eĠ
A P
G odĠ
J un
pre d
d og
.Ġ K
01 0
con st
Ġ aĠ
qu iteĠ
lik eĠtoĠ
ug g
d ig
charact er
h oldĠ
sĠ likeĠ
s or
a i
ingĠ m
ubl ic
l edĠ
pr inc
el yĠtoĠ
v iv
# #
I sl
itĠ andĠ
ity .Ċ
s inc
Ġd at
- t
an ch
ep tion
pr int
iffer entĠ
ri esĠ
N ot
sĠ onĠtheĠ
heĠ isĠ
h ot
in f
l ot
sup pl
T V
sĠ orĠ
a ul
A g
s ess
provid eĠ
a hĠ
am e
al u
Ġcon tr
chil dĠ
ro b
w eĠd
IĠ am
arr yĠ
at hĠ
your Ġm
ret urnĠ
be en
b on
J ap
su ch
b ott
Ġb oth
R ussi
adv ant
op h
D o
.Ġ âĢľ
l iter
fromĠ aĠ
res ultĠ
eĠs aid
Ġh ow
n ext
erv ic
ris kĠ
inter estĠ
N otĠ
D em
Ġs up
it or
haveĠ theĠ
S e
dur ingĠtheĠ
ingĠ withĠ
for e
a Ġtr
b lyĠ
if ĠtheyĠ
fort un
le ,Ġ
ef fort
hasĠ aĠ
Ob am
oc rat
ri edĠ
Ġto day
lat erĠ
individ ualĠ
aĠlo tĠ
high erĠ
ord in
busin essĠ
i bl
and ,Ġ
el se
det ail
Ġmon th
wh it
ik eĠ
d rop
dec id
sup portĠ
are aĠ
3 2
ex ecut
W ar
fur therĠ
know n
el y,Ġ
es s,Ġ
ne yĠ
y et
ific antĠ
run ningĠ
stud yĠ
m enĠ
dr ug
st ayĠ
R ec
get ĠtheĠ
rather ĠthanĠ
numb erĠ
in -
diffic ult
Euro pe
h eĠd
Ġdo esĠ
re plac
eĠw eĠ
n ation
I I
not ĠtoĠ
s .ĠA
s.Ġ S
u it
per hap
at erĠ
D es
Th ereĠareĠ
larg eĠ
ar eĠth
experi enceĠ
st y
Ġtak ingĠ
w is
in sur
ent ur
ros s
M c
se as
ach in
ent ĠtoĠ
ion ĠandĠ
V i
u el
Ġtak esĠ
z z
rec entĠ
C or
g lob
ap Ġ
dep end
c amp
' dĠ
complet elyĠ
re pl
inĠ myĠ
op in
al so
sit u
mat terĠ
us esĠ
sĠ asĠ
if ul
re fl
lik elyĠ
al iz
ed Ġt
: :
en u
up ĠtheĠ
ver y
f requ
s ?Ġ
7 0
en ch
eĠc an
y pe
fr ic
eĠw e
ris k
conc ern
Ġtim esĠ
abil ityĠtoĠ
P er
âĢĻ reĠ
er tĠ
F ac
start edĠ
Ġb u
dur ingĠ
prot e
f ear
ex erc
par ent
us er
I r
and Ġth
00 8
sh ort
dis eas
i ansĠ
act ionĠ
as c
s am
ell ingĠ
phys icalĠ
as hĠ
Ġh erĠ
eĠsh ouldĠ
un iqu
gu id
9 6
r ound
n ut
your self
youĠw antĠtoĠ
c ouldĠbeĠ
aĠf ewĠ
ome oneĠ
he al
on Ġm
eĠs e
f reeĠ
wh atĠtheĠ
r am
R ob
N o
ing ,ĠandĠ
p tion
be st
c at
cons ist
p ick
fri endĠ
Ġh im
under ĠtheĠ
est im
e .ĠA
edĠ intoĠ
i ,Ġ
invest ig
e "
.ĠW ith
as ĠtheyĠ
ation Ċ
cho os
hum an
e ,
eĠ inĠtheĠ
eĠs oĠ
NewĠ Yor
whatĠ isĠ
un n
your Ġd
B yĠ
h ib
.ĠT oĠ
appl ic
weĠ haveĠ
bl oodĠ
ent er
enough ĠtoĠ
prom ot
pos tĠ
- s
f ol
c ameĠ
real iz
t sĠ
vi ewĠ
D is
st uff
wor th
cl assĠ
---- ----
ou d
im ul
9 5
possi bleĠ
t onĠ
d idn'tĠ
Ġthat ,Ġ
oun tĠ
us hĠ
run Ġ
iv er
ch anc
me ansĠ
pl ant
stud ent
cri pt
aĠ isĠ
ag u
E S
net work
em erg
aĠl arg
betwe enĠtheĠ
artic leĠ
s ?Ċ
lik eĠth
00 9
Ġw as
comm onĠ
f em
' r
.ĠIt âĢĻsĠ
exact lyĠ
ag o
R ev
prom is
s uccess
Ġh our
Ġ '
long erĠ
us eĠofĠ
h ur
de alĠ
gu y
T u
s ound
ItĠ isĠ
hear dĠ
of ĠthatĠ
int egr
IĠ hadĠ
ad min
.ĠTh eĠm
with Ġm
str a
oft wareĠ
eg re
s onĠ
rel at
bl ock
ingĠ inĠtheĠ
ill i
I C
allĠ ofĠ
ur ch
3 3
and ĠtoĠ
youĠw illĠ
sl ow
Wor ldĠ
includ eĠ
.Ġ St
ex pos
__ __
cre d
M Ġ
r en
c ostĠ
atĠ all
p air
orĠ ofĠ
J ew
D av
R om
necess ar
hist oryĠ
Ġc ar
exper im
asĠ anĠ
esĠ forĠ
in ĠthatĠ
Ġbetwe enĠ
cl im
proper t
/ Ġ
gener alĠ
A fric
eas ilyĠ
cho ic
back ĠtoĠ
Ġf il
childr en
Ġt ax
Ġd ec
Ġs omeĠ
l ostĠ
am b
anĠ andĠ
M in
entĠ ofĠ
well Ġ
U SĠ
.ĠTh ereĠ
areĠ notĠ
youĠ know
rec tion
fel tĠ
N O
de ath
descri b
Ġtog etherĠ
s ym
I' dĠ
Ġtim e,Ġ
echn iqu
N ov
l ingĠ
ang er
cont ribut
stud entsĠ
orig in
ect ionĠ
en joy
e.Ġ H
sh owĠ
s il
pro pos
s ,
pre par
L Ġ
p ain
sĠ haveĠ
def init
eĠt woĠ
} Ġ
inst all
lik elyĠtoĠ
ion .Ċ
m allĠ
f avor
ark et
Ar t
norm alĠ
idd leĠ
p ush
at tr
c en
ackĠ ofĠ
Ġb as
som etimesĠ
pl ann
Th ereĠ
buil dĠ
.. ..
Ch ar
abs olut
fiel dĠ
se e
ut il
Ġtheir Ġf
Ap pl
Ġtheir Ġs
U p
B ar
mult ipl
con vers
mak eĠaĠ
eder alĠ
isĠ anĠ
ĠcanĠ beĠ
me et
aĠl ong
en se
possi ble
heĠ hadĠ
reg ular
us ingĠtheĠ
ear li
writ tenĠ
c el
Ġt reat
mor eĠs
ask edĠ
p ir
M od
ic ĠandĠ
qu ot
effect iveĠ
expl ain
b ol
eg g
h ost
imag in
said ...Ċ
ic ,Ġ
.ĠTh eseĠ
n erĠ
b eĠt
3 6
when ĠtheyĠ
L E
fin alĠ
b ur
ionĠ inĠ
{ \
b ad
sĠ atĠ
on dĠ
r atherĠ
3 1
in ĠtheirĠ
Ġc r
eh ic
5 00
ev idenc
** **
s /
cas eĠ
roc k
orĠ andĠ
D at
edĠ on
insteadĠ ofĠ
um m
re pe
against ĠtheĠ
itt l
:Ġ TheĠ
financ ialĠ
Is ra
ed ,ĠandĠ
low erĠ
w in
arg et
c up
off ĠtheĠ
adv anc
act ualĠ
ert ainĠ
Ġt ookĠ
youâĢĻ reĠ
ind epend
m ath
appro pri
it al
inĠ hisĠ
um entĠ
us eful
01 4
How ever,Ġ
d erĠ
wasĠ aĠ
s iz
Ġs how
R el
peri od
uc t
S un
Ġd ef
n os
ent ireĠ
quick lyĠ
In t
w if
in fect
You ĠcanĠ
i .
enĠ andĠ
ing s
c ord
c anc
m ic
edĠ fromĠ
w eĠcanĠ
ĠtoĠ getĠ
ur ingĠtheĠ
acc ur
vi ouslyĠ
A f
edĠ itĠ
spe ak
ag oĠ
oun tr
eth odĠ
i er
chec kĠ
bro k
big g
sĠ fromĠ
Ġd r
min dĠ
et er
nat ur
m it
f oot
gener allyĠ
ac yĠ
ne igh
st anc
ir t
n arr
Ġt echnolog
ĠĠĠĠ âĢ¢Ġ
arg u
quest ionĠ
min ut
ent ,Ġ
e :Ċ
h is
iel d
U.S .Ġ
m al
rec i
ri b
list en
partic ip
M or
associ atedĠ
end sĠ
from Ġs
Can ad
ab or
aw Ġ
On eĠ
P ost
Ġt erm
with inĠ
T H
vis it
n uc
f ire
b ank
es ,ĠtheĠ
C o
l ateĠ
Ġd ay
st ream
al ityĠ
emper at
Ġb ut
or ĠtoĠ
al g
Ġto ol
ment ion
appl ication
O h
M ostĠ
O ur
priv ateĠ
atedĠ byĠ
produc tĠ
oll ar
at eĠs
" ,Ġ
oc t
Ġtheir Ġp
Ġtrad ition
Ġs ay
D O
for ĠthisĠ
.ĠM yĠ
pot entialĠ
bl ack
nat iveĠ
wh iteĠ
sh op
oo tĠ
ingĠ ofĠtheĠ
be y
3 7
m emb
disc over
sc en
stand ardĠ
enc esĠ
Rep ublic
eĠm ayĠ
fact ĠthatĠ
)Ġ {Ċ
aĠ (
et terĠ
erĠ (
iv il
v ehic
olog yĠ
becaus eĠtheyĠ
am az
cert ainĠ
ign or
J ustĠ
asĠ itĠ
el ev
whenĠ itĠ
sĠthatĠ areĠ
ingĠ anĠ
foc usĠ
on str
us eĠtheĠ
inĠ andĠ
hav en
e ah
hal f
Ġs aidĠ
re -
n ationalĠ
ent ial
employ e
aĠc oupl
up ĠandĠ
impl ement
A ug
edĠ onĠtheĠ
ed d
posit iveĠ
struc tion
,Ġth ough
hal fĠ
st e
.ĠTh ereĠareĠ
busin ess
ph as
cr im
m ix
p tĠ
u fact
sc re
ant i-
et ic
mark etĠ
4 8
ps ych
oo th
Pres identĠ
a Ġth
s imilar
w ear
s ett
att ention
w entĠ
self -
in fl
Goog leĠ
F ig
Ġ W
sc ient
.ĠS heĠ
il dĠ
a itĠ
( )
U R
Fac eb
rem ember
ation s,Ġ
duc t
$ \
aĠb ig
IâĢĻ mĠ
off erĠ
per fect
whoĠ areĠ
alĠ andĠ
Ġt alk
tr ans
As s
ide a
v ill
J es
itt ingĠ
quest ionsĠ
A ct
str ength
l ock
A D
ro g
on Ġc
you Ġcan
A nĠ
Ġh el
on ĠthisĠ
3 8
( "
hear t
ep h
c irc
plat form
id g
Ġ onĠ
fe ed
ob t
l ic
O nĠ
usin essĠ
r and
lear nĠ
rel ativ
us erĠ
ph oneĠ
J am
' ll
dat a
, âĢĿ
sh ortĠ
vir t
m ethod
,ĠthereĠ areĠ
h os
C anĠ
on lin
on ĠmyĠ
00 7
th em
ly ĠtheĠ
pop ular
bl ackĠ
mon ey
pict ure
eĠm on
on n
id enceĠ
od eĠ
all owĠ
on ym
Ġse eĠ
s av
s ch
enc our
r ateĠ
d d
for ward
G ener
ear th
and id
c ard
ear n
du eĠtoĠ
P C
ou dĠ
ers Ċ
iv e,Ġ
peri odĠ
ol ar
Ġm eĠ
um er
em ail
look edĠ
aĠ S
Ġcom pl
dec ision
Ġt oldĠ
Ġbecaus eĠ
augh tĠ
i ar
hel dĠ
w antĠ
part yĠ
res earchĠ
Ġt ellĠ
de al
ir d
vari et
liv ingĠ
R eg
Ġpo int
I ĠcouldĠ
at is
3 4
ud d
U K
Ġthin kingĠ
at e,Ġ
ofĠth oseĠ
langu ag
giv esĠ
b andĠ
A pr
i a,Ġ
B ecaus
pro jectĠ
answ erĠ
01 6
ing ĠtheirĠ
E r
ic tĠ
pe ak
con sc
what ĠtheyĠ
endĠ ofĠtheĠ
anĠ un
form erĠ
F in
res ist
Ġtak eĠaĠ
.ĠE v
com fort
b ul
2 00
Ġth oughĠ
me ans
particular lyĠ
.Ġ Un
, âĢĿĠ
Ġm ov
,Ġ whoĠ
Tr ump
comp any
âĢĻ s
ies .Ċ
Ġw ay
el seĠ
ist erĠ
no therĠ
k new
h ouse
ould nâĢĻtĠ
qual ityĠ
b and
how ever,Ġ
someĠ ofĠtheĠ
c ast
ow erĠ
ĠtoĠ doĠ
vo ic
ef fectĠ
W est
ail yĠ
Ġtr ain
Ġt end
Ġ in
Wh at
per fectĠ
does nâĢĻtĠ
y r
st andĠ
him self
Ġtak enĠ
col or
Ġb ec
0 5
S E
intoĠ aĠ
Ġthere 'sĠ
st ick
iv e
you Ġc
UnitedĠ Stat
ofĠth es
s leep
R O
coll ect
A fterĠ
sk ill
e en
me anĠ
Ġb ack
ens ion
ĠwithĠ aĠ
es sĠofĠ
op tim
b urn
F il
P eopl
Ġw rit
ly .Ċ
ri ef
atĠ aĠ
fin allyĠ
un k
wat er
edĠb y
b oy
B u
differ enceĠ
our Ġs
b att
M an
all ,Ġ
e anĠ
aĠs ingleĠ
acros sĠtheĠ
O ct
esĠ wereĠ
look sĠ
pre v
s ureĠ
S k
beaut iful
mat ch
notĠ onlyĠ
N e
intell ig
r ain
,Ġ C
all Ġs
. )Ċ
j u
didĠ notĠ
w ait
ing s,Ġ
am m
qu ant
countr yĠ
lear ningĠ
ac qu
" TheĠ
med iaĠ
ation s
you' r
Joh n
S ch
eng ine
oth ers
ax im
enc e,Ġ
ug eĠ
rup t
l owĠ
d eĠ
youĠ needĠtoĠ
j ump
pre fer
alĠ ofĠ
pt om
? "Ċ
el ement
equ ip
rel ev
cap t
Ġm anyĠ
val ueĠ
publ ish
ro y
expl or
y th
establ ish
dist ribut
, Âł
01 5
ic Ġp
bas edĠonĠ
we ightĠ
pl anĠ
Ġtr avel
on yĠ
or iesĠ
R o
grow th
miss ion
spec ialĠ
,Ġ B
ur eĠthatĠ
fun ct
ri k
individ ual
edĠ outĠ
edĠ herĠ
maj or
at oryĠ
co ol
rem emberĠ
contr oll
ro omĠ
on .Ċ
are asĠ
Ġtim eĠtoĠ
pre viousĠ
play ingĠ
our Ġc
achi ev
on lineĠ
lo adĠ
ist icĠ
S ec
ationĠ inĠ
arr iv
y nam
itĠ is
Ġtheir Ġh
sur pris
exerc is
re str
st ag
Ġt oo
or r
I M
youĠd on'tĠ
pur chas
str ang
eĠs omeĠ
om en
mat ter
u ally
us p
4 4
os ph
cent r
est er
high lyĠ
ed ĠthisĠ
Ġ k
( andĠ
s ociet
C our
on 't
âĢĻ veĠ
to -
ersĠ inĠ
Ġtheir Ġc
un chĠ
eng ag
N A
Ġth en
eĠs p
ĠĠĠĠĠĠĠĠ ĠĠ
addition alĠ
er ship
ingĠ hisĠ
Jap an
sh e
? "Ġ
m en
l istĠ
es n'tĠ
Ġthem ĠtoĠ
0 8
wh ere
Âł ÂłĠ
rec entlyĠ
el sĠ
in kingĠ
wom anĠ
ent iallyĠ
sub ject
Tr ans
commun ic
contr olĠ
e .ÂłĠ
eĠwor k
Ġwith outĠ
Ġ K
z er
form ĠofĠ
avo idĠ
op pos
polit ic
wh y
.ĠA fterĠ
gu yĠ
er ĠtheĠ
as ĠtoĠ
near lyĠ
m aybeĠ
so ,Ġ
am et
f erĠ
c li
f at
Nor thĠ
it ĠtheĠ
at ic
giv ingĠ
ast erĠ
su re
Ġm ightĠ
Ġs om
makeĠ itĠ
way ,Ġ
of tĠ
i ou
allow sĠ
c utĠ
what everĠ
el in
l augh
add ress
' '
w onder
ed ul
D ep
ust ri
beh indĠ
c allĠ
yp t
en em
M ayĠ
ult im
mus ic
becaus eĠtheĠ
hear tĠ
eĠs ay
Ġs chool
is ionĠ
on eĠtoĠ
compan iesĠ
i ef
.Ġ V
neg ativeĠ
en i
cont ent
em por
esĠ withĠ
mor eĠd
Ġthat âĢĻsĠ
whenĠ youĠ
s )Ġ
al b
N ationalĠ
l ad
with inĠtheĠ
inĠ anĠ
7 5
l ar
s Ġto
an other
issu eĠ
st ock
s.Ġ H
P art
fr ont
Ġwe ek
f ourĠ
w alk
B as
e .ĠI
s ent
for d
or n
Ġbeli eveĠ
s pr
ol veĠ
hadĠ aĠ
no c
ĠtoĠ haveĠ
hous eĠ
w all
rel atedĠ
Ġthey 'reĠ
you ,Ġ
et ,Ġ
Ġ J
act ionsĠ
Ge org
Fr id
IĠd oĠ
extrem elyĠ
im portĠ
S outhĠ
ed ic
ap point
i entsĠ
ha k
om in
ingĠ onĠ
Ġm ak
charact erĠ
am er
v eg
you ĠmayĠ
s qu
a âĢĻsĠ
ous and
es .ĠTheĠ
H ar
o h
af t
Ġc all
bo ard
cre atedĠ
ed ĠthatĠtheĠ
Ġd own
perform anc
P al
ĠthatĠ itĠ
ateĠ andĠ
U N
P et
es :Ġ
mater ial
fig ureĠ
ad em
ch ann
ank sĠ
s iteĠ
inter view
.ĠYou ĠcanĠ
recomm end
hard ĠtoĠ
eĠth ereĠ
g ar
c ook
imp actĠ
p aidĠ
can 'tĠ
ous eĠ
S m
et ail
ast er
il os
eĠs ystem
at ing
3 9
young Ġ
interest ingĠ
Ġthat ĠthisĠ
.ĠTh eĠc
inst itut
.ĠH isĠ
we ekĠ
glob alĠ
An g
acros sĠ
E D
edĠ ofĠ
Ġcom p
comm on
you ĠshouldĠ
read ingĠ
0 7
ic hĠ
peopleĠ areĠ
ifĠ itĠ
edĠ withĠtheĠ
comp on
requ est
eĠth eĠt
St ud
s econdĠ
Fr anc
ersĠ ofĠtheĠ
princ ipl
allĠ ofĠtheĠ
edĠ in
0 6
ro k
G er
ĠthoseĠ whoĠ
r u
St atesĠ
you' veĠ
eĠw ay
is tĠofĠ
avo id
Re pl
sh areĠ
âĢĶ Ġ
W eb
ere âĢĻsĠ
L et
cl oth
B Ġ
end erĠ
I P
eas yĠtoĠ
pres sĠ
cor rect
doc ument
' llĠ
olut ionĠ
fut ureĠ
how ĠtheĠ
im press
a ult
vict im
spec ificĠ
bod y
aĠ veryĠ
eĠtim eĠ
sĠ canĠ
pre vent
ment alĠ
ed om
st ay
vers ion
il ityĠ
am il
00 6
lookĠ atĠ
g ott
rad i
noĠ longerĠ
g n
bir th
sup pos
ies ĠthatĠ
rev eal
A ustr
analys isĠ
exc it
.ĠI' mĠ
t yp
a is
oĠ andĠ
ug gl
som eĠs
Ġ -
eĠofĠ aĠ
jo in
ass ist
oc ol
: Âł
Ġs o
cert ainlyĠ
v ar
eir Ġ
0 9
0 4
buil tĠ
e /
ic Ġc
$ Ġ
.ĠTh eĠd
L O
ex Ġ
âĢ¦ Ċ
on -
app reci
ep is
Ġthemselv esĠ
abil ity
a ign
ev alu
Ġtr yĠ
aĠ M
li br
en h
w arm
s n
5 5
e )Ġ
m id
ash ing
ell sĠ
P leas
eas yĠ
br ingĠ
Ġb re
of ĠthemĠ
ro adĠ
f ish
== ==
O ut
` `
m o
It âĢĻsĠ
perhap sĠ
ur eĠtoĠ
6 4
lab el
. [
om et
bo ardĠ
br ainĠ
en jo
P o
r oughĠ
ey esĠ
Ch ang
itĠ inĠ
you ĠcouldĠ
up dat
cont ain
ure .Ċ
im mun
f ing
D ef
mar ri
ec hĠ
Ġm il
u alsĠ
f astĠ
s epar
Ġtr ack
ent erĠ
mustĠ beĠ
ĠthereĠ wasĠ
refer enc
01 7
form Ġ
med icalĠ
h und
pred ict
P aul
bal anc
if tĠ
us ĠtoĠ
eĠth ingsĠ
Wh oĠ
oc cas
yĠ inĠ
e atingĠ
G erm
go ĠtoĠ
- >
event uallyĠ
min im
se eĠtheĠ
Ġm illionĠ
stor y
whoĠ isĠ
' ,Ġ
Ġp ol
am ount
p ://
m ir
nam edĠ
entĠ andĠ
at es
Engl ish
Ġm ostĠ
I R
new sĠ
eĠw as
fact or
ra q
produc tion
d ark
mov i
ec k
st ead
Ġd idĠ
edĠ out
s we
I L
. )Ġ
aĠs mall
C ong
e. g
op Ġ
e.Ġ Âł
er veĠ
m m
Ġc ol
vi ous
onĠ hisĠ
eĠtoĠ beĠ
doc t
ation ĠtoĠ
S ept
m ass
es h
necess aryĠ
le yĠ
rec ordĠ
eĠth ing
require d
T wit
rece iveĠ
mak eĠtheĠ
relig iousĠ
% ĠofĠ
jour n
dam ag
Ġ *
pe ac
s un
mom ent
P S
,Ġ weĠ
old erĠ
consid erĠ
m ay
caus eĠ
wer eĠs
.ĠS omeĠ
ann ounc
h itĠ
di ag
cal cul
Ġcom mun
f ewĠ
if y
O Ġ
S ub
intern ationalĠ
qu art
I raq
befor eĠtheĠ
kid sĠ
uf fĠ
high -
fron tĠ
M anyĠ
Ġb eg
4 7
stand ard
ing ĠthemĠ
proc ed
y z
aĠ C
b t
h arm
an ĠtoĠ
fac tĠ
us ed
Ġt er
program m
ĠthatĠ wasĠ
Ġse em
your selfĠ
refl ect
comput erĠ
ag reeĠ
aut omat
IĠ know
s .ÂłĠ
Ġp os
re atedĠ
lo tĠofĠ
ri dĠ
bel ow
,Ġ âĢľ
: ĠtheĠ
om enĠ
Oct ob
w o
an e
impl yĠ
am ent
vert is
Ġtim e
ric h
w eĠw
it selfĠ
aren 'tĠ
che ap
elect ric
k eptĠ
s yn
prim aryĠ
T o
IĠ justĠ
mil itaryĠ
ser veĠ
.ĠTheyĠ areĠ
youĠw ill
issu esĠ
con fig
wh oseĠ
S omeĠ
youĠ haveĠtoĠ
s -
for n
es cap
d riveĠ
W indow
ĉĉ ĉ
a uc
r y
in jur
inn erĠ
H isĠ
s ucc
youĠd oĠ
s ing
arg etĠ
âĢ¦ Ġ
possibl eĠtoĠ
ak enĠ
Dem ocrat
mightĠ beĠ
posit ionĠ
sh eĠwasĠ
per spect
Ġw eb
goingĠtoĠ beĠ
per cent
af tĠ
O S
UnitedĠ StatesĠ
is on
S om
Ġc entur
ab b
Ġs ur
do or
n ing
c ityĠ
con fl
h ang
ell ow
Ġs heĠ
al -
it l
Isra el
M at
problem Ġ
well -
vol um
m ur
B o
ide asĠ
Re ad
Ġ perc
Jan uaryĠ
wh ether
gr and
Europe anĠ
res h
" ĠandĠ
ment ,Ġ
> <
at ingĠtheĠ
p ainĠ
aver ageĠ
r ig
elect ron
c are
ap par
A llĠ
.com /
f i
l ength
at âĢĻsĠ
D e
ed lyĠ
c ycl
Th eseĠ
beh ind
a .
ent ire
x im
0 2
dom in
w ould
eas i
on es
grow ingĠ
ar c
down ĠtheĠ
usin ess
00 5
ab ov
.ĠS h
iv al
or por
IâĢĻ veĠ
I'mĠ notĠ
pol iceĠ
de athĠ
si x
re portĠ
I V
Well ,Ġ
p un
ali forn
.ĠTh enĠ
y,Ġ butĠ
anyĠ otherĠ
cl in
un ction
p ageĠ
ax Ġ
itĠ wouldĠ
eĠtr ans
langu ageĠ
aveĠ aĠ
peopl e,Ġ
b ear
health yĠ
sĠ byĠ
el t
dem onstr
Ġp ar
ityĠ ofĠtheĠ
edĠ him
f arm
li b
Ġtheir Ġb
heal thĠ
full Ġ
ed nes
alth oughĠ
M o
pr iceĠ
able ,Ġ
ex amin
ug gest
get t
sel ect
h us
S y
seem sĠ
sc al
int end
imil arĠ
possi bil
W rit
eĠth an
r icĠ
ies ĠtoĠ
Ġs ub
C D
# Ġ
4 6
ere for
ic Ġm
M ac
a ultĠ
A tĠ
br oughtĠ
en e
,ĠthereĠ isĠ
er âĢĻsĠ
Ġcont inu
an i
ific ation
so ĠthatĠ
is nâĢĻtĠ
O ver
con struct
an eĠ
ire d
pat tern
bec ameĠ
le an
or m
et icĠ
you .Ċ
oo p
on e.Ċ
edĠ upĠ
Ear th
sĠ aboutĠ
F re
,Ġ L
iv esĠ
A reĠ
p aint
w ast
ag on
Ġb yĠtheĠ
ur eĠandĠ
li qu
whichĠ areĠ
al .Ċ
eĠc all
all yĠtheĠ
vi aĠ
m and
th ough
build ingĠ
Ġto ĠtakeĠ
col leg
Mus lim
Ġd ifferentĠ
con sequ
nor th
l Ġ
b ill
It al
Jun eĠ
m otherĠ
H ol
rem oveĠ
.ĠI Ġw
profess ionalĠ
H igh
S S
R em
ic ally
we ak
l uck
can notĠ
P at
pro b
Ġcon c
f ightĠ
sĠ for
influ enc
a inĠtheĠ
itĠ was
gr av
os s
w ood
n umer
h oodĠ
fa ith
require dĠ
edĠ fromĠtheĠ
Ġh igh
b allĠ
NewĠYor kĠ
.ĠIĠ haveĠ
our Ġf
play ersĠ
c oupl
v e
Ġh e
In d
play erĠ
beli ef
es ĠtoĠtheĠ
prog ress
Ġtheir Ġm
al ĠtoĠ
or tĠofĠ
E T
on Ċ
accord ingĠtoĠ
Wh ileĠ
s oundĠ
lat er
happ enĠ
ĠtheyĠ wereĠ
Ġ hasĠ
comm erc
I Ġcan
which ĠtheĠ
r um
; ĠtheĠ
at ely
b ag
on e.Ġ
bor nĠ
' Ċ
immedi atelyĠ
en z
as ,Ġ
:Ġ S
aĠ new
al co
g asĠ
ond erĠ
ip p
IN G
Ġbe foreĠ
ent ly
in esĠ
spec ial
responsi bleĠ
v erĠ
Tu es
Ġm ustĠ
ingĠ yourĠ
d ateĠ
ch os
e u
d ream
T od
inĠt erm
H er
acc ountĠ
es,Ġ butĠ
up onĠ
N et
h ome
big Ġ
aĠs er
recogn iz
rem ain
im ageĠ
cam er
mentĠ andĠ
K ore
Isl am
ationĠ (
Ch r
proper tyĠ
ion s,Ġ
ot sĠ
edĠ anĠ
cont entĠ
eful lyĠ
I d
iel dĠ
at orsĠ
curr entlyĠ
Com ment
bl ood
m ap
aw areĠ
_ {
.ĠN oĠ
um n
l ackĠofĠ
aĠ B
0 3
less ĠthanĠ
in tĠofĠ
becaus eĠofĠ
most lyĠ
eĠd es
fin ish
s ell
C H
ha bit
,Ġ h
responsi bil
mor t
L at
ex ic
W ashing
ap pe
sh ould
so onĠ
err yĠ
p ac
ec id
knowĠ whatĠ
problem sĠ
cont actĠ
de ad
li ber
lik eĠm
Ġ |
becom esĠ
b ow
erĠ ofĠtheĠ
g h
Con tr
eĠm ightĠ
.ĠN otĠ
Austr al
ation sĠofĠ
youĠ getĠ
asĠwell Ġ
,Ġ isĠ
requ ir
f allĠ
th oughĠ
it s
inter pret
con serv
econom icĠ
Ġto ĠthisĠ
st yl
sm allĠ
,Ġt oo
M S
cri b
endĠ ofĠ
n av
air Ġ
gu essĠ
cle an
eĠs up
provid esĠ
ar ant
on eĠthatĠ
Ġtr ou
) ,ĠandĠ
y âĢĻsĠ
in e,Ġ
sh are
b ound
Fr omĠ
bu y
ch urch
st rik
h yp
WhatĠ isĠ
etĠ al
aud ienc
p il
Ġth reat
exc ell
cont in
import antĠtoĠ
we ap
th ingĠtoĠ
iz ation
r ub
whenĠ IĠ
gr amĠ
my self
M ay
ed :Ġ
Ġtyp eĠofĠ
ant edĠtoĠ
p al
m ist
Fr om
iesĠ areĠ
att ach
eĠw ayĠ
- ter
h otĠ
p oll
Th ereĠisĠ
h at
A B
k in
urr entĠ
fil mĠ
ĠĠĠĠĠĠĠĠĠĠĠĠĠĠĠĠ ĠĠĠĠĠĠĠĠĠĠĠĠĠĠĠĠ
ad just
C Ċ
get ĠtoĠ
partic ularĠ
ot alĠ
s aveĠ
Ġp erĠ
web sit
.Ġ .Ġ
R Ġ
Ev enĠ
stand ingĠ
rem ainĠ
sc ienc
bor n
chang esĠ
Wh il
r or
complet eĠ
Ġs pec
say sĠ
le adĠ
J ul
L if
W ednes
neigh bor
YouĠ areĠ
knownĠ asĠ
res tĠ
str ongĠ
s ong
on e-
00 1
rec over
A ir
D on
s "
fr am
ok eĠ
d augh
Eu rop
4 2
inĠ orderĠtoĠ
eĠd is
achi eveĠ
pro perĠ
comm itt
em bl
en abl
happ yĠ
edĠ from
in com
gam esĠ
ersĠ whoĠ
ib le
s earch
rew Ġ
01 8
Brit ishĠ
com b
asĠ muchĠ
direct lyĠ
lot sĠofĠ
eng thĠ
i at
level ĠofĠ
user nam
Ġp art
A si
im eĠ
he atĠ
ert ain
peopl eĠtoĠ
S o,Ġ
Th at'sĠ
eĠm ustĠ
f av
kĠ andĠ
Ġbe for
ed ,ĠtheĠ
t ĠtheĠ
.ĠIfĠ youĠ
isc uss
impl eĠ
itĠ hasĠ
Th urs
i umĠ
"Ġ (
,Ġ heĠ
.ĠS om
ind ex
ass ign
Ġto dayĠ
f atherĠ
Ð ¾
require sĠ
Ġcl ass
stud entĠ
ev entĠ
Ar ab
Ġme an
ant ic
U T
Ġd e
oll owĠ
consider edĠ
A v
br ain
result sĠ
or Ġw
ign ificantĠ
forc eĠ
4 9
y :Ġ
sp aceĠ
commun ityĠ
s econd
know sĠ
str uggl
s hap
par entsĠ
s e,Ġ
k sĠ
E M
increas edĠ
m echan
C aliforn
ol ec
E very
l ap
inc redi
N owĠ
youĠm ightĠ
ĠisĠ aĠ
Engl ishĠ
lo tĠ
ev il
conc ept
sign ific
as kingĠ
or b
whil eĠtheĠ
is .Ċ
,Ġ notĠ
as p
friend sĠ
orĠ aĠ
bl u
st er
Ġthem .Ċ
haven 'tĠ
es sĠandĠ
g er
ass ess
M ag
m ount
and ĠtheĠs
E L
re tĠ
dev ic
,Ġ D
G reatĠ
f ileĠ
an x
m ut
oc ial
eĠth ingĠ
in yĠ
Le aveĠaĠ
prev entĠ
funct ionĠ
forĠ anĠ
w ind
,Ġ withĠ
bre ath
p ickĠ
aj orĠ
h ers
aĠb etterĠ
bre akĠ
Faceb ookĠ
am ongĠ
oc cup
enh anc
Ġtog ether
exc eptĠ
exp ens
rest aur
ov i
elf -
pat ient
aĠm in
Ġd evelop
man ufact
re achĠ
od d
al Ġt
em br
Ġh er
k newĠ
.ĠM ostĠ
l ing
ar ilyĠ
Ġtog eth
.ĠA ll
oll ect
l ittl
f ederalĠ
cit iz
orĠ isĠ
d im
C P
youĠw ouldĠ
id esĠ
absolut elyĠ
exist ingĠ
Fir stĠ
arg ument
ad vertis
)Ġ isĠ
Dav idĠ
st ant
c ross
st uffĠ
aĠlarg eĠ
for ĠtheĠs
Ġw ell
a str
go al
relativ elyĠ
work sĠ
group ĠofĠ
ItĠ wasĠ
m any
.ĠN ow
s ist
know ĠthatĠ
suf fer
res tĠofĠtheĠ
ww w
ad vis
un lessĠ
St ateĠ
d anger
feel ingĠ
F Ġ
betwe en
Ġp res
.ĠIf ĠtheĠ
w indow
- year
th Ġcentur
e.Ġ ButĠ
c ient
pl ast
e edĠ
ifĠ (
veg et
ps ://
c ateg
of Ġtim
on ĠtoĠ
ob il
had ĠtheĠ
Ð °
writ ingĠ
M oreĠ
ofĠ cours
alsoĠ beĠ
expl an
up ,Ġ
L aw
g ainĠ
Ð µ
S ystem
industr yĠ
S o
6 5
re ally
h asĠtheĠ
w el
wor thĠ
sh otĠ
ad apt
ap prov
H T
possi blyĠ
is Ċ
p iteĠ
com eĠtoĠ
ab ol
P ers
st up
.ĠI ĠwasĠ
w inĠ
at ĠthisĠ
fun n
an aĠ
until ĠtheĠ
sur viv
Ġc as
ure d
form ul
pre gn
it Ċ
rightĠ now
Ġthe Ċ
E C
it ies,Ġ
p ed
em Ġ
al oneĠ
ies Ċ
m a
ark etĠ
re ateĠ
Mic ha
L ist
s ĠtheyĠ
sp endĠ
power ful
eachĠ other
rem ind
cour t
v est
profess ion
inv ent
anĠ in
cl oseĠ
eĠt yp
S er
G et
Mar chĠ
pap erĠ
w oodĠ
Ġtr ueĠ
fact ,Ġ
ch ron
m achin
H el
sty leĠ
el imin
eĠdo esĠ
Ġthe or
our Ġb
? ÂłĠ
exampl eĠ
i ec
c ivil
sĠ out
Octob erĠ
imp act
inst anc
we ight
htt p://
J ulyĠ
00 4
need sĠ
ilos oph
.ĠTh ereĠisĠ
Com mun
comm and
yĠ (
i ew
edĠ myĠ
benef it
oft en
E g
ult ipl
elect ion
I' ll
individ ualsĠ
pl ent
St re
ableĠ andĠ
writ eĠ
aĠc r
G l
su it
mus cl
att ribut
Ġ *Ġ
,Ġ forĠ
group Ġ
O k
S w
need sĠtoĠ
for Ġb
itĠ canĠ
3 00
exp ensiveĠ
med ic
att ackĠ
h ood
b ud
e iv
pre -
b ed
aĠm on
lat estĠ
wher eĠtheyĠ
el essĠ
es .Ġ
S heĠ
act er
Ġ /
inĠ yourĠ
Of Ġcour
S en
e :
contr act
d ivid
rec ip
aĠc ertainĠ
ep Ġ
t est
Ġw ord
epis od
Apr ilĠ
Ġsaid ...Ċ
O p
IfĠ youĠ
f al
clear lyĠ
ĠtheĠ otherĠ
anim al
for wardĠ
G o
G en
oun ter
level Ġ
Ġtyp esĠofĠ
as pect
IĠw as
t il
,Ġ H
stop Ġ
S am
With Ġ
at ely,Ġ
wouldĠ haveĠ
Qu est
I mag
en ingĠ
Ġcom put
pre h
leg is
encour ag
S al
struct ureĠ
fac il
help sĠ
- basedĠ
erv iceĠ
Ġbet terĠ
g ain
4 1
u x
la unch
v an
; ĠandĠ
id nâĢĻtĠ
e. "Ċ
eĠto oĠ
st imul
ac r
m l
An onym
lif e,Ġ
S atur
' sĠt
B ig
g oneĠ
de adĠ
or alĠ
gre enĠ
.ĠA tĠ
eĠd i
fre edom
8 8
us edĠinĠ
v el
m e,Ġ
it iz
pl antĠ
connect ion
Ġf e
m ail
.ĠTh ey
law Ġ
Art ic
net workĠ
s .ĠThisĠ
or ith
se tĠofĠ
we 'reĠ
d ro
eĠthem Ġ
withĠ anĠ
.ĠTh at'sĠ
am ilyĠ
lead ĠtoĠ
Ġther ap
Ġwill ĠbeĠ
ly ingĠ
Ġp h
.ĠO f
for tĠ
Ġc o
are a
aĠ newĠ
ab as
le arĠ
c ir
s '
over n
v it
stud iesĠ
com esĠtoĠ
our n
w on'tĠ
includ esĠ
Ġd ep
port sĠ
Ġsh ouldĠbeĠ
con stitut
nov el
expl ainĠ
c overĠ
go alĠ
Ġwor kĠ
reg ion
F ebr
at chĠ
offic ialĠ
cel ebr
g i
at sĠ
M al
W illi
arr ang
definit elyĠ
ofĠ hisĠ
bigg estĠ
offic ial
M L
u itĠ
ad ition
variet yĠofĠ
,Ġ R
âĢĵ Âł
sec urityĠ
alb um
at icĠ
per t
cr imin
ump tion
r as
Con nect
ow er
issu e_
echnolog yĠ
Ġb ackĠ
at om
n âĢĻt
it'sĠ notĠ
Y es,Ġ
e .ĠThisĠ
ic atedĠ
A uth
haveĠ anĠ
L ib
or s,Ġ
differ enc
our selv
lin esĠ
ap art
aĠs mallĠ
eĠs om
h un
count ri
Ġm illion
iz z
e .ĠItĠ
.ĠHow ever
orĠ not
eĠc as
g Ġ
ers ĠthatĠ
ÂłÂł ÂłĠ
or Ċ
et yĠ
stat ement
,Ġ P
y ,ĠtheĠ
oth er,Ġ
pat ientĠ
m iddleĠ
del iv
i Ċ
.Ġ Ch
Th enĠ
iv en
end er
maj orĠ
mus icĠ
0 20
.ĠEv enĠ
Ġtot alĠ
imm igr
sĠ andĠtheĠ
eĠd oĠ
c u
l ack
c andid
.ĠJ ustĠ
v ac
ul s
gu ess
enjo yĠ
C al
Wh iteĠ
ingĠ herĠ
ar ri
me etĠ
sc or
edĠbyĠ aĠ
activ ityĠ
edĠ (
Ġt urnĠ
wayĠ ofĠ
ingĠ outĠ
H um
st ret
re p
L i
c ardĠ
Ph ot
,ĠbutĠ itĠ
In tern
needĠtoĠ beĠ
f itĠ
larg estĠ
sc ri
develop mentĠ
- th
becauseĠ itĠ
onĠ yourĠ
ind ustri
find ĠtheĠ
e "Ġ
sign ificantĠ
init ialĠ
www .
eĠth enĠ
ac compl
.ÂłĠ TheĠ
âĢĻ dĠ
charact ersĠ
,Ġ ifĠ
b Ġ
ph en
ousand sĠofĠ
o ilĠ
O P
stra ightĠ
Ġmor eĠthanĠ
admin istr
us ualĠ
al ity
,Ġ I
O c
,Ġ T
eĠm ov
pleas eĠ
en .Ċ
Christ ianĠ
cor por
.ĠO r
sĠ and
on om
ari anĠ
IĠw antĠtoĠ
heav yĠ
.ĠIn ĠthisĠ
dec ad
uniqu eĠ
any way
IâĢĻ m
eachĠ otherĠ
r anĠ
ap s
rand om
.ĠB ecaus
w arĠ
( '
al og
eĠ withĠ
pres identĠ
hear Ġ
ip Ġ
,Ġbut ĠtheĠ
A tt
n iceĠ
ur t
bec am
ĠtheĠsam eĠtim
A notherĠ
you ĠthinkĠ
z Ġ
begin ningĠ
âĢĻ sĠtheĠ
re action
ingĠ fromĠ
P ubl
ob jectĠ
( S
m ain
pop ularĠ
ad ult
Ġthe Âł
Sept emberĠ
job Ġ
Aug ustĠ
dist inc
right ĠtoĠ
someth ingĠthatĠ
iss ion
J ust
b us
init i
di rectĠ
at ,Ġ
Pr of
eĠth rough
ch ick
him selfĠ
.ĠW e
famil iar
e âĢĿ
ideaĠ ofĠ
en chĠ
O K
noĠ oneĠ
k n
Dec emberĠ
t ext
r ar
av ingĠ
fl ag
o esĠ
ric hĠ
atĠle ast
artic le
IĠ knowĠ
Ġd aysĠ
IĠw illĠ
m p
Jes usĠ
r aĠ
4 3
Ġtr ulyĠ
prot ectĠ
us ersĠ
m outh
- to-
aĠcoupl eĠofĠ
W arĠ
po k
has ĠtoĠ
edĠ atĠtheĠ
alth ough
in Ċ
â Ī
des ignĠ
oryĠ ofĠ
chem icalĠ
along ĠtheĠ
off ersĠ
whoĠ wasĠ
organiz ation
dr am
say ĠthatĠ
edĠ aboutĠ
grad u
usernam e_
with Ġc
Y Ġ
C E
M et
year s,Ġ
s ĠthatĠtheĠ
soĠ much
etĠ andĠ
L og
ev idenceĠ
fam ousĠ
m aĠ
Ġm us
sh ot
J os
mod ern
eal thĠ
perform anceĠ
s pl
Ġ l
Ġd ist
P D
eĠth ey
sur fac
) .ĠTheĠ
ingĠ atĠ
.ĠI' veĠ
br idg
n ever
ed .ĠTheĠ
insur anceĠ
back ĠtoĠtheĠ
8 5
wh eel
M exic
ith erĠ
ol er
Repl yĊ
w eĠs
in nov
Ġt ook
Ġtrans form
emot ion
picture Ċ
on Ġb
exper t
Ġm et
esĠ onĠ
r aw
amoun tĠ
ro ot
htt ps://
est in
s ect
eĠd ay
ens eĠofĠ
ĠĠĠĠ TheĠ
appl i
you ĠandĠ
00 3
F F
ed -
anim alĠ
ight lyĠ
Â Ń
hand l
requ ireĠ
need edĠtoĠ
dr ink
ofĠ cour
in fr
c off
o bl
An y
pr ay
increas eĠ
red itĠ
Ġtow ard
for dĠ
heĠ hasĠ
mot iv
hap terĠ
now ledg
inter netĠ
ne y
ĉĉ ĉĉ
Ġcom ment
pl oy
Nor th
us eĠaĠ
An n
w ent
coun ter
dem and
it leĠ
um entsĠ
oc rac
Âł (
able .Ċ
Th e
oc alĠ
g ard
alter nativeĠ
entire lyĠ
cred itĠ
l eĠofĠ
gr at
gu il
ham p
abl eĠs
m ethodĠ
ion Ċ
stor eĠ
gu arant
M anag
su st
M Ċ
,Ġ itĠisĠ
,Ġ whichĠisĠ
ev entsĠ
it ect
exc eption
orĠ inĠ
Ġt alkingĠ
ob ileĠ
at terĠ
L ab
eĠm od
f it
appro xim
whatĠ happen
M il
seas on
e e
all eg
soĠ manyĠ
i res
great erĠ
ar y,Ġ
le -
un it
at m
Ġthr ow
in str
I G
IĠw ill
e y,Ġ
sup er
) :Ġ
inc eĠtheĠ
y ?Ġ
Ġ areĠ
lim itedĠ
alg orith
pris on
ag es
iz ingĠ
Nov emberĠ
Ġs aysĠ
on ĠtheirĠ
is ol
orĠ evenĠ
conc entr
af ford
environ mentĠ
? ?
w iseĠ
Ġs er
res erv
ã ģ
,ĠtheyĠ areĠ
access ĠtoĠ
aboutĠ it
A G
Ġw ouldĠbeĠ
ic Ġb
giv en
s aw
ationĠ forĠ
is edĠ
eĠth eseĠ
itĠ ofĠ
in aĠ
m axim
H aveĠ
.Ġ Con
i j
01 9
st aff
di rection
e !Ġ
D el
un Ġ
ing -
ens ur
bro ad
b erĠ
hund red
up ĠwithĠ
s.Ġ Âł
C ap
i ouslyĠ
mor e,Ġ
produc eĠ
al dĠ
Ġw ayĠ
beĠ ableĠtoĠ
onĠ ofĠ
pro gramĠ
pres ident
it le
cle arĠ
th es
val id
numb ersĠ
.ĠA nĠ
H ist
w est
s .ĠI
pat ientsĠ
po intĠofĠ
po orĠ
Ġtot allyĠ
o .Ċ
inĠterm sĠofĠ
ingĠ (
journ al
eĠc r
Ġtak eĠtheĠ
Jam esĠ
sĠ itĠ
st rip
con duct
How ĠdoĠ
Th eĠt
par amet
D on'tĠ
.Ġ [
rang eĠofĠ
IĠd idn'tĠ
cord ingĠtoĠ
edĠ for
um stanc
s atis
Ex c
lik eĠs
R os
L o
f ant
s Âł
) .
inĠ S
ag eĠandĠ
and /
pri or
chann el
ent ir
what 'sĠ
ingĠ myĠ
u zz
I Ġcan'tĠ
mostĠ ofĠtheĠ
J er
/ Ċ
G oodĠ
c astĠ
lo st
I' llĠ
edĠinĠ aĠ
Ġd ownĠ
anc yĠ
press ureĠ
Chin eseĠ
le astĠ
outĠ andĠ
M art
improveĠ thisĠ
M P
Y eah
serv iceĠ
appropri ateĠ
k ick
is ĠthatĠtheĠ
ach ineĠ
ementĠ ofĠ
be ing
word sĠ
ic s,Ġ
eĠd idĠ
esĠ fromĠ
youĠw ereĠ
dec reas
Ġs ign
8 6
00 2
Ġtradition alĠ
G etĠ
is sĠ
ing redi
reg ist
ef f
exp ectĠ
es .
den lyĠ
Ġcon sid
beg anĠ
sh own
cent ur
suf fic
emot ionalĠ
.ĠTh eĠt
intern alĠ
Ph il
Ġd em
I ON
d ollar
cr is
er y
R ef
spir it
ir stĠ
Ġt ext
vot eĠ
Al ex
ex tern
ad opt
% ĠofĠtheĠ
br ing
Ġtr ainingĠ
IĠd onâĢĻtĠ
Ġperc entĠ
L astĠ
cho oseĠ
int ens
ater ial
g od
forĠ hisĠ
day sĠ
fl ex
on eĠw
Ø §
B C
cr ow
ag o,Ġ
G overn
a headĠ
ess entialĠ
ly ĠtoĠ
.ĠForĠ example,Ġ
po ol
.ĠM anyĠ
p assĠ
p ill
b erg
a fr
echn icalĠ
) :Ċ
ar eas
k inĠ
sec ur
oc ument
en Ċ
anc ientĠ
L ik
esĠ asĠ
dis play
did nâĢĻtĠ
ac adem
,ĠthisĠ isĠ
him ĠtoĠ
k illĠ
how ever
add ressĠ
b an
e !Ċ
IĠd idĠ
d egre
V al
N am
el fĠ
7 7
r oundĠ
on ĠthatĠ
c y
Ġthrough outĠtheĠ
put tingĠ
em phas
Ġc or
att ent
an 'sĠ
ar n
justĠ asĠ
o id
m itĠ
Americ ansĠ
- oldĠ
Th ank
alco hol
.ĠH eĠwasĠ
,Ġ it'sĠ
ation sĠandĠ
atm osph
.ĠTh es
Ġ \
idd enĠ
a ĠtoĠ
lyĠ andĠ
al ign
4 00
T ur
cho iceĠ
v en
gr ap
go ing
B ack
pur su
yp eĠ
e ;Ġ
underst andĠtheĠ
em p
Ġt alkĠ
isĠ inĠ
W estĠ
abl eĠofĠ
ar e,Ġ
n erv
haveĠ noĠ
c arĠ
f ash
cl ub
W ik
w ideĠ
i ot
.ĠIĠd on'tĠ
ity Ċ
nuc lear
re act
stre et
read yĠtoĠ
rem ot
Th ankĠ
Ġd ayĠ
extr aĠ
Bl ackĠ
pl yĠ
,Ġ K
dep endingĠ
ĠĠ âĢ¢
ol eĠ
in .Ċ
Twit terĠ
polic yĠ
g as
notĠ aĠ
fron tĠofĠ
way sĠ
,Ġth oughĠ
prote inĠ
g ent
) ĠtoĠ
Ġtim e.Ċ
one 'sĠ
T est
Mic ros
ionĠ (
arg umentĠ
en forc
] [
sc ap
orĠ ofĠtheĠ
aut om
B re
about ĠthisĠ
An t
any thing
an Ċ
ingĠ up
if yingĠ
ur chĠ
multipl eĠ
ev ic
ĠtheyĠ canĠ
st ress
f atĠ
acc ident
riskĠ ofĠ
On eĠofĠtheĠ
in ĠtoĠ
hon est
B el
fir eĠ
mater ialĠ
al Ċ
gr owĠ
.ĠA c
Am az
cor rectĠ
getĠ aĠ
r ay
ã Ģ
appro achĠ
cas e,Ġ
h eĠt
s ha
P op
Univers ityĠofĠ
in sp
and Ċ
if Ġh
Ġt re
c oldĠ
ifĠ youĠareĠ
say ingĠ
| improveĠthisĠ
5 6
ut ter
un i
fr ustr
LeaveĠaĠ ReplyĊ
s olution
G am
Febr uaryĠ
Ġther e,Ġ
cour tĠ
was n'tĠ
pl usĠ
Ġs econd
long ĠasĠ
stor iesĠ
and ĠtheirĠ
X Ġ
high estĠ
isĠ andĠ
ac id
H O
Wor k
which ĠwasĠ
det ect
par k
s ampl
al esĠ
s .ĠItĠ
Fig ureĠ
and -
Ġt estĠ
m other
Th om
difficult ĠtoĠ
att itud
l or
Ġc aus
T ak
larg erĠ
need edĠ
att end
Christ m
Ġ "
Obam aĠ
O fĠ
ro ph
want edĠtoĠ
notĠ justĠ
require ment
you' llĠ
out ĠtoĠ
b urg
nam e
,Ġth eseĠ
forĠ you
v acc
Ã ¡
.ĠA d
hy dr
nes s,Ġ
all ĠthatĠ
.ĠS o,Ġ
lin kĠ
for ĠthatĠ
im Ġ
Pleas eĠ
eĠth ink
Fir st
y g
popul ation
ug Ġ
countr y
.ĠB yĠ
itĠ willĠ
B ro
J ack
,Ġ p
C ount
dep ress
nat ureĠ
s ĠthisĠ
S outh
interest edĠinĠ
stat esĠ
anal yz
T ex
b atter
Americ aĠ
erefor e,Ġ
Ġc ount
suchĠ aĠ
Germ anĠ
Ġm ed
her e,Ġ
ĠĠĠĠĠĠĠĠĠĠĠĠĠĠĠĠ ĠĠĠĠ
mor ningĠ
pract iceĠ
stra ight
id eas
Gr oup
" .Ċ
step Ġ
ĠthereĠisĠ noĠ
attempt ĠtoĠ
for ĠmyĠ
h ell
ver b
le agu
now ,Ġ
vo idĠ
In c
?Ġ WhatĠ
L eg
Wh ereĠ
con clus
Ġmon eyĠ
rel ax
str ing
Ġcom pan
eĠd at
a Âł
ros sĠ
mov ingĠ
ex istĠ
sum m
bas icallyĠ
will ingĠtoĠ
eith er
en su
Rev iew
Ġ g
c er
us pect
ing u
act ingĠ
J av
loc atedĠ
l em
cri ption
ym ptom
Christ ian
ing Ġthat
ound sĠ
. C
S ourc
excell entĠ
wat chĠ
M ad
withĠ hisĠ
esĠ orĠ
r h
Ġme anĠ
por tion
r an
off iceĠ
ill ustr
< issue_
ec urityĠ
rem ark
A A
eĠm ostĠ
fr ame
sĠ forĠtheĠ
f ather
.ĠA llĠ
,Ġ N
seem sĠtoĠ
for ĠtheirĠ
O therĠ
forĠ yourĠ
esĠ isĠ
C C
upĠ inĠ
og en
ip ul
i os
acc essĠ
opin ion
h t
um in
Ã ¢
share |improveĠthisĠ
bey ondĠ
pl o
con vent
( th
Ġtow ardsĠ
T op
it ar
sur v
prof il
us .Ċ
bas icĠ
C ath
w aitĠ
s ych
ation ĠthatĠ
numb er
edĠ orĠ
illion sĠofĠ
ĠdoesĠ notĠ
or .Ċ
f uel
we alth
mov ieĠ
pec ific
Ar ch
iaĠ andĠ
system Ġ
among ĠtheĠ
Pl ay
E ast
exp and
! "Ġ
w ish
Becaus eĠ
IĠ loveĠ
in her
How ĠtoĠ
ing :Ġ
s .ĠTheyĠ
independ entĠ
sur round
R et
oneĠofĠtheĠ mostĠ
,Ġ whenĠ
â Ĥ
is ionsĠ
M ak
equ ival
k ne
ob viouslyĠ
ment .Ċ
youĠ knowĠ
.Ġ U
ag enc
day .Ċ
Ġthink ĠthatĠ
no is
5 7
Ġp ost
iveĠ andĠ
etĠ ofĠ
had ow
Ġtim es
inĠ L
ec kĠ
beg inn
b omb
st erĠ
f le
- up
our Ġh
sĠ with
ex ualĠ
becom eĠaĠ
dep art
stat ementĠ
Fl or
pos sess
crit ic
eĠs aidĠ
right sĠ
c arryĠ
con d
con firm
on toĠ
ph ilosoph
necessar ilyĠ
s em
um bl
experim ent
ing sĠandĠ
o oĠ
u elĠ
hear d
ersĠ haveĠ
" S
Window sĠ
} }
youĠw antĠ
E V
l oseĠ
entr alĠ
w itch
aĠm anĠ
wom en
Peopl eĠ
d anc
fut ure
Com p
R ight
in struction
el ess
ĠtheyĠ haveĠ
ri anĠ
lead ership
ant ,Ġ
red ĠtoĠ
real ityĠ
F ri
e )Ċ
cont ext
run n
ne got
sor tĠofĠ
.ĠWh yĠ
En g
sc ar
g ather
.Ġ Tr
ref us
Sc ot
Ġto Ġtr
sĠ from
sp ok
M y
ind uc
rel ativeĠ
ur Ġ
p italĠ
ĠĠĠĠĠĠ Ġ
ic ul
plac esĠ
re ject
V er
Ġs uchĠ
grow thĠ
it esĠ
empor aryĠ
. j
ch ief
.ĠWh il
ofĠth os
plan et
eĠc ar
âĢĿ Ġ(
Ad d
s ingleĠ
ec tĠofĠ
ut r
v ul
g old
invest mentĠ
V is
e .ĠIĠ
// Ġ
fore ignĠ
effic ientĠ
ol f
m el
mem or
s.Ġ ButĠ
Ġmonth sĠ
any th
N at
camp aign
s ;Ġ
if yĠtheĠ
s Ġthat
eng in
on tĠ
anx iet
Ġs id
basedĠ onĠtheĠ
ab us
and ĠthisĠ
m idd
Ġp at
cap ac
e ightĠ
iz ationĠ
eĠth eĠw
al izedĠ
ingĠ onĠtheĠ
dig italĠ
youĠd onâĢĻtĠ
phys ic
th e
m etĠ
Â °
ing ĠthatĠtheĠ
er ,ĠandĠ
o z
Ġm an
Ġcompl et
az yĠ
TheĠ B
e amĠ
j ok
arch itect
d ynam
po or
e ast
likeĠth is
âĢĿ ĠandĠ
eĠcanĠ beĠ
add res
prot est
-------- --------
nav ig
oneĠ isĠ
relev antĠ
," Ġh
Do esĠ
K ing
activ itiesĠ
Americ an
sp end
.ĠWh ileĠ
artic l
ship Ġ
com mentĠ
a iĠ
s endĠ
in oĠ
* Ċ
dest roy
ed ĠtheĠs
howĠm uch
educ ation
full ĠofĠ
Ġtyp icallyĠ
es :Ċ
stor m
P R
Ġmod el
ofĠtheĠ t
eĠse em
prof it
Ġt ast
bel ong
gott enĠ
just ĠtheĠ
hop eĠ
ow ard
c hair
iv ityĠ
ĠtoĠ seeĠ
ingĠ upĠ
ess ion
vol unt
NewĠYor k
U L
Fr ench
Ang el
Micha elĠ
per man
guy sĠ
aw es
oper atingĠ
âĢĻ r
ed ,ĠbutĠ
r oĠ
out putĠ
ab et
read ĠtheĠ
Ġh op
mess ag
with ĠmyĠ
A ut
bir d
eĠ orĠ
res hĠ
sp entĠ
out sideĠ
at ed,Ġ
anc eĠandĠ
.ĠS o
pr intĠ
sh ownĠ
eĠd own
Dep art
def end
stret ch
sĠinĠ aĠ
l av
Ġtim e.Ġ
mod ernĠ
u sĠandĠ
er ĠthatĠ
Re adĠ
know Ġhow
edĠ intoĠtheĠ
un ct
s )Ċ
Ġb el
conv inc
r ank
out com
isc over
w alkĠ
ul tĠofĠ
How ever
vers ionĠ
su d
Gener alĠ
Anonym ousĠ
becaus eĠofĠtheĠ
Ġthem ,Ġ
Vi ew
ro op
includ ingĠtheĠ
relat edĠtoĠ
forĠs omeĠ
Ġcontr ol
Ġm akeĠ
Ġtim eĠandĠ
our Ġm
hos pit
mod ul
kind sĠofĠ
h u
product sĠ
stat eĠofĠ
feel sĠ
ang Ġ
Georg eĠ
ch est
ersĠ (
ar rest
f f
E astĠ
?Ġ TheĠ
lik eĠthat
sĠareĠ notĠ
foc usedĠ
ox id
cre w
**** ****
Pro t
ex clus
r icalĠ
atĠtheĠ tim
diag nos
emperat ureĠ
top Ġ
seem ĠtoĠ
opportun ityĠtoĠ
eĠd on'tĠ
V ir
A Ġs
A :Ġ
noĠ matterĠ
you' ll
m art
ask sĠ
know ĠtheĠ
youâĢĻ r
law y
aĠ P
g oldĠ
5 8
simpl eĠ
s oftwareĠ
inĠ B
Ġte eth
again ,Ġ
st ageĠ
will Ġs
re pair
is Ġthat
à ¥
liv esĠ
tr u
dist r
help ful
du eĠtoĠtheĠ
or ient
Ġd on'tĠ
Ð ¸
Ġw asĠtheĠ
anim alsĠ
start ingĠ
oo per
yst er
co -
ex actĠ
Ġte amĠ
ent ly,Ġ
w a
T S
eĠm e
fr ag
yĠ ofĠtheĠ
y ing
qu ickĠ
custom erĠ
sc op
ed Ġthat
Ġd iffer
eĠthatĠ isĠ
8 00
agg ress
aver ag
lead ingĠ
em at
mom entĠ
Ġ [
haveĠtoĠ beĠ
ib il
Ġtr ust
es ĠthisĠ
howĠm uchĠ
ersĠ wereĠ
isĠ ofĠ
.ĠInĠ addition
es c
et ermin
ur v
ountr yĠ
count riesĠ
aĠ "
abl esĠ
a ,ĠandĠ
aj or
S ha
eĠm eĠ
econom ic
vo iceĠ
ins ul
st om
St ar
Ġme ansĠ
inst ead
in aryĠ
âĢĵ ÂłĠ
br ow
ch ip
us ion
Ġtw o
lik e,Ġ
h eĠwouldĠ
uc kingĠ
eĠs how
d ivers
Ġtyp eĠ
an gr
loc kĠ
,Ġ sh
isĠ alsoĠ
or row
s outh
N Ġ
af fectĠ
On ceĠ
Â £
ob viousĠ
in j
her e.Ċ
f ollowĠ
at esĠtheĠ
sp ar
ac e
effic ienc
del iver
ĠthereĠ isĠaĠ
earli erĠ
om anĠ
do ĠtheĠ
c atch
continu eĠtoĠ
V ol
cult uralĠ
keep ĠtheĠ
ev it
reason sĠ
,Ġ whereĠ
An s
ap erĠ
at edĠtoĠ
om ent
Ġt echniqu
Fr enchĠ
Un der
Ġm akesĠ
lik eĠthisĠ
cont ainĠ
6 6
stat usĠ
âĤ ¬
.ĠD oĠ
I F
; čĊ
sĠofĠ aĠ
dec lar
ia Ċ
notĠ haveĠ
iv ely
cod eĠ
en th
i ĠandĠ
from ĠtheĠs
negot i
H ous
C T
sĠ fromĠtheĠ
Ġcon dition
cor eĠ
s,Ġ orĠ
Ġt ouch
itĠ wouldĠbeĠ
k itch
yĠ forĠ
ur pris
comment >
ack nowledg
,Ġth en
y ester
G Ġ
.ĠF or
howĠm anyĠ
ex chang
conv en
E s
ar iesĠ
situ ation
becom ingĠ
Ġsh ar
s entĠ
aĠs up
ForĠ example,Ġ
: )Ċ
ser ver
f old
Russi anĠ
scri pt
D ayĠ
C S
ic ally,Ġ
Chin aĠ
er :Ġ
es _
.ĠOn eĠ
L etĠ
Ġc ell
D idĠ
W ill
If ĠtheĠ
un ableĠtoĠ
sug ar
up Ġwith
pl ug
cl ick
Ġw ar
s earchĠ
ident ifi
great estĠ
backĠ andĠ
in sideĠ
sec ret
h ugeĠ
res id
vis ion
ter ,Ġ
eĠd ec
in put
p ip
eĠwill ĠbeĠ
lo y
aĠl ot
eat hĠ
lookĠ atĠtheĠ
proc essĠofĠ
youĠw ant
h ug
comm it
sp ot
er ri
rem eĠ
allow edĠtoĠ
from Ġh
dr yĠ
w av
phot ograph
diffic ultĠ
t ,Ġ
.ĠP eopl
st ockĠ
reat mentĠ
re form
Ġm emb
admin ist
let 'sĠ
occas ion
Ġminut esĠ
, Ġthat'sĠ
T woĠ
Ġt rip
f ell
is ĠtheĠs
w eĠwereĠ
bott om
ific ationĠ
provid ingĠ
Ġs pe
Ġhel p
re vers
^ {
whoĠ hasĠ
ey eĠ
] ,Ġ
al d
th eĠs
( );Ċ
aĠm od
eĠdo esn'tĠ
e alĠ
if Ġs
St or
Ġth ank
every thing
es ?Ġ
ÂłĠÂłĠ ÂłĠÂłĠ
g onn
pl ot
E U
Ġbe h
aren âĢĻtĠ
es ?Ċ
increas ingĠ
ism ,Ġ
a :Ġ
ident ifyĠ
res ultĠofĠ
sk inĠ
v oc
W ord
art ist
low -
ath let
mem oryĠ
play edĠ
pre viouslyĠ
b ell
M O
it im
p ump
determin eĠ
ph on
f ib
ing Ġthis
out ,Ġ
show sĠ
b es
y .ĠTheĠ
do orĠ
answer Ċ
whenĠ heĠ
const antĠ
s 'Ġ
pon ent
des ir
c arr
em ailĠ
only ĠtheĠ
Ġcon nect
e um
! "Ċ
, Ġthey
.ĠI' m
_ t
ing ,ĠbutĠ
s :
- Ċ
w ash
histor icalĠ
norm allyĠ
ofĠ myĠ
Di rect
M A
" H
.Ġ ^
let t
.Ġ Ex
m Ċ
f li
w rot
he âĢĻsĠ
Ġtheir Ġd
D S
d ir
ut eĠ
.ĠB e
ic it
fact orsĠ
add edĠ
m assĠ
L ink
b ath
sĠ on
ult uralĠ
TheĠ S
bey ond
ing ?Ġ
B log
ï ¼
with ĠthisĠ
fl ash
ing ?Ċ
itĠisĠ notĠ
br and
k noc
cor n
vide o
u eĠtoĠ
i ally
post -
suchĠ asĠtheĠ
op y
h eĠc
hist ory
clos eĠtoĠ
ev enĠtheĠ
f o
way sĠtoĠ
ingĠ orĠ
ly ,ĠtheĠ
eas tĠ
ing ,ĠtheĠ
B ob
gl ass
th ,Ġ
from ĠhisĠ
es /
sty le
er .
( orĠ
plent yĠofĠ
J im
cap ital
gr ant
but ĠtheyĠ
fore ign
Ġbec om
I ĠbelieveĠ
of Âł
my selfĠ
P ort
out .Ċ
Ġto ĠthatĠ
lastĠ year
M ess
benef itĠ
en edĠ
ri ev
k et
s !Ċ
can âĢĻtĠ
an -
fin eĠ
com pos
D N
____ ____
hand ,Ġ
Ġbu ild
In stitut
99 9
C R
ifĠ youĠhaveĠ
Mon day,Ġ
d arkĠ
Ans wer
at eĠtoĠ
Ġbetwe enĠtheĠ
il y
H ill
yourĠ ownĠ
how everĠ
l as
? âĢĿĊ
E P
vis itĠ
erĠ wasĠ
sĠ whoĠ
ordin aryĠ
gre en
her o
comm od
eĠsh ouldĠbeĠ
Inter netĠ
i Ph
an th
wh om
.ĠIĠ amĠ
Ab outĠ
commun ication
otherĠ word
l istĠofĠ
P re
W il
asĠ aĠs
need sĠtoĠbeĠ
.ĠI ĠthinkĠ
} \
dem andĠ
on don
ou s,Ġ
ation al
I ĠthoughtĠ
and Ġthere
iv ilĠ
IĠd on't
ain tĠ
soĠ muchĠ
sw itch
der iv
sĠ intoĠ
edĠ forĠtheĠ
environment alĠ
K ar
act or
r ag
a um
eĠwor ldĠ
l it
ig italĠ
erĠ forĠ
unchĠ ofĠ
at edĠtheĠ
Intern ationalĠ
Ġc los
ĠtooĠ much
M ari
abil itiesĠ
p ectĠ
-year -oldĠ
numer ousĠ
famil y
C reat
cri ptĠ
z enĠ
e. ÂłĊ
T or
rem ainsĠ
5 9
D own
clim ateĠ
adv oc
a qu
ed ĠtheirĠ
se ek
sl ightlyĠ
reg ularĠ
Of fic
exc ept
maint ainĠ
eful Ġ
pay ingĠ
Sp an
inst ance,Ġ
g eĠ
quit eĠaĠ
an no
c aughtĠ
i i
bro th
no thingĠtoĠ
receiv edĠ
larg elyĠ
aĠ wasĠ
ser iousĠ
spe akĠ
ent ertain
inĠtheĠ world
o ch
ir st
el m
eĠs ub
G old
sĠ whenĠ
bott omĠ
cre en
av elĠ
centr alĠ
D NA
us ingĠaĠ
c ess
H om
esĠthatĠ areĠ
- ĠandĠ
on eĠt
ing sĠofĠ
cont act
Ġtri edĠtoĠ
al p
oo tingĠ
Indi anĠ
ur ther
beĠ aĠ
out put
som eĠofĠ
IĠ reallyĠ
. "
Ġdi rect
if Ġw
just ic
sc ienceĠ
K eep
Ġdes ign
ag eĊ
Wednes day,Ġ
ofĠcours e,Ġ
sĠ willĠ
edĠ asĠaĠ
if ĠweĠ
abs orb
L ikeĠ
success ful
Ass oci
,Ġ youĠcanĠ
inc orpor
qu ir
ism ĠandĠ
miss ionĠ
easi erĠtoĠ
ev olv
expect edĠ
,Ġ anĠ
ed yĠ
:Ġ âĢľ
o idĠ
int erĠ
vers ionĠofĠ
con fer
st ation
Ġ andĠtheĠ
mov ement
Th ere'sĠ
Ġm anag
acc eptĠ
Cath ol
appar entlyĠ
Ġc ap
El ect
S il
Ġs erv
ing .ĠTheĠ
d ict
stre etĠ
.ĠIt sĠ
Cl int
ed Ġthem
vis ualĠ
struct ure
h id
mor n
high Ġschool
ant sĠtoĠ
sm il
econom yĠ
ter ĠtheĠ
s olv
5 2
loc ation
onĠtheĠ otherĠ
com preh
Tues day,Ġ
ear sĠ
bl ow
dest r
B ook
reduc eĠ
8 7
R ich
v astĠ
it ionĠofĠ
lif e.Ċ
N o,Ġ
( t
down ĠtoĠ
ha z
it ?Ġ
ri x
hav ingĠaĠ
= =Ġ
im ent
S ol
Ġthat .Ċ
US A
manag ementĠ
d atedĠ
and Ġtr
Wor ld
accompl ish
creat ingĠ
Bl ack
s ever
lic ens
O L
oper ation
ex hib
por tr
lik ely
self .
Ġthe oryĠ
c os
am inĠ
ro idĠ
el et
phen omen
other wis
algorith m
ac tĠofĠ
mic ro
disc ipl
c Ġ
B S
al s,Ġ
design edĠtoĠ
Ġt arget
ot yp
even ĠthoughĠ
sĠ outĠ
M e
aĠ ofĠ
Republic anĠ
B i
alter nat
rad ioĠ
along ĠwithĠ
u ally,Ġ
st oodĠ
f ath
rang eĠ
al f
chanc eĠtoĠ
< br
b eĠtr
ch art
b rief
K ey
DO CĊ
you Ġthink
T R
k ing
enc e
p .
on Ġtop
eĠm in
Ġ Ð
you Ġse
nut rit
In ĠthisĠ
group sĠ
,Ġ evenĠ
ag e.Ċ
- S
eĠd ef
let ter
ac y
seem Ġ
s ection
inĠ whichĠ
br andĠ
5 1
sm ok
h ostĠ
in ch
amaz ingĠ
but ton
inter fac
s "Ġ
ev ereĠ
,Ġ youĠ
youâĢĻ veĠ
ity,Ġ andĠ
Americ a
influ enceĠ
Y es
e,Ġ orĠ
ne ur
R ad
lif e.Ġ
s oft
fol k
ut t
Ġ onĠtheĠ
sex ualĠ
comm onlyĠ
doĠ itĠ
or Ġt
olog y
adv ic
P ark
onlyĠ oneĠ
âĢĻ ll
igg erĠ
enc eĠandĠ
6 00
ultim atelyĠ
cle anĠ
: ÂłĠ
Ġwor ld
r areĠ
ab and
wasĠ notĠ
T om
sinc eĠtheĠ
k yĠ
ev olution
op posit
V Ġ
vul ner
extern alĠ
eĠw rit
us Ċ
fair lyĠ
) ;Ġ
D A
m onĠ
ityĠ isĠ
15 0
f asc
rul esĠ
abil ityĠofĠ
Ġtrans port
restr ict
gu ard
effect ivelyĠ
Ġbet ter
better ĠthanĠ
el er
,Ġ G
beg inĠ
obl ig
haveĠ t
we 'veĠ
H y
ĠT H
P M
Ġdat aĠ
99 0
in spir
lat er,Ġ
l ayĠ
S chool
Thurs day,Ġ
ad equ
associatedĠ withĠ
l erĠ
aĠ D
in putĠ
el ementsĠ
hav ingĠtoĠ
J ourn
pres entsĠ
favor iteĠ
up .Ċ
means ĠthatĠ
feat uresĠ
no d
bo yĠ
atĠ andĠ
pe tĠ
chang ingĠ
c ity
Cl ass
E veryĠ
- ĠtheĠ
confl ict
um ul
Ġtrans l
aboutĠ aĠ
leg itim
on Ġd
perfect lyĠ
g ap
Ġto ĠtheirĠ
i ans
forc esĠ
hus bandĠ
em or
inĠtheĠ firstĠ
ed ?Ċ
recomm endĠ
w ouldn'tĠ
mer c
y es,Ġ
ch edul
,Ġ becauseĠ
)Ġ (
s !Ġ
const antlyĠ
f ab
Ch ic
Our Ġ
Frid ay,Ġ
ens ionĠ
mor eĠc
ĠthereĠ wereĠ
But ĠtheĠ
h es
intell ect
n ectĠ
5 3
phot oĊ
n ull
sp readĠ
opt ionĠ
ÂłÂł Ċ
di eĠ
d ang
Ġf re
ig er
behavi or
IĠ gotĠ
mov ementĠ
be at
car ri
D E
believeĠ thatĠ
c ann
you Ġcan'tĠ
st eadĠ
sch edul
im pos
S pec
allow ingĠ
af fic
W al
In form
WeĠ areĠ
we et
s.Ġ "
? âĢĿĠ
beg anĠtoĠ
sym ptom
edĠ it
r ug
eĠw er
L ook
Ġm uch
ak e
as m
es )
g an
ri z
option sĠ
justĠ aĠ
pro p
som etim
dou bt
s âĢĻ
whatĠ wasĠ
commerc ialĠ
aĠ R
re stor
inĠ herĠ
rev olution
as s,Ġ
ag ueĠ
re put
for Ġw
ersĠ inĠtheĠ
proper lyĠ
ess entiallyĠ
set tingĠ
at ĠtheĠsameĠtim
th eyĠ
ym bol
c ould
overĠ andĠ
= >Ġ
serv icesĠ
b oo
on 'sĠ
back groundĠ
plac eĠtoĠ
pat hĠ
e. "Ġ
wor ryĠ
s oul
.Ġ Com
,Ġ F
ne utr
," ĠsaidĠ
ig ar
,Ġth ere'sĠ
product ionĠ
b eĠth
onĠ isĠ
hor r
level sĠofĠ
M aybeĠ
lin e
ret tyĠ
v ect
ag e.Ġ
mor alĠ
S anĠ
whatĠ itĠ
Sh ar
peopl e
forĠ example,Ġ
ri alĠ
T ype
.ĠBut ĠtheĠ
virt ualĠ
r ainĠ
int ention
at ureĠ
n ap
H ell
dis appear
u h
valu esĠ
M ov
fem aleĠ
feat ure
Ñ Ĥ
M os
D ay
liter allyĠ
h eĠcouldĠ
Ġh owĠ
much ĠmoreĠ
pat ch
N Y
For ĠtheĠ
abl eĠto
st ressĠ
" >
v sĠ
circ umstanc
es nâĢĻtĠ
knowledg eĠ
crit icalĠ
organ is
r ail
any mor
in comeĠ
ass ert
awayĠ fromĠ
als oĠtheĠ
Rob ertĠ
ĠisĠ notĠ
a ignĠ
s on,Ġ
over allĠ
K ingĠ
sec ut
or k
j ack
O ldĠ
us ĠtheĠ
o 'sĠ
.ĠH erĠ
enc y
S ar
pr icesĠ
from Ġm
( theĠ
onĠ anĠ
aĠs ignificantĠ
.ĠE very
m eĠtoĠ
accord ingĠtoĠtheĠ
et aryĠ
brok enĠ
eĠinĠ aĠ
f resh
rap id
cert ain
Ġdo esn'tĠ
up perĠ
.ĠN ot
ÂłÂłÂłÂłÂłÂłÂłÂł ÂłÂłÂłÂłÂłÂłÂłÂł
exampl eĠofĠ
olec ul
Med ic
reg im
see ingĠ
e,Ġ soĠ
again .Ċ
mean ing
att or
exp ans
of Ġtr
phot o
s usp
S ervic
form at
B estĠ
one âĢĻsĠ
over wh
some whatĠ
itu ation
for Ġthem
r ong
On ĠtheĠ
findĠ outĠ
oll y
ir th
all el
ne itherĠ
Ġcl aim
} $
S P
W Ġ
n in
aw aren
compar edĠtoĠ
sound sĠ
Ġc reat
inĠ aĠs
S eeĠ
ĠmayĠ beĠ
comfort ableĠ
inĠ itsĠ
willĠ notĠ
,Ġ etc
Ap p
con vert
let terĠ
gener ateĠ
other wiseĠ
ur eĠtheĠ
Ġc al
how ĠtheyĠ
d ress
howĠ itĠ
S ocialĠ
figureĠ outĠ
kill edĠ
increas inglyĠ
man n
an s,Ġ
Pr inc
Univers ityĠ
cas eĠofĠ
add ingĠ
h er,Ġ
ass et
meas ure
.ĠAn y
e,Ġ itĠ
automat icallyĠ
un kĠ
ext end
own Ġs
. p
hum ansĠ
oth Ġ
someth ing
res pectĠ
advant ageĠ
St arĠ
b edĠ
e em
Ġc omeĠ
over all
cap italĠ
adition alĠ
Goog le
ed .Ġ
ch ocol
consist entĠ
eĠc ol
ustom erĠ
pit eĠtheĠ
he at
new sp
sĠ suchĠasĠ
Cour tĠ
Ġd egre
equ alĠ
Sm ith
hand leĠ
col on
aĠ T
insid eĠtheĠ
e esĠ
i. e.Ġ
R edĠ
compon ent
iffic ult
fl owĠ
aĠc ar
ro otĠ
eĠth roughĠ
C N
aĠb adĠ
ip ed
consc ious
L a
ä ¸
lif e
er k
ur fac
et tingĠ
d ut
Ġt on
pun ish
F A
prec is
ur l
rid icul
infr a
iv e.Ċ
le anĠ
and Âł
foundĠ inĠ
C A
lookingĠ atĠ
a )
sh ift
Î ±
favor it
aw n
P e
l ung
f ishĠ
w o-
aĠl ittl
aĠg ener
at e.Ċ
makeĠs ureĠ
H Ġ
norm al
eĠs heĠ
cl eĠ
e.Ġ You
or sĠandĠ
ĠĠĠĠ Ġ
our Ġp
Flor id
iz eĠtheĠ
Ġb o
res tĠofĠ
ationĠ inĠtheĠ
auth ent
con clud
ag r
inv it
cor respond
err orĠ
Ġboth Ġ
ud ic
aĠh ugeĠ
all -
ing Âł
inter action
r ush
d ailyĠ
s oĠtheĠ
E li
hasĠ noĠ
origin allyĠ
ant ib
IĠ haveĠtoĠ
Wh enĠtheĠ
expl o
ar mĠ
ag ent
ag Ġ
pres sur
leav ingĠ
develop ment
Afric anĠ
i. e.
E X
m ill
mur der
anc e
t oĠtheĠ
ĠtheirĠ ownĠ
V ide
H ouseĠ
O T
e.Ġ W
pr ol
chang edĠ
ur viv
wh yĠtheĠ
Of f
atedĠ andĠ
asĠ heĠ
a a
Japan eseĠ
,Ġ J
cli ent
scre en
wer en
charg eĠ
long -ter
b tĠ
5 4
Ġsh ort
,Ġ whatĠ
6 7
s .ĠInĠ
near ĠtheĠ
anyĠ ofĠtheĠ
ed ?Ġ
uf fer
sc rib
it z
N umb
qu iet
coun tĠ
b oughtĠ
help edĠ
st air
Wh it
whoĠ haveĠ
duc tĠ
rem ainingĠ
valu eĠofĠ
les sĠofĠ
lab or
whenĠitĠ comesĠtoĠ
hadĠ noĠ
Â ©
( \
Ger man
Ġcom par
whil e,Ġ
l en
you' dĠ
aĠ inĠ
hers elf
asĠ possible
bas ic
v in
bo xĠ
li eĠ
M ill
estĠ andĠ
Th es
âĢľ TheĠ
him .Ċ
benef itsĠ
med ia
ent ryĠ
let sĠ
## ##
ingĠ forĠtheĠ
aĠl if
want sĠtoĠ
) )
pap er
him ,Ġ
oneĠ andĠ
ow l
K Ġ
cl ickĠ
Â »
C ityĠ
b ond
relig ion
ity ĠthatĠ
C ent
st rok
c ept
itĠ forĠ
pack ag
cl oud
( Ġ
ad ultĠ
ic on
iv enĠ
at ĠtheĠs
ĠthinkĠ ofĠ
C I
ĠĠĠĠĠĠĠĠ ĠĠĠĠĠĠ
est y
ous andĠ
fem al
high light
or c
.ĠA r
an .Ċ
D evelop
pot entiallyĠ
n orĠ
giveĠ youĠ
frequ entlyĠ
ures ,Ġ
cr uc
98 0
iesĠ inĠ
( )Ċ
A Ġf
pre m
ey es
( )Ġ
r ingĠ
fig ur
" ,Ġ"
l ect
Con stitut
ic iousĠ
L ou
il legalĠ
depend entĠ
of ĠtwoĠ
esĠ haveĠ
stat ist
am entalĠ
At l
t en
âĢĻ llĠ
del et
conf us
evenĠ moreĠ
Af gh
pre p
y ?Ċ
mostĠ ofĠ
Th ey
nes sĠandĠ
equ al
==== ====
Pers on
d ens
L ordĠ
sub jectĠ
comp il
it icalĠ
of Ċ
Ġc areĠ
ed Âł
up pos
pro ofĠ
U l
bu yingĠ
ox Ġ
. get
For m
got ĠtoĠ
cre enĠ
mist ak
l eĠs
abl es
what ever
Ã Ń
n ak
Per hap
atedĠ inĠ
farĠ asĠ
M el
se g
s,Ġ whichĠ
Ġt ask
required ĠtoĠ
AnonymousĠ said...Ċ
cons ult
ill yĠ
L A
inĠtheĠ t
mor eĠandĠ
eĠth es
Ġt our
cont ainsĠ
oĠ isĠ
cr aft
y eah
s,Ġ andĠtheĠ
s âĢĿ
it 's
b ind
point sĠ
ought ĠtoĠ
b acter
sust ain
ak ist
ingĠtheĠ t
ock et
Ġw er
stop pedĠ
it ,ĠandĠ
H ereĠ
x x
Ġm y
signific antlyĠ
act sĠ
u z
G al
necessar yĠtoĠ
esĠ onĠtheĠ
He alth
g ift
eĠ B
lob alĠ
Eg ypt
dat abas
e '
of -
sub stant
start edĠtoĠ
findĠ aĠ
share|improveĠthisĠ answerĊ
agre ementĠ
neigh b
M a
itĠ asĠ
ide alĠ
u ro
maint ain
byĠ aĠ
dest ro
acc eler
b ankĠ
C od
I'm Ġs
u is
se .Ċ
piec eĠofĠ
Ù Ħ
qu er
s ;
ob vious
att leĠ
ib ilityĠ
lookingĠ forĠ
power fulĠ
ri edĠtoĠ
< Ġ
us sĠ
inter vent
sh ock
eĠm ak
Ġc ult
onĠ herĠ
behind ĠtheĠ
P artĠ
driv enĠ
m igr
Ġthes eĠs
int im
itiesĠ andĠ
end ĠtoĠ
so on
youĠd o
s olut
Ġh um
p .Ġ
th irdĠ
Ġc od
I B
our Ġd
bl ueĠ
An al
M iddleĠ
eĠwor ld
decid edĠtoĠ
iv e.Ġ
.ĠAl so,Ġ
P os
pr on
tr uth
i y
manufact ur
con om
appl yĠ
pract icalĠ
bab yĠ
aĠg ood
c art
fl ightĠ
rew ard
g in
comm andĠ
aĠ L
any whereĠ
ure lyĠ
arr ow
pl et
empt yĠ
fr uit
los s
feat ureĠ
sh o
ed icalĠ
Ġtr ustĠ
W illĠ
p itch
ec ret
Ġm ethod
f lyĠ
involv edĠinĠ
eĠ S
weap on
az z
.Ġ Us
for est
cr aftĠ
Ġc amp
sym bol
s ĠtheĠs
person al
che es
wh is
year sĠofĠ
) ,ĠtheĠ
ass iveĠ
nec k
pro secut
lif eĠandĠ
( x
k idĠ
H op
erĠ orĠ
find ingĠ
Ġthis ,Ġ
los sĠ
ĠthatĠ youĠ
P ostĠ
appe al
whenĠ weĠ
f uck
avail able
ersĠ canĠ
ĠĠĠĠ "
eĠt od
effect sĠ
know ingĠ
mod elĠ
w indĠ
sh eĠw
ag oĊ
M iss
eĠw ord
ĠthatĠ hasĠ
em on
blog g
urb anĠ
no bodyĠ
learn edĠ
cre am
ociet yĠ
isĠtheĠ mostĠ
overwh elm
bl ockĠ
a )Ġ
.ĠTh ere'sĠ
comment> username_
roc kĠ
onĠtheĠ t
s itĠ
B ab
stop p
ĠtoĠ do
R A
Ġw aterĠ
le Ċ
uccess ful
C as
Wh en
Ġfil es_
st res
understand ingĠ
Ġthr owĠ
Ġ| Ġfiles_
daugh terĠ
Ġwill Ġb
light lyĠ
H en
N av
se en
ic itĠ
<issue_ comment>username_
li ent
d os
provid eĠaĠ
un fortun
s. ÂłĊ
other ĠthanĠ
found ĠthatĠ
keep ingĠ
le .Ċ
S Q
ex ha
eĠisĠ aĠ
edĠtoĠ aĠ
L uc
eĠtr yingĠtoĠ
S and
B illĠ
rec ept
Ġthere âĢĻsĠ
C oll
from ĠmyĠ
t ak
ap artĠ
.ĠI Ġf
prim arilyĠ
con str
reli ef
ick et
Ġthemselv es
Ġm uchĠ
say ,Ġ
Ã ³
f ro
eĠtheyĠ areĠ
Ġb ook
cl ar
mon itor
F L
whoĠ hadĠ
ar is
sh or
D an
express ion
E th
eĠt urn
V ict
Pro v
approxim atelyĠ
experienc edĠ
after no
heĠw as
hĠ andĠ
imag ineĠ
n ail
ac idĠ
H D
Ġwor kingĠ
in essĠ
dec lin
Â ·
.ĠAnd ĠtheĠ
d enĠ
F ound
s,Ġ soĠ
mer g
mayĠ haveĠ
Wh ichĠ
l engthĠ
op p
. m
o onĠ
fic tion
I'veĠ beenĠ
ation Ġs
{ Ġ
E p
h ourĠ
youĠm ustĠ
develop edĠ
ont oĠtheĠ
dis h
effect sĠofĠ
it ?Ċ
is onĠ
suppos edĠtoĠ
f illĠ
ip sĠ
vacc in
Ġtreat mentĠ
consequ enc
8 9
m arg
Jew ishĠ
your Ġt
ation ,ĠandĠ
bitĠ ofĠ
str ingĠ
eb odyĠ
Pet erĠ
a es
is land
reason ableĠ
qu eĠ
rul eĠ
even Ġthough
X -
od y
Ġp ass
Ġto Ġtak
Ch urch
w ild
giv enĠtheĠ
Ch il
ol id
h il
Ġhe alth
refer redĠtoĠ
G B
} {
af fĠ
evenĠ ifĠ
employ mentĠ
a _
work ,Ġ
s âĢĶ
h ateĠ
strateg yĠ
ha mĠ
indic at
sid eĠofĠtheĠ
prof itĠ
is ĠthisĠ
loc al
part n
Rom anĠ
\ n
ir on
awayĠ fromĠtheĠ
ic id
res ident
Ġd riv
ing ĠtheseĠ
h ir
hor s
g ear
pot ential
deb tĠ
.ĠA f
des piteĠ
expl os
L oc
rar elyĠ
Mar kĠ
Ġyear Ġ
config ur
ou chĠ
con ver
st on
eĠth oseĠ
ĠofĠ aĠ
istĠ andĠ
Col leg
chang eĠtheĠ
fl ight
involv esĠ
s ight
wr ongĠ
character istic
Ġtend ĠtoĠ
ĠthatĠ wouldĠ
hour sĠ
aĠser iesĠofĠ
IĠ getĠ
y es
requ estĠ
s .ĠIĠ
makesĠ itĠ
od g
h em
m ast
s y
ert ainlyĠ
differenceĠ betweenĠ
back ground
.ĠA sĠaĠ
n urs
ol der
incredi blyĠ
al ent
es p
eĠd idn'tĠ
ow ardsĠ
Ġweb sit
r Ġ
C B
C ounc
s.Ġ W
w eĠc
h isĠt
West ernĠ
isĠ veryĠ
withĠ noĠ
for th
Rel atedĠ
c in
asĠ andĠ
Ġtell sĠ
el y.Ċ
aboutĠ whatĠ
con stĠ
hol id
of ĠtimeĠ
b uck
h all
.ĠOf Ġcour
ð Ł
eĠtheĠs ameĠ
.ĠAl though
gener al
Ġs omethingĠ
provid edĠ
natur allyĠ
s _
IâĢĻ dĠ
ab str
aw k
proc eed
ific ialĠ
re lyĠ
advanc edĠ
V alu
ation s.Ċ
fil ter
be atĠ
âĢĻ sĠt
Ġcon f
go ĠtoĠtheĠ
Ġc ost
Ġhel pĠ
w are
Micros oftĠ
Fr ank
s,Ġ which
Appl eĠ
.ĠP er
all y.Ċ
forĠ exampl
keep sĠ
ang el
br anch
ĠĠĠĠ }Ċ
Car ol
0 21
b onĠ
eĠmon eyĠ
year ,Ġ
Ñ ģ
say s:Ċ
+ +
el ementĠ
man ipul
st arĠ
def ault
allĠtheĠ tim
Faceb ook
scre enĠ
isĠ itĠ
Ġ itĠ
G P
c ow
dist anc
ann ualĠ
2 50
ed .Ġ"
pl eĠ
eas on
at e.Ġ
M E
every th
ĠthatĠ IĠ
h i
forc edĠtoĠ
forĠm anyĠ
Ġb illionĠ
os sĠ
no st
Ð ½
in ningĠ
Ġme an,Ġ
with Ġd
in ject
et r
iv ingĠ
resourc esĠ
advant ag
ins ist
butĠ notĠ
str ugg
Ã Ĺ
ic Ġd
ri or
aĠs econdĠ
both ĠtheĠ
g al
inĠ anyĠ
mor eĠthan
eas ierĠ
leav esĠ
ha b
s oldĠ
M R
ch aseĠ
ad mitt
ĠthatĠ areĠ
ain ,Ġ
M ont
Pol ic
us i
Ġhour sĠ
itsĠ ownĠ
rol eĠ
ind eedĠ
ap olog
V ers
notĠ beenĠ
Ġtechnolog yĠ
arm sĠ
Let 'sĠ
e,Ġ asĠ
ã Ĥ
issu es
H and
E f
Ġh ear
.ĠN owĠ
log g
h it
B en
at ar
f ootĠ
sol veĠ
forĠ anyĠ
driv ingĠ
libr aryĠ
.ĠA t
f an
ities .Ċ
at Ċ
V en
Ġm anĠ
respon seĠ
instr ument
sud denlyĠ
Sun day,Ġ
er ĠthanĠtheĠ
ro d
ol di
.Ġ Ġ
no thing
rev enu
ret ire
,Ġ justĠ
r c
EN T
nat ure
Ġthey âĢĻreĠ
adv iceĠ
ear nĠ
ing Ġtheir
n a
N S
in eĠandĠ
Chin es
er alĠ
Ġtr uth
st oneĠ
Ġp re
D ar
in struct
fr ac
releas eĠ
hur tĠ
outsid eĠtheĠ
Or ig
Sy ri
fight ingĠ
hos pitalĠ
D ist
v ess
t on,Ġ
a Ġtim
gr adeĠ
Ñ Ģ
def aultĠ
a er
ph ras
ã ĥ
G O
a ĠtimeĠ
re amĠ
land scap
caus esĠ
E vent
col umn
,ĠandĠ itĠ
int r
insur anc
J on
ast icĠ
pt ionĠ
you ĠtheĠ
flo or
C am
ist s,Ġ
costĠ ofĠ
ĠinĠ aĠ
af fair
ĠtooĠ muchĠ
act ually
institut ion
s tĠofĠ
ou sĠandĠ
y anĠ
Ir an
s en
Ġp hot
erĠ inĠtheĠ
e,Ġ aĠ
I Ġb
dec ideĠ
O pen
St eph
asĠ aĠm
B et
her ĠtoĠ
fash ion
O F
ar myĠ
Ġh and
at ell
pl otĠ
im alĠ
Ob ject
vehic leĠ
ou bl
s ,ĠtheyĠ
D P
orĠ notĠ
to oĠ
aĠbig Ġ
int ent
I SĠ
with Ġb
ass umption
Ex pl
at ĠthatĠ
anal og
Vi ewĠ
or ies
Ġt old
peopleĠ inĠ
prec ed
D V
D C
WeĠ haveĠ
il eg
call edĠtheĠ
eĠs uchĠ
convers ation
. .Ġ
new Ġs
fe etĠ
fre ez
Y ear
los ingĠ
s [
Ġter mĠ
c and
withĠ yourĠ
ers ĠtheĠ
s .ĠIn
phot oĠ
d iff
pres sure
sh eĠisĠ
ĠthatĠ canĠ
conc ep
start sĠ
mad eĠaĠ
R ed
WhatĠ isĠtheĠ
lik eĠthatĠ
s end
zer oĠ
anceĠ ofĠtheĠ
Ġtow ardĠ
ish ingĠ
e .ĠTheyĠ
createĠ aĠ
E conom
I E
ĠĠĠĠ S
ins ight
lo anĠ
l es,Ġ
peopl eĠandĠ
vi br
. D
s evenĠ
w estĠ
O per
it iv
it chĠ
ex changeĠ
ed ĠthroughĠ
pict ureĠ
St eveĠ
Ġs inceĠ
l aĠ
can notĠbeĠ
gr ab
well ,Ġ
prom pt
onĠ S
includ edĠ
a ,ĠtheĠ
97 0
friend lyĠ
ic ationsĠ
Ġt enĠ
rat esĠ
Ġ |Ġ
epar ateĠ
.ĠI Ġthink
Ġm adeĠ
ang leĠ
,Ġ wasĠ
sp otĠ
we etĠ
aĠs ystem
s ad
cr ack
legis l
D am
> >
adv ent
"Ġ isĠ
se eĠaĠ
nut ri
Sc ienc
.ĠWith Ġ
Ġw antĠtoĠ
or nĠ
app ingĠ
et ect
At ĠtheĠ
sh r
inc t
sol di
eĠd iffer
M ot
Auth or
u beĠ
young erĠ
th is
eĠt og
w alkingĠ
Chr isĠ
h ack
oth es
st ack
.ĠP l
fl atĠ
un itĠ
rat eĠofĠ
Ġd ollar
bl am
oc curr
) )Ċ
Washing tonĠ
w eĠt
U r
ef fortĠ
cl ust
sh e'sĠ
P akist
lo os
eĠm anag
Q :Ġ
in Ġtheir
oc c
ou bleĠ
b ug
Ġh ist
fl aw
res olv
develop ingĠ
w eĠcan
about ĠtoĠ
b oot
real ity
ad ingĠ
cop y
ter nĠ
play sĠ
yourĠ own
L ondon
ter m
Ġtr y
equip mentĠ
eĠm adeĠ
ĠtoĠs ayĠ
Al soĠ
e,Ġ whichĠ
wh os
v s.Ġ
aĠ H
g rewĠ
hundred sĠofĠ
volunt e
Ä ģ
hold ingĠ
Ġwor ldĠ
wor stĠ
crow d
Ġdo ingĠ
Ġthing sĠthatĠ
IĠw ant
Y O
wid elyĠ
AL L
arr ay
lead sĠtoĠ
n dĠ
up ĠtoĠtheĠ
Ġbe havi
part sĠofĠtheĠ
bas eĠ
igar ett
read yĠ
major ityĠofĠ
Ġsh ould
,Ġ A
ec om
anĠ importantĠ
ore over
Ch o
N E
c old
m ainlyĠ
with ĠtheĠs
applic ationĠ
benef ic
hand sĠ
6 8
Ġm arket
Or gan
Ġf in
qu areĠ
antĠ andĠ
fl av
eni orĠ
or ang
eĠth ereĠareĠ
reduc eĠtheĠ
in evit
h ill
ad m
all oc
whether ĠtheĠ
sĠ canĠbeĠ
complex Ġ
ec ur
ir Ġ
g ayĠ
mess ageĠ
feat ures
sĠandĠ otherĠ
cont ro
ĠtoĠ hisĠ
n i
inv as
e,Ġ andĠtheĠ
gl assĠ
Ġtrans fer
ex am
Ġme ans
ong o
pres erv
ĠthatĠ weĠ
pe akĠ
ren ew
mer elyĠ
Ġwe ap
as yĠ
ly mp
r owĠ
on eĠth
stup id
g all
Bl u
Ġc ameĠ
.ĠAl thoughĠ
] (
ne gl
eĠw ouldĠbeĠ
t ax
useful Ġ
asĠwellĠ asĠtheĠ
sm art
N az
S ing
emerg encyĠ
and/ orĠ
canc erĠ
book sĠ
( C
energ y
help ingĠ
enc e.Ċ
s ense
prote in
U Ġ
eas eĠ
ens ureĠ
eĠs pec
br ightĠ
hur t
defin ition
el ebr
happen sĠ
with outĠtheĠ
priv ileg
Or Ġ
liv es
T re
T O
St and
Ġtr ick
On lyĠ
par ad
so ĠtheyĠ
dayĠ andĠ
Ġs ome
M anĠ
liqu idĠ
exerc iseĠ
th at
e.Ġ "
re viewĠ
H ear
IĠ alsoĠ
lif t
hy per
guarant e
aĠt yp
overĠ aĠ
edĠ whenĠ
whatĠ youĠ
dis appoint
ant icĠ
web siteĠ
spec iesĠ
esĠ atĠ
Un fortun
war n
ing s.Ċ
s ĠthanĠ
T yp
just ĠtoĠ
Christm asĠ
d in
M er
IsĠ itĠ
Ġcall edĠ
regard ingĠ
âĪ Ĵ
th ĠofĠ
,Ġ myĠ
im per
ed ĠthemĠ
pr iseĠ
red it
artic lesĠ
S l
met alĠ
edĠwithĠ aĠ
your Ġw
deep Ġ
lat terĠ
e ,Ċ
H ealthĠ
or Ġmor
K now
near Ġ
way .Ċ
usedĠ forĠ
ag ric
he 'dĠ
ro id
re presentĠ
R am
f reshĠ
rol eĠinĠ
haveĠ anyĠ
Ġth irdĠ
? "
feelĠ likeĠ
liveĠ inĠ
vol t
! !Ġ
eng ineĠ
arr ayĠ
y ellow
fav our
IfĠ youĠareĠ
ys icalĠ
A h
NO T
R un
Col or
ĠĠâĢ¢Ġ TheĠ
inc ident
ing :Ċ
D iv
Ġto Ġthem
qu e
s ),Ġ
elev ision
peopleĠ haveĠ
s ort
all Ġb
aĠm ajorĠ
i Ġs
ht ml
cap ableĠofĠ
s,Ġ suchĠasĠ
him ĠandĠ
som eĠd
compet ition
allow edĠ
dou bl
.ĠI âĢĻ
Ġ fromĠ
â Ħ
T e
G ood
perspect iveĠ
re in
ic ro
fin ishedĠ
. org
in hib
Prof ess
y og
Ġs omeoneĠ
How ĠcanĠ
UR L
aryĠ ofĠ
goingĠ onĠ
h ip
su sĠ
aĠb unchĠofĠ
Now ,Ġ
inv olveĠ
. t
e .ĠAndĠ
car riedĠ
cont extĠ
wit ness
aboutĠ itĠ
P an
be enĠtheĠ
spe ech
c ienc
suchĠ as
on âĢĻt
ia .Ċ
L inu
ith ub
an spar
dep os
itsĠ own
po tĠ
way ĠthatĠ
ab in
oun g
orĠ otherĠ
doĠ youĠ
Brit ish
di alog
.ĠOn ceĠ
T P
al tyĠ
B it
Ġbre ak
f et
c ouldn'tĠ
comp ens
cas esĠ
s .ĠAndĠ
r end
ical ,Ġ
! !Ċ
t y
start ĠtoĠ
man ,Ġ
e ;
st em
ac he
ha g
slow lyĠ
lib ert
eĠs o
ement ,Ġ
employe esĠ
industri alĠ
allĠ overĠtheĠ
or ĠtwoĠ
% Ċ
specific allyĠ
ol idĠ
pl antsĠ
Ġbl oodĠ
aĠ F
eĠc areĠ
e.Ġ HeĠ
or ph
e ag
w onâĢĻtĠ
develop Ġ
M emb
sp endingĠ
D eb
er s,ĠandĠ
cha inĠ
neg ativ
watch ingĠ
S O
sc rip
ĠtheĠs econdĠ
eri ous
Quest ion
des c
loveĠ toĠ
co ordin
caus ingĠ
wer eĠtheĠ
- m
sett l
acc umul
St art
pro portion
n it
aband on
youĠ justĠ
Ġs et
educ ationĠ
icĠ ofĠ
O w
ire sĠ
Ġtr ackĠ
weĠd oĠ
ix Ġ
C apt
ic ateĠ
ation s.Ġ
understand ingĠofĠ
gen u
peopl eĠthatĠ
publ ishedĠ
em in
narr ow
fut ur
s,Ġ itĠ
popul ationĠ
p up
Ġsay s:Ċ
got ĠtheĠ
] .Ċ
p el
B al
atedĠ byĠtheĠ
ess ential
hasĠ anĠ
enc ounter
plan etĠ
effic ient
only ĠtoĠ
en eĠ
h iddenĠ
up onĠtheĠ
) .Ġ
every bodyĠ
rog enĠ
Sup remeĠ
" W
Ã ¼
S im
T ri
eĠth ereĠisĠ
.ĠO nĠ
ucc essĠ
accur ateĠ
kill ingĠ
coff e
ent re
Ġther e.Ċ
aĠf il
eng ageĠ
infect ion
U k
wer eĠt
gr ac
aud ienceĠ
helpĠ youĠ
im it
we igh
aĠs ing
Ġd el
F ull
invest ment
administ rat
n tĠ
dem ocrac
quick ly
p g
C L
emb er,Ġ
gu itar
fr act
sh oot
ric tĠ
ĠtoĠ m
R ock
heĠd idĠ
ap or
stat icĠ
fl yingĠ
ant s,Ġ
rout in
along Ġwith
ou st
asĠ manyĠ
Ġs it
.ĠL et
us eĠtoĠ
from ĠthisĠ
or ryĠ
Willi am
F O
dest in
citiz en
:Ġ H
equ allyĠ
ful fill
ict ionĠ
establ ishedĠ
On c
| Ċ
n oneĠ
I ĠshouldĠ
en orm
r ing
areĠ youĠ
sp read
dom est
open ingĠ
school Ġ
he ight
il i
down load
withĠ herĠ
D en
Ġpos si
F ederalĠ
ofĠ anĠ
los sĠofĠ
ĠtoĠ makeĠ
" ,Ċ
l oop
inc ent
ist ,Ġ
when everĠ
E duc
coll abor
Ġto x
pre adĠ
>Ġ <
ultipl eĠ
.ĠW ell
F reeĠ
b ull
erĠ whoĠ
acr ific
in fer
commun ity
hair Ġ
Ġf eel
P yth
obt ainĠ
. A
Str ing
inĠ H
.ĠA tĠtheĠ
upĠ inĠtheĠ
ra iseĠ
,ĠtheĠ t
wom an
s ignĠ
rat ioĠ
curr ent
all erg
-th e-
orĠ "
) Ġs
ast ic
or ĠmoreĠ
if est
s ellĠ
asĠwell .Ċ
level sĠ
P ac
st uckĠ
bel owĠ
inter net
up grad
ant i
refer r
ig Ġ
</ p
sub sequ
99 8
Ġd uringĠ
af etyĠ
Ġm ad
Ġd uringĠtheĠ
,Ġ W
C ha
peopl e.Ċ
aĠm atterĠ
C amp
con nectĠ
ĠĠĠĠĠĠĠĠĠĠĠĠĠĠĠĠ ĠĠĠĠĠĠĠĠ
l u
Ġtrou bl
j av
is n't
un tĠ
m aleĠ
someth ingĠtoĠ
Pro gram
contin ueĠ
ord ersĠ
h o
rec k
fromĠ anĠ
s ,Ġt
ĠthatĠ heĠ
ovi etĠ
antic ip
seem edĠ
Cong ressĠ
Ã ¶
anc eĠtoĠ
part ner
P O
init elyĠ
olog y,Ġ
anc est
ret ail
Br az
und ayĠ
S pr
exc ess
withĠs omeĠ
aff icĠ
Ġh as
said ,Ġ
Ġmon ey
conc eptĠ
strong lyĠ
l inĠ
ure Ċ
an ist
An yĠ
yearsĠ ago
hamp ion
Stre etĠ
En erg
e .ĠIfĠ
al m
.ĠM aybeĠ
y ard
Ġsp ac
mor eĠm
eĠth oughtĠ
M ean
edĠ meĠ
stud y
er mĠ
hy th
Y our
( Ċ
Ġcom pet
ign ific
urr entlyĠ
stup idĠ
ofĠth is
Char lesĠ
.ĠIn stead
br illi
aw ard
nam esĠ
ic sĠandĠ
put ĠtheĠ
Engl andĠ
em ptĠ
e. âĢĿĊ
sp ell
Sp ir
s.Ġ B
ul tr
Ġth usĠ
e.Ġ SoĠ
.ĠBecaus eĠ
comp at
M ap
A -
G oĠ
.ĠTh atâĢĻsĠ
i rel
h ook
sĠ -Ġ
D R
ph arm
IĠd id
ingĠ for
eĠm anyĠ
s ."Ċ
ag edĠ
expect edĠtoĠ
ateĠ inĠ
- and-
.ĠF rom
it ĠtoĠtheĠ
dĠ andĠ
C all
Ġbe enĠ
Ex ampl
eĠofĠ hisĠ
ari oĠ
increas eĠinĠ
pass ion
d f
in ess
s hak
Ġth en,Ġ
with ĠtheirĠ
aĠ numberĠofĠ
def ens
val idĠ
J ud
par am
o om
choos eĠtoĠ
insp iredĠ
hel d
er Ġt
TheĠ firstĠ
p ushĠ
b e,Ġ
crim inalĠ
pl ansĠ
step sĠ
e ingĠ
lead ersĠ
p m
D oct
e ,ĠtheyĠ
auth orĠ
concep tĠofĠ
car bon
respons eĠtoĠ
s imilarĠ
Be foreĠ
canĠ beĠs
s port
.ĠWh enĠtheĠ
un c
asĠmuchĠ asĠ
it orĠ
C ub
a ĠtheĠ
An sw
P ot
om orrow
plac e,Ġ
Com put
Wh at'sĠ
ult ane
ens ureĠthatĠ
se ed
( B
Ġthey 'r
af eĠ
pro pag
ter Ċ
pass edĠ
bl ank
Ð¾ Ð
pr ene
s,Ġ includingĠ
n eĠ
Th anksĠ
market ingĠ
batt leĠ
s ocial
en -
aud ioĠ
Ġs m
iv erĠ
e.g .Ġ
Ġcom esĠ
,Ġ whileĠ
ut or
M M
comment sĠ
G i
eĠth er
succ essĠ
p in
Tr u
m ac
Ġcomp anyĠ
K at
obt ain
.ĠD es
alp ha
Ac cordingĠtoĠ
Ad v
H P
gr ownĠ
i usĠ
ag end
umm erĠ
qu i
Canad ianĠ
ies ,ĠandĠ
lim itĠ
w ingĠ
pol y
f ool
am entĠ
og g
downĠ andĠ
prog res
th ingsĠ
gen etic
ionĠ forĠ
Ital ianĠ
Ġh ead
ĠtoĠt ell
f if
danger ousĠ
n an
work .Ċ
product iveĠ
Ġt error
http:// www.
gonn aĠ
ag eĠtoĠ
d a
elect ricalĠ
F B
person allyĠ
creat iveĠ
opy rightĠ
Ġs ervic
sur g
we atherĠ
B udd
bro therĠ
viol entĠ
f urn
hard lyĠ
H on
hisĠ ownĠ
)Ġ areĠ
H am
1 20
aĠc ol
ÂłÂł ÂłÂłĠ
Willi amĠ
IĠd o
ass embl
D ev
enth usi
up ĠofĠ
s .ĠIfĠ
.ĠInĠ fact,Ġ
.Ġ andĠ
9 60
Satur day,Ġ
en 'sĠ
s ittingĠ
.ĠI ĠwouldĠ
ĠtoĠ yourĠ
b ann
now .Ċ
Ġth ousandsĠofĠ
inĠ ourĠ
ifĠ IĠ
s izeĠ
el eph
eĠd ownĠ
deb t
mean ingĠ
hor iz
mayĠ notĠ
st ableĠ
embr ac
dr inkĠ
app edĠ
from Ġc
J ob
itĠisĠ aĠ
her eĠtoĠ
w inn
ph y
underst oodĠ
struc tĠ
des per
pat ternĠ
y ell
... .Ċ
aĠ K
UnitedĠStat es
el ,Ġ
if ĠheĠ
rec all
not iceĠ
N AS
aĠg reat
ham m
g ithub
w onderĠ
ĠĠĠĠ IĠ
, Ġthat
Res earchĠ
eĠt oldĠ
hear ingĠ
afterĠ aĠ
ifĠ you
Ear thĠ
Ġm ot
M B
.ĠA p
em oryĠ
mor ning
immedi ateĠ
With ĠtheĠ
as Ċ
for um
mass iveĠ
A I
mention edĠ
Hum anĠ
bre akingĠ
Rich ardĠ
d edic
)Ġ inĠ
historyĠ ofĠ
eĠm ad
im ultane
etc .Ċ
yĠ wasĠ
ic .Ċ
asĠ longĠasĠ
Ġm ark
iv es
heav ilyĠ
Ġt ip
not eĠ
Ġte achĠ
interest ing
6 9
confl ictĠ
H app
exper tĠ
first Ġtim
mar kĠ
C at
jo intĠ
7 8
.ĠÂł TheĠ
dis playĠ
girl sĠ
ĠtoĠ myĠ
ch rom
form sĠofĠ
e ut
legis lat
Ad am
exha ust
princ ip
" )
def ineĠ
alkingĠ aboutĠ
eĠd ifferentĠ
er iesĠ
l unch
H arr
g enderĠ
fl avor
nes sĠofĠ
ally ,ĠtheĠ
run sĠ
consc iousĠ
wif eĠ
itĠ all
le ak
un ion
li esĠ
cl ock
cour seĠ
aĠs impleĠ
law sĠ
pay ment
happen edĠ
al ongĠ
u sĠofĠ
j udic
yourĠb odyĠ
mod er
doĠ withĠ
dist ingu
TV Ġ
( $
um nĠ
pres enceĠofĠ
organ ism
ic aĠ
workĠ andĠ
s oci
makingĠ itĠ
ch urchĠ
edĠb ackĠ
ok ay
sh ell
peopl e.Ġ
j ail
w earĠ
itĠ will
con struction
. .Ċ
eli ber
Pres ident
Ġcon sum
eĠt ax
anc erĠ
el ectĠ
}Ġ \
sub t
Res pon
aĠbitĠ ofĠ
m eĠaĠ
attr act
R and
bl ess
res ent
right ,Ġ
ir r
Ġpol ic
was ĠtoĠ
v eter
and sĠ
sm ooth
urr ound
agreeĠ withĠ
Ġme et
Thom asĠ
Ã¢ âĤ¬
aĠb as
respon se
prom in
b eĠtoĠ
elect edĠ
upĠ forĠ
util iz
applic ationsĠ
real -
des k
ob sess
in noc
pay mentĠ
eb Ġ
eĠdoesĠ notĠ
nam e,Ġ
vis ual
an z
couldĠ haveĠ
eĠd evelop
rit icalĠ
.ĠAl soĠ
.ĠA notherĠ
fasc in
me antĠtoĠ
M ark
.ĠWh en
fem in
Con sid
ofĠcour se
ityĠ inĠ
T al
le ast
`` `
spirit ualĠ
emb arr
attent ionĠ
eas y
extr act
contr actĠ
de e
N ic
ativ esĠ
work edĠ
heĠs aid
rand omĠ
l edĠtoĠ
do ĠthisĠ
cert aint
lif esty
prot ocol
m as
Ġm ess
i 'sĠ
pur chaseĠ
or y,Ġ
eĠsh ar
I IĠ
cal m
ingĠ asĠ
o yĠ
Up dat
.ĠI Ġs
conserv ativeĠ
jo inĠ
ne st
wh omĠ
pro ph
eĠs omethingĠ
develop mentĠofĠ
gam es
ic ationĠ
you th
V iet
po em
pl ainĠ
R oy
viol enceĠ
ess ayĠ
w eĠshouldĠ
M ax
Uk rain
c rop
B ur
ageĠ isĠ
.Ġ ÂłĊ
y ield
bor row
ad oĠ
S inceĠ
.ĠA Ġs
abil ities
combin ationĠofĠ
IĠs aw
?Ġ W
Ġh om
perc eiv
L ong
som eĠm
ogn itiveĠ
I l
youĠ needĠ
br ingsĠ
Ã ¤
anc e.Ċ
id sĠ
St epĠ
great lyĠ
Gre en
G irl
list enĠtoĠ
P G
z en
,Ġth enĠtheĠ
s,Ġ but
bud getĠ
C entralĠ
Ġp op
H A
e ight
H omeĠ
destr uct
uni form
// //
jo int
c av
how Ġw
erv erĠ
qual ityĠofĠ
V ID
M ich
extr a
equ ation
col orĠ
Ġm ag
P ass
Ġb enef
bas isĠ
item sĠ
.Ġ En
B ookĠ
edg eĠ
ion ĠtoĠ
rob ot
Ġ Ø
for getĠ
e,Ġ but
mak ingĠtheĠ
F indĠ
f ansĠ
l oud
you t
is landĠ
- b
upĠ aĠ
vers eĠ
ett l
ifi ed
"ĠandĠ "
comp ass
c ock
pro hib
pl ement
agre ement
:Ġ '
ĠthisĠ year
mag net
ingredi ent
m emberĠ
pers ist
g ang
produc edĠ
Sec urityĠ
Ġt extĠ
clim b
sens eĠofĠ
necess ary
anal yt
ext ens
us edĠbyĠ
fur ther
colleg eĠ
$ $
Ġsup port
eĠt est
sĠ wasĠ
âĦ ¢
i ev
rup tion
eĠth is
pr ais
az in
et .Ċ
whatĠ weĠ
lov edĠ
bo il
gu est
WorldĠ WarĠ
research ersĠ
d ot
with out
s,Ġ "
,Ġ especiallyĠ
wat er,Ġ
N extĠ
B eĠ
T ext
b b
augh t
ing s.Ġ
dist anceĠ
valu ableĠ
y aĠ
D B
p ig
dr inkingĠ
A sĠaĠ
eĠd ep
Ġc ouldĠbeĠ
eĠofĠ myĠ
gener ation
Ġ n
Ġ à¤
es .ĠS
Th atâĢĻsĠ
Ġte en
,Ġ or
) ĠtheĠ
.ĠAn yĠ
chos enĠ
IĠ guessĠ
eg reeĠ
it'sĠ aĠ
t re
IĠamĠ notĠ
.ĠH eĠisĠ
e il
ix t
letĠ meĠ
.ĠR em
edĠ overĠ
s in
ater ialĠ
G ar
Ġthrough outĠ
ecid edĠtoĠ
dist urb
Ġc over
pass eng
L ic
aĠ person
% sĊ
Ġ O
act ic
involv edĠ
inĠtheĠ worldĠ
is ĠtooĠ
cas h
os ,Ġ
personĠ whoĠ
Connect ingĠtoĠ
Ġ =
ingĠ fromĠtheĠ
Ġb illion
r uit
TheĠ F
eĠc ap
eĠd ist
ment ĠtoĠ
at es,Ġ
cam eĠtoĠ
ĠtoĠt ellĠ
s (
h ung
Ger manyĠ
activ ities
entĠ inĠ
facil it
descri beĠ
M C
endĠ up
Tim eĠ
Californ iaĠ
small erĠ
Ġcont ribut
peopl eĠs
R ic
gener atedĠ
pro of
p aid
',Ġ '
.ĠF in
ins ert
7 00
eri or
medi um
elect ionĠ
mil it
suppl yĠ
otherĠword s,Ġ
C he
E achĠ
bl ind
( P
out ĠthereĠ
w aveĠ
ifĠ you'reĠ
whenĠ IĠwasĠ
ar bit
andĠth en
R ul
pro spect
, Ġtr
resultĠ inĠ
s ellingĠ
de ploy
import anceĠofĠ
amount sĠofĠ
id es
âĢĿ .Ċ
Ġp ur
it ĠthatĠ
no -
Dat a
alkĠ aboutĠ
sheĠ hadĠ
asĠ "
ay ingĠ
edĠ asĠtheĠ
findĠ itĠ
Ġtim es,Ġ
ens or
Frid ayĠ
re fr
A sh
v aryĠ
A li
Ġth ingĠtoĠ
do ing
m eĠthatĠ
stre amĠ
increas eĠtheĠ
full -
S ant
ConnectingĠtoĠ %sĊ
co ach
fel t
edĠ himĠ
itiesĠ ofĠ
Ġthat ĠtheyĠareĠ
focusĠ onĠ
v end
ut ch
g rip
sĠ hisĠ
i P
at aĠ
r im
pres um
rac eĠ
dis crimin
or ough
leĠ andĠ
esĠ canĠ
refer enceĠ
di etĠ
FacebookĠ photoĊ
TwitterĠ pictureĊ
p y
enc e.Ġ
op ol
e ableĠ
al ism
d il
some whereĠ
im possibleĠtoĠ
exact ly
cord ingĠtoĠtheĠ
Afgh anist
C re
begin {
m obil
prep areĠ
lin eĠofĠ
idea ĠthatĠ
brow s
ex clud
eĠthat ĠtheyĠ
ĠtheĠs ystem
ser iesĠ
U seĠ
Ġthan kĠ
restr iction
sĠ withĠtheĠ
prettyĠ muchĠ
ju ic
mort g
in fin
which ĠcanĠ
ation :Ġ
object iveĠ
Ġto ĠthinkĠ
sh eĠs
Ġp rettyĠ
for get
ly -
J as
pro s
ifĠ notĠ
k ept
stat es
r ent
.Ġ Re
? ÂłĊ
inter fer
her e.Ġ
.ĠPeopl eĠ
th reeĠ
Ġb usiness
inĠ which
guid elin
.ĠC l
urn ingĠ
,Ġth es
aĠc o
m ight
Ġ V
aĠm uch
E :Ġ
re ver
H arryĠ
Ġweek sĠ
,Ġ ,Ġ
end {
vari ableĠ
not ĠthatĠ
b ik
Ġh ereĠ
Gre enĠ
IĠs aid
earli er
whatĠ IĠ
esĠtoĠ beĠ
Ġt emperat
execut iveĠ
ingĠ withĠtheĠ
T -
look edĠatĠ
s.Ġ You
end ,Ġ
Ar m
perman entĠ
S ovietĠ
fal seĠ
emper atur
B O
fl our
un itsĠ
ir tĠ
Ġ +Ġ
forĠ itsĠ
.ĠTh oseĠ
oun terĠ
occur redĠ
eĠthem selv
ag ingĠ
with Ġthem
l aidĠ
ox yg
spe ed
ou bt
tr ack
fund amentalĠ
w eĠwillĠ
and erĠ
eĠwor kĠ
th eir
fr u
reduc t
seas onĠ
" )Ċ
od dĠ
Ġf unction
andĠ aĠ
enc od
m att
withĠ aĠs
be ingĠtheĠ
m ax
fron tĠofĠtheĠ
ur therĠ
som eĠc
99 7
in spect
B er
ThisĠ isĠtheĠ
sc aleĠ
nuc learĠ
what âĢĻsĠ
extrem eĠ
asĠ youĠ
e ),Ġ
first ĠtimeĠ
f est
inĠ factĠ
D Ċ
itĠ canĠbeĠ
don 't
moreĠ likelyĠtoĠ
oĠ (
embarr ass
i ed
Contr ol
S how
sĠ wouldĠ
s âĢĻĠ
ing ĠthroughĠ
} ,Ġ
A ud
E -
ing Ġtr
said ĠthatĠ
Ad dĠ
oneĠofĠ myĠ
m achineĠ
T w
.ĠH e'sĠ
En ter
prene ur
next ĠtoĠ
has n'tĠ
lead erĠ
H erĠ
Ġw omenĠ
s chem
eĠwor dĠ
low er
caus edĠbyĠ
eĠwor kingĠ
f lip
mag n
al sĠandĠ
WhatĠ doĠ
form atĠ
Ġbeli ev
entĠ ofĠtheĠ
âĢ ī
.ĠThereĠ wasĠ
,Ġth oseĠ
memb ersĠ
H ead
I O
Ġtoward sĠtheĠ
dev iceĠ
eĠm us
cr az
es .ÂłĠ
st ere
ation sĠareĠ
ter mĠ
bar elyĠ
c ooper
M arket
atĠtheĠ endĠofĠtheĠ
Ġt ap
with draw
Ġm enĠ
descri ption
under lyingĠ
.ĠP leas
fa ult
pow erĠofĠ
you Ġb
e âĢĶ
ear ningĠ
to ol
spe edĠ
Sh areĠ
Bu ild
Ġthis .Ċ
T ok
co inĠ
auth orsĠ
c atĠ
Ġd eb
aĠb re
Ġconc ern
R ightĠ
h eĠcanĠ
aĠ G
=Ġ "
dealĠ withĠ
rec ycl
m illionsĠofĠ
eas ure
atch ingĠ
k ,Ġ
TheĠ D
youâĢĻ llĠ
ig en
cr ash
.ĠThatĠ isĠ
how ĠdoĠ
Ex t
Ġhim Ġ
V all
anc esĠ
e q
hom e,Ġ
cult ureĠ
inform ation,Ġ
st ickĠ
oneĠ canĠ
need ed
ionsĠ ofĠtheĠ
el yĠtheĠ
oth ingĠ
awareĠ ofĠ
dou bleĠ
s uck
eĠth ought
âĢĻ Ċ
every dayĠ
iz ed
iv e-
fr uitĠ
e ur
ab aseĠ
me ant
bu f
underst ood
ud eĠ
vir usĠ
Jap anĠ
has ĠtoĠbeĠ
imag esĠ
ment Ċ
Ġther e.Ġ
peopl eĠw
forĠs om
T ableĠ
,Ġ however,Ġ
buil t
E _
eĠtim eĠtoĠ
fund ament
M om
ref ug
Ġf ac
inv estĠ
r ideĠ
.ĠF r
per pet
st ol
Don aldĠ
b ak
o kingĠ
qu ad
No .Ġ
enceĠ ofĠtheĠ
societ yĠ
Ġb usinessĠ
mon thĠ
You Tu
girl Ġ
Ġpoint sĠ
j ew
S at
par allel
fl ood
satis f
it ,ĠbutĠ
be .Ċ
m aster
,ĠthereĠ wasĠ
bal anceĠ
you ĠseeĠ
repe ated
whoĠ wereĠ
ist ak
edĠ off
afr aid
aw ay,Ġ
fun dĠ
Wik iped
sequ enc
sel ectĠ
Oh ,Ġ
ad esĠ
Pal estin
e .ĠInĠ
r ab
notĠ evenĠ
effort ĠtoĠ
long -
7 9
world ,Ġ
tr ain
et icalĠ
99 6
L ookĠ
hy dro
Part yĠ
A ,Ġ
ab und
W W
J ackĠ
Ġ percent
Japan es
youĠhaveĠ aĠ
i entlyĠ
enc r
W el
TheĠ C
F ire
B B
:Ġ C
andĠth usĠ
W ay
.ĠO ur
edd ingĠ
n om
knownĠ asĠtheĠ
mid -
ang l
Al so,Ġ
f ellĠ
r dĠ
sĠ butĠ
Ġf eat
us ual
itĠ doesn'tĠ
eĠd r
IĠ foundĠ
and er
P ur
on eĠwasĠ
ir rit
p uzz
InĠ addition
on eĊ
alway s
ag entĠ
regular lyĠ
Sh ouldĠ
consum erĠ
IĠthink ĠtheĠ
inĠ aĠc
proc ess,Ġ
F T
L oveĠ
s.Ġ HeĠ
st eel
com press
. c
i ateĠ
of Ġthat
dec entĠ
sens eĠ
it 'sĠtheĠ
Us erĠ
edĠ "
) čĊ
pow erĠtoĠ
compl ic
Th eĠw
Ġt own
.ĠTheyĠ wereĠ
compar ison
p ep
ac commod
Âł andĠ
ometh ing
H ere'sĠ
reduc edĠ
b oundĠ
st affĠ
?Ġ Âł
interestĠ inĠ
eĠisĠ notĠ
if fĠ
Ġdis eas
ionĠ inĠtheĠ
ĠwasĠ aĠ
ut tingĠ
.ĠH owĠ
goingĠ on
e ;Ċ
\ \
com promis
.ĠHowever ,ĠtheĠ
s.Ġ F
erv icesĠ
eas onĠ
i Ġ(
res um
Ġ +
) ,ĠbutĠ
opportun ityĠ
M aryĠ
itĠ inĠtheĠ
liber alĠ
conc ret
sum mar
osĠ Angel
show ingĠ
( c
asĠ weĠ
f uckingĠ
contr ast
gam e,Ġ
dim ens
know ,Ġ
pull Ġ
S he
el ess,Ġ
K im
ir tyĠ
onlyĠ beĠ
areĠ t
re presentsĠ
ofĠcour seĠ
Sc ienceĠ
ationsĠ ofĠtheĠ
friend sĠandĠ
I Ġse
.ĠPer hap
,Ġth ere
ing sĠareĠ
steadĠ ofĠ
beingĠ aĠ
Th er
art ificialĠ
us edĠtheĠ
P ub
ext ensiveĠ
real izeĠ
andĠ isĠ
br an
init iallyĠ
deb ateĠ
ow ardĠ
Ġd eal
activ ity
ingĠ intoĠ
Gre ekĠ
happ ens
appl y
releas edĠ
k iss
O ne
i rect
mechan ism
S et
rem ainedĠ
report edĠ
H or
v il
ong u
th eĠc
asĠ soonĠ
Gre ek
ser ious
th ĠandĠ
aĠl ongĠ
awayĠ from
K r
el ineĠ
.ĠTh eĠw
af et
ing ly,Ġ
produc ingĠ
chick enĠ
O hĠ
do esĠtheĠ
clos edĠ
which Ġs
Vir gin
wor s
much Ġmor
gr abb
her b
Ġtop ic
ersĠ forĠ
lap top
,Ġ hisĠ
il leg
es .ĠThisĠ
e on
isĠ justĠ
ultim ateĠ
cost sĠ
cat chĠ
ĠisĠ anĠ
i am
frequ enc
Gu id
C art
eĠth inkĠ
ri ot
r hyth
alwaysĠ beenĠ
en ableĠ
P en
industr y
Ġt ype
weĠ needĠtoĠ
ur yĠ
O lymp
A sĠtheĠ
o :Ġ
P ower
C ard
.ĠUn fortun
compl icatedĠ
L ov
other s,Ġ
Ġd id
Ġp owerĠ
w eĠcouldĠ
contro vers
Ġthis .
hers elfĠ
) ĠthatĠ
encour ageĠ
aĠcoupl eĠ
ha w
M ur
compet itiveĠ
or 'sĠ
let âĢĻsĠ
bar ri
afr aidĠ
Com mitt
[ '
fact orĠ
R en
ou redĠ
id i
nam eĠofĠ
Ġ TheĠ
job sĠ
mat chĠ
point ,Ġ
em atic
min or
T el
Th at
br ight
liv ingĠinĠ
ap ol
E qu
ad mit
D onâĢĻtĠ
L L
Al thoughĠ
strang eĠ
. âĢĿ
clos elyĠ
onĠ (
meas uredĠ
.ĠS inceĠ
st abil
mad eĠtheĠ
restaur antĠ
99 5
gu ideĠ
br ush
hor ri
act orĠ
<br Ġ/
oc kingĠ
N ame
el v
chool Ġ
SQ L
ing erĠ
form alĠ
It em
intellig enceĠ
convent ionalĠ
w eĠwouldĠ
famil iesĠ
Ġdr ug
ist ryĠ
aĠg am
own ership
b ub
H S
pot at
ath er,Ġ
re fin
Cour t
Ġ Î
s and
ex ual
H olly
Ġbu yĠ
prof ileĠ
peopleĠwhoĠ areĠ
e in
ch anceĠ
a ith
V eg
ed iaĠ
foot ball
, ĠtheirĠ
part iesĠ
B ill
for ec
health careĠ
had n'tĠ
suffic ientĠ
.ĠL ik
Braz il
- d
etc .
poll ut
world .Ċ
Jo eĠ
dam ageĠ
.ĠA s
Ac tĠ
gam e
asĠ IĠ
propert iesĠ
Sc ient
liqu id
L ad
ation ĠwithĠ
l on
7 2
eĠt ak
less on
justĠ likeĠ
regard lessĠofĠ
ul g
purpos eĠ
In vest
.ĠIfĠ youĠareĠ
let ĠtheĠ
giveĠ them
at ed.Ċ
Op enĠ
har mon
categ or
ent .Ċ
car eful
le af
ch anceĠofĠ
) $
Th oseĠ
with ĠthatĠ
haveĠth eĠs
Cong res
b eĠthatĠ
youĠknow ,Ġ
nat ureĠofĠ
us ers
an a
eĠwill Ġb
engine er
c ienceĠ
hon estĠ
fal se
mostĠ importantĠ
want edĠ
OfĠcour se,Ġ
sourc eĠ
separ ateĠ
" theĠ
S yn
lin e,Ġ
isĠ soĠ
prov inc
L ight
un less
ult ureĠ
p ul
function alĠ
Tex asĠ
D ur
ies ĠtheĠ
aĠ âĢľ
all Ġc
opin ionĠ
plac edĠ
n ip
it ic
IĠw antedĠtoĠ
L ead
let tingĠ
\ begin{
,Ġ andĠthenĠ
th eirĠ
Ġth read
w ildĠ
t eam
C ast
B y
i ac
reason ĠtoĠ
sĠ up
- of-
miss ingĠ
surv iveĠ
Ġbel ow
ext endedĠ
pro -
Ġtw ent
oul der
inst allĠ
N ext
u plo
ind e
eĠthat 'sĠ
dem ocrat
si xĠ
d adĠ
Ġtr igg
end ĠtheĠ
lim b
narr ativeĠ
s ,Ċ
stat us
right ?Ġ
out ĠthatĠ
met abol
as ĠtheĠs
ed .ÂłĠ
doĠ isĠ
I ĠseeĠ
beingĠ ableĠtoĠ
ge ograph
M ass
fl at
hund redĠ
hard wareĠ
all ĠthisĠ
.ĠA sĠtheĠ
fig ure
H im
childr en,Ġ
guil tyĠ
me antĠ
plac e.Ċ
sens itiveĠ
inĠ frontĠofĠ
and em
oneĠ whoĠ
so il
Al though
T ag
IĠ neverĠ
view ĠofĠ
peopl eĠofĠ
b other
par entĠ
dis put
il t
m e.Ċ
aĠs m
esĠ byĠ
inĠ manyĠ
And rew
9 00
Ġb ar
on Ġw
own ersĠ
n ick
IĠw antĠ
For c
Sec ret
G reg
sup erĠ
.ĠTh erefore,Ġ
aĠl ocalĠ
er ,ĠtheĠ
fr ameĠ
\ end{
cult ure
knoc k
e.Ġ WhenĠ
arm edĠ
her .Ċ
J enn
ot entialĠ
Ch ief
educ ationalĠ
eĠd onâĢĻtĠ
os h
eff ectĠofĠ
P P
ourc eĠ
iPh oneĠ
we âĢĻreĠ
p a
itâĢĻsĠ notĠ
ch ol
Indi aĠ
k i
follow ĠtheĠ
drug Ġ
restaur ant
W at
re sĠ
sm artĠ
col our
.ĠP ro
itu ationĠ
echan ism
sc ream
M u
Tod ay
.ĠItĠ alsoĠ
s ul
aĠlittleĠ bitĠ
custom ersĠ
th re
Con f
Ġtrans lat
Ġcan notĠ
av en
ĠweĠ areĠ
who 'sĠ
scient ific
Ù İ
go dĠ
r ayĠ
cl as
aĠs enseĠofĠ
gl uc
al istĠ
rough lyĠ
care erĠ
edit ]Ċ
m yst
for Ġme
R is
ingĠ system
ĠandĠ aĠ
} čĊ
ans .Ċ
gl ad
month sĠ
eĠcan 'tĠ
he ightĠ
a head
Ch eckĠ
aĠl aw
virt uallyĠ
opportun itiesĠ
Br own
se ekĠ
T E
rig u
rol eĠofĠ
ing /
P ow
S D
b arĠ
forĠ it
En d
r ender
w Ġ
ber tĠ
similar ĠtoĠ
rup tĠ
G M
newsp ap
ab eth
mak esĠtheĠ
part sĠ
eĠ onĠ
Li br
manag edĠtoĠ
eĠ fromĠ
haven âĢĻtĠ
discuss ion
Ġthere foreĠ
atmosph er
ThankĠ youĠ
ver susĠ
,Ġ inĠtheĠ
intellect ualĠ
P ath
reg ionalĠ
dou btĠ
I PĠ
ainĠ andĠ
AN D
res cu
cl oudĠ
ad or
) ,Ċ
Ir anĠ
hor mon
W ood
sh iftĠ
al tĠ
S pe
s imul
ing ly
fol ksĠ
madeĠ itĠ
9 50
el ig
whenĠ aĠ
el d
Austral ianĠ
ent enc
activ elyĠ
ÂłÂł Âł
scient ificĠ
n omin
quest ion,Ġ
program sĠ
canĠ alsoĠ
maint en
vari abl
eep Ġ
i '
couldĠ notĠ
notĠ sureĠ
res embl
bod y,Ġ
You 'reĠ
Ġc up
isĠnotĠ aĠ
strugg leĠ
Fin ally,Ġ
6 2
ob st
Ġto day,Ġ
str engthĠ
go alsĠ
wonder ful
" t
aĠ moreĠ
forĠ herĠ
.ĠE veryĠ
Ac adem
clin icalĠ
From ĠtheĠ
be ach
DoĠ youĠ
TheyĠ areĠ
aĠf air
olog istĠ
express ionĠ
.ĠTh eir
i estĠ
cir cl
isĠaĠ veryĠ
âĢ ĭ
L in
o ard
ly ric
aĠp iec
Em p
T empl
?Ġ WhyĠ
br ut
igh ter
orĠs oĠ
spe akingĠ
on icĠ
fail edĠtoĠ
,ĠbutĠ notĠ
, ĠtwoĠ
Ġthos eĠofĠ
for ĠthoseĠ
happ yĠtoĠ
) ĠwasĠ
Pr iv
cas hĠ
O '
Ġcom bin
an onym
Jes us
id erĠ
:Ġ D
I rel
fall ingĠ
P A
fl y
usingĠ yourĠ
if er
descri pt
op pon
differ encesĠ
kn if
ĠtoĠ goĠ
or th
explo it
cell sĠ
pan el
.ĠOn c
rec ruit
forĠm ostĠ
or rect
i e,Ġ
inĠ oneĠ
my th
,"Ġh eĠsaid
wher eĠtoĠ
ic Ċ
Ġtell ingĠ
anc edĠ
C hapterĠ
res olution
O ption
un known
Chil dr
( D
M ikeĠ
s now
.ĠE achĠ
dev ot
w ag
avail ableĠtoĠ
contr ad
dr ag
youâĢĻ ll
est r
F -
condition sĠ
Eng ine
,Ġth usĠ
s,Ġ aĠ
halfĠ ofĠtheĠ
Ind ex
aĠs impl
vers ionĠofĠtheĠ
start ingĠtoĠ
at eĠthatĠ
ett eĠ
sh utĠ
sh all
up port
cut tingĠ
al cul
appreci ateĠ
lov esĠ
ofĠ usĠ
es ĠtheĠs
R og
edĠ itsĠ
op hist
I ,Ġ
iv alĠ
enem yĠ
E y
P ay
charact ers
ident ityĠ
K en
aĠf re
eĠd aysĠ
Ġthey 'veĠ
long er
Ġb y
at eĠt
L aur
anc e.Ġ
rap idĠ
sent enc
Publ icĠ
shar edĠ
g ro
in Âł
F ollow
ug ar
ed .
year .Ċ
d b
ear thĠ
into ĠtheĠs
Ġtr adeĠ
soĠ far
hadĠ anĠ
S U
areaĠ ofĠ
H a
conc ernĠ
where asĠ
needĠ forĠ
wid th
part y
enz ym
m ,Ġ
gi antĠ
eĠw asĠtheĠ
Res earch
fer til
ingĠ it
.ĠD on'tĠ
cli entĠ
Govern mentĠ
M D
doĠ it
wereĠ notĠ
su dd
behavi our
con g
stor y,Ġ
Ġtreat ment
eĠm an
ĠtellĠ youĠ
d ump
op position
ation ĠwasĠ
h h
year s.Ċ
op ath
Us ingĠ
id ingĠ
plan ĠtoĠ
flu idĠ
Ù ħ
esĠ fromĠtheĠ
H aw
Counc il
Ġcl assĠ
" Ġs
B ell
all ĠtheseĠ
we 'r
rot eĠ
c lip
anc ialĠ
rel ationsĠ
aĠ differentĠ
ut ureĠ
ingĠ wasĠ
av i
near byĠ
fab ric
willĠ haveĠ
all Ġm
ig u
O x
Po int
aĠm om
aĠb it
organiz ationsĠ
per su
add ict
erm anĠ
A k
ingĠ atĠtheĠ
it ĠtakesĠ
propos edĠ
ementĠ andĠ
over -
lin ear
L ef
di et
forward ĠtoĠ
D og
V P
f t
dec isionĠ
Ġbl ock
fr anch
prog ressĠ
w arr
al most
Ad min
frac {
up dateĠ
s.Ġ SoĠ
A Ġc
week sĠ
manyĠ ofĠtheĠ
H ind
et ern
al arm
aw ar
r y,Ġ
ang erĠ
challeng eĠ
edit or
forĠ allĠ
L ord
W H
esĠ andĠtheĠ
art istĠ
corpor ateĠ
likeĠ anĠ
eĠt oo
doesĠ itĠ
.ĠL og
p >
l am
ast eĠ
ix edĠ
And ĠtheĠ
all yĠtoĠ
eĠtheĠs am
C reateĠ
few erĠ
ail ingĠ
Ġwith Ġs
.ĠC anĠ
,Ġ itĠwasĠ
al fĠ
us eĠofĠtheĠ
protect ion
.ĠWeĠ areĠ
w ip
Sup er
con front
," ĠsaysĠ
whereĠ itĠ
eĠc ount
part sĠofĠ
6 3
L ittleĠ
p age
l amb
New sĠ
sĠ atĠtheĠ
ec retĠ
um mar
Ar myĠ
s.Ġ WhenĠ
minim um
no th
IĠ needĠtoĠ
daugh ter
A z
ï¼ Į
Ġh ard
L ond
Ġyear s,Ġ
Europ eĠ
Ch eck
aĠmatterĠ ofĠ
l ever
ĠtheirĠ own
urther more,Ġ
ass istĠ
mult i-
sĠ anĠ
y ardĠ
fl am
eĠmon th
e.ĠTh atĠ
Germ any
f anĠ
how Ġf
1 01
offer ingĠ
sĠ haveĠbeenĠ
act orsĠ
Ġ @
ex pressĠ
you ĠthatĠ
p ureĠ
all i
etĠal .,Ġ
Inter net
attention ĠtoĠ
Ġ whenĠ
T omĠ
F C
P L
as id
s.Ġ (
,Ġand ĠthatĠ
- B
: Ġs
Ġp artic
itĠ withĠ
aboutĠ howĠ
real izedĠ
br own
oneĠ ofĠthoseĠ
Ġtrans ition
aus eĠ
ĠP MĊ
id ,Ġ
ut terĠ
Col umb
Republic ansĠ
St ill
Ġm iss
work ersĠ
ort un
pr oudĠ
all .Ċ
)Ġ orĠ
B ush
Ġbeh indĠ
an âĢĻsĠ
Ġcontinu eĠtoĠ
Ġth ick
all Ġd
answ ersĠ
AreĠ youĠ
real is
d omĠ
v italĠ
follow ingĠtheĠ
itĠ beĠ
,ĠthereĠisĠ noĠ
it Ġtak
st d
ab yĠ
jour ne
Ġto Ċ
angr yĠ
ation sĊ
deliv erĠ
aĠg ivenĠ
Mar c
Ġth ro
we akĠ
process ingĠ
e. âĢĿĠ
ed,Ġ "
stom ach
was nâĢĻtĠ
chang esĠinĠ
We 'reĠ
= Ġ(
B ern
e âĢĿĠ
Sch olar
P lat
inter actĠ
Ġw at
eb ook
me atĠ
conclus ion
.Ġ Gr
Ch urchĠ
ĠdoĠ notĠ
Mc C
s ick
V eryĠ
ed )
H eĠwasĠ
Ġp iec
lastĠ week
M as
ick etĠ
ount ainĠ
itĠ seem
mor eĠofĠ
chang eĠinĠ
N ameĠ
dig est
p od
99 4
saf etyĠ
es ĠtheyĠ
someoneĠ whoĠ
Ù Ĩ
ers ĠtoĠtheĠ
.ĠB oth
el ĠandĠ
Sup erĠ
backĠ inĠ
! "
L angu
ist sĠandĠ
whereĠ youĠ
st anceĠ
ed ĠthroughĠtheĠ
eĠwe ek
P sych
wouldĠ notĠ
programm ingĠ
s,Ġ asĠ
P ap
ful ĠofĠ
ed ĠtoĠt
Pr imeĠ
Comment Ċ
b anĠ
on Ġt
Âł /
attempt sĠtoĠ
cript ionĠ
er rit
neverĠ beenĠ
s.ĠTh eseĠ
e {
ari an
E E
own erĠ
des erv
Lat inĠ
Ġ forĠtheĠ
Ġwith inĠtheĠ
R S
6 1
J udg
spec iallyĠ
back ,Ġ
.ĠIĠ justĠ
itĠ mayĠ
analys is
re placeĠ
attr activeĠ
forĠ eachĠ
mor e
nuc le
ed omĠ
Ġcon s
fir mĠ
aĠs aid
.ĠIĠ am
ed .ĠS
B oth
ed :Ċ
nov elĠ
.ĠWh at
s uspect
Ġin ch
rein forc
top ĠofĠtheĠ
I DĠ
Sc ott
M ath
s lip
putĠ itĠ
Ġd rop
.Ġ ÂłĠ
Memb erĊ
con spir
. ĠtheĠ
s.Ġ WeĠ
re por
Sw ed
sĠthatĠ haveĠ
Kore anĠ
se eĠthatĠ
Asi anĠ
orĠs omeĠ
del ay
struct ur
qual ity
univers ityĠ
veryĠ well
, '
ost er
if ĠtheyĠareĠ
reat ment
D u
Answer Ċ
responsibil ityĠ
saf eĠ
B at
C y
or ĠthatĠ
iv ely,Ġ
comp areĠ
follow edĠbyĠ
atĠ allĠ
ari ju
on Ġtheir
rapid lyĠ
ers on
aĠl istĠofĠ
Fig .Ġ
s. "Ġ
approach ĠtoĠ
CE O
oper ationsĠ
jour neyĠ
am Ċ
Democrat icĠ
} ,Ċ
itĠ isĠtheĠ
.ĠOn ĠtheĠ
Tur k
le y
.ĠYouĠ areĠ
knowĠ what
gett ingĠtheĠ
op tĠ
Pl an
ric kĠ
fil esĠ
giveĠ theĠ
el yĠt
Hel p
ed ingĠ
if iesĠ
Ġsup portĠ
onĠ itsĠ
WhatĠ areĠ
Ġm arketĠ
M akeĠ
sm ell
ĠtalkingĠ aboutĠ
im inalĠ
nam es
,Ġ d
for ĠmoreĠ
inf oĠ
chec kingĠ
alsoĠ aĠ
m eg
Con serv
onĠ inĠ
compreh ensiveĠ
car efullyĠ
,Ġs inceĠ
withoutĠ anyĠ
Ġtax Ġ
Â ®
orĠ âĢľ
Mat th
V ER
eĠtr u
:Ġ AĠ
phys icallyĠ
or Ġsh
sub stanc
own edĠ
bud get
mil k
Com mon
v ic
aĠm ess
O O
emb lyĠ
" :Ġ"
makeĠs ur
v as
ofĠ herĠ
ation sĠinĠ
lik eĠc
Mod el
Ġp ay
.Ġ YourĠ
West ern
.ĠF orĠtheĠ
F ox
detail edĠ
M ik
M id
thĠcentur yĠ
âĢĿ ĠisĠ
l an
Ġp ack
wel com
ifĠ aĠ
or icalĠ
oper ator
e,Ġ IĠ
er /
foc usingĠ
Ġm g
abil ity,Ġ
lear lyĠ
ot icĠ
Hol yĠ
e.g .,Ġ
m ust
ç ļ
up datedĠ
l ackĠ
à ¦
aĠ hasĠ
.ĠA Ġf
eĠdi rect
)Ġ andĠtheĠ
chem ical
cr ap
i ro
e,Ġ which
Ġth ingĠthatĠ
eĠs ureĠ
ex port
! ÂłĠ
qui etĠ
oppos edĠtoĠ
ourc eĠofĠ
ic ienc
w ik
Har v
al es
el li
isĠ stillĠ
sĠ andĠt
liv erĠ
dition ally,Ġ
if ĠthisĠ
:Ġ (
?Ġ AndĠ
bi ologicalĠ
- in-
,ĠandĠ IĠ
oll arĠ
Ġconsid er
h unt
ing .
Ġtr affic
Ġ isĠtheĠ
ay l
," Ġsh
entre preneur
result ingĠ
reg istr
spec ul
aspect sĠofĠ
improv ement
Ġb i
V o
oper ateĠ
bus yĠ
Eli z
look sĠlikeĠ
inĠ (
g on
op press
bre ast
ch ill
ost lyĠ
obt ainedĠ
exper tsĠ
,Ġ byĠ
no tion
r uralĠ
r if
famil y,Ġ
win ningĠ
experim entĠ
beyond ĠtheĠ
univers alĠ
g roc
relev ant
F ar
â Ĩ
Ġp ow
m eĠandĠ
tr yingĠtoĠ
gu ardĠ
at eĊ
dec or
L evel
Pro jectĠ
acc usedĠ
T _
ifĠ youĠwantĠtoĠ
cent er
ĠtoĠ anĠ
eĠth reeĠ
oo thĠ
intoĠ anĠ
dee plyĠ
distinc tĠ
am end
V ari
swe et
Ġd am
K ev
ibl eĠtoĠ
sĠ upĠ
ris ingĠ
defin edĠ
nerv ousĠ
ongo ingĠ
c hap
sug g
f ellow
b sp
G ard
scient istsĠ
h itĠtheĠ
boo st
Com mand
aboutĠ hisĠ
alread y
s,Ġ and
pe aceĠ
character iz
ĠbeĠ ableĠtoĠ
improv edĠ
esĠ hisĠ
uc tion
F ind
man 'sĠ
NO TĠ
ri es
numb ers
andĠ andĠ
each Ġs
.ĠTh is
)Ġ ofĠ
.ĠInĠ fact
vir us
ĠĠâĢ¢Ġ S
fun Ġ
ingĠtoĠ beĠ
m obileĠ
edĠ isĠ
çļ Ħ
lin es
app Ġ
ingĠ itsĠ
isĠ isĠ
met ric
mor e.Ċ
- inĠ
:Ġ B
Th is
summ erĠ
su itĠ
inf o
em iss
.ĠAl so
in ĠtheseĠ
yearsĠ agoĠ
P enn
as leep
K y
worldĠ ofĠ
c ellĠ
advant ageĠofĠ
Pro ject
v alĠ
se atĠ
Ġthre e-
e ,ĠthatĠ
ingĠ with
st atedĠ
half -
N B
stor ageĠ
Ġt un
sh itĠ
arg umentsĠ
ing ĠthingsĠ
edĠ S
br id
.ĠOn eĠofĠtheĠ
.ĠTh ank
out erĠ
And roidĠ
ac ob
enorm ousĠ
middleĠ ofĠtheĠ
yourĠb od
cho icesĠ
th eĠm
likeĠthis :Ċ
,ĠbutĠ IĠ
cir cul
mot ion
comment Ċ
di abet
N ob
sugg estĠ
happ y
it ativeĠ
Ġm akingĠ
we irdĠ
HT ML
J ef
lead ingĠtoĠ
ock etĠ
outĠ inĠ
rad io
responsibleĠ forĠ
ge omet
terĠ andĠ
Y oung
camp aignĠ
is ĠthereĠ
bi as
ani elĠ
Ġh tt
ĠthatĠ aĠ
for ever
Ġtw ic
cont ainingĠ
ed _
Ġturn edĠ
st all
R NA
sĠ youĠ
hav ingĠtheĠ
everyĠ day
piec eĠ
on eĠwouldĠ
ident ifiedĠ
Is ĠthereĠ
vel oc
absolut eĠ
.ĠO therĠ
cred it
exampl esĠofĠ
b order
fin ishĠ
w ound
R N
as ĠthisĠ
fac ingĠ
elect ricĠ
onĠ B
aĠb ack
system sĠ
j i
les s,Ġ
T ha
Ġp ubl
I'mĠ goingĠtoĠ
Ġd ev
ag encyĠ
vis ibleĠ
er iousĠ
,Ġand ĠtheyĠ
lo an
comment ingĠ
inn er
in o
funn yĠ
m oon
ult i-
m os
:Ġ W
disc our
doc umentĠ
</ a
eĠth e
ufact ur
mentĠ ofĠtheĠ
hus band
haveĠ been
Ġcon sist
inĠ C
un dĠ
so -
c ham
eĠthrough ĠtheĠ
" ĠtoĠ
it ledĠ
wonder ingĠ
vit aminĠ
diseas eĠ
v anĠ
ingĠ S
s le
g ly
eĠc o
Ġcompan iesĠ
new Ġc
Linu x
butĠ alsoĠ
plac eĠinĠ
IĠm ightĠ
haveĠ to
J ump
oxyg enĠ
eĠs pe
ĠmustĠ beĠ
B ushĠ
suit ableĠ
immun eĠsystem
eĠc our
T akeĠ
Cl ickĠ
aĠt eam
F S
um ,Ġ
' ,Ċ
Ġthat ĠtheĠs
aĠf amilyĠ
ris eĠ
Res ult
atĠ anĠ
North ernĠ
as pir
eĠs inceĠ
O SĠ
You ĠmayĠ
establ ishĠ
fact ĠthatĠtheĠ
cond itionĠ
e go
il itaryĠ
health ĠcareĠ
str ict
uk eĠ
left ĠtheĠ
M ir
Ġwith inĠ
sign al
sh ootingĠ
be tĠ
Ġwe ightĠ
ĠtoĠbeĠ aĠ
ne uro
" );Ċ
Ù Ĭ
communic ateĠ
op pingĠ
ial iz
stat istic
beĠs eenĠ
riv erĠ
Int ell
eĠs cen
.ĠO urĠ
Ġt roop
Er ror
,Ġ noĠ
oc usĠ
oneĠ ofĠthem
Cont ent
hyp othes
ast yĠ
I TĠ
kitch enĠ
rel ated
doct or
par kĠ
aboveĠ theĠ
.ĠTh ankĠ
Ev en
od iesĠ
.ĠThisĠ isĠtheĠ
sh in
\ math
Scot tĠ
wouldĠ haveĠbeenĠ
rid g
Let âĢĻsĠ
s ).Ċ
est ateĠ
mall erĠ
hasĠ notĠ
. čĊ
?Ġ S
unn yĠ
ourĠ ownĠ
p ant
org anĠ
c c
D uringĠtheĠ
ill ness
t ri
suf ferĠ
.ĠTheĠ firstĠ
begin ĠtoĠ
sp on
Lif eĠ
go ingĠto
outsid eĠofĠ
Ġtrans ferĠ
, ĠtoĠtheĠ
er aĠ
stud i
includ eĠtheĠ
.ĠT od
in ĠtwoĠ
perc eption
p agesĠ
iou s,Ġ
am aĠ
King dom
b yĠt
sh ootĠ
withĠ otherĠ
over e
but ĠthatĠ
perc ept
aĠc or
remot eĠ
which ĠtheyĠ
Ġtrou bleĠ
.ĠI ĠcanĠ
experienc esĠ
.ĠTh eirĠ
Cl ub
al ert
beautiful Ġ
bigg erĠ
.ĠA m
b oneĠ
aĠm ov
rem end
u ,Ġ
Ġtr ail
Islam icĠ
Ġcon st
iou sĠandĠ
InĠ aĠ
v arĠ
cr yst
( n
ustom ersĠ
C -
ĠtheĠ mostĠ
ĠyearsĠ ago
itĠ doesĠ
dep th
s awĠ
Ġt empl
ay .Ċ
ia 'sĠ
Ġ E
Re alĠ
A V
eĠd em
weĠd on'tĠ
over ĠtoĠ
P ageĠ
mount ain
Depart mentĠofĠ
orĠ (
.ĠO ver
Ġminut es
:Ġ F
ru in
os sil
ic eĠc
de em
ĠwithĠ anĠ
ear ingĠ
distinc t
aĠb u
expl ainsĠ
Washing ton
ĠthroughĠ aĠ
aĠs econd
.ĠTh at
br a
befor eĠtheyĠ
ĠĠĠĠĠĠĠĠ ĠĠĠ
st eal
inc identĠ
meas ureĠ
ount ain
e .ĠIn
in clus
ab ly
asp ectĠ
protect ionĠ
experim entalĠ
Chr istĠ
vac u
.ĠThisĠ wasĠ
- upĠ
happen ingĠ
is Ġtru
ThereĠ wasĠ
se at
An im
aw ak
informationĠ aboutĠ
i Ġd
Ġf ind
- f
st eam
)Ġ =Ġ
Ġs etĠ
how Ġh
ier arch
W S
el eg
beĠs oĠ
eĠmon ey
T un
g az
Tod ayĠ
Pr im
Ġw entĠ
e.Ġ (
sub stitut
ol fĠ
erv is
en ueĠ
S econdĠ
N P
first -
kill sĠ
exc itedĠ
natur al
p unch
per m
eĠt alk
t d
iver se
ThisĠ isĠaĠ
ĠtooĠ manyĠ
gl ut
gen eĠ
fr aud
r ation
offic erĠ
ag net
R equ
M ethod
It sĠ
s Ġthem
Ġf ollow
Phot oĠ
itĠ couldĠ
T i
pass word
We ek
frequ encyĠ
weren 'tĠ
res olveĠ
asĠ inĠ
po ison
Ag ain
agr aph
S her
y .
pron ounc
dependingĠ onĠtheĠ
iffic ultĠ
O utĠ
st amp
hon or
low estĠ
enter pris
ex -
,Ġ so
W all
b ust
it Ġturn
oc r
itĠ justĠ
ap parent
l ux
s s
at ure
for estĠ
ip pingĠ
an es
Min isterĠ
atmosph ereĠ
Str ingĠ
.ĠO b
Ġfe etĠ
administr ation
isĠ beingĠ
IĠ hadĠtoĠ
frame work
grap hĠ
i ĠwasĠ
ent itl
ing ĠthroughĠtheĠ
En viron
question Ċ
veryĠ muchĠ
mak eĠm
Th inkĠ
lo om
Ġc oll
W is
liv edĠ
Rep ort
IĠs aidĠ
]Ġ =Ġ
cr azyĠ
in ition
hisĠ own
respect iveĠ
a /
um ĠofĠ
'sĠ pictureĊ
ing .ÂłĠ
bow l
no de
quest ionĠofĠ
Ġtogeth er,Ġ
ing ĠtwoĠ
leaveĠ theĠ
isĠ (
cor t
Al b
Dat aĠ
]Ġ [
centur yĠ
Inter est
possibil ityĠofĠ
cons ol
ath anĠ
mor eĠtoĠ
** Ċ
th etic
Ġth enĠtheĠ
plann ingĠ
TheĠ M
read erĠ
ar ies
aĠh alf
aĠm an
shar p
.ĠWeĠ haveĠ
electric ityĠ
B ox
abl eĠt
controll edĠ
lay erĠ
consider ingĠ
W allĠ
lookingĠ for
mov iesĠ
anĠ hour
C M
col leagu
b ot
tim eĠtoĠ
rub b
.ĠI' dĠ
ĠM ar
n u
away .Ċ
S aud
ĠtoĠ help
af fil
s had
promot eĠ
ar riveĠ
R u
S u
b read
oo gl
IĠs uppos
out lin
:Ġ A
allĠ aboutĠ
reasonĠ whyĠ
say ingĠthatĠ
gr own
how Ġs
:Ġ M
fig uredĠ
ismĠ isĠ
old ,Ġ
inter i
ent ĠtoĠtheĠ
" IĠ
Im ageĠ
cha in
from ĠthatĠ
ing .Ġ
Med icalĠ
off -
Ġbeh ind
Cont actĠ
anno y
ist er
exactlyĠ whatĠ
C enterĠ
week end
99 2
K ir
Ġt ag
foodĠ andĠ
meet ingĠ
m asterĠ
.ĠS heĠwasĠ
Bl ueĠ
eĠt ookĠ
said .Ċ
plast ic
.ĠR es
l ak
Ï Ħ
dec isionsĠ
K enn
r alĠ
es ĠthatĠtheĠ
infl am
scen ari
bl ingĠ
not ,Ġ
S ir
inĠtheĠ sameĠ
pre ferĠ
aĠc op
ach eĠ
un certaint
on z
ud denlyĠ
Des ign
sub sid
e ,Ġt
w eĠm
et ter
.ĠB as
purpos eĠofĠ
issu eĠofĠ
c itiesĠ
fe et
perform Ġ
k ern
A IĠ
hasĠ alsoĠ
getĠ itĠ
re ally,Ġ
rais edĠ
portr ay
oc eanĠ
friend s,Ġ
ed Ġthrough
eĠc reat
at icallyĠ
ĠdidĠ notĠ
el der
requ ires
y self
IfĠ youĠhaveĠ
F eat
estim atedĠ
after ward
set ĠtheĠ
wear ingĠ
edĠtoĠ haveĠ
continu esĠtoĠ
Ġcomput erĠ
T itle
ing ĠthoseĠ
H ard
impl ementĠ
Ġcont ain
With outĠ
storyĠ ofĠ
off ens
wher e,Ġ
s.Ġ C
gl adĠ
vict oryĠ
econom y
IĠc ouldn'tĠ
relat edĠtoĠtheĠ
el tĠ
ist icsĠ
Oc tĠ
G E
os ystem
i antĠ
r aseĠ
west ernĠ
see kingĠ
IĠhaveĠ aĠ
H ouse
ampl eĠ
L osĠAngel
sĠthatĠ canĠ
anc eĊ
T ypeĠ
H ub
edĠ down
d y
ĠĠĠĠĠĠĠĠ }Ċ
abor tion
.ĠOn lyĠ
histor y,Ġ
peopl e'sĠ
isĠ un
ment ionĠ
,Ġ sheĠ
B oy
d ad
Span ishĠ
leg end
k il
A K
refl ectĠ
creat esĠ
ref ="
po ver
are a,Ġ
,Ġ areĠ
vess el
ull Ġ
success fullyĠ
pass ingĠ
Ġthe ory
rac ialĠ
ev ilĠ
,ĠandĠ aĠ
Ġp artĠ
ser iouslyĠ
eĠm akesĠ
pregn anc
or i
aroundĠ andĠ
at he
exc eed
p p
el it
k y
alsoĠ haveĠ
Ef fect
IĠdoĠ notĠ
sp an
eĠcall edĠ
D et
atingĠ andĠ
U ser
ic alsĠ
[ âĢĵ
est erĠ
P E
es hĠ
writ erĠ
ox y
J S
forĠm eĠtoĠ
******** ********
becam eĠaĠ
about ĠtheĠs
er Ġthan
integr atedĠ
ob serveĠ
Ġperc entĠofĠ
s.Ġ However,Ġ
eĠw ell
Ġs iz
orĠ herĠ
er ver
f us
K h
int ers
any bodyĠ
toĠ beĠ
howĠ youĠ
th atĠtheĠ
c ak
gr andĠ
Id ent
c ott
Gre ec
expl ainedĠ
up er
edĠ withĠs
ed ition
ec r
NoĠ comment
grad uallyĠ
eĠd id
h ind
is :Ġ
saf et
e iveĠ
D iscuss
hy d
wor ship
me at
peopleĠ inĠtheĠ
Âł theĠ
orig inĠ
) :
T ER
find ĠthatĠ
mor ph
d ,Ġ
c ardsĠ
understand ĠthatĠ
github .com/
itĠ aĠ
f itt
reach edĠ
IĠdon'tĠ knowĠ
psych ologicalĠ
itĠwasĠ aĠ
L and
ch lor
.ĠAc cordingĠtoĠ
os aur
occasion allyĠ
it sĠt
dis abl
engine eringĠ
IĠdon't ĠthinkĠ
ï ¿
iv ity
disc ussĠ
J u
Chic agoĠ
Ex ecut
II I
Ġyear sĠofĠ
e et
receiv ingĠ
vis ionĠ
chocol ateĠ
99 3
ĠtoĠtheĠ t
/ t
youĠw er
whichĠ hasĠ
increas esĠ
ĠtoĠs aveĠ
.ĠIâĢĻ mĠ
ob b
hes it
Ġtak ingĠtheĠ
F al
herĠ andĠ
needĠ aĠ
âĢĿ ,Ġ
re ar
forĠm eĠ
S cript
port fol
at Ġthat
( b
was ĠthatĠ
St artĠ
Tim esĠ
halfĠ ofĠ
Ġs uggest
aĠg irl
Ġde ath
.ĠThereĠisĠ noĠ
co ast
langu age
gr ass
Ġtrad ingĠ
Pro blem
inĠ M
oldĠ andĠ
ref usedĠtoĠ
youĠcan âĢĻtĠ
ageĠ ofĠtheĠ
bestĠ wayĠtoĠ
res on
- minut
isĠ aĠs
exampl esĠ
se yĠ
s.Ġ M
infl amm
Ġt argetĠ
lim ateĠ
Isra elĠ
!Ġ TheĠ
Ġtyp icalĠ
A Ċ
o kĠ
sĠthatĠ wereĠ
p ub
pow er,Ġ
eĠdo ingĠ
memb ersĠofĠtheĠ
s g
anc tion
ĠweĠ haveĠ
I Ġthought
peopl eĠwereĠ
part nerĠ
~ ~
attempt ingĠtoĠ
ing sĊ
Ġ <
end Ċ
involv ingĠ
willĠb eĠaĠ
Gr andĠ
isĠ moreĠ
che apĠ
eĠc ameĠ
Ġthem ĠandĠ
camer aĠ
from ĠherĠ
F our
b f
P ack
( R
us eĠthisĠ
( M
v ig
look ingĠtoĠ
continu edĠtoĠ
B ost
aĠl ow
Ar th
il tĠ
,Ġ likeĠ
Ġthreat en
Em ail
Ġ*Ġ @
el lyĠ
T L
coll aps
wat erĠandĠ
d iction
conf ident
in a
judg eĠ
F oodĠ
99 1
ĠD ec
rad icalĠ
usedĠ inĠtheĠ
Ġd isc
n ationĠ
Ð ²
h olĠ
f uelĠ
aut onom
ell eĠ
Ġs cen
in i
ThereĠisĠ noĠ
Publ ish
aĠth irdĠ
acc identĠ
author itiesĠ
const ant
Hen ryĠ
quest ionĠisĠ
j e
.ĠL etĠ
p ic
Ġb ox
I ll
Ġbetwe en
pract icesĠ
Ġw ant
do Ġthat
s âĢĿĠ
il esĠ
e ,ĠthenĠ
cur v
Ġteach ingĠ
rit ic
Eliz abeth
sĠ =Ġ
neighbor hood
B yĠtheĠ
li entĠ
do .Ċ
Jew ish
ref {
!! !!
feel ĠtheĠ
eĠdoĠ notĠ
- likeĠ
f oughtĠ
L ind
e ousĠ
m yĠt
sur faceĠ
eĠto ol
J ess
isĠtheĠ onlyĠ
\ cit
Ġtrans action
med it
B usinessĠ
Am end
L y
up t
air craftĠ
Pro c
feel ingsĠ
find sĠ
Ġthe at
des piteĠtheĠ
.Âł ÂłĠ
IĠhaveĠ noĠ
virt u
lif eĠisĠ
aĠl evel
g ig
I ĠmeanĠ
iv eĊ
Ġthes eĠm
eĠs ign
ut sĠ
volum eĠ
play ers
et ĠtheĠ
realiz eĠthatĠ
G lobalĠ
.ĠD o
endĠ upĠ
Ġthing sĠtoĠ
account .ĠLog
In it
w interĠ
t ersĠ
ĠinĠ mind
" "
,Ġ itâĢĻsĠ
expl icit
A Y
ed i
awes om
p ens
Ġthes eĠt
Sp aceĠ
along ĠwithĠtheĠ
H R
knowĠhow ĠtoĠ
read ersĠ
off e
author ityĠ
ofĠth ingsĠ
eĠs ome
Vict or
in es
emb edd
carr yingĠ
J anĠ
justĠ aboutĠ
e.Ġ WeĠ
T ool
j ar
- D
commentingĠ usingĠyourĠ
H os
YouĠareĠ commentingĠusingĠyourĠ
manag ement
batter yĠ
allow ĠtheĠ
b en
.ĠL ikeĠ
loc ationĠ
Ù Ī
Âł Out
m g
Ġt ermin
Ġw eĠcanĠ
coll ectĠ
experienc e,Ġ
S undayĠ
obst ac
cent erĠ
Ġtr avelĠ
official sĠ
o ardĠ
pos eĠ
dep endĠ
:Ġ [
estim at
IĠ hop
ch arm
d eliber
benefit sĠofĠ
it orsĠ
Satur dayĠ
edĠtheĠ t
us ĠthatĠ
bl ameĠ
return ĠtoĠ
Ġp utĠ
pric eĠofĠ
ak eĠofĠ
b usĠ
but ter
d umb
affect ĠtheĠ
ingĠ aboutĠ
Span ish
_ {\
UnitedĠStat es,Ġ
Ġf indĠ
sh irt
inĠ som
anyoneĠ whoĠ
onĠ M
ly Ċ
s.ĠTh atĠ
ourselv esĠ
aut oĠ
Chin a
A ĠandĠ
c m
atĠ someĠ
world 'sĠ
conf idenc
tr aditionalĠ
found ĠtheĠ
from Ġb
St ep
St an
over com
Ġcom m
year s
co in
stat e,Ġ
ir m
ch or
oth ers.Ċ
Ġtr ainĠ
. N
Wh ich
beĠt akenĠ
Anal ys
Chang eÂł
ec osystem
effect iven
R h
sk in
ing sĠtoĠ
S econd
Ġter rit
Perhap sĠ
if ĠthatĠ
onĠ your
agg er
1 10
" C
far ĠmoreĠ
propert y
ï¿ ½
Ġtr uck
Ã ł
hold sĠ
oneĠ inĠ
aw nĠ
will Ġc
YouĠareĠcommentingĠusingĠyourĠ account.ĠLog
P i
form edĠ
a pl
.ĠI s
ÂłOut Âł/
notic edĠ
ha ha
her oĠ
peopleĠ withĠ
in '
Ġd onâĢĻtĠ
moreĠandĠ moreĠ
eĠth re
ayĠ andĠ
YouĠareĠcommentingĠusingĠyourĠaccount.ĠLog ÂłOutÂł/
av ell
cult ur
put t
ChangeÂł )Ċ
Un ion
X X
about ĠthatĠ
oneĠ dayĠ
et icallyĠ
f iredĠ
Ġwith ĠhisĠ
itud eĠ
process .Ċ
invest orsĠ
s yĠ
th rough
eĠthat ĠthisĠ
.ĠM ak
back .Ċ
elev isionĠ
S on
comm onĠs
down loadĠ
W ouldĠ
sug arĠ
aĠc as
result sĠinĠ
becaus eĠweĠ
allowsĠ youĠtoĠ
Rec ord
asĠ âĢľ
ĠĠĠĠ H
s atĠ
hun gr
caus edĠ
Gu ard
produc esĠ
organ izedĠ
oppos iteĠ
'll ĠbeĠ
ĠA d
n ineĠ
end ar
Ġh eĠwasĠ
e aĠ
ask edĠtoĠ
seem sĠtoĠbeĠ
deep erĠ
ep id
ic ideĠ
Ġso ĠthatĠ
fr ight
will ĠhelpĠ
run ning
friend ship
B ankĠ
L earn
D M
regist er
l esĠandĠ
fill edĠwithĠ
log icalĠ
enc ounterĠ
Ġs l
pre ad
Ġthat ĠthereĠ
es id
w allĠ
Ø ±
os om
[âĢĵ ]
However ,ĠtheĠ
behavi orĠ
H IV
feed backĠ
]( https://
Ġt ur
us ,ĠtheĠ
con ductĠ
lik eĠw
aggress iveĠ
off ĠandĠ
workĠ inĠ
manyĠ otherĠ
new lyĠ
aĠs imilar
reduc ingĠ
ĠS h
againĠ andĠ
olut ionsĠ
,Ġ '
olog ist
hous e,Ġ
P ict
j ac
sh allĠ
D oc
.ĠIt'sĠ notĠ
.ĠH eĠs
as ideĠ
K ur
th ersĠ
V it
Ġm ethodĠ
B ackĠ
.ĠH ereĠ
ofĠ yourĠ
y ieldĠ
:Ġ T
er ĠtoĠtheĠ
no dd
eĠsaid ...Ċ
atĠ hisĠ
âĢĶ andĠ
B ank
pec ialĠ
be ingĠt
Car l
president ialĠ
useĠ itĠ
( A
Ġthat ĠthereĠareĠ
stor ies
al is
ingĠthem ĠtoĠ
qu ar
reg ionĠ
sudd enĠ
sch olar
hasĠ been
Ġthem ĠinĠ
f als
or sĠareĠ
Mon dayĠ
S M
ar th
do ĠthatĠ
eĠdes ign
m e.Ġ
en essĠ
phy si
G all
any thingĠtoĠ
art istsĠ
cre di
Bro ok
et ch
whenĠ you
il der
mor eĠt
p ix
itt le
blog Ġ
F e
arbit r
ĠĠĠĠ @
Engl and
ag entsĠ
eĠcan notĠ
CO VID
) );Ċ
less lyĠ
by -
Ġd eĠ
d ent
cur s
impress iveĠ
ud getĠ
ureĠ isĠ
a eĠ
c ust
m illion
qu is
al iveĠ
strong erĠ
F act
con j
m yster
j er
! âĢĿĠ
EV ER
ir cl
ĠtheyĠ hadĠ
youĠdoĠ notĠ
An th
g ainedĠ
r t
eĠd e
sol id
es Âł
consider ĠtheĠ
» ¿
enter ĠtheĠ
Ret urn
gal ax
l oudĠ
countr y,Ġ
e ).Ċ
ers .ĠTheĠ
.ĠWh oĠ
aĠser iousĠ
tim e,Ġ
ert ific
Qu eenĠ
oft war
Ġm aterial
north ernĠ
,Ġ un
l aug
dat a,Ġ
excess iveĠ
class icĠ
vo id
eĠw ant
anĠ oldĠ
struct uralĠ
Ġthos eĠs
de ed,Ġ
befor e,Ġ
r amp
Al li
support ĠtheĠ
P ress
ĠtoĠt urnĠ
asĠ aĠc
eĠw antĠtoĠ
no iseĠ
fromĠ otherĠ
from Ġp
Is su
onĠ it
Sk ip
aw l
som ebodyĠ
Ġway ĠtoĠ
av esĠ
à ¸
person n
say ĠtheĠ
fix Ġ
( T
,ĠandĠ soĠ
On ĠtheĠotherĠ
gotĠ aĠ
NoĠcomment s:Ċ
becom eĠtheĠ
S ignĠ
cont est
: -
inĠt urn
polic y
C ook
other ap
crit er
DN AĠ
al on
e ez
room ,Ġ
show ĠthatĠ
3 60
estĠ ofĠ
Af ter
Ġthos eĠthatĠ
butĠ itĠ
IĠ feelĠ
exc essĠ
for Ġthis
co olĠ
lif etim
! )
injur yĠ
Ch ann
lookĠ likeĠ
w inter
isĠ goingĠtoĠ
isĠ whatĠ
aĠb ook
pec tĠofĠ
gun Ġ
ew is
Ġbut ĠtheĠ
aĠm assiveĠ
IĠ haveĠbeenĠ
fix edĠ
aĠmon th
p aceĠ
lo ver
wor seĠ
s hadow
ï »¿
E ll
G L
C ateg
sk yĠ
fromĠ oneĠ
ext ension
sec retĠ
opportun ities
man ifest
L im
continu ousĠ
b ench
ĠtheĠsam eĠtimeĠ
On lineĠ
ountr y
asĠ sheĠ
Isl and
min eĠ
Wh etherĠ
Ġc ent
night ,Ġ
child hoodĠ
y esĠ
Ġto Âł
.ĠF irst
aĠlarg erĠ
" D
ĠĠĠĠ ĠĠâĢ¢Ġ
C amer
ch atĠ
ins ect
organiz ationĠ
it arianĠ
enceĠ inĠ
H ereĠareĠ
edĠm eĠtoĠ
B L
expl od
irel essĠ
ac compan
year s.Ġ
Ġt oler
atedĠ inĠtheĠ
)Ġ -Ġ
Ġpo intĠ
er os
Y esĠ
V ill
withĠ itsĠ
air ĠofĠ
O ther
Americ a,Ġ
enc iesĠ
hot el
v ag
.ĠS inc
W atch
ian s,Ġ
plan eĠ
A th
[ edit]Ċ
onĠ whatĠ
ect or
eĠt eam
per mission
represent ativeĠ
r ack
g ust
Pro cess
mad eĠofĠ
foc us
Artic leĠ
sol idĠ
appar entĠ
( N
mean ĠthatĠ
ass in
T echnolog
an o
Ġs ens
regard ingĠtheĠ
comb atĠ
Ch em
ing "
med ication
a Ġto
ing sĠthatĠ
by t
es ,
C ivilĠ
H E
whil eĠs
et Ċ
Capt ainĠ
is Âł
ostĠ ofĠ
m olecul
G ul
call ingĠ
us e,Ġ
veget abl
abov e,Ġ
al one
seem ĠtoĠbeĠ
Ġd om
,Ġth ereâĢĻsĠ
/ s
fact oryĠ
eĠw eb
bro ther
eĠdidĠ notĠ
AM E
major ityĠ
par kingĠ
Ġp ict
?Ġ How
forĠ all
periodĠ ofĠ
r m
appl iedĠ
veryĠ goodĠ
S erviceĠ
happen edĠtoĠ
orĠd is
repl i
youĠ everĠ
s ectionĠ
c hapterĠ
a oĠ
legitim ateĠ
ar eĠtheyĠ
.ĠH e
eĠw entĠ
pred iction
inĠ someĠ
ip her
ation ,ĠtheĠ
reli ableĠ
educ t
stat ementsĠ
s ,ĠtoĠ
tr ad
t ail
ab Ġ
ing )
GoogleĠ Scholar
we âĢĻveĠ
ner veĠ
s ortĠ
go Ċ
k ickĠ
u allyĠtheĠ
Ġtr end
def Ġ
inĠtheĠ sam
g end
i e
f ont
alwaysĠ beĠ
Ġpos ition
ometh ingĠthatĠ
East ernĠ
U C
se Ċ
it ness
b urnĠ
ĠtheĠ firstĠ
provid eĠtheĠ
offic ersĠ
Ġpoint s
eĠd uringĠtheĠ
A re
whenĠ youĠareĠ
.ĠSom etimesĠ
discuss ionĠ
repe atedĠ
j ectĠofĠ
m outhĠ
Q ual
Ġ* /Ċ
polic iesĠ
st uck
alĠ ofĠtheĠ
stud ioĠ
adequ ateĠ
Î ¿
appear Ġ
h ash
,Ġ includingĠ
ism .Ċ
dis pos
epis odeĠ
A F
erm alĠ
R ang
eĠc od
introduc t
M ah
part ialĠ
act ion,Ġ
allĠ overĠ
king dom
T ax
shouldĠ haveĠ
process esĠ
UK Ġ
chang es
e inĠ
ys ic
Ġtr ac
eĠd etail
D I
D -
M eg
op ponent
minut esĠ
desir eĠtoĠ
doĠ soĠ
p ound
, \
emat icalĠ
calledĠ "
Res ourc
Trump Ġ
quant um
.org /
D oug
app et
Be ingĠ
e ,ĠtoĠ
for ĠtwoĠ
Russi aĠ
in ueĠ
ation sĠtoĠ
er .ĠTheĠ
isĠ inĠtheĠ
fear ĠofĠ
Ġtrans portĠ
a .Ġ
enforc ementĠ
ph osph
seem inglyĠ
seeĠ whatĠ
optim alĠ
employ eeĠ
star sĠ
Ġt el
show edĠ
forĠs everalĠ
Ã ¨
Ġw ould
gener ationĠ
com eĠinĠ
Ġbre ath
ĠthatĠ willĠ
we ird
inĠ aĠm
s. âĢĿĊ
improv ementĠ
refer ĠtoĠ
m enu
v amp
er lyĠ
Jun Ġ
Ġcl oth
sp ark
workĠ ofĠ
Ġbl ack
w ouldnâĢĻtĠ
ol ic
>< br
z oneĠ
C ON
Ð »
Roy alĠ
answ erĠisĠ
eĠs ens
.ĠAf ter
v Ġ
ing ingĠ
E st
recogn izedĠ
ha st
in habit
isĠ aĠm
pro x
anxiet yĠ
Ġt en
ĠtalkĠ aboutĠ
T it
ag es,Ġ
op eĠ
elf areĠ
! âĢĿĊ
bas ket
9 2
or ousĠ
do ĠtoĠ
ures .Ċ
{ čĊ
are erĠ
u pl
.Ġ.Ġ .Ġ
intend edĠtoĠ
dec is
andĠ hisĠ
Sen ateĠ
ĠthinkĠ aboutĠ
Steph enĠ
s alt
record sĠ
ch olar
) .ĠThisĠ
un usualĠ
U P
ins ightĠ
ers ,ĠtheĠ
appear anc
ĠtheĠt woĠ
p end
se ud
YouTu beĠ
Ġmil esĠ
N everĠ
ĠA MĊ
nameĠ ofĠtheĠ
oc yt
e. Âł
o âĢĻsĠ
ĠwasĠ notĠ
Ġ peopleĠ
ever th
listen ingĠtoĠ
int rigu
expl ainĠtheĠ
Â© Ġ
itĠ up
equ enc
perform edĠ
cont amin
off ensiveĠ
.ĠT woĠ
profession al
ĠĠĠĠĠĠĠĠ //
i .Ċ
ear ly
re pet
offer edĠ
Ġthing s,Ġ
h ,Ġ
sp ic
= Ġs
continu edĠ
ad aĠ
es Ġthem
eth yl
er e,Ġ
ĠM ayĠ
m ember
Ġp ostĠ
T urn
whis per
swe etĠ
op enĠtheĠ
inv is
andĠt urn
sid eĠofĠ
t otalĠ
F ield
from ĠbeingĠ
ant .Ċ
bas eb
long-ter m
hom eĠandĠ
it .ĠTheĠ
( L
thĠ ofĠtheĠ
id entsĠ
known ĠtoĠ
agg reg
right .Ċ
ingĠ byĠ
phot os
eĠs omeoneĠ
yester day
We ekĠ
sum mer
ĠN ew
Energ yĠ
fall enĠ
Ġc aseĠ
B M
com fortĠ
Th reeĠ
challeng esĠ
put sĠ
âĢľ theĠ
sur ger
sid e,Ġ
intellig entĠ
ish op
product ionĠofĠ
Cathol icĠ
Ġf irstĠ
l ord
forĠ us
appear sĠ
coun sel
pict uresĠ
port ionĠofĠ
Ġcontr olĠ
compon entsĠ
f uckĠ
ĠtoĠt alk
Ġcomp any
antib iot
mon ey,Ġ
suchĠ anĠ
Jav a
mad eĠtoĠ
ast ingĠ
g at
. ÂłÂł
s ightĠ
WhyĠ doĠ
haveĠ someĠ
H ere
viol enc
att emptĠ
el abor
beg an
luck yĠ
seem edĠtoĠ
mus icalĠ
determin eĠtheĠ
pack ageĠ
sĠ betweenĠ
coff eeĠ
ĠandĠ hisĠ
andĠ notĠ
R y
bin aryĠ
end edĠup
il y,Ġ
mil kĠ
etc .Ġ
did ĠtheĠ
G ameĠ
escap eĠ
uccess fulĠ
graph ic
do Ġthis
nameĠ isĠ
B enĠ
p ackĠ
Fri end
br ought
eĠsp ac
Ġh ere
Ġter ri
everyĠ dayĠ
dr um
dep ict
ific ationĠofĠ
ag ed
Y etĠ
f ift
mov edĠ
upĠ onĠ
substant ialĠ
und redĠ
had ĠtoĠbeĠ
work ĠwithĠ
C ur
describ edĠ
ad mir
spok enĠ
ex tĠofĠ
i allyĠtheĠ
,Ġbut ĠtheyĠ
T on
s ,ĠthatĠ
rem emb
F all
Th ereâĢĻsĠ
st ir
ann yĠ
understand ingĠofĠtheĠ
tr ueĠ
I -
S ign
dev icesĠ
pain ful
O l
ch estĠ
ob es
destro yĠ
att yĠ
vide osĠ
aĠh ug
coun terĠ
P owerĠ
Br ad
n ationsĠ
sess ion
.ĠTh en,Ġ
)Ġ TheĠ
pow erĠandĠ
dr om
C ,Ġ
Î ½
t urn
when ĠtheyĠareĠ
driv erĠ
og Ġ
F air
Com par
just iceĠ
ov en
equip ment
.ĠOr Ġ
sc rew
y sĠ
new Ġb
ol t
ref ersĠtoĠ
b irdĠ
.ĠY es,Ġ
bring ingĠ
ot ic
ous ly
p izz
eĠtoĠ aĠ
serv erĠ
bre adĠ
, ĠthatĠtheĠ
rh et
best ĠtoĠ
lim itsĠ
! )Ċ
H u
int endedĠ
iveĠ toĠ
ly,Ġ andĠ
inĠtheĠ US
po et
class icalĠ
di pl
knowledg eĠofĠ
O pt
S av
be Ċ
res identĠ
prov enĠ
Ac c
pol ar
sp in
atedĠ withĠ
bl ad
intoĠ hisĠ
bridg eĠ
and ĠthereĠ
Som etimesĠ
hang Ġ
7 1
Ġt al
.ĠWh ichĠ
Ġd etail
edĠ downĠ
jour ney
l end
Amaz onĠ
he im
Ġdo esnâĢĻtĠ
- ĠbutĠ
Ġc ard
au dĠ
J ord
promin entĠ
s ĠthroughĠ
pri z
b at
Ġth ousandĠ
every ĠtimeĠ
hereĠ isĠ
man ageĠ
polit icsĠ
Ġwor dĠ
dom ainĠ
plac e.Ġ
NorthĠ Kore
des iredĠ
se al
H al
Ġthes eĠday
98 9
Intell ig
access ĠtoĠtheĠ
! =Ġ
start ed
ey es,Ġ
eĠd uringĠ
mag ic
7 3
g oog
on âĢĻsĠ
usedĠ asĠ
ch artĠ
form sĠ
ep hĠ
gard enĠ
real m
Int roduc
us edĠto
rec ently
outĠ forĠ
ar aĠ
Ġd idn'tĠ
W alk
onlyĠ aĠ
happen ed
notĠ goingĠtoĠ
whoĠ canĠ
foundĠ inĠtheĠ
flo orĠ
abs enceĠofĠ
all ĠmyĠ
?Ġ (
V E
cont emporaryĠ
Ġcomplet elyĠ
l oo
eĠdo esnâĢĻtĠ
here Ċ
ub ject
anĠ ofĠ
ridĠ ofĠ
di am
Christ iansĠ
ess ay
Ġh y
respect ively
?Ġ ItĠ
Be for
now ĠthatĠ
e =
help ĠtoĠ
Ġtri edĠ
) ;
g ym
gen eticĠ
int u
viewĠ ofĠtheĠ
' )Ċ
dam n
long-ter mĠ
Ã §
y c
s.Ġ ForĠ
!! !Ċ
w ist
reat hĠ
Par kĠ
.Ġ âĢĵÂł
and aĠ
anyth ingĠthatĠ
eĠc aus
abil ityĠandĠ
d ys
es isĠ
do ingĠtheĠ
rev enueĠ
how ĠcanĠ
C ouldĠ
Q Ġ
pain tĠ
veryĠ much
ilos op
Ġbec ameĠ
ust ain
not esĠ
suppl ement
Pro duc
S ur
or kĠ
ad sĠ
aĠ personĠ
ing Ġthrough
setĠ upĠ
ear t
ĠtheyĠ wouldĠ
.ĠM oreover
becauseĠtheyĠ areĠ
,Ġth ank
Ġbefor eĠtheĠ
B R
Ġc op
J acob
.ĠI m
peopl eĠcanĠ
ble -
ev olut
neighb our
U D
issu es,Ġ
18 0
South ernĠ
peopl eâĢĻsĠ
into ĠthisĠ
Cor por
f ossil
emberĠ ofĠtheĠ
. h
str aw
D om
aĠb usinessĠ
âĢĿĠandĠ âĢľ
G iveĠ
r of
WhenĠ youĠ
gard en
pec ificĠ
ersĠ fromĠ
heĠd idn'tĠ
coun c
societ y
aĠgener alĠ
- relatedĠ
eĠd el
gradu ateĠ
reduc tion
El ement
prom iseĠ
gen om
eĠthan ĠtheĠ
es )Ġ
> </
con dem
room ĠandĠ
hereĠ andĠ
C ost
Ġsh areĠ
ef in
A Ġb
mightĠ haveĠ
U I
W aterĠ
ag n
p aus
about Ġthis
natureĠ ofĠtheĠ
fil terĠ
s .ĠAsĠ
run ĠtheĠ
ins ult
Gr and
progress iveĠ
Aug ust
observ edĠ
pregn antĠ
justĠ oneĠ
ation .ĠTheĠ
,ĠtheyĠ wereĠ
Whil eĠtheĠ
af fordĠ
comp ound
ingĠ aroundĠ
for ĠbeingĠ
w entĠtoĠ
* /Ċ
che ek
up comingĠ
involv edĠinĠtheĠ
get ĠtoĠtheĠ
c rossĠ
some how
strateg iesĠ
Just iceĠ
em pir
be ef
which ĠwouldĠ
log ic
boy sĠ
L is
assum eĠ
ed "
workĠ forĠ
gr an
ins an
ness .Ċ
er ?Ċ
riz on
Qu e
fall sĠ
L u
ĠtoĠbeĠ ableĠtoĠ
Ġ xĠ
edĠbyĠ anĠ
S ociet
eth nic
each erĠ
s q
it âĢĻs
d ar
R est
G reat
inter rupt
roll Ġ
.... ....
ab sur
Ġdes crib
D isc
forĠaĠ whil
atĠ anyĠ
Pro duct
writ eĠaĠ
ĠthisĠ wasĠ
Ref er
still ĠbeĠ
.ĠItĠ hasĠ
onĠ aĠs
b ounc
go esĠtoĠ
w eĠwill
you ?Ċ
off ,Ġ
you Ċ
.ĠWith ĠtheĠ
Ð º
a ĠthatĠ
pros per
ed .ĠThisĠ
succ eed
if tingĠ
Ġcon v
s ung
ateĠ aĠ
N C
forĠ youĠtoĠ
mot or
,ĠthereĠ isĠaĠ
li ament
p x
B att
ĠmightĠ beĠ
.Ġ âĢĵÂłĠ
Lond onĠ
compan ies
Pol iceĠ
gold enĠ
it ingĠ
IĠw ouldn'tĠ
Ġw ellĠ
eĠway ĠtoĠ
candid ateĠ
eĠd riv
evidenc eĠthatĠ
m ok
stud y,Ġ
health ĠandĠ
met aph
loveĠ andĠ
es ;Ġ
Ġweap on
g em
in clin
retire mentĠ
Ġcan âĢĻtĠ
W in
c igarett
rem indĠ
par agraph
Ġd iscuss
ÂłĠ Âł
( asĠ
perform ingĠ
land ,Ġ
replac ementĠ
eĠmayĠ beĠ
s ,ĠthenĠ
eĠc or
a .ĠTheĠ
cap it
acc oun
.j pg
olog yĠandĠ
project sĠ
success fulĠ
on Ġthis
ĠyearĠ oldĠ
app end
inĠ isĠ
Ġtw iceĠ
aĠb ookĠ
s evereĠ
ationĠ orĠ
f earĠ
ĠofĠ hisĠ
ifĠ itĠisĠ
l ol
Ġh ous
) .ĠS
I ST
s isterĠ
sh ouldn'tĠ
" You
e ...
Ġs yn
7 6
areasĠ ofĠ
fast erĠ
th eticĠ
beginningĠ ofĠtheĠ
exampl e,ĠtheĠ
and Ġthat'sĠ
pre mis
morn ing,Ġ
U t
ev i
O M
spe echĠ
flu id
up Ċ
f itsĠ
y _
Ġd ocument
ress ion
object sĠ
sp oil
T C
m ask
Ġt aughtĠ
someĠs ortĠofĠ
ers '
problem .Ċ
F i
et erĠ
probab lyĠtheĠ
compl ain
academ icĠ
offic iallyĠ
Ġt abl
er b
ort sĠofĠ
Ġd ueĠtoĠ
Ed itĊ
aryĠ andĠ
def enseĠ
D ,Ġ
war mĠ
Ġtop Ġ
fant as
. M
Hist oryĠ
imp actĠofĠ
m artĠ
Ġcont entĠ
e ?
t ownĠ
per mitt
stud yingĠ
r onĠ
not .Ċ
recogn ition
ure sĠandĠ
Qu ot
intellig enc
er oĠ
"Ġ inĠ
definit ionĠofĠ
Ġc ur
Vide oĠ
oc ean
mak ingĠaĠ
ation ĠbyĠ
protect edĠ
fing ersĠ
en k
N AT
IĠ haven'tĠ
still Ġs
mo ist
a unt
pr oud
impress ion
Ġ âĢĵĠ
ly n
si bl
crit ical
genu in
" M
( )Ġ{Ċ
D arkĠ
conv ict
Ġh old
est ĠtoĠ
lik eĠtheyĠ
she et
Pr om
pri orĠtoĠ
appear sĠtoĠ
claim Ġ
Ġsh ortĠ
ĠA pr
espec ially
en v
Ġfe elĠ
big u
.ÂłĠ ItĠ
ann aĠ
ey ond
Ġm ill
rhyth m
rew ardĠ
T ip
inc ol
em path
for b
Rob ert
mar riedĠ
inform edĠ
ob sc
build ing
.ĠEv en
7 4
ref resh
asĠ much
l ac
langu agesĠ
Ġcom mand
dim ension
.ĠIf ĠtheyĠ
furn it
[ [
Ġ #
I g
sĠ mayĠ
anth rop
outĠ aĠ
eri orĠ
affect edĠ
le ap
ill aĠ
bo at
sĠtoĠ getĠ
ri stop
- dayĠ
suppos edĠtoĠbeĠ
Ex tr
Un ionĠ
itĠ (
be am
re vis
AP I
eĠs uggest
fromĠ yourĠ
anyth ing,Ġ
inĠtheĠ past
itĠ makesĠ
Ġp hon
alco holĠ
east ernĠ
ation sĠthatĠ
P ric
st ig
E ST
and ĠtakeĠ
Ġbl ackĠ
im possible
whenĠ sheĠ
w ich
C op
eas ier
ab ul
S H
N ik
B ibl
real istic
shop pingĠ
aĠb rief
pro pri
fe edĠ
,ĠbutĠ it'sĠ
esĠ forĠtheĠ
e âĢĻ
reat ingĠ
qu eryĠ
haveĠth eirĠ
Ar tĠ
youĠm ak
all ĠthoseĠ
hospit al
] .
P ok
ä º
apart mentĠ
weĠ haveĠtoĠ
t ag
à ®
9 30
s. Âł
Ġb ill
Ġthis Ġtim
wis dom
weĠ hadĠ
sk y
from ĠtheirĠ
vehic lesĠ
ed sĠ
draw Ġ
n oseĠ
stom achĠ
En t
yl ind
bro adĠ
everyĠ singleĠ
,Ġthough ,Ġ
right -
work Ġwith
.ĠTheĠ onlyĠ
ph raseĠ
itĠ willĠbeĠ
attack sĠ
8 4
er al
doĠ somethingĠ
8 2
s .ĠItĠisĠ
TheĠ mostĠ
gam e.Ċ
l er
s acrific
Ġw ater
neighbor hoodĠ
,Ġwhich ĠwasĠ
th anĠ
Ġ children
or -
off .Ċ
r ationalĠ
bl indĠ
IĠw entĠ
v iceĠ
down ,Ġ
awareĠ ofĠtheĠ
stillĠ haveĠ
onc eĠaĠ
est ,Ġ
Ġcommun ityĠ
.ĠR et
protect ĠtheĠ
Ġtoday 'sĠ
itiz en
dependingĠ onĠ
YO U
dis miss
.ĠTheĠm ostĠ
ent ĠtheĠ
H un
res pir
,ĠbutĠ alsoĠ
la unchĠ
c af
andĠtheĠ otherĠ
up portĠ
aut iful
Ġbeli ef
sal esĠ
T en
introduc tion
nation al
forĠ him
p mĠ
.ĠFr omĠ
" B
pret end
us esĠtheĠ
gener al,Ġ
Atl ant
bo hydr
ri esĠtoĠ
doĠ so
r atedĠ
Brit ain
di edĠ
n um
por tĠofĠ
Ġ ×
os Ċ
al tern
ay si
eĠw omenĠ
b erryĠ
C ity
N od
recover yĠ
in 'sĠ
ationĠ forĠtheĠ
S peak
K ill
S i
Ġp an
.ĠO ther
wh o,Ġ
lab orĠ
Af terĠtheĠ
IĠ feltĠ
H itl
familyĠ andĠ
Str ateg
enjo yĠtheĠ
as pectĠofĠ
.ĠIĠ alsoĠ
outĠ inĠtheĠ
eth icalĠ
âĢ¦ âĢ¦
Ġp ound
' s,Ġ
inter val
wast eĠ
attor neyĠ
ou sĠtoĠ
ĠthinkingĠ aboutĠ
tim esĠ
res c
low lyĠ
eĠtr avel
AR T
all Ġw
leg allyĠ
learn ĠtoĠ
R ac
pre vious
heĠs aidĠ
Med iaĠ
0 22
G ab
dr ill
ac redĠ
up setĠ
str ictĠ
eĠdat aĠ
lif tĠ
constitut ionalĠ
S L
k eĠ
s yl
SupremeĠ CourtĠ
ic onĠ
fig uresĠ
ar ,Ġ
whereĠ heĠ
Ar g
we enĠ
gu ys
and ĠtwoĠ
Twit ter
don es
j am
struc kĠ
nĠ andĠ
subsequ entĠ
s oftĠ
R at
Mar ch
posit ionĠofĠ
madeĠ byĠ
occur sĠ
oct or
Viet nam
Fr ankĠ
Ġtim eĠto
F OR
require mentsĠ
ed ĠtwoĠ
IâĢĻ ll
; ĠbutĠ
forĠ aĠlong
c ous
.ĠA b
int enseĠ
inform ation.Ċ
ha ul
affect sĠ
E ach
IĠthink ĠthatĠ
} ;Ċ
Gold enĠ
design edĠ
s an
port ionĠofĠtheĠ
Ġthes eĠtwoĠ
muscl eĠ
priv ateĠs
.ĠTh en
Every thingĠ
A y
cr ush
oward sĠtheĠ
i o,Ġ
valu es
b ump
vill ag
ach el
yearsĠ ago,Ġ
ch op
iz esĠ
ĠN ov
consist entlyĠ
H ot
nessĠ ofĠtheĠ
eĠtoĠ getĠ
week endĠ
ic ip
Ġw id
gr ain
th -
Comp anyĠ
ch ew
emphas isĠ
ed itĠ
sign alĠ
e.Ġ However,Ġ
il e
attr actĠ
inflam mat
ing .ĠS
an oĠ
gam es,Ġ
9 1
reach ĠtheĠ
secur ity
cult iv
ocialĠ mediaĠ
awes omeĠ
t akenĠ
likelyĠtoĠ beĠ
but tonĠ
for Ġt
alg ebr
str ain
S hak
is ,ĠtheĠ
effort sĠtoĠ
sĠ hadĠ
âĢĵ ĠtheĠ
giv enĠtoĠ
weĠ allĠ
Ġthr ill
int eg
o en
now ĠandĠ
B uff
D uringĠ
k g
Â «
evidenc eĠofĠ
relig ionĠ
wantĠtoĠ beĠ
willĠ notĠbeĠ
S C
som eĠt
Ġs ureĠ
.ĠTheyĠ haveĠ
s ĠthatĠtheyĠ
Ġd evic
IĠ hopeĠ
YouĠ haveĠ
-- ĠandĠ
p ian
B or
stead yĠ
R ub
for Ġmor
sh oulder
F amilyĠ
N ight
Ñ ĥ
lookĠ forĠ
play er
!! !Ġ
- T
Al so
anĠ isĠ
dr y
oc al
cons umption
= '
hous ingĠ
makeĠ youĠ
aĠt op
orĠ anĠ
beg un
edĠonĠ aĠ
8 1
, ĠthatâĢĻsĠ
.ĠIfĠ youĠhaveĠ
:Ġ WhatĠ
ement .Ċ
rev ealĠ
inter pre
Ġdec ision
atis f
goodĠ andĠ
ent eredĠ
Yeah ,Ġ
recomm endedĠ
- >Ġ
compl aint
a ust
acc us
Ex per
h ellĠ
feel ingĠofĠ
Austral iaĠ
t own
said ,Ġ"
TH E
YourĠ AnswerĊ
U M
c ognitiveĠ
ĠtoĠ mak
o ir
n ur
---------------- ----------------
isc oĠ
stor ag
.ĠM ay
m ol
on Ġthem
add iction
Google +
det ectĠ
aĠh ard
B ay
ro ok
am bigu
rev el
us ually
con duc
res ort
on es,Ġ
lik eli
not eĠthatĠ
as su
if Ġsh
IĠ feel
r iceĠ
hasĠ alreadyĠ
iesĠ ofĠtheĠ
9 3
conc eiv
answ ers
drop pedĠ
incredi bleĠ
we 'll
oil ĠandĠ
zer o
u eĠtoĠtheĠ
ex ter
ifĠ yourĠ
Brit ainĠ
Micros oft
T onyĠ
makeĠs ureĠthatĠ
ey ondĠ
sh el
Ø§ ÙĦ
for es
it ter
itĠ allĠ
sm okingĠ
intoĠ myĠ
abstr actĠ
wasĠ anĠ
Pro pert
alb umĠ
We 'veĠ
e elĠ
eĠd ayĠ
Ul tim
9 4
st ationĠ
frequ entĠ
domin antĠ
feat uredĠ
drop p
R oll
i ĠisĠ
h r
es "
St op
asĠ ofĠ
ar yĠtoĠ
Ġd epend
e.Ġ F
Ġteam sĠ
M en
Count yĠ
govern mentsĠ
.ĠH aveĠ
sc rap
situ ationĠ
c ityĠofĠ
th et
play ĠtheĠ
advertis ingĠ
_ id
valu eĠofĠtheĠ
ali en
.ĠTheseĠ areĠ
?Ġ Or
fut ure.Ċ
# includeĠ
un eĠ
said ĠtheĠ
add sĠ
n yĠ
vert icalĠ
Ġbec omeĠ
Ġcontr ast
ve ill
sĠ aboutĠtheĠ
Ġm aybeĠ
forc edĠ
des pit
h ideĠ
aĠs imilarĠ
th er,Ġ
F R
G R
ingredi entsĠ
ad ap
pl ateĠ
doct orsĠ
Canad aĠ
or s.Ċ
alk edĠ
b os
onĠ C
COVID -
as ĠthatĠ
y a
stop ĠtheĠ
.ĠIn ter
Î ²
inter actionsĠ
ess ionĠ
lik eĠto
leav ingĠtheĠ
vol at
itĠ alsoĠ
an sĠandĠ
eĠth os
i arĠ
Ġtr a
eĠwe ightĠ
ing !Ċ
conf idenceĠ
am eĠtoĠ
In dones
Br and
.ĠOn ĠtheĠotherĠ
Ġtrou ble
.ĠTh us,Ġ
l ens
in s,Ġ
good ĠtoĠ
recogn izeĠ
eĠc over
eg oĠ
ali enĠ
l esĊ
asĠ farĠasĠ
r atingĠ
ThatĠ isĠ
ad el
ay s,Ġ
im possibleĠ
Holly woodĠ
wait ingĠ
, čĊ
for Ġboth
ic anĠ
muchĠ ofĠ
IâĢĻmĠ notĠ
alt og
inform ationĠandĠ
es '
ian ,Ġ
charg esĠ
"Ġ orĠ"
eĠmod el
Ã ±
s endingĠ
light sĠ
S inc
Le agu
Gr ow
rem ed
V M
neverĠ beĠ
wor riedĠ
Sourc e:Ġ
b ure
icĠ isĠ
s olutionĠ
ureĠ ofĠtheĠ
Mich ig
ul ation
To oĠ
at ing,Ġ
T W
c eil
aĠ realĠ
Ġt ub
God 'sĠ
IĠcan âĢĻtĠ
inst antĠ
Ġd etermin
Ġthere for
.ĠA gain
every on
regul atoryĠ
Ġtoday .Ċ
pre val
forĠ aĠm
id -
draw nĠ
repl ic
rat ch
.ĠR ec
V ot
.Ġ Z
asĠ follow
is ĠtoĠbeĠ
do zenĠ
.ĠT ak
remember ĠtheĠ
e ,"Ġ
as ĠtheyĠareĠ
ersĠ withĠ
lov e,Ġ
eĠtim esĠ
Mat tĠ
à¤ ¾
chol ester
edĠup ĠtheĠ
sex Ġ
pleas antĠ
etĠal .Ġ
Ġbecom esĠ
K E
3 50
& n
IĠw onderĠ
G H
itĠ mightĠ
.ĠM or
v all
eĠto ĠthisĠ
Br uc
whil stĠ
ifĠ youĠd
itĠ wasĠtheĠ
a uĠ
inĠ T
scrip tion
es ĠthemĠ
o hĠ
x ,Ġ
com pris
franch is
l az
Z eal
no ,Ġ
organ icĠ
analysisĠ ofĠ
S cor
" th
vi aĠtheĠ
jump Ġ
agg edĠ
Ġs w
R od
esĠ likeĠ
becauseĠ itĠisĠ
worryĠ aboutĠ
Bl ock
ĠthereĠwasĠ noĠ
Ġtook ĠtheĠ
sourc eĠofĠ
menĠ andĠ
enjoy edĠ
andĠthere foreĠ
s auc
inĠtheĠ formĠofĠ
Ġthr ownĠ
astr onom
f oo
8 3
gu estĠ
mon dĠ
IĠd idnâĢĻtĠ
onĠs omeĠ
log Ġ
S earchĠ
i edĠbyĠ
um eĠ
stud yĠofĠ
p entĠ
! )Ġ
u j
es .ĠItĠ
ov enĠ
sĠ in
we ather
Ġtak eĠcareĠ
Ed wardĠ
< <
Ġmil itaryĠ
forĠm on
fieldĠ ofĠ
anc eĠisĠ
ene ath
climateĠ chang
ourĠ own
why ĠtheyĠ
ut yĠ
C opyrightĠ
,Ġ afterĠ
Ġw atch
depend sĠonĠ
ou s.Ċ
capt uredĠ
end lessĠ
Ġt err
Ġdi rection
cor nerĠ
Ġp .m
inc tĠ
cours eĠofĠ
Budd h
inc idenc
flu or
princip alĠ
TheĠ L
expect ed
sĠ ofĠth
happen ĠtoĠ
.p ng
acqu iredĠ
Ġto ĠthoseĠ
es,Ġ orĠ
ord ers
pro xim
.ĠM oreĠ
s ĠthemĠ
Âł toĠ
r av
Th ingsĠ
itĠ out
Ġf amil
fin al
,ĠthatĠ isĠ
Phil ipp
expl oreĠ
re bel
Ã Ĥ
pres erveĠ
e .ĠIt'sĠ
ofĠthemĠ areĠ
an iĠ
bottomĠ ofĠtheĠ
plan sĠtoĠ
conf usedĠ
H ug
.ĠIĠd onâĢĻtĠ
contribut ion
Fr anceĠ
aĠmin im
pover tyĠ
D anielĠ
dis order
medic in
se aĠ
- C
v ap
up pl
p anc
b illĠ
comm ission
" It'sĠ
money ĠtoĠ
refr iger
compl i
knowĠ aboutĠ
g rew
exp andĠ
atĠ myĠ
typ eĠofĠ
draw n
youĠcanĠ getĠ
w ak
ph aseĠ
PD F
im entĠ
L yn
innoc entĠ
es ot
n aĠ
ag h
s ickĠ
Ġsystem Ġ
coll ection
\ <
we 'llĠ
Ġt i
itĠ onĠ
( (
inj uredĠ
v ow
awaren essĠ
pre ach
div orc
re actionĠ
nec kĠ
Ġw all
about ĠtheirĠ
veryĠ littleĠ
inĠ otherĠ
aĠm us
D or
headĠ andĠ
aĠpiec eĠofĠ
isc alĠ
Reg ard
probab ly
c ros
sever al
] ĠandĠ
acqu ir
Tues dayĠ
IL L
relationship ĠbetweenĠ
compar edĠtoĠtheĠ
à¥ į
an om
canc er
s ham
esĠareĠ notĠ
go es
M T
âĢľ S
B rianĠ
chann elĠ
edĠ againstĠ
D anĠ
aĠc lear
function sĠ
result ingĠinĠ
convers ationĠ
ĠR es
on sĠofĠ
> >Ġ
acqu is
report sĠ
t wo
control ĠofĠ
WhatĠ areĠtheĠ
J Ġ
IĠ alwaysĠ
. ;Ġ
forĠ everyĠ
Ġbeg anĠ
ĠthereĠ andĠ
commun itiesĠ
" F
IĠs ayĠ
as setĠ
improveĠ theĠ
b orderĠ
dev ast
youâĢĻ dĠ
.ĠIĠ hadĠ
," ĠtheĠ
. R
ĠsuchĠ asĠ
areĠ alsoĠ
aĠh ist
i ally,Ġ
Ġm achin
em al
moreĠ important
Gr aph
ass ault
=Ġ {
P RO
cal c
eĠth eĠtr
expert is
cri beĠ
stud iedĠ
eĠm akingĠ
unn el
s portsĠ
on eĠthingĠ
andĠ otherĠ
pre dat
dis rupt
sub -
d ustĠ
eĠc lear
def endĠ
Ġdist ribut
eĠtyp esĠofĠ
dimens ionalĠ
able Ċ
Com plet
og u
brilli antĠ
content Ċ
ed )Ġ
ph onesĠ
frag ment
p yĠ
olog istsĠ
eachĠ ofĠtheĠ
pract icallyĠ
DV D
ro of
IĠm ustĠ
erĠ withĠ
inĠ K
bo atĠ
clos eĠtoĠtheĠ
ar e.Ċ
midd leĠofĠ
Ġ /Ġ
aĠh ref="
del ic
mean sĠofĠ
D ream
w akeĠ
old estĠ
ingĠt echniqu
jur is
call sĠ
] ;Ċ
augh ter
vot ingĠ
sure lyĠ
9 40
under ne
ah ,Ġ
z ip
CanĠ youĠ
an other,Ġ
Exc eption
F I
Ġtr aum
Ġw indow
Ġshow sĠ
az ineĠ
plac eĠofĠ
Ġto ĠtryĠtoĠ
cour se
y cle
cre ep
or ch
.com Ċ
eĠth ough
,Ġ suchĠasĠ
Ġtim eĠinĠ
ĠandĠ otherĠ
inst ant
still Ġb
claim edĠ
isol atedĠ
aĠ wholeĠ
ĠtheseĠ areĠ
ĠtoĠ findĠ
SanĠ Franc
b ridĠ
k it
Ġs cor
L ow
respon dĠ
year sĠandĠ
pict ures
erĠ hasĠ
e,Ġ inĠ
st ain
M ast
f tĠ
caus eĠofĠ
Ġtri esĠtoĠ
eĠm et
outsid eĠofĠtheĠ
wid es
Net fli
cod e
U.S .
asĠaĠ whol
Ġclass ="
cor rupt
Sh eĠwasĠ
problem ĠisĠ
jew el
å ı
J eff
for Ġthat
leg eĠ
bath room
and Ġtheir
Ġs al
itĠ outĠ
eĠw aterĠ
gen esĠ
chĠ ofĠ
edĠ andĠtheĠ
Ġ &Ġ
al ,ĠandĠ
TheĠ W
aĠm et
.ĠThereĠ wereĠ
cruc ialĠ
wr ap
,ĠthereĠ wereĠ
ex portĠ
burn ingĠ
hom os
A rizon
ad her
TheĠ H
youĠs ayĠ
ä »
enn isĠ
priv acyĠ
how Ġb
opportun ity
a ed
wor m
Ġmus ic
every whereĠ
reach ingĠ
C urr
yĠ B
willĠ alsoĠ
Î µ
and ĠtheyĠareĠ
Ed itor
mat hĠ
Off iceĠ
I Ġsh
ind o
S em
Ok ay,Ġ
c aut
ĠP M
mix t
eĠs iz
ro ofĠ
Air Ġ
.ĠSt ill
ĠĠĠĠ publicĠ
ers :Ġ
ycl eĠ
itĠ work
Ġwith Ġm
In f
ĠtoĠ beĠs
m i
o isĠ
sĠtoĠ aĠ
us al
lo ansĠ
whetherĠ orĠnotĠ
atĠleastĠ oneĠ
bl ast
dom ain
her it
w onĠ
accept ableĠ
au x
Ġs ong
assum eĠthatĠ
ric ul
S W
s ig
ch ant
citiz ensĠ
rel uct
p ocket
nutri ent
. html
feed back
In stag
gl ow
appear sĠtoĠbeĠ
repe atĠ
Ġtest ingĠ
es cal
ac yĠofĠ
br ownĠ
help ĠtheĠ
Rep ubl
irc umstanc
b eĠtooĠ
right ?Ċ
sĠofĠ hisĠ
repeated lyĠ
e alth
exclus iveĠ
ass aultĠ
e ,ĠthisĠ
struct uresĠ
good .Ċ
disc overĠ
moreĠ orĠ
Ġteen ag
.ĠIĠ loveĠ
confer enc
but ĠthisĠ
ĠyearsĠ old
Â ±
L iv
=Ġ newĠ
stand ardsĠ
( H
check ĠtheĠ
- Ġs
protect iveĠ
eĠsh eĠwasĠ
part lyĠ
ific ationsĠ
unct ionĠ
.ĠYou ĠmayĠ
on esĠthatĠ
un likeĠ
He y,Ġ
ion e
ay s:Ċ
exist enceĠofĠ
up ĠwithĠtheĠ
Ġcon vers
comput er
.ÂłĠ ThisĠ
ersĠ isĠ
dynam ic
compon entĠ
In ĠmyĠ
Ġtot alĠofĠ
ot allyĠ
house holdĠ
pep per
ed Ġtheir
M arg
Nat uralĠ
em aleĠ
jur yĠ
P ut
L ess
ifĠ youĠdon'tĠ
constr aint
Not e:Ġ
r ud
( seeĠ
p sĠ
fr ank
inter medi
Ġthes eĠc
Ġhum anĠ
h ub
spon sor
resourc eĠ
car bonĠ
reason ablyĠ
ĠTH E
off end
meet ĠtheĠ
pl ex
now ĠtheĠ
Im port
y )
pres cription
committ e
foot ballĠ
excit ingĠ
atell it
Ġ $
ob vi
key ĠtoĠ
I Ġmean,Ġ
H e'sĠ
coupl eĠofĠ
Ġm eas
us eĠs
S R
par as
ing sĠinĠ
Artic le
V irt
basedĠ on
conv ey
ass etsĠ
brok eĠ
Ġt eas
s od
e- mail
En dĠ
onc eĠtheĠ
Ġd iv
nothingĠ butĠ
for Ġtheir
youĠcan notĠ
/ m
youĠwill ĠbeĠ
)Ġ onĠ
communic ationĠ
ifĠ it'sĠ
d anceĠ
Ġt emperatureĠ
langu age,Ġ
.ĠPleas eĠ
war ningĠ
Ġw omanĠ
marri ageĠ
Pl ac
b acc
maxim umĠ
appl yingĠ
N D
ur in
af fl
rol eĠinĠtheĠ
.ĠWhatĠ isĠ
for everĠ
Cont inu
Ġthink ĠtheĠ
æ ľ
knew ĠthatĠ
.ĠA ct
âĨ Ĵ
qu eu
disc us
.ĠYou ĠwillĠ
ER :Ġ
ult ure
sh it
manĠ andĠ
aĠc ollect
st ak
P H
Ġto k
orĠs omethingĠ
Apr il
Ġp ath
at .Ċ
st ri
m ailĠ
Ad amĠ
r ankĠ
as .Ċ
stere otyp
bre astĠ
Ġtot al
,Ġ withĠtheĠ
aĠ N
aĠs ign
tru thĠ
l amp
g entlyĠ
r entĠ
ThereĠ isĠaĠ
meas ur
sh eĠwouldĠ
.ĠI Ġhop
read ilyĠ
wr app
beforeĠ youĠ
Ġtw o-
- M
/ **Ċ
itĠwas n'tĠ
pres crib
B ayĠ
quot eĠ
w art
For e
re posit
Ġd eep
someĠ otherĠ
becaus eĠthey
appli edĠtoĠ
B ad
percent ageĠofĠ
fath er,Ġ
Ġchildren )Ċ
eĠthatĠ wasĠ
exist enceĠ
maxim um
inv ad
Q U
com ed
For ceĠ
ion sĠandĠ
Ġs k
ar sĠ
aĠ year
Ġt ank
vot ersĠ
ul ationĠ
soĠ farĠ
9 20
ane ousĠ
P ressĠ
eĠtod ay
,Ġth is
fell owĠ
rightĠ andĠ
Ġm om
clos erĠtoĠ
n app
anĠ over
Ad dition
eĠto ĠtheĠs
Al ter
ir onĠ
food ,Ġ
con fin
B ak
work ing
ionĠofĠ aĠ
Er icĠ
us es
gr asp
Ar ray
e .ĠAsĠ
. E
eli ef
eĠs ur
Ġto ĠtakeĠaĠ
inst antlyĠ
A ust
.ĠTh ereâĢĻsĠ
control ĠtheĠ
ograph yĠ
youĠ inĠ
98 4
Port ug
aĠl im
Th eir
rul es
f ad
att endĠ
Ġfre eĠtoĠ
W i
Ġbecaus eĠtheyĠ
s.Ġ T
asĠ itĠisĠ
forĠtheĠ t
97 8
fl esh
Ġcontr oll
usp ectĠ
ult ur
p our
Ch alleng
IĠc ould
) ĠbutĠ
gr ind
ain eĠ
and Ġthat
A ction
a un
makeĠ anĠ
th r
myĠ ownĠ
98 8
et s,Ġ
n d
hav e,Ġ
mayĠ notĠbeĠ
' ĠandĠ
CP U
st ĠtheĠ
cl u
Rel ig
For um
creat ingĠaĠ
for ĠthemĠtoĠ
support ingĠ
,Ġ V
.ĠY etĠ
keepĠ itĠ
ĉ }Ċ
Thurs dayĠ
way ĠtheĠ
hampion ship
piec esĠofĠ
onceĠ againĠ
emot ionsĠ
ext ent
ann ingĠ
eri ouslyĠ
ad vers
B on
Ġconc ept
Cong ress
em anĠ
IĠ rememberĠ
S iz
end ors
Profess orĠ
ur d
hasĠ becomeĠ
har vest
or ĠbyĠ
pris onĠ
alĠ isĠ
g atherĠ
Ġt ownĠ
qu itĠ
Ġd ur
pract ition
pay ĠtheĠ
sĠ m
Ġt reatĠ
s ...
Ġdec id
US AĠ
lif e-
letĠ usĠ
He av
asĠ aĠf
remember ĠthatĠ
SouthĠ Afric
whenĠ heĠwasĠ
person alityĠ
Ġp rev
one y,Ġ
l ig
lookingĠ atĠtheĠ
. J
aw ful
)Ġ [
pl ain
gr assĠ
claim sĠ
12 5
b sĠ
; ĠtheyĠ
foc usesĠ
ement Ċ
olec ular
eĠth en
eth an
eĠthem ĠtoĠ
Ġser ver
Em ploy
( whichĠ
s imultane
Ġw ait
def eat
politic iansĠ
ent edĠ
e.Ġ M
aint en
j aw
Ġther eĠtoĠ
Com pan
connect edĠ
!Ġ Âł
Ġth orough
crow dĠ
lik edĠ
&n bsp
Commun ityĠ
aĠg ameĠ
cas es,Ġ
prem ium
chang ed
hold ĠtheĠ
des erveĠ
Ġ( #
d imin
haz ard
g iftĠ
em power
or iousĠ
Ġs uch
business esĠ
squ areĠ
even ingĠ
institut ionsĠ
ident ity
! Ġ(
T opĠ
,Ġ oneĠ
ver yĠt
ingsĠ ofĠtheĠ
Ġtr yĠandĠ
TheĠs econdĠ
TheseĠ areĠ
stor esĠ
cycl eĠ
IâĢĻ llĠ
con form
ey esĠandĠ
s v
eb ookĠ
encr ypt
16 0
remend ousĠ
optim iz
wor se
ĠwouldĠ haveĠ
Pro g
r ink
ent ionĠ
14 0
T am
std ::
ent enceĠ
IĠ likeĠ
ab ort
food sĠ
resid entsĠ
NewĠ Zeal
Ġsup pl
Ġp ayĠ
eĠm iss
marg in
strik eĠ
G T
in 'Ġ
Ch ristop
eĠs he
isĠ oftenĠ
h itsĠ
Pub Med
h eĠwillĠ
innov ativeĠ
inĠ ofĠ
I A
T eam
Dav id
occas ionalĠ
Ġcl ub
inter act
s.Ġ ToĠ
point .Ċ
know ĠhowĠ
n icĠ
edĠ C
ater alĠ
hom eĠtoĠ
Mus eum
Ġpol iticalĠ
Ġthis ĠtimeĠ
sol ar
.ĠInĠ aĠ
c ookĠ
al in
andĠtheĠ t
) (
B a
L or
liv edĠinĠ
c ot
cop yĠ
r in
Rev olution
hear ĠtheĠ
aĠl ookĠ
lett ersĠ
im g
ers 'Ġ
St ock
but t
.ĠIĠ knowĠ
interest ingĠtoĠ
aĠm ajor
Le eĠ
*Ġ *Ġ
forĠ aĠfew
issu e,Ġ
W ellĠ
and ĠthatĠtheĠ
link edĠtoĠ
benefic ialĠ
sĠareĠ alsoĠ
atĠall .Ċ
which ĠcanĠbeĠ
Jo inĠ
ativ e,Ġ
en aĠ
yester dayĠ
un iverse
vit amin
âĢ¦ .
is herĠ
Ġmod ul
cross -
Ġc ould
esc entĠ
WhenĠ IĠ
induc edĠ
H eb
L ock
sc oreĠ
Jos ephĠ
liter atureĠ
D igitalĠ
putĠ inĠ
m ariju
sĠ of
?Ġ IfĠ
say ing,Ġ
ass ur
isĠtheĠ bestĠ
.ĠItĠ isĠaĠ
-- Ċ
P T
f akeĠ
proced ureĠ
ad ol
aĠt wo-
earth qu
consider ableĠ
q Ġ
Ġw om
dat as
Dr ag
soft war
pres enceĠ
ingĠ downĠ
you Ġsh
aĠp ict
c ivilĠ
el ow
Th en
aut o
drop Ġ
er y,Ġ
itĠ reallyĠ
\cit e{
ig ureĠ
stat ic
anc t
usĠ isĠ
on ic
in quir
id e,Ġ
- c
leg sĠ
al ik
aĠ problem
á ¹
How ĠmanyĠ
Br idg
compan y,Ġ
him ĠinĠ
But ,Ġ
p ad
Ġt omorrow
hom e.Ċ
oct orĠ
prettyĠ much
em ission
allĠ otherĠ
pow ersĠ
h int
itĠ shouldĠ
help sĠtoĠ
it isĠ
act ual
becam eĠtheĠ
negl ect
aĠw ideĠ
:Ġ P
at ĠtheĠsameĠtimeĠ
-- -
inĠtheĠ lastĠ
ing "Ġ
dog Ġ
off ĠtoĠ
statist icalĠ
1 30
groc eryĠ
about Ġthat
y /
rel l
univers eĠ
requir eĠaĠ
part iallyĠ
======== ========
11 1
s. âĢĿĠ
night .Ċ
rul ingĠ
whatĠ doĠ
mat rix
dat abaseĠ
sp anĠ
down .Ċ
N a
s itt
Orig in
O verĠ
eĠs aysĠ
i.e. ,Ġ
immedi ately
gam ingĠ
h ierarch
al ph
ud get
h eter
jo inĠtheĠ
al umin
prefer redĠ
art if
sk i
peopl eĠwouldĠ
forĠ $
y oĠ
betweenĠtheĠ twoĠ
administr ationĠ
.ĠAnd ,Ġ
Ed it
goĠ andĠ
init ial
R ay
eĠt akingĠ
d ust
p est
inflammat oryĠ
.ĠWh ereĠ
sleep Ġ
equ il
uf fic
forĠ oneĠ
abl y,Ġ
us e.Ċ
back ward
authent ic
- L
head ach
Expl or
AN T
allow sĠtheĠ
son 'sĠ
origin al
_ tĠ
id iot
good ,Ġ
ird -
vari ous
pass wordĠ
hop efullyĠ
Ġt ableĠ
cy cle
lad yĠ
bon dĠ
R on
fail ure
eĠd eĠ
calledĠ âĢľ
agre eĠthatĠ
R T
pen alt
vehic l
miss ionsĠ
return edĠtoĠ
ac et
Ġbas edĠonĠ
ed ĠthatĠtheyĠ
e .ĠItĠisĠ
li pĠ
record edĠ
Ġweb siteĠ
cient ificĠ
year sĠtoĠ
circ um
os isĠ
wit chĠ
merc ialĠ
left ĠtoĠ
ri um
AT E
Saud iĠ
row d
on Ġboth
le agueĠ
.. ...
Get tingĠ
Â» Ċ
ment s,Ġ
S us
iv es,Ġ
ret t
com eĠtoĠtheĠ
f ak
soĠ on
goĠ intoĠ
prof itsĠ
lab elĠ
is nâĢĻt
Ep is
spect ac
Chin a,Ġ
? âĢĿ
payĠ forĠ
oneĠofĠ hisĠ
g lo
ing ,
mess agesĠ
L iveĠ
s )ĠandĠ
Rem ember
class room
precis elyĠ
aĠc our
experienc e.Ċ
erĠ canĠ
eĠd idnâĢĻtĠ
s.Ġ âĢľ
H all
typ eĠ
olog ical
arket ingĠ
D ear
el Ċ
D un
lif eĠinĠ
overe ign
sĠ perĠ
and ĠthereĠareĠ
Ex peri
First ,Ġ
whoĠ wouldĠ
sĠ whichĠ
ed !Ċ
quart er
err orsĠ
heardĠ ofĠ
ingĠ aĠs
mis sĠ
e onĠ
is ĠtryingĠtoĠ
r aid
erĠ atĠ
us ing
ab useĠ
T otalĠ
Re quest
crim eĠ
gr id
inĠtheĠ pastĠ
echn icallyĠ
Ġp ower
ly ĠtoĠtheĠ
man ner
Ġtoward ĠtheĠ
Mexic anĠ
comm itĠ
eĠd am
oun sel
recogn is
Inform ationĠ
N ut
Ġfil m
Ġbec am
w eĠmustĠ
esĠ suchĠasĠ
ĠĠĠĠĠĠĠĠĠĠĠĠĠĠĠĠ ĠĠĠĠĠĠĠĠĠĠĠĠ
moreĠ aboutĠ
Con c
esĠ anĠ
mostĠ likelyĠ
T extĠ
mir r
dr aft
down ĠtoĠtheĠ
b y,Ġ
removeĠ theĠ
Ex p
wind owĠ
en light
imm ers
ist ribut
e.ĠS heĠ
ationĠofĠ aĠ
r ust
s ongĠ
some howĠ
HowĠ ToĠ
pr oĠ
edĠasĠ anĠ
vis itor
Vi ol
conven ientĠ
aĠgreat erĠ
Ġwe 'reĠ
row s
s.ĠS omeĠ
Frid ay
Bar ackĠ
b id
fl ick
à¥į à¤
A Ġm
y stĠ
Com monĠ
atĠtheĠ endĠofĠ
f areĠ
Sec ur
amin oĠ
B ol
re tr
pr ayĠ
ĠpointsĠ Âł(
var yingĠ
i op
hisĠ wif
Ġtoo .Ċ
profession alsĠ
childrenĠ andĠ
horiz ont
ingĠ "
forĠ youĠ
inĠtheĠ earlyĠ
withoutĠ aĠ
sl ic
agre edĠtoĠ
uplo ad
Ġf ull
Sp ac
letĠ itĠ
As kĠ
itĠ seemsĠ
how ĠweĠ
itĠ hadĠ
. g
l uckĠ
Jer usal
T ai
quit eĠs
it sĠofĠ
,ĠtheyĠ canĠ
Wor dĠ
vis itedĠ
K id
en rich
Ġsp ir
es .ĠTheyĠ
socialĠ mediaĠ
k Ċ
writ ten
L ak
â ī
particip ant
Net work
ass emblyĠ
s .ĠThisĠisĠ
.ĠI âĢĻveĠ
Y u
ed .ĠH
addition ĠtoĠ
yp tĠ
Every oneĠ
un knownĠ
read ingĠtheĠ
discipl in
aĠl ackĠofĠ
fro zenĠ
cris isĠ
up on
ĠthatĠ canĠbeĠ
h n
discover edĠ
Isl andĠ
globalĠ warm
ness ĠtoĠ
rit er
mentĠ isĠ
ophist icatedĠ
s ne
rop icalĠ
er tion
. )
harm ful
syl van
associatedĠ withĠtheĠ
weap onsĠ
H avingĠ
aĠl owerĠ
sh out
I ris
IĠ guess
Ro ad
o ĠtoĠ
vill ageĠ
Right sĠ
- p
itt yĠ
inter faceĠ
P y
Ġwith ĠmyĠ
reg ionsĠ
Ġt iredĠ
D etail
ed ;Ġ
m _
C ustom
Ġm ay
research ĠandĠ
Ġf ileĠ
P ag
s,Ġ inĠ
ĠĠĠĠĠĠĠĠ self.
ers onĠ
realiz edĠthatĠ
.ĠTh ere
sec ureĠ
qual ifiedĠ
ro veĠ
phys ical
se enĠtheĠ
98 7
experim entsĠ
pull edĠ
eĠm uch
distingu ish
R ap
U pĠ
es )Ċ
ox ideĠ
Mar x
for ĠtheseĠ
ass assin
bo ostĠ
forĠtheĠ mostĠ
.ĠAnd ĠthenĠ
aĠgreatĠ dealĠ
web Ġ
ew ay
list edĠ
( inĠ
H ay
ingĠ whatĠ
L ev
gr ainĠ
" >Ċ
air port
fac e,Ġ
at arĠ
charg edĠ
b our
red d
âĢĿ ĠinĠ
ens itiveĠ
ic ha
educ atedĠ
group sĠofĠ
D L
es,Ġ whichĠ
spir itĠ
ch at
item Ġ
evolution aryĠ
Ac cess
cover edĠ
person ĠtoĠ
," ĠheĠ
hun tingĠ
l ick
forĠtheĠ nextĠ
cal eĠ
b iz
Iran ianĠ
l ag
aboutĠ $
w eĠse
ster oid
Ar gent
D eathĠ
S cr
ne edĠtheĠ
m ant
ign oreĠ
riev edĠ
w ing
Ġdi abet
Wednes dayĠ
cont extĠofĠ
so ĠthatĠtheĠ
aĠ st
chang ingĠtheĠ
off eeĠ
S B
ol arĠ
ĠtheĠsameĠ asĠ
ic sĊ
D ailyĠ
p andem
><br Ġ/
Californ ia
suggest ĠthatĠ
D aveĠ
show ĠtheĠ
backĠ ofĠtheĠ
S earch
ord erĠofĠ
fail ĠtoĠ
ac i
aĠt inyĠ
H av
Ġm ind
.ĠAsĠaĠ result
d ic
w etĠ
half ĠtheĠ
Unfortun ately,Ġ
,Ġ c
lif eĠofĠ
forĠd ec
ĠandĠ itsĠ
inst anceĠ
al ist
star v
vide os
m ph
su icid
s ,"Ġ
be ingsĠ
ide -
me alĠ
fre eĠtoĠ
Ġdiffer ent
.ĠOfĠcour se,Ġ
98 6
relationship Ġ
responsibleĠ forĠtheĠ
ers âĢĻ
Ï ĥ
m elt
youĠ reallyĠ
tr in
mem ory
ar mor
forĠ aĠs
OfĠcour se
i br
Ġcompl ex
M ind
IĠwas n'tĠ
expos edĠtoĠ
C ross
but ĠtoĠ
.ĠM ean
Admin istr
result edĠinĠ
argu eĠthatĠ
lightĠ andĠ
[ Ġ
g host
aroundĠtheĠ world
problem s,Ġ
i aryĠ
. P
Ġthat ĠthereĠisĠ
ĠtoĠt reatĠ
om m
av atar
Ġp mĊ
first ĠtoĠ
: )Ġ
un employ
.ĠG oodĠ
du pl
focusĠ onĠtheĠ
Ġcon centr
cr ypt
ach us
us cept
ed,Ġ andĠtheĠ
attempt edĠtoĠ
Ġwith ĠthisĠ
ar edĠ
ĉĉ ĉĉĉ
g aug
equ alityĠ
.ĠThey 'reĠ
Over ĠtheĠ
Ġc ut
L incol
F unction
sym path
di al
. x
en vel
e.Ġ B
sĠ intoĠtheĠ
resist anc
partner ship
er ,ĠbutĠ
Pac ificĠ
read y
intervent ion
L ast
un fair
om eĠs
________ ________
old ĠtheĠ
,ĠandĠ heĠ
ib le,Ġ
satis fact
ra h
Â° C
.ĠBut ,Ġ
anĠ interestingĠ
Con fer
ung Ġ
ill umin
follow edĠ
?Ġ You
An ton
,Ġ E
e ...Ċ
prepar edĠtoĠ
old -
f ox
not ĠtooĠ
cient ific
ar yĊ
} ^
Ġtr afficĠ
feel ing
ĠasĠ well
aĠf reeĠ
F eder
Y ah
allowĠ youĠtoĠ
yourĠp h
les sĠandĠ
ang le
hor n
how ĠthisĠ
IĠ had
at esĠandĠ
um anĠ
ON E
ingĠ anyĠ
mĠ (
.ĠB yĠtheĠ
t Ċ
open -
\ frac{
step pedĠ
arr enĠ
stat ut
</p >Ġ<
andĠthere for
mon st
ident ify
fre edomĠ
offĠ ofĠ
neur on
sĠ ofĠt
w on
ĠĠĠĠĠĠĠĠĠĠĠĠĠĠĠĠ ĠĠ
An c
feat ur
b a
ab dom
afterĠ all
x _
Ġtherap yĠ
Ġth readĠ
ell erĠ
ov edĠ
.ĠThisĠ isĠaĠ
post edĠ
inĠthisĠ cas
; Ġs
Ġto olĠ
resultĠ ofĠtheĠ
s.ĠTh eĠs
asĠ ifĠ
itĠ hasĠbeenĠ
explicit lyĠ
someĠ kindĠofĠ
car sĠ
imilar ly,Ġ
youĠm akeĠ
Dis neyĠ
main stream
LE D
emphas iz
t ain
res ign
whil eĠw
Gr ad
dis clos
w ick
Democrat sĠ
cl ockĠ
yn thes
Ear lyĠ
aĠ k
Ġthere'sĠ noĠ
% ,Ġ
distribut ion
els e,Ġ
v ital
imm ingĠ
hol yĠ
Spec ialĠ
class esĠ
iaĠ isĠ
indic ateĠ
K eyĠ
educ ation,Ġ
W id
Ġt um
-Ġ TheĠ
.ĠE ach
inter viewĠ
IĠ findĠ
rhet or
yourĠh and
sc r
opin ionsĠ
sub mitt
energ y,Ġ
l edĠbyĠ
stat esĠthatĠ
withĠ it
ĠtoĠs leep
#### ####
K ind
Austral ia
Ġth ing,Ġ
cl ass,Ġ
label {
: ÂłĊ
St y
day ĠtoĠ
]Ġ <
S A
aboutĠ yourĠ
Ġs ampl
ing !Ġ
nic eĠtoĠ
agric ulturalĠ
B ow
from Ġd
sit esĠ
eĠc ost
)Ġ forĠ
Ġtogeth erĠandĠ
c ouldnâĢĻtĠ
onĠ howĠtoĠ
h ik
asĠ goodĠ
pop Ġ
about .Ċ
numb ersĠofĠ
rok enĠ
Cl ick
enabl esĠ
vacu um
H ung
] )Ċ
istr ict
ense .Ċ
appl yĠtoĠ
Ġwas n'tĠ
.ĠNow ,Ġ
iqu eĠ
ire ,Ġ
Ġphot oĊ
add ĠtheĠ
ĠtheĠs un
ros eĠ
artic ul
ar s
y e
ol iveĠ
ar y.Ċ
anĠ out
j eal
UL L
onĠ T
ingĠto ol
fa ultĠ
ersĠ orĠ
( p
does ĠthisĠ
l uc
P rem
pil ot
Hill aryĠ
a iredĠ
aĠlotĠ moreĠ
Ġtogeth erĠtoĠ
sp at
F und
ÂłÂłÂłÂłÂłÂłÂłÂł ÂłÂłÂłĠ
intim id
curr encyĠ
R ol
os pel
es .ĠH
act edĠ
Stre et
} _
Americ ans
ĠtheĠ bestĠ
beaut yĠ
achus ett
you'reĠ notĠ
ĠyearsĠ agoĠ
shouldĠ notĠ
resist anceĠ
ifĠ youĠcanĠ
Ġtoday âĢĻsĠ
F ant
ret ro
e:Ġ "
get ĠthatĠ
ativ elyĠ
O D
enc eĊ
muchĠ ofĠtheĠ
.ĠR eg
,Ġ becaus
om etimesĠ
IĠw ould
ersĠ willĠ
eas ily
.ĠW eĠcanĠ
y "
gener atingĠ
th ought
asĠaĠ resultĠofĠ
proper ly
o is
s.Ġ N
Skip ĠtoĠ
ÂłÂłÂłÂł ÂłĠ
pos s
l ev
s ,ĠthisĠ
spl itĠ
e.ĠTh eĠs
refus eĠtoĠ
clear ĠthatĠ
Nov Ġ
mov esĠ
doct orĠ
ofĠ itsĠ
vol can
fund ingĠ
candid atesĠ
Per form
sĠ herĠ
aboutĠ myĠ
Tr ack
bod yĠandĠ
ĠtoĠ herĠ
atĠ onc
sĠandĠ aĠ
Aug Ġ
F D
ĠtheyĠ couldĠ
par ag
ev ident
Ġcamp aign
bi o
sk ip
.ĠB r
littl eĠs
um mer
Ġseem sĠtoĠ
b otherĠ
Arth ur
challeng ingĠ
i orĠ
y ĠtoĠtheĠ
suffic ient
whatĠ wouldĠ
holid ayĠ
Mus icĠ
ugg estĠ
Mal aysi
man Ċ
leg al
for thĠ
accept edĠ
energ yĠandĠ
or yĊ
St ream
ĠtoĠ useĠ
.ĠI'mĠ notĠ
end .Ċ
way s,Ġ
ir ac
Ac cordingĠtoĠtheĠ
id eĠofĠtheĠ
ed,Ġ âĢľ
M ainĠ
want ingĠtoĠ
compat ibleĠ
Er r
.Ġ '
eĠd rop
fromĠ itsĠ
or sĠtoĠ
Ġcount riesĠ
G il
bo om
reallyĠ goodĠ
oneĠ another
improv ingĠ
m en,Ġ
cop eĠ
D al
piec esĠ
eĠsh ort
Ï ģ
whatĠ isĠtheĠ
first ,Ġ
west ern
e.Ġ C
peopl eĠt
Po intĠ
roll ingĠ
M and
isĠ actuallyĠ
backĠ inĠtheĠ
Ġ &
OfĠcour seĠ
all ĠtheĠs
Ġt ight
go .Ċ
est roy
an tĠofĠ
act eri
rais ingĠ
Ġtyp esĠ
adv anceĠ
gr antĠ
" ;Ċ
student sĠtoĠ
ph p
occur Ġ
Sar ahĠ
Ġthink ing
gre et
express ionĠofĠ
Ġcont ainsĠ
extra ordinaryĠ
l id
ed .ĠItĠ
ad mitĠ
.Ġ Ċ
ot iv
Ġph oneĠ
yn c
o at
ĠofĠ myĠ
s .ĠIt'sĠ
lin e.Ċ
th ink
spect rum
jo yĠ
open ĠtoĠ
I Ċ
youĠ forĠ
we 'dĠ
grat eful
fac eĠofĠ
I'mĠnotĠ sureĠ
I Ġmean
co al
compet itionĠ
arg ueĠ
aĠ V
L akeĠ
F ebĠ
Ġs peak
d ueĠ
workĠ onĠ
12 8
Ġs kill
choic eĠofĠ
cor on
air yĠ
shar ingĠ
er ningĠ
Ġ* Ċ
experienc eĠofĠ
overĠtheĠ pastĠ
L ightĠ
s,Ġ etc
do ,Ġ
s,Ġ whoĠ
w ere
notĠ beingĠ
isĠthatĠ itĠ
S n
ap i
.ĠHow everĠ
will ĠmakeĠ
,Ġw eĠcanĠ
IĠ readĠ
world âĢĻsĠ
n p.
Ġc urr
Mexic oĠ
Ġc ostĠ
le y,Ġ
exist sĠ
reg isterĠ
distinc tion
y Âł
.ĠPerhap sĠ
Dec Ġ
Ġspec ific
entertain mentĠ
- P
.ĠA dd
e.Ġ ForĠ
is ingĠ
particip ateĠ
surv ey
par s
Cl assĠ
-- ĠtheĠ
aĠ n
a ĠtotalĠ
Ġthey 'dĠ
eĠth ere
eĠthisĠ isĠ
scen eĠ
Rep ortĠ
IĠs awĠ
all Ġh
Indi a
J r
d ash
os c
ol k
en ess
st ub
addres sĠtheĠ
Ġhtt p://
Ġ hadĠ
strateg icĠ
Jul Ġ
C oldĠ
pl itĠ
ĠthisĠ week
CN N
\ Ċ
andĠ IĠ
everyth ingĠthatĠ
sĠinĠ myĠ
.ĠD uringĠtheĠ
ok ayĠ
aĠgoodĠ idea
loc ationsĠ
newsp aperĠ
ĠĠĠĠ //
want sĠ
Ġthing sĠareĠ
) Âł
last ingĠ
th eĠt
becauseĠ heĠ
agenc iesĠ
dr unk
y ingĠtheĠ
lik eĠt
countri es
Ġconsid erĠ
e,Ġ "
is ,ĠandĠ
or bit
IĠm ad
atĠ homeĠ
" :
enc yĠtoĠ
do ĠtheyĠ
si bleĠ
lik esĠ
.ĠK eep
believeĠ inĠ
c ab
12 3
ar cha
Ġ outĠofĠ
Ġwrit ingĠ
neutr alĠ
pow der
chang e,Ġ
stay ingĠ
a. m
lead sĠ
thĠ C
stateĠ andĠ
," ĠandĠ
Y :Ġ
Ø§ Ø
stop pingĠ
doc umentsĠ
m oodĠ
Ġs ayĠ
ag e-
every one
s,Ġ âĢľ
abs or
sh ut
ĠtheĠs cen
propos alĠ
lo oseĠ
fail edĠ
d ressĠ
98 5
s at
x -
bod iesĠ
What âĢĻsĠ
U b
chron ic
ing )Ġ
inter activeĠ
spec ies
c oc
ech oĠ
O W
stol enĠ
Re ag
inĠ aĠb
giv esĠtheĠ
sh eĠcouldĠ
Tr yĠ
Fil e
C lin
echn ic
respond ĠtoĠ
en berg
inst inct
Par isĠ
Ġtr yingĠ
eĠm ean
inher it
Google+ ĠphotoĊ
B ibleĠ
at e-
es,Ġ andĠtheĠ
ER S
direct orĠ
Ġ Ċ
real ity,Ġ
Ġbecaus eĠtheĠ
decision ĠtoĠ
{ {
com position
lov elyĠ
long ,Ġ
elimin ateĠ
av ir
har ass
Ġteach ersĠ
laug hĠ
eat enĠ
myĠ firstĠ
lifesty leĠ
e.Ġ ToĠ
Com mission
B all
."Ġ TheĠ
your Ġwork
z omb
ph ilosop
Ġw onder
.ÂłĠ TheyĠ
d yingĠ
goodĠ forĠ
repe at
public lyĠ
ention edĠ
you ?Ġ
Ġt askĠ
ut er
Al ask
avail abl
Ac count
do orsĠ
ne uralĠ
be erĠ
IĠcan notĠ
peopl eĠwillĠ
accur atelyĠ
Ġs inc
he atingĠ
andĠ inĠ
,ĠIĠ amĠ
; Ġhow
ingĠtoĠ aĠ
H ereĠisĠ
âĢĿ ĠtoĠ
Ġthink sĠ
anĠ individualĠ
haveĠtheĠs ameĠ
ver y,Ġ
B E
s,Ġ notĠ
D omin
bir thĠ
say ing
wor st
isĠ aboutĠ
un ningĠ
,âĢĿ Ġh
m ell
liv ing
L en
y erĠ
isĠ onlyĠ
is ĠthatĠtheyĠ
lov ingĠ
infra structureĠ
ac u
focusedĠ onĠ
warr ant
creat eĠtheĠ
ac y,Ġ
" :Ġ
share|improveĠthisĠ questionĊ
yourĠh om
go alĠofĠ
express edĠ
L ot
Ġs leep
whereĠ weĠ
eful ly
wid erĠ
( s)
you ĠwithĠ
fing erĠ
S in
ur der
ĠA M
ing,Ġ orĠ
s ?
ar eĠtheĠs
valu e
dir tyĠ
start sĠtoĠ
.ĠO h
dayĠ ofĠ
b dĠ
ĠtoĠ $
Nor m
ell aĠ
eĠs ourc
epid em
( G
Ġf ail
Th rough
manyĠ peopleĠ
flo atingĠ
uct u
Haw ai
of ,Ġ
it'sĠ justĠ
es Ġthat
setĠ up
lookĠ at
difficult yĠ
ables po
gl u
w ineĠ
er as
abilityĠ ofĠtheĠ
eĠtyp eĠofĠ
âĢĶ theĠ
Ġc amer
F P
and ĠthoseĠ
plast icĠ
asĠ hisĠ
gr im
br ac
Ġteach erĠ
.ĠSom etim
TheĠ P
IĠwouldĠ likeĠtoĠ
L arg
eĠandĠ hisĠ
is Ġthis
en âĢĻsĠ
che er
repl yĠ
icalĠ andĠ
str ainĠ
st ad
le th
which ĠwereĠ
ush room
d innerĠ
s ;Ċ
:Ġ N
per sĠ
.ĠIĠd idn'tĠ
re public
e alsĠ
Ġc ook
own ,Ġ
ibil ity
Le on
asc ular
.ĠLet 'sĠ
hand fulĠofĠ
limit edĠtoĠ
youĠs ay
ch ef
c ere
for gottenĠ
dec adeĠ
everyĠ otherĠ
chief Ġ
enc y,Ġ
she etĠ
R yanĠ
R iv
.ĠH eĠw
C areĠ
bab lyĠ
Ġthey âĢĻr
hum ans
although ĠtheĠ
stor y.Ċ
mak ersĠ
deliv eryĠ
ĠĠ }Ċ
adv entur
is ĠthenĠ
af firm
Jef fĠ
Manag ementĠ
haveĠ notĠ
be anĠ
hard erĠtoĠ
dialog u
Ġsh op
.ĠHeĠ hadĠ
Ġp ap
c yt
edĠ afterĠ
eĠd ev
an sĠareĠ
C V
.ĠAf terĠtheĠ
s .ĠAĠ
rob otĠ
dealĠ with
n t
onĠtop ĠofĠ
B ri
bacter iaĠ
both Ġs
= Ġf
w and
rather ĠthanĠtheĠ
inĠ D
direct ionĠ
m es
p yth
ever al
watch ĠtheĠ
( self
ic e,Ġ
atĠtheĠ UniversityĠofĠ
. 'Ġ
k e
.. ."Ċ
ill nessĠ
end e
prol ifer
out ĠthisĠ
anĠ excellentĠ
sĠinĠ orderĠtoĠ
ant sĠandĠ
ast roph
re produc
ide al
Contr oll
eĠ itĠ
cr uel
T each
set ĠtoĠ
record ingĠ
prov edĠ
del ight
Ġm oment
libr ary
.. /
Pro ph
reg ardĠ
In fo
b und
al one,Ġ
oc urr
regist eredĠ
} );Ċ
l asĠ
o os
Bu yĠ
anĠ "
bil it
h an
Lib ert
p c
om eg
impactĠ onĠ
until ĠtheyĠ
d irt
Ġ ,Ġ
Ġdegre esĠ
vir alĠ
enem iesĠ
ãĢ Ĥ
) ;čĊ
industr y,Ġ
infin it
s atur
ch er
Dr ug
formul aĠ
does n't
Ġt it
Em per
our nam
ifĠ youâĢĻreĠ
Ġth umb
ĠĠĠĠĠĠĠĠ returnĠ
becauseĠ IĠ
oneĠ ofĠthos
shouldĠ notĠbeĠ
remark ableĠ
adult sĠ
sustain ableĠ
read ing
- F
ful ĠandĠ
exp end
bar rel
il verĠ
key word
( i
IĠwouldĠ haveĠ
s,Ġ weĠ
ect orĠ
ThisĠ wasĠ
.Ġ" TheĠ
sc ratch
N AME
m ood
Ġdown ĠtheĠ
say sĠthatĠ
allĠtheĠ wayĠ
eĠsaid .Ċ
Ġt ab
ĠtimeĠ forĠ
Pr int
Jer em
I sĠtheĠ
for Ġcom
upĠ onĠtheĠ
mak eĠthisĠ
dis s
i ov
T T
worth yĠ
B ul
del eg
andĠ itĠ
ian sĠandĠ
icĠs ystem
St ev
south ernĠ
ri es,Ġ
A sk
O C
asĠ longĠ
youĠ aĠ
Bl oodĠ
for ĠthoseĠwhoĠ
Jew sĠ
long Ġterm
ĠthatĠ couldĠ
I ĠtoldĠ
a Ġtrans
ar yĠt
at -
ograph icĠ
cient istsĠ
Ġpat ientsĠ
elf .
d ail
$ {
ib lyĠ
ear l
Tak eĠtheĠ
Ġtri alĠ
eu ro
g um
amp aign
M uchĠ
ingĠ from
lat er.Ċ
dist antĠ
N ightĠ
des ert
what ĠtoĠ
edĠby ĠtheĠs
st iff
se iz
struct ures
har sh
get _
partĠofĠ aĠ
P rev
col umnĠ
ace ut
P il
electron ic
Ï Ģ
ist sĠareĠ
it ualĠ
O H
insul inĠ
Des ignĠ
th e-
Ġt ail
avor iteĠ
willĠb eĠs
convent ion
A W
IN T
or y.Ċ
v agu
which ĠwillĠ
Ġd en
new Ġf
we ep
provid esĠaĠ
ban kingĠ
ar a
youĠ need
AP IĠ
ĠtoĠt alkĠ
onĠtheĠotherĠ hand,Ġ
m adĠ
e.ĠTh ereĠ
Il lin
) \
iv enĠtheĠ
ingĠ overĠ
artic le,Ġ
It'sĠ notĠ
particip antsĠ
Wh er
n ,Ġ
includ eĠaĠ
anĠ (
b ass
strict lyĠ
eg u
eĠsh ould
Ġmemb ersĠ
mak e
L ongĠ
estim ateĠ
sha pe
br ick
Apr Ġ
rec overĠ
Lou is
Des piteĠ
problem ĠwithĠ
W omenĠ
new ĠandĠ
yetĠ anotherĠ
us eĠinĠ
problem ĠofĠ
aĠmin ut
chanc esĠofĠ
Qu ant
LetĠ meĠ
everythingĠ isĠ
aĠ orĠ
dat ingĠ
blogg ersĠ
Ġs implyĠ
97 9
ou s.Ġ
deal ingĠwithĠ
aĠd em
Mod ernĠ
assist antĠ
confer enceĠ
ĠandĠ $
Inc reas
ig est
A ustri
Happ yĠ
Â ´
Î ¹
long ĠandĠ
sheĠ hasĠ
mur derĠ
S ectionĠ
don âĢĻt
air eĠ
impl ication
p urelyĠ
heal ingĠ
usedĠtoĠ beĠ
itiesĠ areĠ
D elt
or ĠmayĠ
Con sum
InĠ orderĠtoĠ
introduc edĠ
ed ,
prot agon
M edit
book ,Ġ
pil otĠ
R iverĠ
ĠtoĠ giveĠ
intoĠ yourĠ
ret ain
mar ch
comeĠ fromĠ
M oon
o gram
Rec entĠ
Ch ron
collect iveĠ
Sy rianĠ
mostĠ important
pap er,Ġ
immigr ationĠ
am i
.ĠI' ll
r ick
Ä ±
] ]
propert ies
oĠ wasĠ
an not
or chest
capac ityĠ
p uls
own .Ċ
suggest ion
DonaldĠ Trump
company 'sĠ
phot osĠ
dis hĠ
s.ĠTh ereĠareĠ
Ġp ot
; Ġh
S af
,Ġ atĠ
mount ainĠ
regard lessĠ
funn y
E ver
es -
Cor n
operatingĠ system
z on
itself .Ċ
) .ÂłĠ
H z
.ĠIn steadĠofĠ
.ĠFin ally,Ġ
it !Ġ
Ġc ustom
yell owĠ
b udd
goalĠ isĠtoĠ
orr y,Ġ
meas uresĠ
MostĠ ofĠtheĠ
pe an
guil t
squ eez
,ĠbutĠ itĠisĠ
with inĠaĠ
dist rictĠ
canĠ helpĠ
b atĠ
find ingsĠ
view sĠ
Ġ vot
in Ġthis
ser ies
film sĠ
as th
yourĠp art
.ĠForĠ instance,Ġ
Char act
Ġtalk ĠtoĠ
don e,Ġ
[ i
ing .ĠItĠ
forĠ "
eĠandĠ aĠ
\ text
Ġs everalĠ
eĠc ouldĠbeĠ
order edĠ
aĠp airĠofĠ
) ,
forĠ ourĠ
prim eĠ
,Ġ $
ling u
bre ed
fail ureĠ
haveĠ aĠs
.ĠS eeĠ
are :Ċ
ianĠ andĠ
Matth ewĠ
M issĠ
er ect
whatĠ heĠ
. B
eĠw ar
UnitedĠ N
youĠs oĠ
Bre ak
Âł TheĠ
.ĠCon sid
K e
four thĠ
chos eĠtoĠ
cre atedĠbyĠ
eachĠ other,Ġ
bf {
other Ġthing
mor eĊ
aren 't
fl uctu
W eĠcanĠ
rev eng
h ereĠareĠ
e. com
25 6
u be
inc re
plac e
U su
iz ationĠofĠ
mir ac
.ĠWh etherĠ
set sĠ
v ast
a ?Ċ
counc il
N iger
e or
journ alĠ
ig m
w ir
Don ald
per -
de grad
I ĠmayĠ
,Ġs inc
air portĠ
checkĠ outĠ
li amentĠ
aĠg un
allĠs ortsĠofĠ
Ġt ear
likeĠ itĠ
Tod ay,Ġ
equival entĠ
eĠtog etherĠ
en larg
zen sĠofĠ
help fulĠ
u es
Ġc ollect
ishĠ andĠ
ou Ġ
& ĠS
h eĠm
adel ph
.ĠS uchĠ
relationship sĠ
.ĠUn der
mom entsĠ
oxy gen
Th em
Ġthought sĠ
S amĠ
shownĠ inĠ
R -
ew ayĠ
getĠ anĠ
arrayĠ ofĠ
bu ff
e.Ġ YouĠ
arr owĠ
honest lyĠ
Br ownĠ
cli entsĠ
else .Ċ
edĠintoĠ aĠ
Ġseem sĠ
ve il
distr ict
noĠ otherĠ
O s
lin earĠ
prote insĠ
How ĠdoesĠ
g ridĠ
you ĠbelieveĠ
usĠ (
eĠwe ight
signific ant
` Ġ
stat es,Ġ
im mer
ari ousĠ
Ġd riveĠ
aĠc oll
G ord
Washing ton,Ġ
oy ot
Ġm is
Rom an
domest icĠ
struct uredĠ
ed "Ġ
urv eyĠ
edĠinĠ anĠ
sl owĠ
is k
doĠ anythingĠ
sup press
mak eĠthem
e.Ġ WhatĠ
ost erĠ
onĠ anyĠ
IĠd onâĢĻt
Th re
atell iteĠ
Univers ity
prot estĠ
Clint onĠ
bur denĠ
n oun
ra ig
wides preadĠ
aĠmon thĠ
es .ĠÂł
e.ĠS omeĠ
Bo ardĠ
you'r eĠaĠ
.ĠR ep
ociet y
. I
dis k
involv ed
V anĠ
ĠĠĠĠ C
p pl
R P
.ĠD r
ook ĠtheĠ
asĠ beingĠ
better .Ċ
mechan icalĠ
Ġsh eĠwasĠ
question .Ċ
Keep Ġ
o j
sign edĠ
conver tĠ
os m
R ayĠ
yĠ orĠ
befor e
feel ĠthatĠ
ill sĠ
consum ersĠ
aliz ation
ach ine
us eĠm
Ġt reatedĠ
avoid ĠtheĠ
L uck
withĠ him
eĠtr ack
er _
Iris hĠ
us eĠandĠ
Ġw on'tĠ
S a
dr ain
.ĠTheyĠ alsoĠ
whereĠ IĠ
D D
ĠthisĠ isĠtheĠ
oryĠ andĠ
C up
W ind
engag ementĠ
Ġd og
pri est
Ġsh ip
t .
Ġser iesĠ
edĠ butĠ
everyĠ year
Ġthought sĠonĠ
A ID
oneĠofĠtheĠ bestĠ
eĠsup port
G un
chem istr
aĠ womanĠ
av idĠ
g g
L ew
kern el
u dĠ
es Ġto
wh ist
wrot eĠ
ch i
For dĠ
ĠT O
writtenĠ byĠ
G S
stat e-
sl id
land sĠ
onĠs aid
constitut ion
sub scrib
on ,ĠandĠ
different i
G ra
L eb
aĠtr ueĠ
four th
AC K
it e,Ġ
return sĠ
m ith
l edĠtoĠtheĠ
De ath
T alk
me al
interestĠ rat
yourĠb usinessĠ
f eas
pl aint
utor ial
ar rog
bank sĠ
x Ċ
ym met
e.ĠTh ereĠareĠ
bur st
pointĠofĠ view
scrip tĠ
lin esĠofĠ
D eep
a ĠthingĠ
n onĠ
lin es,Ġ
hop eĠthatĠ
Jan u
only ĠthingĠ
if ĠthereĠisĠ
se e,Ġ
enĠ (
under min
'sĠ "
T ell
Âł |
allyĠ andĠ
che eseĠ
seg ment
am ousĠ
olut ion,Ġ
Anonym ous
H iĠ
ex agger
ignĠ ofĠ
st umbl
Cont entĠ
aĠtyp icalĠ
we al
Christm as
prov ision
Ġbu ildĠ
polit icallyĠ
lean ingĠ
//// ////
andĠ ofĠ
T reas
StarĠ War
anger ousĠ
Tr ad
hereĠ inĠ
all ĠbeĠ
ent Ċ
S ud
isĠ reallyĠ
us ed,Ġ
.ĠTh inkĠ
re conc
dog sĠ
eĠs ureĠtoĠ
ext endĠ
pt ionĠofĠ
affil i
ip h
hand lingĠ
flo at
asĠ aĠt
relationship ĠwithĠ
augh terĠ
heav en
Vall eyĠ
aĠg lobalĠ
.ĠHeĠ alsoĠ
hav ing
mir ror
ident ifyĠtheĠ
res olutionĠ
and ĠtryĠtoĠ
son Ċ
Committ e
fat igu
eĠinĠ myĠ
youĠcanĠ seeĠ
wher eĠs
ob j
M erc
def ect
qu estĠ
on to
W ild
desc end
Ġc re
Ġm atch
Ġt echnicalĠ
or sĠofĠ
,Ġ b
is co
pred ictĠ
mad eĠm
sh ield
-ter m
ob i
eĠth irdĠ
Constitut ion
M is
. K
9 11
, Ġthey'reĠ
de alsĠ
ĠtakeĠ itĠ
H us
conf identĠ
processĠ isĠ
join edĠ
c end
ich ol
prof oundĠ
open edĠ
T estĠ
e igh
God âĢĻsĠ
fac ult
W ow
F ood
ĠtoĠ helpĠ
Is a
N ickĠ
ar ĠandĠ
platform Ġ
echnolog y
ag nos
.ĠNotĠ onlyĠ
B eg
s ail
canĠ alsoĠbeĠ
under groundĠ
Ph oen
ers,Ġ butĠ
concern edĠ
G -
S ad
aroundĠtheĠ worldĠ
edĠinĠ hisĠ
NotĠ onlyĠ
R eb
ch eat
por ter
w eĠdo
Ġmod elĠ
AC T
bu zz
call edĠaĠ
IfĠ youĠwantĠtoĠ
job ĠofĠ
.ĠD ep
Ġm oveĠ
aĠf act
Indi an
revers eĠ
im prison
.Ġ^ Ġ
ĠtheirĠf amil
sc atter
sl ight
d ub
ent ic
extr actĠ
ĠpercentĠ ofĠtheĠ
dur ingĠaĠ
detail sĠ
push ingĠ
Ġc ateg
iaĠ (
int ak
it arĠ
ell owĠ
Cont ext
he âĢĻdĠ
v et
Th irdĠ
landĠ andĠ
P ent
âĢ ²
aint ain
Ġw alk
N eed
Ġ Answ
F oot
Dan iel
ĠandĠ isĠ
oo oo
knowledg eĠandĠ
un necessaryĠ
cor ner
p ent
Alex and
B -
Ġb atter
.ĠTh oughĠ
ĠtheirĠh om
? )Ġ
thing sĠthatĠ
er iv
Ġs mall
youĠw on'tĠ
feed ingĠ
inĠ fact
N on
car b
ĠĠĠĠ #
B ang
i âĢĻsĠ
N ick
mus eum
Or th
Exc ept
Sun day
ĠsomeĠ ofĠtheĠ
D ark
es,Ġ suchĠasĠ
peac eful
you ĠshouldĠbeĠ
ox ic
am bit
aheadĠ ofĠ
correspond ingĠ
Ġdef in
: čĊ
as sĠandĠ
involv ementĠ
Ġbecaus eĠofĠ
Ġt able
aĠs l
becaus eĠw
H eĠisĠ
h ere'sĠ
e.ĠH isĠ
E c
im on
matt ersĠ
start up
AT ION
om er
ic op
H ad
efficienc yĠ
N ar
veryĠ differentĠ
un employmentĠ
red ,Ġ
R ail
_ P
ug lyĠ
sl av
O liv
L ocalĠ
associ ation
evenĠ whenĠ
Ġtwent yĠ
Ġwork sĠ
g el
.ĠWhenĠ youĠ
G az
prefer enc
H ur
a e
flow ĠofĠ
L iter
itĠ byĠ
Ġw ind
withĠ aĠc
Al anĠ
us ionĠ
T ar
g utĠ
upĠ atĠ
ĠĠĠĠ ThisĠ
ym path
prol ong
e. )Ċ
becauseĠ it'sĠ
t akingĠ
build ingsĠ
c eas
Ġm ut
forĠ whatĠ
Ġth reatĠ
C los
Ġs ourc
Ġc oupl
p add
answer edĠ
Ġbut ton
will Ġhelp
al ĠtoĠtheĠ
I de
usĠ inĠ
Int egr
go v
bas is
ident icalĠ
+ Ċ
frame workĠ
S cal
im et
olog icallyĠ
firstĠ andĠ
esĠ aboutĠ
.ĠInĠaddition ,Ġ
es,Ġ soĠ
calcul atedĠ
N eg
atĠ itsĠ
espec iallyĠtheĠ
and ĠthisĠisĠ
icĠ acidĠ
oph il
ro tt
inv al
H is
erri bleĠ
way sĠofĠ
et tĠ
onĠtheĠ ground
Ġdr aw
g ut
tr ail
lin eĊ
anĠ hourĠ
Ġsh ot
go ĠthroughĠ
wom en,Ġ
ĠĠĠĠ returnĠ
ĠthatĠtheyĠ canĠ
ÂłĠÂłĠÂłĠÂłĠ ÂłĠÂłĠÂłĠÂłĠ
F inalĠ
,ĠforĠ example,Ġ
ept emberĠ
heĠd id
def ensiveĠ
Sp ain
ad ul
IĠdon't Ġthink
Ġs ound
liter aryĠ
en roll
b ic
Ġto il
bas isĠofĠ
destr uction
Comput erĠ
negl ig
,Ġ whyĠ
gr ill
ed .ĠÂł
98 2
aĠl ess
h iredĠ
whol es
rout ineĠ
l ah
Ġsp aceĠ
haveĠ hadĠ
inn esot
l ass
eg ener
res idenc
notĠ inĠ
D ead
Ġ a.m
big Ġb
M asterĠ
Ġcr im
T reat
es s,ĠandĠ
re ak
IĠc ameĠ
edĠ offĠ
plann edĠ
allĠ kindsĠofĠ
enĠ isĠ
IĠw on'tĠ
begin sĠtoĠ
polit ical
at eĠofĠ
Ġtr ap
c ableĠ
K al
informationĠ isĠ
bl owĠ
In sur
Î »
S leep
c ub
cloth esĠ
.ĠI Ġcan'tĠ
Ġtogeth er.Ċ
.ĠI Ġmean,Ġ
.ĠD onâĢĻtĠ
situ ationsĠ
them Ġ
broad cast
eĠ C
mod ifi
out r
fac ialĠ
Ph ill
Con n
Ġmor eĠs
T ayl
sĠinĠ hisĠ
[ ]
ari b
bes id
ext entĠ
omat icĠ
g rief
ste alĠ
less onsĠ
m eĠtheĠ
mon d
lo sĠ
informationĠ aboutĠtheĠ
Person alĠ
adĠ andĠ
orĠd oĠ
enter edĠtheĠ
anc eĠinĠ
ing .ĠThisĠ
orĠs o
subject ĠtoĠ
moreĠthanĠ oneĠ
ant enn
utter lyĠ
plac es
it ,ĠtheĠ
g org
em an
X ML
ing .ĠÂł
syn thes
div ision
Ù ĩ
olog yĠofĠ
en am
point edĠout
ul f
C G
B ear
eth erĠtoĠ
s.ĠTh ereĠ
ĠtheyĠ willĠ
ch unk
Depart mentĠ
. set
Or derĠ
Ġ( theĠ
- yearĠ
anal yst
mat ureĠ
us eĠthem
aĠs eparateĠ
sĠt oo
eĠcas esĠ
M arĠ
Ġdes ignĠ
prevent ĠtheĠ
O reg
eĠd iscuss
qu ery
start ĠtheĠ
L earningĠ
dep thĠ
it nessĠ
s,Ġ withĠ
proced ure
P or
long erĠthanĠ
anyĠ ofĠ
aĠlo v
eĠt each
ch in
vari ablesĠ
In st
Sup port
ridicul ousĠ
.ĠTh anksĠ
ep tingĠ
ann erĠ
heĠw ant
you tĠ
l ex
meas ures
_ Ġ
B an
ensu sĠ
e.Ġ MyĠ
emerg ingĠ
whichĠ isĠtheĠ
Mart inĠ
;Ġ itĠ
vehic le
& #
ĠA c
Micha el
Ġ( andĠ
orĠ inĠtheĠ
Penn sylvan
kitch en
for -
gen re
pr id
youĠd es
g ainingĠ
ar ent
sh eĠc
grav it
ish ĠtoĠ
over ,Ġ
Pr inceĠ
mark etsĠ
_ S
pl as
learn ĠmoreĠ
rupt c
fil tr
-ter mĠ
resourc es
M AN
per ipher
Ġdef initelyĠ
Ch ick
fin iteĠ
G oldĠ
org .
poor lyĠ
r /
N ativeĠ
po olĠ
C it
real isticĠ
ĠĠĠĠ A
elder lyĠ
om aĠ
refug e
.ĠG etĠ
esĠ intoĠ
comeĠ from
complic ated
cr atch
produc eĠaĠ
H ER
log icĠ
âĢĿĠ orĠâĢľ
un comfort
man âĢĻsĠ
connect ionsĠ
ri xĠ
roy alĠ
Ġth inĠ
ang eĠ
F ollowĠ
ityĠ (
YouĠareĠcommentingĠusingĠyourĠaccount.ĠLogÂłOutÂł/ ÂłĠ
.ĠI Ġc
oneĠ ofĠtheseĠ
typ icallyĠ
YouĠareĠcommentingĠusingĠyourĠaccount.ĠLogÂłOutÂł/ÂłĠ ChangeÂł)Ċ
TheĠ onlyĠ
elect ionsĠ
Act iv
Ġwas ĠtoĠ
ann ivers
Stand ardĠ
or âĢĻsĠ
sĠonĠ aĠ
Ġdep art
int est
een ag
.ĠWe 'reĠ
surround ingĠ
.ĠInĠ orderĠtoĠ
public Ġs
goodĠ atĠ
inĠ everyĠ
person ality
conc ert
yĠ S
flow erĠ
hol eĠ
ĠthatĠ itĠisĠ
fl ush
tyĠ Imag
Ġdat a
e.Ġ But
di es
moneyĠ andĠ
[ "
e .ĠThisĠisĠ
doĠ withĠtheĠ
depend sĠonĠtheĠ
,Ġs oĠtheĠ
perhap sĠtheĠ
algorith mĠ
orĠ justĠ
rip Ġ
Ġcom pon
on Ġbe
,Ġth ankĠ
inf ant
v om
Israel iĠ
Ġwrit tenĠ
fact sĠ
cont ainedĠ
among stĠ
bul let
IĠdon'tĠ know
' .Ċ
any Ġtim
Ġc ha
mor eĠw
Ġp ag
Un derĠ
Fore ignĠ
overĠtheĠ lastĠ
represent sĠtheĠ
commerc ial
L P
eĠt alkingĠ
N F
s ...Ċ
Ġt itleĠ
'veĠ beenĠ
reat en
ble ,Ġ
willĠb eĠtheĠ
chron icĠ
ad o
reduc ingĠtheĠ
surg eryĠ
Min ist
asĠ areĠ
PostĠ aĠ
man ualĠ
edĠ aroundĠ
w inĠtheĠ
ut chĠ
con utĠ
.ĠSt ud
be ast
sh irtĠ
graph icsĠ
imag eĠofĠ
condem n
bornĠ inĠ
Ġtak ingĠaĠ
ac yĠandĠ
ig rat
mit ig
Q ur
ind i
ationsĠ forĠ
mur d
M enĠ
thĠcentur y
.ĠIĠ know
ĠthingsĠ likeĠ
accident allyĠ
i kĠ
day sĠofĠ
draw ingĠ
memb ersĠofĠ
.ÂłĠ ButĠ
ular lyĠ
W olf
Mod ul
sol elyĠ
k aĠ
fund sĠ
second aryĠ
bod y.Ċ
.ĠF urthermore,Ġ
on ĠtoĠtheĠ
likely ĠthatĠ
asĠ aĠb
if erĠ
mor al
bed room
j etĠ
problem s.Ċ
aĠfair lyĠ
F ileĠ
m mĠ
introduc eĠ
but terĠ
yĠ withĠ
publish edĠinĠ
ear tĠ
ret riev
level ,Ġ
m ob
C ell
T a
Ġf ight
weĠw antĠtoĠ
ĠtoĠ se
g olf
M att
Ġbl ood
disc ount
strateg y
A ar
allĠ inĠ
administrat iveĠ
m apĠ
y mĠ
m eĠs
Ġb od
Ġb odyĠ
.ĠThereĠ isĠaĠ
Ġm at
Ġthat ĠtheseĠ
h att
represent ativ
Ġt issu
iz ingĠtheĠ
Ġcon clus
reli ev
eĠd ecid
eĠm enĠ
s.Ġ P
Ġ r
in em
Pl ayĠ
p seud
youĠhaveĠ theĠ
N T
th enĠ
i us
alsoĠ knownĠasĠ
notĠ asĠ
98 3
f iscalĠ
present edĠ
eĠt ellsĠ
Un it
al be
IĠd ecidedĠtoĠ
deal tĠ
youĠ feelĠ
Tr ain
g inĠ
copy rightĠ
pl us
Col on
l ott
painĠ andĠ
Ġh asĠtheĠ
holid ay
x t
Or der
m other,Ġ
nextĠ year
hor seĠ
ing Ġtim
h eĠdoesn'tĠ
rob ustĠ
ot al
statist icsĠ
R av
magnet icĠ
S ex
busin ess,Ġ
realĠ estateĠ
Mon eyĠ
p enn
bub bl
just ifyĠ
dro veĠ
res il
K a
col orsĠ
Ġtr anspar
IĠthinkĠ it'sĠ
Jerusal em
combin edĠ
remov edĠ
eleph oneĠ
ThereĠareĠ manyĠ
in ĠthoseĠ
c entĠ
stat u
hyd rogenĠ
andĠ wasĠ
j uni
var iesĠ
e umĠ
ium ,Ġ
âĢĵ ĠandĠ
IĠ needĠ
Fin ancialĠ
eĠdo es
Ġd et
edĠto ĠtakeĠ
res holdĠ
Im per
F ail
po vert
ash ingĠ
R AM
ou btĠ
mer ch
dis gust
. /
rit eĠ
.ĠI mag
T eamĠ
IĠw ereĠ
em i-
question s,Ġ
li dĠ
inc orrect
allĠ yourĠ
appear anceĠ
ech o
fir med
attention ĠtoĠtheĠ
opt icalĠ
dat aĠs
ens e,Ġ
don eĠtoĠ
e.Ġ Sh
inv ok
sav ingĠ
cl am
eĠwas n'tĠ
` sĠ
orr owĠ
TheĠ followingĠ
h aĠ
what so
c ity,Ġ
Att or
eĠc oll
ex itĠ
correct lyĠ
in eĊ
St ew
chem icalsĠ
fant asyĠ
ÃĹ Ċ
sam eĠs
perspect iv
which ,Ġ
contrad ict
ionĠ orĠ
sĠ or
prov en
kid neyĠ
å ¤
manag erĠ
A qu
inĠ forĠ
styl eĠofĠ
dem on
s Ġthrough
beginningĠ ofĠ
isĠ nowĠ
nin et
d aĠ
ather ĠthanĠ
Ġc ellsĠ
B ull
Ġs howĠ
e,Ġ whoĠ
learnĠ howĠtoĠ
,Ġ IĠwasĠ
eĠth ere'sĠ
( notĠ
Ġde alĠ
or rectĠ
las erĠ
connect edĠtoĠ
determin edĠ
it !Ċ
s.Ġ But
All ĠtheĠ
propag and
. T
aĠ wayĠtoĠ
Con vent
dealĠ withĠtheĠ
immun eĠ
Ġpartic ip
youĠareĠ notĠ
h iĠ
.ĠI' llĠ
fair Ġ
insteadĠ ofĠtheĠ
partic lesĠ
util ityĠ
,Ġbut ĠthatĠ
are a.Ċ
eith erĠtheĠ
reasonsĠ whyĠ
re b
e,Ġ whichĠisĠ
Ġm en
oth ersĠareĠ
s .ĠInĠtheĠ
aĠ prettyĠ
ĠthereĠ wasĠaĠ
ĠS T
c abin
chang e.Ċ
Ġthemselv es,Ġ
Ġt ick
.ĠS e
explan ation
electron icĠ
lastĠ night
heard ĠtheĠ
ret iredĠ
G oogl
stri kingĠ
- in
Le agueĠ
consist sĠofĠ
N H
associ ateĠ
below ĠtheĠ
.ĠBe foreĠ
IĠw ork
Pro ductĠ
Ad vent
im ens
Th eat
pro stitut
IĠ startedĠ
depart mentĠ
. '
w elfareĠ
ia hĠ
Ġcont ent
did n't
experienc eĠandĠ
Com m
Ġto ĠtryĠ
enc los
Wor kĠ
O m
S howĠ
art er
ful ly
ĠwillĠ notĠ
gr ayĠ
whereĠ youĠcanĠ
opin ion,Ġ
def eatĠ
% dĠ
yĠ inĠtheĠ
,ĠtheĠ moreĠ
cont empl
m ateĠ
eĠt akesĠ
may b
controvers ialĠ
å Ī
Ġton ight
goĠ backĠtoĠ
PrimeĠ MinisterĠ
expos ureĠtoĠ
Ġw rot
,Ġ TheĠ
og ene
is anĠ
IĠ stillĠ
ask ĠtheĠ
...Ġ andĠ
said .Ġ"
d al
fil es
similar ĠtoĠtheĠ
ne y,Ġ
. ÂłÂłĊ
s --
b arg
F est
withĠ you
requir ingĠ
any on
Ġb all
Rep resent
UT C
ĠandĠ S
work shop
historyĠ ofĠtheĠ
s hĠ
exist enc
P CĠ
yet .Ċ
l ordĠ
ed ĠtogetherĠ
do tĠ
keep ingĠtheĠ
.ĠHow ĠdoĠ
y ll
littl eĠtoĠ
for gott
10 5
iat ric
affect edĠbyĠ
skill sĠ
weal thĠ
not ĠtoĠbeĠ
cons olid
ing ĠtimeĠ
ol ph
and ĠthatĠisĠ
:Ġ R
outĠofĠ hisĠ
alternat iv
understandĠ whatĠ
ĠtoĠ say
,Ġtoo .Ċ
Chang eĠ
K ong
ne ith
Ġwith Ġf
mustĠ haveĠ
y '
rather Ġthan
Cl ark
.ĠHeĠ hasĠ
ĠtoĠ meĠ
,Ġ hasĠ
eĠs etĠ
.ĠL ookĠ
concret eĠ
e.Ġ YouĠcanĠ
power edĠbyĠ
dr aftĠ
G DP
bi om
ad optĠ
cent erĠofĠtheĠ
r az
s ar
DoĠ notĠ
N on-
weĠw er
ever -
Ã¢âĤ¬ âĦ¢
Down loadĠ
fit nessĠ
O tt
.ĠI ĠbelieveĠ
be enĠtoĠ
areĠ toĠ
( F
c ach
is ch
p iss
Cont inueĠ
GoogleĠScholar Ċ
beginn ingĠtoĠ
do esĠthatĠ
work ĠtoĠ
n as
consequ encesĠ
method sĠ
pec ul
play ingĠtheĠ
new sl
wayĠ andĠ
Ġsom etimesĠ
u ousĠ
over .Ċ
charact er,Ġ
st ell
sel ection
R F
orĠ un
but ĠthenĠ
B os
par all
å ħ
. d
Ġb ig
isĠ alwaysĠ
or ĠwasĠ
go ,Ġ
ast ro
mil esĠ
stud ies
s.Ġ WhatĠ
Egypt ianĠ
er Âł
reason ,Ġ
cert ific
Florid aĠ
Sen atorĠ
- H
am us
O B
andĠ un
revolution aryĠ
Jav aĠ
C ham
Ñ ı
visit ingĠ
Ġbr ainĠ
engageĠ inĠ
B eck
itĠ isĠtoĠ
IfĠ you'reĠ
aĠs olidĠ
t ype
howĠ long
equil ib
pon sor
Ġdevelop mentĠ
servic es
car efulĠ
didĠ youĠ
get ĠthisĠ
in ingĠ
accept ĠtheĠ
u y
lic enseĠ
on :Ġ
tern alĠ
Ġf ound
peopleĠwhoĠ haveĠ
L am
Europ e,Ġ
t i
Pres s,Ġ
im b
fl ashĠ
pay mentsĠ
$\ math
emiss ionsĠ
Tr ueĠ
.ĠAd ditionally,Ġ
C omeĠ
Ġtend sĠtoĠ
t ilĠ
se esĠ
spr ingĠ
inĠ mostĠ
edĠup ĠandĠ
H ome
Th oughĠ
ed,Ġ soĠ
del t
rap hĠ
pen altyĠ
idd en
.ĠWhil eĠtheĠ
aĠd el
.ĠS heĠs
ĠthatĠtheyĠ wereĠ
? )
Ġwe ight
F iveĠ
Americ a'sĠ
e- basedĠ
elect ro
Pyth onĠ
emb erĠofĠ
atĠtheĠ t
am ph
readĠ andĠ
edĠ into
up p
Palestin ianĠ
? )Ċ
F amil
d inn
98 1
relyĠ onĠ
nam eĠandĠ
count lessĠ
stop sĠ
enough ,Ġ
Ġt alent
eĠm arket
res erveĠ
Hous eĠofĠ
r awĠ
onĠ earth
ing âĢĿ
aw ardĠ
aĠ yearĠ
if eĠ
fast erĠthanĠ
ynam icĠ
B adĠ
q l
al anc
better ĠtoĠ
Ġtr iggerĠ
def e
otherĠ peopleĠ
N othingĠ
allĠ ofĠthem
orĠ forĠ
doneĠ byĠ
Ġcom fort
hous eĠandĠ
aĠlo tĠofĠtheĠ
sw itchĠ
day s,Ġ
IĠs ay
art sĠ
Z Ġ
on ĠwasĠ
ad vert
muchĠ lessĠ
A x
as ĠtheirĠ
Ġthat 'sĠtheĠ
agg ingĠ
ide a,Ġ
.ĠIĠd on't
Con fig
ĠtheĠsam eĠs
sur eĠthatĠ
ar restĠ
playĠ aĠ
support sĠ
cut t
U G
Ġ y
dis agre
which Ġw
eĠd evic
batt l
publ ication
inĠ mind
R ow
happ inessĠ
infl ation
manufact uringĠ
U til
ed ication
ey Ċ
Br ow
eth nicĠ
cal {
ER Ġ
alleg edĠ
. 'Ċ
capt ureĠ
eĠt op
aĠl os
Ġmy self
S criptĠ
iz eĠofĠ
uf fl
giveĠ itĠ
Wh atĠtheĠ
headĠ ofĠ
manyĠ ofĠ
aĠf ant
Ġmor t
aĠw onder
pon s
.ĠC ar
out Ċ
oundĠ ofĠ
visit orsĠ
Thank sĠforĠ
?Ġ H
R ain
mag azin
Ġto Ġtheir
mat ur
month lyĠ
head ,Ġ
sĠinĠ yourĠ
reach edĠtheĠ
erĠandĠ moreĠ
experienc ingĠ
eĠth inkingĠ
out let
product sĠandĠ
mess age
access ibleĠ
material sĠ
resident ialĠ
hadĠ notĠ
contribut eĠtoĠ
cor ruption
Ġto Ġthis
\ ref{
increas ingĠtheĠ
ans Ċ
it terĠ
MiddleĠ East
inĠtheĠ future
spec ifiedĠ
eĠd eal
represent ĠtheĠ
Ġs oftwareĠ
able ,ĠandĠ
construct ionĠ
aps ul
h atĠ
Mass achusett
U V
our sĠ
.ĠB othĠ
mortg ageĠ
erĠ fromĠ
Tr adeĠ
conv inceĠ
f oldĠ
= \
dis ast
referenc eĠtoĠ
countr y.Ċ
K in
ez uel
p inĠ
vill eĠ
awar eĠthatĠ
Ġm edic
end ur
system .Ċ
good sĠ
cruc ial
S an
B enef
about Ġthem
Ġb adĠ
est ingĠ
weĠs eeĠ
! ÂłĊ
l ang
rub berĠ
o ak
eĠt erm
Ġcom mentsĠ
Mean while,Ġ
.ĠL ook
us er-
im ension
over ĠtoĠtheĠ
Austr ali
h itt
it âĢĻsĠtheĠ
d egreeĠ
ym b
enceĠ isĠ
min orĠ
ures Ċ
connect ionĠ
eĠsp entĠ
ĠĠĠĠĠĠĠĠ Ġ
Y og
do om
y .Ġ
es 'Ġ
house hold
understandĠ whyĠ
hadĠ alreadyĠ
every Ġtim
c ad
mag icĠ
possibl eĠthatĠ
s ĠthroughĠtheĠ
ing tonĠ
goĠ onĠ
echnolog icalĠ
impactĠ onĠtheĠ
sm anĠ
ator Ċ
oll Ġ
writ ersĠ
f um
IĠ still
Al g
great erĠthanĠ
er elyĠ
between ĠtwoĠ
plac eĠandĠ
her d
ag eĠs
narr ativ
D ocument
N G
,ĠandĠ hisĠ
.ĠWith outĠ
un lock
Ġc ertainĠ
How everĠ
prec iousĠ
( d
O il
conserv ativ
Ġtool sĠ
is ion,Ġ
Ġs ett
Doct orĠ
Jas onĠ
s.Ġ YouĠcanĠ
âĢĻ ĠandĠ
M it
forĠs omethingĠ
batt le
S -
ĠthatĠ youĠcanĠ
D iffer
rec ru
eĠm uchĠ
createĠ anĠ
popul ationĠofĠ
el ep
weĠ getĠ
Cr im
yourĠm ind
link sĠ
ph one
with ĠtwoĠ
Pro test
ash edĠ
k m
aliz ationĠ
th ereĠ
W ater
s,Ġ butĠtheĠ
point ĠtoĠ
youĠd idĠ
, ĠtoĠbeĠ
afford ableĠ
U TĠ
explan ationĠ
M SĠ
add edĠtoĠtheĠ
investig ation
aĠsaid ...Ċ
TheĠ nextĠ
andid ateĠ
major ityĠofĠtheĠ
p enĠ
esĠandĠ otherĠ
rit ual
wor nĠ
Phil adelph
el p
ĠwithĠ yourĠ
in hal
op positionĠ
impl icationsĠ
no ther
person ,Ġ
iceĠc ream
e âĢ¦
includ e:Ċ
growth ĠandĠ
intoĠ account
est ro
,ĠandĠ isĠ
will ing
ately ,ĠtheĠ
pickĠ upĠ
esĠ canĠbeĠ
reg n
Ġbr oughtĠ
lookingĠ forĠaĠ
now ad
e.ĠTh eseĠ
choos ingĠ
T ech
afford ĠtoĠ
Lib er
ynam ic
riv al
Christop herĠ
= >
.ĠMostĠ ofĠtheĠ
ex it
Ġ Q
wealth yĠ
equ ityĠ
earli estĠ
ad jac
r amĠ
Colleg eĠ
ter ror
andĠ areĠ
do i
S oĠtheĠ
hum id
evalu ateĠ
" WhatĠ
Ġbas edĠ
plac ementĠ
expl ainingĠ
R a
.ĠI sĠ
.ĠS tr
exclus ivelyĠ
Lat estĠ
whichĠ heĠ
?Ġ If
execut ion
form ation
model sĠ
over look
.ĠIt'sĠ aĠ
D id
I X
I ĠtookĠ
ch uck
neverĠ seenĠ
edg eĠofĠtheĠ
p av
v enu
anim als
F ortun
.ÂłĠ AndĠ
eĠweĠ areĠ
choos eĠtheĠ
ing er
giveĠ aĠ
_ m
T er
key boardĠ
US B
L D
Lo ad
IĠw ouldĠbeĠ
wat er.Ċ
J onesĠ
aĠh om
ind igen
/ *
in a,Ġ
b ang
V an
E as
r app
ers ?Ċ
h ireĠ
Mon day
Tai w
Ass ist
Bel g
pers ecut
manĠ whoĠ
il k
eĠtr ad
rac istĠ
TheĠ otherĠ
endingĠ onĠtheĠ
n -
Ġtru thĠ
You ĠshouldĠ
Ġto ĠtheseĠ
mus ic,Ġ
accur acyĠ
Att ribut
ne u
includ esĠtheĠ
ĠA ug
ĠyearsĠ agoĊ
yourĠm indĠ
op ed
potat o
aim edĠatĠ
justĠ beĠ
Ġs o,Ġ
not ionĠofĠ
bul kĠ
Quest ionĠ
SoĠ whatĠ
And re
perc eiveĠ
() .
edĠ her
Ġcomment :Ċ
headĠ ofĠtheĠ
ES S
grat ul
book s,Ġ
away ĠtheĠ
report ingĠ
Ab solut
T erm
un ionĠ
u Ċ
eĠtheyĠ wereĠ
gam e.Ġ
fre ak
befor eĠs
act icalĠ
awayĠ andĠ
pec ial
New sĊ
eĠto ĠtakeĠ
wor ri
ĠinĠ myĠ
workingĠ withĠ
Wis cons
pregn ancyĠ
availableĠ forĠ
Som etim
edĠbyĠ hisĠ
Ġyear s.Ċ
ch oseĠ
Ġm arri
orient edĠ
d ull
at a
stand sĠ
echan icalĠ
erĠ S
depress ion
coupl eĠ
M ol
h ob
critic ism
t each
ing ;Ġ
m eĠw
?Ġ IĠ
aĠc arĠ
pl agu
hol der
comp ell
yet ĠtoĠ
aĠb ad
object iv
arg etsĠ
th eseĠ
Ġw antĠ
Econom icĠ
ar Ċ
product s,Ġ
class ifi
vi ableĠ
.ĠInĠ otherĠwords,Ġ
yourĠh eadĠ
likeĠ "
aĠl ightĠ
rec re
sud den
IĠw ishĠ
Ġtri b
placeĠ inĠtheĠ
vect or
Ġ amĊ
Ġcol or
á ½
form ingĠ
Wor kingĠ
Ġm ap
nightĠ andĠ
ä ½
er toĠ
br ingĠtheĠ
Ġf uel
qual ifyĠ
w rest
onĠ ourĠ
genuin elyĠ
for g
âĢĻ ,Ġ
approv alĠ
Th en,Ġ
Kev inĠ
go Ġthrough
wh eatĠ
guyĠ whoĠ
r r
promot ingĠ
Cont ribut
g t
fr audĠ
cur veĠ
oth ersĠtoĠ
P ri
Ġ atĠtheĠ
scient ist
ref ersĠtoĠtheĠ
vers ionsĠ
ph er
Sh ort
ack l
air craft
law ,Ġ
at eĠtheĠs
con structĠ
I'mĠ justĠ
read sĠ
ent ityĠ
ĠtoĠt urn
anti oxid
anĠ wasĠ
olec ularĠ
edĠ ofĠtheĠ
b ail
g ad
g ay
dev i
aĠc all
ind eed
install edĠ
Str uct
A ri
.ĠG ener
ind ulg
add edĠtoĠ
withĠ aĠm
pharm ac
WorldĠWarĠ II
i or
aĠt ri
aff ick
.ĠAd dĠ
what ĠtheyĠareĠ
,âĢĿ ĠsaidĠ
recip eĠ
eĠc ook
it ionĠisĠ
.ĠI ĠcouldĠ
profess orĠ
cin em
N ether
oper ationĠ
which ĠmeansĠ
forĠ exampleĠ
Wh o
Rec omm
mor eĠtim
drug sĠ
K u
eĠth ings
rec ent
ingĠ him
.ĠS oĠtheĠ
A bra
li entsĠ
Prov id
.ĠItĠ isĠnotĠ
degre eĠofĠ
produc edĠbyĠ
" )Ġ
it ionĠofĠtheĠ
Ġc ycl
I ĠandĠ
mom ent,Ġ
in iĠ
â Ķ
itĠ doesĠnotĠ
a ĠtotalĠofĠ
Ġd iscover
Ġt ort
ish ,Ġ
un -
Pr oĠ
aĠb ar
different ĠtypesĠofĠ
itĠ shouldĠbeĠ
Al t
pl aus
e,Ġ itĠisĠ
mag icalĠ
On t
p ist
d Ċ
E SĠ
bi ot
n aus
ĠtheĠ nextĠ
andĠ whatĠ
aĠf amil
discuss edĠ
Emp ire
ri eveĠ
overĠ hisĠ
" ĠofĠ
ig erĠ
referr ingĠtoĠ
over lyĠ
I'mĠs ureĠ
b owĠ
envel op
own sĠ
goingĠtoĠ getĠ
urg eryĠ
p ink
TheĠ T
mor e.Ġ
Th eirĠ
dynam icĠ
mad eĠmeĠ
effect iv
) .Ġ"
all ĠhisĠ
.ĠUnfortun ately,Ġ
Con s
tim e
fing er
aĠ andĠtheĠ
as ĠthoughĠ
av ingsĠ
co alĠ
system ,Ġ
shown ĠthatĠ
youĠ hadĠ
Char lieĠ
form ationĠ
e- to-
light ,Ġ
Ġd oc
cre ationĠofĠ
d reamĠ
.ĠV eryĠ
M em
carriedĠ outĠ
ers âĢĻĠ
_ D
am ate
blackĠ andĠ
medi a,Ġ
ment allyĠ
E dĠ
and Ġtim
peopl eĠd
und red
eĠcan âĢĻtĠ
distribut edĠ
à¤¾ à¤
forĠ anotherĠ
rat io
Epis odeĠ
n arc
You ĠwillĠ
outĠofĠ myĠ
es .ĠButĠ
character isticĠ
left -
deathĠ ofĠ
cre ation
appear edĠ
for ĠmoreĠthanĠ
esĠ itsĠ
learn ing
e eth
afterĠ hisĠ
Ġb estĠ
ard ,Ġ
Is ĠthisĠ
< aĠhref="
ingĠ out
ed ĠthemĠtoĠ
regul ationsĠ
lik eĠd
eĠm ethod
attor ney
Net workĠ
indic ator
issu e.Ċ
97 5
pet ition
ant Ċ
Det ro
es ĠthanĠ
NewĠ Jer
se am
Tal ib
lux ur
withĠ anyĠ
c i
chang edĠtheĠ
il it
a '
G OP
L istĠ
ymptom sĠ
A gre
Cathol ic
earn edĠ
For ĠmoreĠ
iesĠ (
iveĠ t
97 3
committ edĠ
4 50
B P
ibl eĠandĠ
aboutĠ herĠ
chang esĠinĠtheĠ
gameĠ isĠ
.ĠAll ĠtheĠ
struct ureĠofĠ
action .Ċ
rec ently,Ġ
gener ationĠofĠ
describ edĠasĠ
o int
ofĠth reeĠ
result s.Ċ
la un
S ett
poss essĠ
assess mentĠ
or Ġcon
s. [
alsoĠ hasĠ
see ingĠtheĠ
Ġthe oriesĠ
ly mph
orr y
l ump
personĠ isĠ
) ĠwereĠ
M eĠ
eĠsh op
fre elyĠ
% Ġ(
str ap
child hood
everth eless,Ġ
int ro
join edĠtheĠ
M ain
Ġp red
ick yĠ
what ĠtoĠdoĠ
.ĠWh ich
Ġ Y
for Ċ
aryĠ ofĠtheĠ
overwhelm ingĠ
cl iff
ap ac
claim ĠthatĠ
atĠ a
Mod elĠ
aĠh ardĠ
charg ingĠ
und ers
G A
R ockĠ
h ittingĠ
arth rit
overĠandĠ overĠ
li z
Ġthre eĠs
it -
expl icitĠ
,ĠtheyĠ haveĠ
ar tĠofĠ
bu yĠtheĠ
enh anceĠ
mar in
es,Ġ includingĠ
eas il
p aysĠ
inĠtheĠ nextĠ
Ġtrans f
M LĠ
R aj
yst alĠ
Ġtrans mitt
blood yĠ
soĠ youĠcanĠ
wish ĠtoĠ
lat ter
,Ġ (
no deĠ
itĠwasĠ notĠ
m essĠ
freedom ĠofĠ
Ven ezuel
s.Ġ On
cl everĠ
suppl i
Â µ
andĠt ookĠ
beĠs urpris
breath ingĠ
L ay
weĠd onâĢĻtĠ
accusedĠ ofĠ
w onĠtheĠ
,Ġth en,Ġ
everyoneĠ isĠ
ãĢ Ģ
Ġf oodĠ
step sĠtoĠ
um ĠandĠ
Ġpat tern
wasĠ inĠ
p uss
ĠĠ Ċ
Childr enĠ
Ġto y
.ĠM r
growth ĠofĠ
aĠm ag
And ĠthenĠ
Obam a'sĠ
methodĠ ofĠ
eĠs ervic
comeĠ upĠwithĠ
onĠ oneĠ
Ant i-
moreĠd etail
orĠs ometh
96 8
l un
.ĠD idĠ
com ing
ities ĠtoĠ
math ematic
r entalĠ
wor ry
st ake
hous esĠ
.ĠTh ough
am a
o tĠofĠ
st unn
past ĠtheĠ
s onĠandĠ
conc eption
conv iction
ch im
prevent ingĠ
ind exĠ
mod ifiedĠ
require mentĠ
ed /
sometim es
] ,Ċ
v id
WallĠ StreetĠ
Ġh omeĠ
Any way,Ġ
interest edĠ
aĠlittl eĠs
by ĠtheĠs
air plan
writ ing
yourĠc ar
Ch ild
hand le
... .Ġ
Th ere
Ġtak en
er ?Ġ
Ġcal cul
ever ĠtheĠ
artĠ andĠ
St evenĠ
comesĠ fromĠ
altern ateĠ
week ,Ġ
esĠ whoĠ
weĠ needĠ
chang e
mad eĠinĠ
fut ure,Ġ
likeli hoodĠ
Develop mentĠ
Writ tenĠ
emperat ure
inĠ whichĠtheĠ
pal m
Ġf lo
compar is
Isra eli
N FL
Ab str
paramet ersĠ
at oĠ
ec omeĠ
go ingĠtoĠtheĠ
v ocalĠ
occ erĠ
lin eĠandĠ
phys icsĠ
verb alĠ
edĠ someĠ
el iteĠ
Ex press
aĠd ailyĠ
ĠD O
S ix
room .Ċ
s old
at eĠthisĠ
th roughĠ
aĠsmall erĠ
omat o
conscious nessĠ
way ĠtoĠtheĠ
Ġbuild ingĠ
struct ure,Ġ
S now
D ian
:Ġ IĠ
Ġmed icalĠ
clos erĠ
key board
N atur
al v
edĠ P
follow ing:Ċ
wer eĠtoĠ
esĠ herĠ
ĠP MĠ
WhiteĠ HouseĠ
c ockĠ
wis e,Ġ
K ath
.ĠA reĠ
pres sĠtheĠ
re press
categ oryĠ
R out
forĠm e,Ġ
Ġdat abas
ast on
which ĠmayĠ
Ã £
at edĠthatĠ
D ate
man .Ċ
eĠc ell
review Ċ
pr oneĠtoĠ
Ġtri al
ities ĠthatĠ
radi ation
Ġm e,Ġ
not ableĠ
equip p
mightĠ notĠ
decid eĠtoĠ
yet ,Ġ
careĠ aboutĠ
minut eĠ
initi ativ
b eĠsh
lookĠ lik
imp uls
post sĠ
Ġhigh erĠ
u kĠ
ignific antlyĠ
call ĠtheĠ
Big ĠB
Ġdem onstr
aĠs ocialĠ
s ed
provid edĠbyĠ
reat mentĠofĠ
instr umentĠ
just ifi
gu is
p endĠ
st aysĠ
enc ies
giveĠ usĠ
etern alĠ
S etĠ
R C
b illion
ic -
bure auc
th ird
un fold
Ġs af
andĠ itsĠ
isĠ oneĠofĠtheĠ
r ushĠ
S umm
p _
Ġhow ĠtoĠ
mon etaryĠ
aĠh or
areĠtheĠ mostĠ
ĠĠĠĠ AndĠ
whol eĠs
autom atedĠ
Ġto .Ċ
on est
cer emon
iĠ inĠ
desk top
.ĠF orĠm
numb er,Ġ
areĠ inĠ
Z h
Ġtell ĠtheĠ
Ed ward
EL L
aĠm ovi
InĠ fact,Ġ
eith er.Ċ
ro otsĠ
John nyĠ
befor e.Ċ
bod yĠofĠ
How ĠdidĠ
eĠtod ayĠ
e.Ġ âĢľ
list sĠ
conven ienc
serv ingĠ
happ ilyĠ
watch ingĠtheĠ
ad i
app yĠ
sh ockĠ
less onĠ
return ĠtoĠtheĠ
urv ey
s âĢ¦
=Ġ '
pass iveĠ
Journ alĠofĠ
W AR
appropri at
happ iness
ag ram
Sp id
form ationĠofĠ
s even
ationsĠ (
birth dayĠ
Ġc lear
beĠs omeĠ
oppon entĠ
anĠ openĠ
Qu ick
dam nĠ
ev olutionĠ
gener ator
96 9
open lyĠ
investig ationĠ
y an
L earnĠ
esĠ willĠ
.ĠIn ĠmyĠ
evenĠ if
ifĠs omeoneĠ
seeĠ itĠ
placeĠ whereĠ
wher e.Ċ
s,Ġ especiallyĠ
ol oĠ
non ym
ident ifyingĠ
buf fer
help ĠbutĠ
person âĢĻsĠ
har mĠ
le atherĠ
kill erĠ
rout eĠ
bet ray
res ur
comp ellingĠ
ofĠth is,Ġ
al entĠ
Ġto Ġthink
withĠ oneĠ
any ĠtimesĠ
Ġm al
Ġp ick
itâĢĻsĠ aĠ
and yĠ
aĠm uchĠ
od el
weĠ justĠ
Elect ron
P ageĊ
Ġconnect ion
s ir
gener icĠ
Ġto ĠthemĠ
Stat us
itiz ensĠ
expend it
dat aĠandĠ
r yingĠ
ap eĠ
rid ingĠ
information ĠtoĠ
anno yingĠ
back ĠtheĠ
ed .ĠButĠ
fr idg
sk ept
only ĠtwoĠ
aboutĠ how
immedi at
justĠ aĠfew
isĠtheĠ firstĠ
lawĠ enforcementĠ
coll ap
minim umĠ
Ġb irth
aĠs cen
.ĠH avingĠ
anom al
ĠĠĠĠ B
97 2
Ġk m
orpor ateĠ
cholester ol
Ġs erviceĠ
iz erĠ
pair ĠofĠ
D iction
ent eringĠ
pleas ureĠ
Cl ar
rec allĠ
dis cre
IĠ knewĠ
aĠm emberĠofĠtheĠ
ef initelyĠ
Ġthey âĢĻveĠ
s,Ġ itĠisĠ
Ġt all
whenĠ itĠisĠ
aĠm aj
Introduc tion
proc essĠandĠ
Sup portĠ
longĠ run
cos m
âĢľ t
dead lyĠ
referredĠtoĠ asĠ
H ann
sex ual
Ġs he
rat e,Ġ
m ereĠ
eĠth eĠworldĠ
e, âĢĿĠ
pok eĠ
ab road
ersĠ onĠ
exc us
aĠm ean
alway sĠtheĠ
paramet erĠ
review sĠ
Muslim Ġ
untilĠ itĠ
ĠtheirĠf irstĠ
ĠinĠ hisĠ
indic atesĠ
reveal edĠ
Ġtheor eticalĠ
eĠs eeĠ
ac oust
ersĠ andĠtheĠ
Ex erc
controlĠ ofĠtheĠ
Gab ri
Ġs ideĠ
fr action
oper ationalĠ
T es
inĠt ouch
intoĠ herĠ
allĠtheĠ otherĠ
C anc
isĠ "
,Ġ someĠ
bul b
,ĠtheĠ firstĠ
.ĠJ ust
orĠm aybeĠ
employ erĠ
rev ealsĠ
attach edĠtoĠ
us ageĠ
Ġhe av
sp inĠ
nor thĠ
him ĠthatĠ
cas es
error istĠ
aĠlittleĠ moreĠ
eĠmustĠ beĠ
ex pon
,ĠandĠ otherĠ
went y-
haveĠ thatĠ
V C
y )Ġ
9 45
N i
Ġp ull
activ ity,Ġ
S ab
ar eĊ
o .
fer ment
account sĠ
Ther ap
ingĠ in
ins ertĠ
Ð ¼
c overĠtheĠ
prob abilityĠ
allĠ ofĠthisĠ
Tr uth
judg mentĠ
help .Ċ
judg ment
A ward
C urrentĠ
sĠinĠ anĠ
97 6
moveĠ toĠ
can'tĠ beĠ
es ign
Ġc odeĠ
o ist
ĠtheĠ onlyĠ
I'dĠ likeĠtoĠ
compl ement
] Ġ(
St illĠ
else whereĠ
er a
Fr ance,Ġ
moreĠorĠ lessĠ
' d
W omen
redĠ andĠ
advant agesĠ
.ĠTh eĠtwoĠ
no b
ickĠ andĠ
ott edĠ
Get tyĠImag
Pl ug
avor it
app sĠ
mod eĠ
F ut
reat iveĠ
ax isĠ
Jon athanĠ
Arch iv
Ġp oll
function al
thĠcentur y,Ġ
fav orĠofĠ
around ,Ġ
itsĠ areĠ
.ĠYou ĠshouldĠ
.ĠL e
G a
ar ct
with Ġw
WhyĠ isĠ
assum ingĠ
c .
Ġ gram
first ĠtwoĠ
S oul
prepar edĠ
ship sĠ
und oubt
eachĠ year
decid edĠ
e,Ġ butĠtheĠ
forĠs uchĠ
ing,Ġ soĠ
10 2
= Ċ
us ic
or aĠ
Ġc am
y "Ġ
O ld
Ġc urrentlyĠ
Ġpar tĠofĠ
hear tĠofĠ
depart ment
G D
ay Ċ
Ġwe ak
fet ch
t w
A mĠ
ifĠ youĠw
B uck
forĠs oĠ
Numb erĠ
onĠ aĠb
des ireĠ
it .Ġ
new s
sequ enceĠ
distr act
ch rist
Â §
Bit coinĠ
Ġm ar
highĠschool Ġ
B road
n utĠ
nat ure,Ġ
youĠcanĠ doĠ
this ->
# Ċ
ug arĠ
onĠ itĠ
wouldĠ beĠtheĠ
cur iousĠ
fur th
happen sĠtoĠ
aw ĠtheĠ
remov ingĠ
esĠ wasĠ
Ġbl u
Ar k
inĠ particular
Ġtim eĠisĠ
forĠs omeoneĠ
creditĠ cardĠ
solut ionsĠ
giv ingĠtheĠ
eĠcas es,Ġ
bes idesĠ
.ĠT o
T err
ari es,Ġ
ationsĠ inĠtheĠ
- bas
axim um
Ġwith ĠherĠ
along sideĠ
aĠm is
ans asĠ
Ġh ost
m ang
A str
A w
eĠaĠ few
Ġs ocialĠ
wher everĠ
iz ard
eĠthat âĢĻsĠ
k ar
charg eĠofĠ
A SĠ
F eed
imilar ĠtoĠ
w ishĠ
SaudiĠ Arab
C redit
gas ol
enhanc ementĠ
orang eĠ
ast edĠ
a ire
orĠ anyĠ
sh ir
Be ij
R uss
nutrit ionalĠ
Ġs olution
int ensiveĠ
endedĠ upĠ
children .Ċ
went yĠ
Ġ Ø§ÙĦ
be achĠ
flo atĠ
element sĠofĠ
ang ular
rec urr
Ġtak esĠtheĠ
hot elĠ
unfortun atelyĠ
%dĠ bloggersĠ
ident ical
powerĠ ofĠtheĠ
dec k
achiev ement
I c
An imalĠ
Cl oudĠ
mix edĠ
passion ateĠ
,ĠandĠ evenĠ
irc uitĠ
buildĠ aĠ
chem istryĠ
,Ġ ofĠ
summar y
%dĠbloggersĠ likeĠthis:Ċ
h enc
arg oĠ
afterno on
afraidĠ ofĠ
ill usion
ism Ċ
Tim e
entur yĠ
stor mĠ
m app
th eĠd
iz eĠofĠtheĠ
Ġway sĠtoĠ
beforeĠ itĠ
How Ġmuch
F un
dec l
replac eĠtheĠ
inv ari
bad lyĠ
l ur
forĠtheĠ firstĠtim
over comeĠ
]Ġ TheĠ
B urn
.ĠTheĠs econdĠ
apart ment
government ĠtoĠ
Ġ Âł
is ha
hard -
bl ur
ran kingĠ
Mr s.Ġ
es "Ġ
ĠthatĠ hadĠ
aĠg en
Im age
E ag
i as
friendĠ ofĠ
Ġb oy
aboutĠ it,Ġ
will ĠtakeĠ
emb od
IĠdidĠ notĠ
aĠsing l
ro th
notic edĠthatĠ
á »
ob ed
level .Ċ
direct oryĠ
read ĠthisĠ
class ic
T M
Ġdis play
Instag ram
ityĠ inĠtheĠ
cr yp
e,Ġ notĠ
arr yingĠ
Lad yĠ
p hĠ
areĠ veryĠ
m im
ain 'tĠ
Ġback ĠtoĠ
intr ins
econom y,Ġ
Jim myĠ
process edĠ
- freeĠ
part ies
.ĠThatĠ wasĠ
ĠtellĠ you
m ock
week lyĠ
96 7
befor eĠandĠ
problem ,Ġ
ia ,ĠtheĠ
Rel eas
-s hap
struct ureĠandĠ
7 50
o sĠandĠ
or ialĠ
dev il
aĠt re
j azz
aĠg re
.ĠIf ĠweĠ
plent yĠ
beĠtr u
Indi a,Ġ
T B
ak aĠ
Ġtr ait
Phil ip
Ġc ardĠ
osc ill
C lear
T able
stre etsĠ
jav a.
c ov
d ock
% .Ċ
ĠD ef
intern ation
pe ech
.ĠYou 'reĠ
Vers ion
U IĠ
esĠ withĠtheĠ
over se
Mic hel
min er
M ail
Ġcont actĠ
, ĠtryingĠtoĠ
for Ġcon
firm lyĠ
weren âĢĻtĠ
high erĠthanĠ
.ĠFrom ĠtheĠ
ĠtheĠs urfac
ha unt
acc eptingĠ
.ĠIĠd idĠ
enc il
part ition
Ġk il
sh eep
ut in
( f
eĠsomeĠ ofĠtheĠ
iesĠ inĠtheĠ
,Ġ asĠwellĠasĠ
sup ervis
rock etĠ
Pol iticalĠ
increas esĠtheĠ
k itt
id el
M ult
Dat e:Ġ
k idd
system ĠisĠ
assist anceĠ
ev apor
anonym ousĠ
cook ingĠ
product iv
some on
&nbsp ;
str at
( s)Ġ
Ġs ec
!Ġ IĠ
.ĠY our
break sĠ
saw ĠtheĠ
fil e
.ĠEvery thingĠ
aĠmom entĠ
ocr atĠ
ip pedĠ
seeĠ howĠ
storyĠ isĠ
,Ġth erefore,Ġ
Ġse e
hyp oc
es ,Ġt
Ġcor rect
automat ic
Ġto :Ġ
eĠtr ain
on Âł
ĠĠĠĠ âĢ¢
F ireĠ
fac esĠ
en 'tĠ
eĠtru thĠ
respir atoryĠ
an atom
canĠbeĠ usedĠtoĠ
du eĠto
min ist
worldĠ andĠ
P ast
L S
itĠ doesnâĢĻtĠ
St oryĠ
stream ingĠ
flu x
b ought
Tr avel
wonder fulĠ
comeĠ outĠ
pl y
you ĠtakeĠ
et ĠtoĠ
Ġtim es.Ċ
Ġt ech
gluc os
ph i
d ear
Ã ĥ
co achĠ
âĢĶ ĠandĠ
person sĠ
( ),Ġ
amaz ing
Ġto ĠtakeĠtheĠ
willĠ neverĠ
has nâĢĻtĠ
s ill
ationĠ fromĠ
initi ativeĠ
larg eĠs
wher eas
yourĠ childĠ
WhenĠ itĠ
probablyĠ beĠ
eĠwouldĠ haveĠ
GoogleĠ photoĊ
Addition alĠ
descri beĠtheĠ
availableĠ inĠ
ingĠ your
you thĠ
youĠ feel
IĠw rot
includ edĠinĠtheĠ
L amb
valu e,Ġ
edĠs everalĠ
ed Ġthis
å ®
issu es.Ċ
random lyĠ
ed .ĠâĢľ
Ġto bacc
} ^{
eĠm eas
.ĠS econd
Ġcap ac
Y e
willĠbeĠ ableĠtoĠ
L Y
ersĠ atĠ
Ġs c
y eĠ
C el
writ t
</ div
V -
S ocial
s.ĠTh es
Thank s
stat e.Ċ
don e.Ċ
andĠt ell
Ġb omb
him ĠtheĠ
Ġt itle
erĠ onĠ
giveĠ up
God ,Ġ
Ar ct
achiev edĠ
( k
:Ġ Âł
grav ityĠ
Anth onyĠ
ToĠ beĠ
spac e,Ġ
P u
Ġc reditĠ
manyĠ differentĠ
âĢ Ĭ
bran chĠ
s rc
Cl oud
aĠm ult
group s,Ġ
In depend
s ĠthenĠ
c _
plann ingĠtoĠ
.ĠTh rough
tr ackĠ
awk wardĠ
i' mĠ
s burg
convers ationsĠ
yourĠc reditĠ
AT Ġ
shap eĠ
del ayĠ
uccess fullyĠ
chick en
charact ers,Ġ
ing ĠthanĠ
)Ġ inĠtheĠ
whenĠ I
ish esĠ
fac edĠ
nutrit ion
i ewĠ
percent ageĠ
non eth
ÂłÂłÂłÂłÂłÂłÂłÂł ÂłÂłÂłÂł
forĠ otherĠ
said ĠtoĠ
u int
el e
:Ġ You
fill edĠ
ed ium
" WeĠ
aĠbre ak
se eĠthisĠ
version sĠofĠ
inevit ablyĠ
graph icĠ
L uk
eng u
?Ġ DoĠ
Res erv
becaus e,Ġ
.ĠF ollow
IĠknow ĠthatĠ
pl e
Ġh ealthĠ
Ġthank sĠtoĠ
' ;Ċ
bind ingĠ
et sĠandĠ
rightĠ nowĠ
Ġthough tĠofĠ
g one
gl anc
alĠ (
str and
canĠ getĠ
ed,Ġ orĠ
fac ilityĠ
Ġs hap
.ĠWell ,Ġ
ens ĠtheĠ
at i
aĠc ountryĠ
ell edĠ
risk sĠ
understand ingĠtheĠ
arbitr aryĠ
lip sĠ
ul Ġ
pl edg
not -
F lo
Ġth ousand
ĠandĠ C
us elessĠ
ing r
pract ical
est eem
arr ingĠ
embr y
R educ
ThereĠ wereĠ
Ġm ic
ystem Ġ
ong ueĠ
w edd
liv esĠinĠ
effort sĠ
Ġthat ĠtheirĠ
yl Ġ
dis pers
strong estĠ
get sĠtheĠ
:Ġ aĠ
j son
gam bl
brok en
Comment sĊ
stor edĠ
contr astĠ
itĠ fromĠ
pat entĠ
mean sĠtoĠ
Ġsecond sĠ
es .ĠA
.ĠIĠw antĠtoĠ
? ?Ċ
lik eĠmyĠ
sourc esĠ
D J
ĠS chool
e )ĠandĠ
Ul tr
appl iesĠtoĠ
eĠw atch
s.Ġ YouĠ
avoid ingĠ
arrang ement
gent lem
intention allyĠ
import anceĠ
M otherĠ
anĠ AmericanĠ
won'tĠ beĠ
' );Ċ
Âł isĠ
oft enĠtheĠ
aĠ varietyĠofĠ
r ational
Ġcour s
ingĠ intoĠtheĠ
ar e.Ġ
quiet lyĠ
K rist
ofĠthes eĠs
; )Ċ
-- -Ġ
becomeĠ moreĠ
forec ast
j unk
forc ingĠ
should erĠ
con qu
ur faceĠ
ust omĠ
Harv ardĠ
X P
axim umĠ
.ĠIâĢĻ m
- fre
l ash
mayĠ alsoĠ
enc eĠtoĠ
imp ed
× Ļ
air ĠandĠ
.ĠN ewĠ
support edĠ
mis er
,ĠbutĠ heĠ
conf ess
ĠmakesĠ itĠ
Ġcl oseĠ
W T
ju ven
herĠ ownĠ
someth ing,Ġ
inĠt urnĠ
cas e,ĠtheĠ
weĠd idĠ
or Ġtwo
av our
very,Ġ veryĠ
s.Ġ ForĠexample,Ġ
show sĠthatĠ
RE S
human ityĠ
Cho os
D all
,Ġ itsĠ
expect ationsĠ
u v
H allow
Ġwor th
PostĠaĠ CommentĊ
0 80
qual ifi
first ĠthingĠ
es âĢĻ
ag raĠ
.ĠIn deed,Ġ
att le
B ible
Vis ualĠ
umb er
sil verĠ
Ġpat ient
John sonĠ
s,Ġ IĠ
un expectedĠ
wer eĠsoĠ
e, âĢĿ
infect edĠ
eĠm ess
For tĠ
ĠtheirĠh ead
r enderĠ
ĠĠĠĠ IfĠ
governmentĠ andĠ
practic eĠofĠ
produc tĠofĠ
alleg edlyĠ
anyĠ kindĠofĠ
com ingĠtoĠ
abil ity.Ċ
ĠtoĠ re
ed ĠtheyĠ
Sh op
load ingĠ
Ġl b
an ĠtheĠ
aĠt onĠofĠ
different ly
" ItĠ
Ġword sĠ
eb od
ĠtoĠs olveĠ
t alk
select edĠ
onĠ P
as sh
satis fi
hasĠ notĠbeenĠ
vac ation
emotion allyĠ
appl eĠ
ThatĠ wasĠ
Rom neyĠ
help ĠofĠ
mov edĠtoĠ
children 'sĠ
never th
judic ialĠ
Anc ientĠ
less .Ċ
ed ."Ċ
handĠ andĠ
gr aveĠ
Ġbetter ĠthanĠ
follow sĠ
out Ġthere
aĠc ell
high er
est Ċ
on s,Ġ
asĠ isĠ
be haveĠ
bo ol
res hold
atĠtheĠ top
97 7
amb ition
. L
susp ic
iz ation,Ġ
lik eĠtheĠs
,ĠandĠ inĠ
Ġb yt
p u
Un lessĠ
sor ryĠ
easi estĠ
dram atic
Ġs iteĠ
ĠisĠ alsoĠ
ic ĠtoĠ
countr y'sĠ
callĠ itĠ
had owĠ
E O
form att
ent in
wait ingĠforĠ
oper atorĠ
host il
Orig inalĠ
O rac
Ġme etĠ
H ash
liv esĠofĠ
isĠnotĠ anĠ
last ĠtwoĠ
Al ab
K -
cent erĠofĠ
influ entialĠ
complet edĠ
yourĠ lif
aĠf ac
Jan eĠ
volt ageĠ
N intend
edit ionĠ
art ,Ġ
D .C
eĠdes crib
aĠtyp eĠofĠ
o qu
government ,Ġ
ĠtoĠ keep
97 4
incredi bl
F eel
c ath
eĠsup pos
I ow
class ="
Ġthemselv es.Ċ
facil itiesĠ
isĠ usuallyĠ
artic les
eĠthing sĠthatĠ
O ak
)Ġ ofĠtheĠ
divers eĠ
Bar bar
appear ĠtoĠbeĠ
return edĠ
ph il
l itĠ
willĠ getĠ
absur d
er ies
Ġs impl
ad ,Ġ
er,Ġ aĠ
yourĠh ead
reg ener
atis fact
Afric aĠ
C ass
M un
W atchĠ
y selfĠ
Amend mentĠ
D a
H em
ad justĠ
fin it
D rop
v esĠ
it .ÂłĠ
pl ung
int entĠ
NorthĠ Carol
igg er
Mic ro
quicklyĠ andĠ
Virgin iaĠ
aĠf ail
last ĠtimeĠ
B eth
O ri
S it
pe erĠ
hon ey
vo icesĠ
aĠf unction
know .Ċ
Ġf requ
comb at
moreĠd ifficult
walk edĠ
un itedĠ
in sĠandĠ
valu esĠofĠ
assess ment
Ġtw ist
ingĠm achin
b eneath
att ain
ah u
ing ĠtooĠ
def ic
N N
Ġd on
k er
Ã© Ġ
K o
ret ainĠ
is ĠtheĠsameĠ
Ġtim eĠofĠ
differentĠ fromĠ
ul pt
En tr
II IĠ
d l
variet yĠ
color edĠ
IĠw atch
conven ient
H amil
ĠĠĠĠ ifĠ(
notĠ soĠ
cr y
who everĠ
unc i
mon it
s ĠtooĠ
with ĠdifferentĠ
n oneĠofĠtheĠ
.ĠItĠ isĠtheĠ
maint ainingĠ
n Ċ
Ġturn sĠ
print ingĠ
C hap
sid eĠtheĠ
just ĠthatĠ
And ,Ġ
I con
S ong
canĠ help
mat icĠ
NAS A
an a,Ġ
:Ġ L
b old
immigr antsĠ
job .Ċ
haveĠth eir
ure sĠofĠ
se a
lawy erĠ
o '
Ġf oundĠ
Ġturn ingĠ
atĠ firstĠ
HowĠdoĠ youĠ
vin eg
ed !Ġ
ext endsĠ
historyĠ andĠ
act icĠ
anĠ exampl
par amĠ
st ackĠ
Ġc are
field sĠ
whatĠhappen sĠ
Ġthrow ingĠ
eyĠ andĠ
Ġt ablespo
ha bilit
aĠt ax
bi bl
ass essĠ
Ġbr ain
eĠm emb
.ĠIĠ reallyĠ
rob b
Ġt ough
T ro
governmentĠ isĠ
ly,Ġ butĠ
stateĠ ofĠtheĠ
><brĠ/ >
interest sĠ
MiddleĠ EastĠ
wit zer
suffer ingĠ
Ab outĠtheĠ
C z
Ġc apt
.ĠItĠisĠ alsoĠ
narr owĠ
} )
Ġm emberĠ
Sy d
Av ail
Ġmin im
es cop
s adĠ
How ardĠ
inĠtheĠ UK
Ġf und
ne um
Ġtest sĠ
afterĠ beingĠ
Ġmov ement
diag ram
artic ip
aĠsup er
Ġteas po
n astyĠ
P ep
gu itarĠ
near estĠ
eĠdep art
answer ĠtheĠ
knoc kĠ
eĠt ri
mak eĠthemĠ
| ĠP
Ind ustri
I'veĠ seenĠ
forĠ instance,Ġ
ab isĠ
link ĠtoĠ
Univers ity,Ġ
um myĠ
om an
whatĠ areĠ
justĠ notĠ
H eyĠ
itud eĠofĠ
problem Ġwith
s. com
ac Ġ
.ĠN o
whyĠ notĠ
Ok ay
stor yt
atĠ herĠ
andĠth enĠtheĠ
p inkĠ
y nĠ
noĠ wayĠ
,Ġth os
sp okeĠ
R ab
F ish
es âĢĶ
neverĠ reallyĠ
offic e,Ġ
author ity
Ric hard
of .Ċ
ed )Ċ
elect oralĠ
D onn
ingĠtheĠ sameĠ
edĠup ĠtoĠ
dec om
byĠ anĠ
fun g
head edĠ
10 3
}Ġ elseĠ
ðŁ ĺ
24 0
was hĠ
portfol ioĠ
usingĠ anĠ
U m
ha il
Des cription
push edĠ
D eadĠ
in ,ĠandĠ
she erĠ
ismĠ inĠ
Ġdem and
.ĠH ereĠareĠ
concern sĠ
v estĠ
car bohydr
Ġf amilyĠ
em ul
eĠt re
.ĠIfĠ youĠwantĠtoĠ
C aus
askĠ forĠ
otherĠ peopl
pri orĠ
Ġc at
.ĠP r
Ġt empor
areĠth oseĠ
Ġpres ent
which ĠweĠ
pe as
ad ren
e er
Back ĠtoĠ
clos ed.Ċ
part ,Ġ
in Ġthem
b areĠ
releas eĠofĠ
atĠ hom
money .Ċ
next ĠtoĠtheĠ
c em
getĠ intoĠ
aĠth ousandĠ
Ġdi etĠ
E ur
a ,
com for
at e,ĠandĠ
Ġc allĠ
se w
P ick
Ġd oneĠ
way sĠthatĠ
don'tĠ haveĠ
H eĠs
n urt
,Ġs aidĠ
,ĠM r
pe el
doĠ aĠ
cal or
Ġtheor y,Ġ
forĠd ifferentĠ
Netfli x
< div
ress ionĠ
eĠsh ip
Ġsur viv
ul lyĠ
ag eĠthatĠ
whatĠ kindĠofĠ
b reathĠ
Ġto ,Ġ
to _
cheap erĠ
pl ead
Fr ame
mov ies
Paul Ġ
Th ought
edĠ âĢľ
RO M
anyway .Ċ
pr ingĠ
becaus eĠs
rece ip
Tex as
issu esĠthatĠ
pag eĊ
eĠt alkingĠaboutĠ
.ĠTh os
break ĠtheĠ
philosoph icalĠ
Rev iewĠ
ĠthatĠ makesĠ
Ġthat ĠthisĠisĠ
# defineĠ
qu adĠ
iesĠ haveĠ
pl ugg
s,Ġ likeĠ
aĠg l
protect ingĠ
L os
reduc esĠ
Comp any
And yĠ
rel ent
ĠTH EĠ
aĠc learĠ
particip atingĠ
sĠ alsoĠ
itĠ mayĠbeĠ
hour sĠofĠ
F arm
Î ¼
Ñ Į
Ġse at
s entĠtoĠ
sĠ hasĠ
Ġtr endĠ
Ġs earch
strength ĠandĠ
analys is,Ġ
minim alĠ
decad esĠ
d well
,Ġ Y
childrenĠ areĠ
canc el
e .ĠAĠ
gluc oseĠ
uc ialĠ
)Ġ isĠaĠ
Ġf irst
law ĠandĠ
.ĠIf Ġw
entir eĠs
yourĠb usiness
ens .Ċ
s ĠtoĠt
</a >
edĠ underĠ
err an
R ating
be atingĠ
fill edĠwith
id ol
oph ob
FF FF
defend antĠ
eĠm ark
respect ĠtoĠ
et ingĠ
as tĠofĠ
start ><
H otĠ
y !Ġ
comm ut
fer t
b and,Ġ
f ictionĠ
iss ionĠ
gr as
Amaz on
Ġ peopl
equ alĠtoĠ
spok es
Appl ication
" T
10 4
'sĠ andĠ
enthusi ast
ound ingĠ
around .Ċ
custom ers
cor dĠ
s oup
% ĠandĠ
peopleĠ likeĠ
U E
eĠ byĠ
aĠb iggerĠ
approv edĠ
/ C
: =Ġ
eĠinĠ hisĠ
forĠ your
nam e.Ċ
R onĠ
onĠtheĠ sameĠ
ur tĠ
fac eĠandĠ
.ĠSomeĠ ofĠtheĠ
S oftwareĠ
out Ġther
dr agon
Ġ( orĠ
hav e.Ċ
usp ic
re bell
aĠb ott
L abor
g ateĠ
J i
Ġh ol
Char lott
s ĠtheirĠ
K ent
.ĠE vent
lead er
clos ed
ev identĠ
.ĠI ĠdoĠ
hand edĠ
ing Ġthes
proc e
Ġtop icĠ
Oh ioĠ
erĠ andĠtheĠ
mon itorĠ
Counc ilĠ
2 20
g rossĠ
r d
pat ienc
dram aticallyĠ
t able
abl eĠthatĠ
aĠd og
ĠtoĠs chool
s ak
informationĠ onĠ
de -
97 1
allĠ ofĠtheseĠ
inc tion
su icideĠ
ç Ķ
M ort
ĠĠĠĠ ItĠ
] ĠS
inĠtheĠ caseĠofĠ
ingĠm ethod
withĠm anyĠ
Ñ ĭ
girl friendĠ
educ ationĠandĠ
Ġpar ent
is :Ċ
, ĠtakingĠ
ess ent
cat al
But ton
ur u
M iam
person 'sĠ
ul ousĠ
Ob vious
haveĠ itĠ
Ġp ageĠ
ener get
ember ship
rom agnet
him ĠasĠ
t empl
not edĠthatĠ
Ob jectĠ
meant im
sĠareĠ oftenĠ
prev entsĠ
sĠ soĠ
red und
proced uresĠ
B eat
Mess age
b earĠ
sĠofĠ anĠ
F ro
al terĠ
Down load
underne ath
k a
repor terĠ
ĠR ep
havingĠ anĠ
whatĠ youĠareĠ
Ġcom mon
eĠthereĠ wasĠ
suppos edlyĠ
" /
asĠ partĠofĠ
Ġse ek
mean ingĠofĠ
ifĠtheyĠ wereĠ
Ġsur pris
IĠw entĠtoĠ
ucc eed
isĠ still
el ong
ter min
aĠh alfĠ
T echnologyĠ
visit ĠtheĠ
Ġcount ri
benef itĠofĠ
aĠs olution
horr orĠ
Th eĠtr
Ġc lean
pan icĠ
... andĠ
Heb rew
er,Ġ whoĠ
E inst
c f
Obam a
,Ġ fromĠ
dis kĠ
numb ers,Ġ
eĠtheirĠ ownĠ
f eder
s.Ġ MyĠ
Ġc ertainlyĠ
respons eĠtoĠtheĠ
Ġd os
ac re
st ationsĠ
Committ eeĠ
list enĠ
im mort
Post s:Ġ
ib er
{\ math
Alex anderĠ
ï¿½ ï¿½
of -the-
fut ureĠofĠ
.ĠIt 'sĠtheĠ
Fl ag
eĠd eb
both ĠofĠ
sal tĠ
.ĠH op
n _
In put
consider ingĠtheĠ
eĠwe ap
effectĠ onĠ
atĠ oneĠ
eĠthemselv esĠ
br aveĠ
edĠb oth
differenceĠ inĠ
S N
m illionĠ
ag e:Ġ
Ġbeg anĠtoĠ
k oĠ
.ĠRet rievedĠ
needĠ ofĠ
sound sĠlikeĠ
fl oodĠ
En h
ju iceĠ
pe ach
? !Ġ
i om
am ineĠ
Vers ionĠ
way ,ĠtheĠ
b atch
er o
hadĠ been
yourĠh ealth
inĠ loveĠ
what ĠthisĠ
.ĠS heĠisĠ
land ingĠ
s izedĠ
cas e.Ċ
j okeĠ
Qu ickĠ
conc erningĠ
can ĠtakeĠ
al iv
far mĠ
special iz
aĠ groupĠofĠ
,Ġ althoughĠ
over Ġtim
ÂłÂłÂłÂł Âł
The or
} _{
div is
G aryĠ
ask edĠtheĠ
.ĠAc cordingĠtoĠtheĠ
b ikeĠ
eĠm aterial
mem oriesĠ
h anĠ
JS ON
m idĠ
ro at
M innesot
driv esĠ
ver tĠ
pass ageĠ
youĠ findĠ
atĠ night
archa e
,Ġthere byĠ
injur iesĠ
ograph ic
.ĠD uringĠ
st age
asĠ opposedĠtoĠ
differ entlyĠ
D ick
e,Ġ weĠ
OR D
pl umb
edĠ soĠ
lay er
k r
whenĠ you'reĠ
ĠtoĠtr yĠandĠ
asĠsoonĠ asĠ
eng inesĠ
auth orĠofĠ
ĠĠĠĠĠĠĠĠĠĠĠĠ }Ċ
chap ter
hard erĠ
ar entsĠ
fac e.Ċ
humanĠ being
liv es,Ġ
lab our
atĠthisĠ point
mot ionĠ
cl aus
i osĠ
workĠ isĠ
,"Ġh eĠsay
continu ouslyĠ
They 'reĠ
H ost
met al
Ġb ag
Canad a
Def enseĠ
reasonĠ forĠ
G ib
forĠ you.Ċ
os cop
reach esĠ
d ess
com eĠandĠ
new Ġm
All ah
i eĠandĠ
sm ith
Ġthat Ċ
hand -
expans ion
loc kingĠ
Gul fĠ
P riz
aĠm eet
ari Ġ
wher eĠtheĠs
occur red
d ud
ĠĠĠĠ $
Fr ont
ĠthereĠareĠ noĠ
f rog
Ġtell ĠmeĠ
å Ĳ
makeĠ anyĠ
ĠtoĠ us
aĠg iantĠ
su itsĠ
Lef tĠ
os ition
provid erĠ
forĠ (
eĠt ourĠ
outĠ withĠ
notĠbeĠ ableĠtoĠ
S hel
w eddingĠ
Tr ustĠ
laugh ter
> čĊ
set up
sh eâĢĻsĠ
gettingĠ aĠ
int oler
M ut
weak ness
S id
ĠĠĠĠ (
atĠtheĠ veryĠ
yourĠb estĠ
givenĠ aĠ
V R
y .ÂłĠ
ol aĠ
e,Ġ heĠ
eĠs oon
yourĠh omeĠ
acqu aint
responsi bl
vert ebr
Inter view
SE O
pect rum
ideasĠ andĠ
mor eĠtr
IĠ actuallyĠ
happen ing
l edĠtheĠ
ĠthatĠ itĠwasĠ
want ĠtheĠ
/ herĠ
haveĠ alreadyĠ
-Ġ aĠ
,Ġth ingsĠ
erious ly
answ er,Ġ
eĠd epend
renew ableĠ
$ ĠisĠ
U B
a ĠtraditionalĠ
communic ationsĠ
,Ġ asĠtheĠ
s ink
Ġcon figur
power edĠ
Orth od
intens ityĠ
print edĠ
1 12
reg ret
punish mentĠ
aĠd eĠ
k insĠ
s of
ers /
ĠtoĠ you
Bl ood
J ak
B etterĠ
aĠth reat
) )Ġ
milit ary
isĠ not
H ereâĢĻsĠ
eĠisĠ anĠ
pointĠ whereĠ
appe alĠ
worth ĠtheĠ
- bitĠ
Ġs oon
Ġp ress
up ĠwithĠaĠ
eĠmightĠ beĠ
,ĠandĠ it'sĠ
tim eĠofĠ
break fastĠ
ingĠ C
pre domin
S elect
re ign
onĠ aĠm
.ĠIĠ guessĠ
vide o,Ġ
rad ical
contin uallyĠ
pan ic
allĠ haveĠ
ad verseĠ
yourĠb l
b eĠtrans
was n't
asĠ if
ĠthatĠ ofĠ
L C
Ġcon stitut
Be havi
di amet
Pat rickĠ
meaning ful
h enceĠ
aĠfil m
Ġf ield
runn ingĠtheĠ
ip it
TheĠ G
new erĠ
perceiv edĠ
Ch arg
eĠaĠ lotĠofĠ
aĠbu ild
c ouch
mem bran
careĠ ofĠ
<issue_ start><
<issue_start>< issue_
wrong .Ċ
oil ,Ġ
N ev
f ancyĠ
lif tingĠ
usedĠ asĠaĠ
hair ĠandĠ
Now ĠthatĠ
re actĠ
iesĠ forĠ
question sĠandĠ
Cor p
T our
cor relation
ĠM c
D eĠ
ities Ċ
ag icĠ
aboutĠ it.Ċ
gram mar
ÂłÂłÂłÂłÂłÂłÂłÂłÂłÂłÂłÂłÂłÂłÂłÂł ÂłÂłÂłÂłÂłÂłÂłÂłÂłÂłÂłÂłÂłÂłÂłÂł
_ T
Ġdo esĠtheĠ
. ]Ċ
ThankĠ you
aĠt rip
br ushĠ
areĠth ereĠ
well .Ċ
around ĠtoĠ
believ esĠ
if iesĠtheĠ
Ġh or
ĠtoĠs endĠ
.ĠAnd ĠthatĠ
.ĠYou ĠcouldĠ
seas on,Ġ
Ġcommun ity
b ush
Ad vertis
myĠ own
or s.Ġ
qual ity,Ġ
nak edĠ
M ajorĠ
alway sĠt
us ersĠtoĠ
ent ert
C arr
ing l
sc ann
ask et
whatĠ aĠ
consider ablyĠ
link edĠ
Not ic
pro position
isĠ now
? Âł
W asĠ
atĠ work
Com mentsĠ
Ġh e'sĠ
Lou isĠ
ot ion
.ĠÂł ItĠ
don tĠ
Read ingĠ
knowledg eĠofĠtheĠ
I v
const itu
attr action
Ġmus icĠ
Ġ In
means ĠthatĠtheĠ
ag nost
P ublic
qualityĠ ofĠtheĠ
eachĠ andĠ
dram aticĠ
an j
itĠ intoĠ
ĠĠĠĠĠĠĠĠ// /Ġ
L IN
childr enĠtoĠ
sp ont
Ġ fromĠtheĠ
d ign
.ĠTheĠm ainĠ
head .Ċ
presum ablyĠ
pix el
Ġcom ponent
Ġsup er
,Ġ heĠwasĠ
explor eĠtheĠ
allow ingĠtheĠ
impl ic
Ġmus cl
hisĠ firstĠ
Emp ireĠ
.ĠAlthough ĠtheĠ
pe g
add erĠ
learn ĠtheĠ
cat alog
& ĠC
O t
st eep
pull ingĠ
quart erĠ
at eĠth
par al
any one
WhatĠ doesĠ
wouldĠ youĠ
bb {
atĠtheĠ moment
all Ġp
Ġt reeĠ
ation ?Ċ
forĠ aboutĠ
byĠ andĠ
Es s
circumstanc esĠ
medic ineĠ
.ĠD oesĠ
Ġsup pos
el andĠ
ĠthatĠ hasĠbeenĠ
peopl eĠwill
- R
anĠ articleĠ
hun tĠ
? ?Ġ
AN DĠ
ef ull
WhiteĠ Hous
Ġcom ingĠ
vot eĠforĠ
forĠ each
ersĠ onĠtheĠ
John son
æ ĺ
impl ant
hel icop
wom an,Ġ
mut ualĠ
pill sĠ
u u
Ġtheir Ġw
Ñ ĸ
,Ġ however
howĠ longĠ
E t
res s,Ġ
ĠĠĠĠĠĠĠĠĠĠĠĠĠĠĠĠ ĠĠĠĠĠĠ
UnitedĠ Kingdom
s ĠthereĠ
st agesĠ
reg imeĠ
Al p
Par am
fi erc
ĠMar chĠ
oneĠ orĠtwoĠ
Par ad
prim eĠmin
ill us
lif eĠs
back up
philosoph yĠ
do zensĠofĠ
wasĠ alsoĠ
fi br
comp oundĠ
T rib
say ,Ġ"
Ġcom monĠ
ĠĠâĢ¢Ġ C
.ĠU su
s im
onĠ aĠc
comment> Title
<issue_start><issue_ comment>Title
Ġs eason
Ġs cal
or ceĠ
Know nĠ
H asĠ
Ġtalk ingĠtoĠ
pl ans
almostĠ alwaysĠ
gun sĠ
aĠ areĠ
NO W
we âĢĻr
sub jectĠofĠ
H erm
writ ing,Ġ
sĠareĠ veryĠ
g reas
cr uis
Californ ia,Ġ
ing _
sett leĠ
edĠhim ĠtoĠ
B BC
will Ġmak
C K
ifĠ itĠwasĠ
un tingĠ
ag esĠofĠ
putĠ aĠ
perspect ive,Ġ
oo pĠ
D F
es .ĠP
om orph
itĠ onĠtheĠ
cur ios
moreĠthan ĠtheĠ
A H
appear ĠtoĠ
war ri
Ġmeans ĠthatĠ
Ġt or
inĠ P
ĠpartĠ ofĠtheĠ
ationĠ andĠtheĠ
Ġtechnolog y
b ac
provid esĠtheĠ
rom anticĠ
H ongĠ
it ĠtoĠbeĠ
dist ort
cont entsĠ
ris isĠ
ach ingĠ
Ch art
iĠ S
struc k
Trans l
Ġph ysicalĠ
Ġserv icesĠ
as sĠofĠ
perform anceĠofĠ
commun ity,Ġ
| |
ĠS eptemberĠ
gre yĠ
J ay
aĠbitĠ moreĠ
pe edĠ
k top
y ri
perform ance,Ġ
hab itsĠ
out sĠ
cond ens
st abilityĠ
Ã º
dis asterĠ
Ð ´
Th read
notĠ reallyĠ
option ĠtoĠ
,ĠtheyĠ willĠ
.ĠE m
Ph ys
Ø ¯
11 5
Atl anticĠ
sign sĠofĠ
associatedĠ with
worldĠ isĠ
s anction
par liament
!Ġ AndĠ
Ed g
Ġt inyĠ
bab iesĠ
dens ityĠ
ch r
Writ eĠ
SouthĠ Kore
Ġ ì
Ġm eĠtoĠ
IâĢĻveĠ beenĠ
Ġc anc
P oll
all ingĠ
St ayĠ
environment .Ċ
C odeĠ
C F
fun c
report edlyĠ
Judg eĠ
w ire
stat edĠthatĠ
ed .ĠTheyĠ
cost um
aĠlim itedĠ
imp air
.âĢĿĠ TheĠ
ĠC O
yourĠ firstĠ
all ĠdayĠ
pow er.Ċ
``` čĊ
P I
car v
am id
product ivityĠ
Ġm ix
wid thĠ
ste inĠ
ant sĠofĠ
aĠl owĠ
ost e
Ok lah
Ġtast eĠ
personn el
relig ion,Ġ
'll Ġb
re actionsĠ
changeĠ inĠtheĠ
ia âĢĻsĠ
96 5
genu ineĠ
ER R
Ġdo es
.ĠForĠ exampl
.ĠU seĠ
mostĠ peopleĠ
cor p
green houseĠ
benefic ial
Opt im
on eĠwayĠ
evenĠ inĠ
ed âĢĿ
US D
wood enĠ
bur den
name ="
veget ableĠ
group ,Ġ
Conf eder
ifĠ youĠs
expos ureĠ
estr uct
ĠL o
legislat iveĠ
ar iseĠ
vent il
ationĠ onĠ
aĠf our
pun ct
say ĠthatĠtheĠ
onlyĠ inĠ
</ span
edĠby ĠthisĠ
join ingĠ
responsibil ity
committ edĠtoĠ
liv es.Ċ
distribut ionĠ
principl eĠ
engag edĠinĠ
C ity,Ġ
yourself .Ċ
I ceĠ
som eĠw
ev iew
Ġc ivil
)Ġ hasĠ
hop eĠtoĠ
conver g
Consid er
C hair
z ,Ġ
awaren ess
F ur
eĠs pecific
ator ,Ġ
( -
Leb an
famil iarĠ
an arch
- timeĠ
ev olveĠ
outh ernĠ
och ond
E ric
e. [
top ic
do or,Ġ
olv ingĠ
B ott
exam ineĠ
P a
ofĠ anyĠ
an sp
Sam sung
us ,ĠandĠ
he atedĠ
inter rog
gener atesĠ
imag eĊ
German y,Ġ
ub b
Ar n
: Ġb
juris diction
ot or
Ġcontr act
E B
Man hatt
:Ġ ThisĠ
danger ous
w et
hasĠbeenĠ aĠ
wel veĠ
es !Ċ
ĠandĠ wasĠ
backĠ intoĠtheĠ
Sant aĠ
vot esĠ
leadership Ġ
canĠ haveĠ
edĠinĠ myĠ
balanc edĠ
dr omeĠ
I'll ĠbeĠ
for k
getĠ someĠ
Con dition
A ver
integr alĠ
K nowledg
You ĠmightĠ
aĠf un
ed ly
Ġcom mitt
suggest sĠthatĠ
Ro adĠ
Pakist anĠ
ĠtoĠ itsĠ
Ġc urrentĠ
sn ap
S ome
youĠ goĠ
Bet weenĠ
ofĠth re
regul atedĠ
asĠwellĠ as
b )Ġ
w eĠmayĠ
us eĠth
Com mentĠ
' sĠthatĠ
Big Ġ
dis solv
eĠdi rection
t extĠ
ersĠ wouldĠ
un comfortableĠ
brows erĠ
oo st
v egg
ensur eĠthatĠtheĠ
indigen ousĠ
will ĠdoĠ
leftĠ andĠ
ingĠ forĠaĠ
SomeĠ ofĠtheĠ
subt leĠ
Â ½
on ĠtheseĠ
Ġmed iaĠ
Ġth irtyĠ
Y ank
er )
F ourĠ
o eĠ
NewĠ Or
s. )Ċ
y )Ċ
Ġminut es,Ġ
× ķ
onlyĠ haveĠ
heĠdidĠ notĠ
p ione
st age,Ġ
Ġm ention
es idesĠ
Dr aw
leg acyĠ
" ĠbyĠ
ob server
evenĠ ifĠtheĠ
Qu een
ĠandĠ notĠ
strik esĠ
e,Ġ withĠ
workingĠ onĠ
brief lyĠ
s.Ġ Sh
prot otyp
organ ic
girl friend
Tha il
Yor k
'' Ċ
isĠ noĠ
Ġf ut
whyĠ doĠ
stret chĠ
er ateĠ
Ġc utĠ
whit eĠm
orĠ areĠ
givesĠ youĠ
advent ureĠ
bur yĠ
ĠS tr
Fil m
ak erĠ
FB IĠ
Tr ust
Chic ago
independ entlyĠ
factor sĠthatĠ
li ps
s.ĠS heĠ
æ ĸ
s.ĠH isĠ
asĠ sh
,Ġt urn
Ã ª
in Ġthos
,Ġtoo ,Ġ
=Ġ [
c d
it'sĠ beenĠ
questionsĠ aboutĠ
artif act
madeĠ upĠofĠ
eĠdis eas
D ig
ed .ĠAndĠ
night mar
I Z
e --
it ableĠ
inher entĠ
L em
no x
ess ionsĠ
year ĠofĠ
eg ment
someĠ peopleĠ
ul entĠ
oft en,Ġ
haveĠt akenĠ
Âł t
Ġm icro
Ser ver
st itch
ownĠ andĠ
right sĠandĠ
had nâĢĻtĠ
Sec retĠ
() );Ċ
Execut iveĠ
diseas e,Ġ
Commun istĠ
Ġbe ingĠtheĠ
mo kingĠ
ofĠ ourĠ
FA Q
N uc
knowledg e,Ġ
e j
em ption
eĠd ur
.ĠInstead ,Ġ
æ Ī
Ġsystem sĠ
M emor
youĠ probablyĠ
.ĠIn t
M arketĠ
as Ġthough
C ann
inĠ order
.ĠM c
pick edĠupĠ
Ġsur v
LosĠAngel esĠ
ag esĠandĠ
ia ,ĠandĠ
way ĠtheyĠ
D H
hamm adĠ
if iceĠ
i asĠ
f oul
job ,Ġ
G it
l eĠtoĠ
Cal cul
yn chron
K am
... "Ġ
parag raphĠ
clos estĠ
anim atedĠ
compos edĠofĠ
Ġm echan
up set
Ġc ool
H oll
Re al
list .Ċ
cl er
Ġdis playĠ
sem i-
circ uitĠ
ist .Ċ
G N
h ookĠ
announc edĠ
! âĢĿ
.Ġ i
clos ingĠ
In stead
womenĠ andĠ
inĠaĠ wayĠthatĠ
oc e
enhanc edĠ
h eĠwill
v onĠ
C AR
pict ureĠofĠ
.ĠTheĠ otherĠ
periodĠ ofĠtim
orĠd ec
.ĠH ere'sĠ
math ematicalĠ
sens itiv
Eth iop
inĠ our
Ad vis
aver ageĠofĠ
ĠĠĠĠ Ġ*Ġ@
e.ĠA fterĠ
E merg
air ,Ġ
es ),Ġ
so- calledĠ
drop pingĠ
perc entĠ
part y,Ġ
edĠb elow
P in
measure ment
g ainsĠ
character isticsĠ
aĠlong ĠtimeĠ
Tues day
Ġb log
result sĠofĠ
We ightĠ
studiesĠ haveĠ
father 'sĠ
â ĸ
.ĠTh usĠ
byĠ hisĠ
Sk y
eĠd ueĠtoĠ
erefor e,ĠtheĠ
ateĠ withĠ
pi erc
which Ġwill
liv ingĠinĠtheĠ
pharm aceut
startĠ withĠ
i er,Ġ
o be
aĠs ortĠofĠ
arch iv
C allĠ
with ĠmoreĠ
vill ain
bod yĠtoĠ
Th ough
usin ess,Ġ
l act
y ,
.ĠI sĠitĠ
edĠwithĠ anĠ
who âĢĻsĠ
.ĠF irstĠ
Ir onĠ
c ough
ot on
heĠs ay
bird sĠ
whichĠ isĠaĠ
aheadĠ andĠ
letĠ m
o- calledĠ
N etĠ
ep at
eĠm arketĠ
potential ĠtoĠ
Ġt ouchĠ
forĠ every
aĠs ens
sĠareĠ aĠ
homos exual
below .Ċ
atedĠ fromĠ
fun ĠandĠ
tr ainĠ
=Ġ $
S F
hyp oth
z Ċ
TheĠ mainĠ
25 5
fre eĠofĠ
Th eĠtwoĠ
ind ict
eĠm akeĠ
ste elĠ
fif tyĠ
edĠ B
M ,Ġ
b eĠtheĠs
k iĠ
itĠ couldĠbeĠ
clean ingĠ
practic e,Ġ
ro tĠ
serv esĠ
pict ur
happen .Ċ
esid es,Ġ
pat ron
connect edĠtoĠtheĠ
fail sĠtoĠ
eĠt ell
next ĠtimeĠ
n n
form ĠaĠ
you'reĠ goingĠtoĠ
partic leĠ
Ġsaid ĠtheĠ
ĠwithĠ noĠ
.ĠT akeĠ
ĠĠĠĠ D
prefer ĠtoĠ
at tĠ
not e,Ġ
person .Ċ
S or
s eniorĠ
.ĠB u
Ġthought ĠthatĠ
ĠĠĠĠ Ċ
IĠ knew
aĠl ight
TheĠ R
youĠd idn'tĠ
interest edĠinĠtheĠ
Ġdec reas
B ure
he alĠ
byĠ usingĠ
vis ibl
company âĢĻsĠ
G or
mor eĠofĠaĠ
consum eĠ
whenĠ sh
asĠaĠ result
EU Ġ
Americ aâĢĻsĠ
i /
96 4
us cl
,Ġth anĠ
âĢľ W
Ġ am
yourĠ lifeĠ
ĠĠĠĠ T
N ix
not edĠ
rel oc
forĠ aĠc
ec ureĠ
acc ent
eĠs earch
% %
A Ġ(
C arib
es ;
regul ation
resc ueĠ
enc yĠandĠ
ell ,Ġ
Ġthere'sĠ aĠ
Ġcommun ication
doĠ whatĠ
moreĠthanĠ aĠ
v elĠ
at er,Ġ
de ed
hold erĠ
N ichol
Ġmov ementĠ
h eĠdoesĠ
man if
ey n
ret rieveĠ
Re allyĠ
Ġc reateĠ
sĠareĠ beingĠ
s igh
for .Ċ
els eĠtoĠ
play edĠbyĠ
ĠtheyĠareĠ notĠ
pag e.Ċ
Color adoĠ
Eg yptĠ
z heim
chang eĠofĠ
hang ingĠ
s well
Lef t
el bow
iĠ haveĠ
ing ham
couldĠ haveĠbeenĠ
inter ven
giveĠthem Ġ
Ù Ĳ
.ĠIt 's
soldi ersĠ
guarant eeĠ
effic ientlyĠ
appoint ment
% ĠtoĠ
Ch ildĠ
accept edĊ
p Ċ
den i
m omĠ
itself ,Ġ
ed ĠthanĠ
esĠofĠ aĠ
ies,Ġ butĠ
Ġtrain ing
ev angel
pat ri
p ocketĠ
w oundĠ
form ĠtheĠ
4 01
ĠĠĠĠ M
is ĠtypicallyĠ
conc eal
problemĠ isĠthatĠ
F RE
st ew
amĠ IĠ
key sĠ
for Âł
E qual
Ġbel ong
maint ainĠtheĠ
N ag
wonder edĠ
-minut eĠtourĠ
IĠ heardĠ
commit ment
erri bl
e 'Ġ
atĠ first
Jo in
F atherĠ
y roidĠ
ĠtheĠ wayĠ
ac ha
famil y.Ċ
-minuteĠtourĠ ÃĹĊ
- outĠ
it ."Ċ
edĠto ĠthisĠ
Ġthre eĠmonth
.ĠAfterĠ all,Ġ
sing le-
weĠ know
Ġtox ic
:Ġ Well,Ġ
Ġb ab
AĠf ew
let ĠthemĠ
aim sĠtoĠ
academ ic
è ¿
ful ,Ġ
me Ċ
appoint mentĠ
fright en
r ongĠ
Ġbe ingĠaĠ
w ilder
volum eĠofĠ
ecur ity
pl asm
out ĠtoĠtheĠ
chang esĠtoĠ
investig ateĠ
ass ertion
posit ionĠofĠtheĠ
resourc esĠtoĠ
ust riesĠ
Al ic
Ġs quareĠ
control ĠandĠ
S inceĠtheĠ
K night
inĠtheĠ middleĠofĠtheĠ
andĠt oldĠ
,Ġand ĠtoĠ
propos al
overĠ $
Ġbr and
carr y
Al -
stay edĠ
Artic lesĊ
ĠĠĠĠ W
ble ed
Ø ª
Ġp agesĠ
notĠ anĠ
orĠs omething
sideĠ effect
c oĠ
le 'sĠ
.ĠItĠwasĠ aĠ
stillĠ inĠ
whil eĠtheyĠ
.ĠBe ingĠ
disc ret
enter ingĠtheĠ
Ġmanag ementĠ
= {
iz ardĠ
tim eĠandĠ
Con stant
influ enceĠofĠ
automat icĠ
G at
edĠb yĠt
EN D
hir ingĠ
refer end
eĠthink sĠ
elig ibleĠ
K ell
aspect sĠofĠtheĠ
Thom ps
.ĠI ĠwillĠ
eĠwasĠ aĠ
attr activ
s eni
sayĠ "
Bruc eĠ
d op
es .ÂłĊ
withĠs om
anĠ additionalĠ
eĠs everalĠ
St eel
sp areĠ
ot oĠ
ify ingĠtheĠ
h eĠshouldĠ
stayĠ inĠ
aw ait
.ĠS he'sĠ
.ĠH igh
echnolog y,Ġ
mo onĠ
bab y
ingĠ ourĠ
openĠ andĠ
.Ġ doi
arr y
assign ment
a Ġthree-
Ġw arĠ
ist Ċ
less Ġthan
radi ationĠ
believ edĠthatĠ
Ch er
fift eenĠ
what ?Ġ
about ,Ġ
IĠdon'tĠ wantĠtoĠ
whereĠ aĠ
Ġb it
e.Ġ T
andĠt alk
.Ġ re
sh ouldnâĢĻtĠ
immigr ant
P ed
.ĠBe for
possible .Ċ
n our
advant age
m erĠ
is ĠtrueĠ
enough .Ċ
quant umĠ
M anch
canĠ onlyĠ
virt ual
Ġwe ekĠ
Onc eĠtheĠ
is _
world wid
ĠwayĠ ofĠ
abstr act
ed ĠthereĠ
all ,ĠtheĠ
in Ġtim
ed .ĠA
evenĠ aĠ
Phoen ix
Ġtold ĠtheĠ
H il
Ġc m
compl ainĠ
om bi
pret t
hy pert
'dĠ beĠ
human ity
gam eĠandĠ
inc ub
ĠĠĠĠĠĠĠĠ ifĠ(
- h
post ingĠ
com ic
dou ble-
eĠd ifficult
int ric
Ch rom
N in
it ĠtookĠ
observ ationsĠ
Z ion
el ic
perman entlyĠ
O meg
sur priseĠ
urround ingĠ
Arab Ġ
aĠf ar
hand .Ċ
saf elyĠ
you Ġshould
aĠc riticalĠ
è ¯
es .ĠW
s,Ġ whichĠareĠ
C ow
âĢĿ ĠofĠ
d educ
essential ĠtoĠ
ever .Ċ
havingĠ beenĠ
iv eryĠ
energ yĠtoĠ
Sp ainĠ
hor se
Hind u
itselfĠ isĠ
ĠthatĠ hisĠ
:Ġ ItĠ
b ed,Ġ
keepĠ yourĠ
est edĠ
youĠ neverĠ
ari o
Linu xĠ
Ġb ott
eĠs k
purchas ingĠ
Link ed
D er
of Ġtime,Ġ
event ually
System .
lit ig
B ,Ġ
p -
s,Ġ isĠ
dis charg
open edĠtheĠ
Isl amĠ
element aryĠ
Stud ioĠ
m arryĠ
eĠs chool
R ickĠ
us ed.Ċ
search Ċ
you ĠmeanĠ
suchĠ asĠaĠ
Ġp mĠ
Ġs ecurityĠ
war f
politic ian
F at
ern alĠ
P ic
car e,Ġ
short lyĠ
federalĠ governmentĠ
labor atoryĠ
sc ious
X boxĠ
sh oesĠ
Ġturn sĠout
hasĠ hadĠ
Di am
N -
aĠh undredĠ
ack ingĠ
sĠareĠ t
``` Ċ
advantageĠ ofĠtheĠ
Ġth ing.Ċ
pow derĠ
els eĠisĠ
eĠsup portĠ
w ig
hav ingĠs
Wh y
Ġthorough lyĠ
T ab
ies ,ĠtheĠ
comeĠ upĠwith
sal es
Institut eĠofĠ
rom antic
loy alt
aĠm illion
ev alĠ
spirit ual
J ar
valu eĠisĠ
sĠ [
A )Ġ
high lightĠ
ableĠ forĠ
G ame
inv itedĠ
kind aĠ
choos eĠaĠ
proced ures
Mo or
re productiveĠ
Ġtr avell
Th ink
exception alĠ
an Âł
principl esĠ
Writ eĠaĠ
.ĠR ob
expect ĠtoĠ
NewĠYorkĠ Tim
oster oneĠ
all Ċ
whatĠ makesĠ
subsequ entlyĠ
est icĠ
asĠ farĠ
exc useĠ
government .Ċ
w eĠsh
with ĠthemĠ
know sĠthatĠ
g ul
Ġspec ial
rais eĠtheĠ
chann elsĠ
r ill
s,Ġ whileĠ
a iss
r umĠ
yeah ,Ġ
read yĠforĠ
10 6
accord anceĠ
navig ation,Ġ
anĠ end
iou sĠtoĠ
J up
has ĠtakenĠ
Pre viousĠ
ou ble
seem sĠlikeĠ
S everalĠ
know ingĠthatĠ
man nĠ
l ensĠ
pl um
estim atesĠ
What everĠ
doĠ not
ac uteĠ
att ersĠ
dec ess
en compass
par an
Ġbu y
InĠ fact
inĠtheĠfirstĠ plac
ĠdoesĠ itĠ
C ĠandĠ
itĠturn sĠout
que ez
icĠ acid
noĠ ideaĠ
Tur keyĠ
/ c
wel comeĠ
: Ġm
n amĠ
bre w
% ĠinĠ
now hereĠ
prim itiveĠ
watch edĠ
hy bridĠ
star tĠofĠ
A ĠisĠ
sig ma
ES P
upĠ voteĠ
us edĠbyĠtheĠ
N oth
bur stĠ
aĠs chool
YouĠ know
b itch
aug ment
syn c
es .ĠM
Ġtr ainedĠ
hum or
chrom osom
new ,Ġ
eĠsh ortĠ
helpĠ you
Educ ationĠ
eĠs olution
17 0
sĠ overĠ
whenĠitĠ com
soĠ itĠ
us eĠthatĠ
.ĠIfĠ itĠ
increas eĠinĠtheĠ
bel t
Iraq iĠ
fib erĠ
bl ownĠ
Mon th
es .ĠAndĠ
ies .ĠTheĠ
e- up
com .
becauseĠ itĠwasĠ
L AN
edĠup onĠ
languag eĠandĠ
G otĠ
In steadĠofĠ
hand sĠofĠ
eli eveĠ
H an
eĠthey 'reĠ
ret ailĠ
s.Ġ D
Ġtr app
des ire
r atĠ
Sh ortĠ
of fl
.ĠY eah
onĠ Earth
yourself ĠandĠ
S erv
aut ion
pickĠ up
Re :Ġ
consider edĠtoĠbeĠ
fin anceĠ
Ben j
child 'sĠ
ind irect
allĠ itsĠ
means ĠtheĠ
ĠdownĠ voteĠ
occup i
hold ersĠ
Ġte aĠ
muchĠ asĠ
ĠApr ilĠ
s .ĠIf
C ustomerĠ
Stud entsĠ
IĠd ecid
ĠĠ <
feel ĠfreeĠtoĠ
hop ingĠtoĠ
NoĠ oneĠ
he el
persu ad
at edĠtoĠtheĠ
someoneĠ else
anc ient
vers at
receiv esĠ
eĠs implyĠ
ham mer
quick ly,Ġ
clas sĠofĠ
alsoĠ beenĠ
ul aĠ
en s,Ġ
I'veĠ everĠ
issu eĠisĠ
pat riot
inter f
B usiness
hel pl
deliv eredĠ
af tingĠ
comm onĠc
ship pingĠ
cle ans
possibil ityĠ
F ix
alreadyĠ haveĠ
Ch ris
amp Ġ
startĠ ofĠtheĠ
ol ver
insid eĠaĠ
Rem emberĠ
re arĠ
withĠ aĠb
diag nost
am mal
adjust ment
st onesĠ
c hamp
albe itĠ
C ov
youĠcanĠ useĠ
ing .ĠButĠ
seenĠ inĠ
H eadĠ
he ap
b oss
enĠ inĠ
ant agon
p anĠ
aĠs elf-
work erĠ
and Ġtak
Fir stĠofĠ
b ossĠ
Ġs ometh
Review Ċ
RN AĠ
T Ċ
:Ġ @
ock eyĠ
forĠtheĠ first
gover ningĠ
untilĠ youĠ
mov ementsĠ
Dist rictĠ
A gr
aĠp otentialĠ
earli er,Ġ
,Ġ yourĠ
qual ityĠandĠ
e ous
.Ġ JohnĠ
It 's
ĠthisĠ isĠaĠ
develop ersĠ
ĠdownĠvoteĠ acceptedĊ
k ey,Ġ
believeĠ that
Ġsub ject
Ġt ill
comput ersĠ
compet it
l ust
ag e,ĠandĠ
light ingĠ
will ĠcomeĠ
ev acu
eĠw ould
eĠd rug
dedic atedĠ
,Ġ m
.Ġ -Ġ
wor n
ĠtheyĠ don'tĠ
liveĠ inĠtheĠ
oward ĠtheĠ
favour iteĠ
l esĠofĠ
democrat icĠ
( aĠ
mat esĠ
when ĠtheĠs
observ ation
E G
out standingĠ
Pl anĠ
ĠĠĠĠ WhatĠ
HowĠ long
S iteĠ
val veĠ
head sĠ
et sĠofĠ
- r
Law r
S unn
or Âł
tr adition
beg g
dr agg
rac e,Ġ
what ĠthatĠ
ĠtoĠt alkĠaboutĠ
himĠ aĠ
Ob serv
Ġsaid .Ċ
.ĠC ol
vulner ableĠ
ar ith
ey ebr
eĠtr yĠtoĠ
said ,ĠâĢľ
consider edĠtheĠ
Ï Ĥ
fre e-
eĠd og
" ,"
eĠandĠ otherĠ
Hell oĠ
w eĠmightĠ
Ġp ut
W R
st ood
law .Ċ
est -
.ĠG oĠ
event s,Ġ
b err
be hav
Ġp ublic
" P
activ atedĠ
consum ingĠ
surv eyĠ
iĠ =Ġ
per mitĠ
Ġcom mit
question :Ġ
bott leĠ
Ind ustr
sur veill
fiveĠ yearsĠ
wit nessĠ
wh eelĠ
Ġsh ift
legisl ation
some oneĠtoĠ
F ieldĠ
histor y.Ċ
f enc
surround edĠbyĠ
off setĠ
liber al
show sĠtheĠ
endingĠ onĠ
youĠknow ĠthatĠ
es .ĠInĠ
under tak
concern edĠaboutĠ
uff erĠ
es !Ġ
s, âĢĿĠ
en act
What 'sĠtheĠ
Consid erĠ
intu itiveĠ
Ġs creen
ep hal
answer ĠtoĠ
ind is
Pro bablyĠ
week .Ċ
beginĠ with
li abilityĠ
broad castĠ
Langu ageĠ
how ĠheĠ
driv ersĠ
w ide
Ġmov i
aĠl ook
or Ġwor
eĠw antedĠtoĠ
Fil mĠ
s,ĠandĠ otherĠ
k h
pap ersĠ
L es
IĠ useĠ
ingĠt owardsĠ
nurs ingĠ
haveĠ moreĠ
man y,Ġ
dut yĠ
S ,Ġ
ar ingĠ
Ġb rok
kill ĠtheĠ
Hear t
view ingĠ
la yout
i h
any wayĠ
.ĠYouĠcanĠ alsoĠ
ĠtoĠ createĠ
alĠ inĠ
Ġc ountr
di etaryĠ
itiesĠ inĠ
Ġ JanuaryĠ
need ed.Ċ
Ġwell -
into ĠthatĠ
inher entlyĠ
sp ik
out comeĠ
Ġtr iv
wis sĠ
ĠĠĠĠĠĠĠĠĠĠĠĠĠĠĠĠĠĠĠĠĠĠĠĠĠĠĠĠĠĠĠĠ ĠĠĠĠĠĠĠĠĠĠĠĠĠĠĠĠĠĠĠĠĠĠĠĠĠĠĠĠĠĠĠĠ
ĠDec emberĠ
es ,ĠtheyĠ
g riev
for ĠthemĠ
cover sĠ
Ġb ookĠ
P od
Ġ j
th eat
ed ĠtheseĠ
myster iousĠ
ind uct
infect ionĠ
( m
eng l
st riveĠ
circ uit
olv esĠ
eĠt ext
âĢĻ .Ċ
rul esĠandĠ
</p>Ġ< p>
ell oĠ
se edĠ
nic elyĠ
erk el
G ill
onĠ R
elev atedĠ
Hol oc
young ĠmanĠ
, [
cr yĠ
out comesĠ
tr ainingĠ
itĠ willĠb
.ĠG e
ir cul
ĠtheĠsameĠtim e,Ġ
eĠthereĠisĠ noĠ
IĠ everĠ
fash ionĠ
familiar ĠwithĠtheĠ
.ĠP at
E ,Ġ
priv at
ne at
Ro om
p inn
sĠ againstĠ
a iseĠ
interf ereĠ
z oom
con firmed
diff erĠ
abl eĠtoĠtheĠ
into ĠtheirĠ
serious ly
sk illĠ
pur pl
d entalĠ
l op
cris is
acquis ition
od e
lin e.Ġ
.ĠN othingĠ
eĠweĠ haveĠ
imper ial
ac company
aĠc ustom
eĠ hasĠ
on eĠtim
st alk
implement ation
hor ror
rm {
e.g .
fig ures
liter ature
farĠ fromĠ
eĠther ap
yourĠd og
onĠtop ĠofĠtheĠ
aminoĠ acid
aĠm edicalĠ
sub mitĠ
Ph ysicalĠ
Rad ioĠ
instr umentsĠ
Ġdirect lyĠ
replac edĠbyĠ
institut ionalĠ
ĠF ebr
haveĠth em
definit ionĠ
areĠ you
nutri entsĠ
b ianĠ
with Ġtheir
makeĠ upĠ
incent iv
v oy
Al waysĠ
& ĠM
oppos ingĠ
Naz iĠ
at eĠthem
pr ud
areĠ oftenĠ
ind ication
cor nĠ
Miss iss
i eg
ial og
sem in
Î ³
aĠmov ieĠ
Ġthing s.Ċ
peac eĠandĠ
** *
reason ĠthatĠ
earthqu ak
Des piteĠtheĠ
are Âł
aĠcr im
Å į
od or
aĠf und
word s,Ġ
L awĠ
encourag ingĠ
,ĠandĠ notĠ
And roid
re yĠ
areĠ aĠ
.ĠThisĠ willĠ
orsĠ ofĠtheĠ
r yĠandĠ
so ap
forĠtheĠs akeĠofĠ
,ĠandĠ wasĠ
peopl eĠdon'tĠ
democrac yĠ
ed on
youĠc omeĠ
oo z
n estĠ
wh y,Ġ
Christian ityĠ
<brĠ/ ><brĠ/>
wh etherĠtoĠ
from Ġw
every where
.ĠT im
cent reĠ
issu esĠandĠ
cas esĠofĠ
Ġc ountryĠ
ĠĠĠĠ P
sp ill
mind .Ċ
Eg g
Imper ialĠ
w ax
e );Ċ
up ward
find ingĠtheĠ
organiz ationalĠ
midd le
empl oyĠ
bookĠ isĠ
sĠ couldĠ
Ġweap onsĠ
- Âł
} {\
mak eĠthatĠ
ĠtooĠ lat
vastĠ majorityĠofĠ
bl end
Ġt icket
ific ation,Ġ
l b
sc and
pro claim
b arr
f attyĠ
se y
exact lyĠtheĠ
memb ers
O ilĠ
ĠĠĠĠ SoĠ
og etherĠ
countri es,Ġ
C lient
grow sĠ
r il
plac eĠtheĠ
At ĠthisĠ
Ġ I
auc tion
J ayĠ
Invest ig
,Ġ herĠ
eĠc ould
N ULL
. W
ĠtooĠ long
fromĠtheĠ t
Bu ildĠ
G PS
eĠofĠ anĠ
patientsĠ withĠ
Ġtim e-
demonstr ateĠ
ing eĠ
ot iveĠ
atĠtheĠ endĠ
onĠtheirĠ own
e,Ġ isĠ
cl ueĠ
.ĠTheyĠ canĠ
Sub scrib
beĠs ureĠtoĠ
Ġs oldi
prov ok
ignor eĠtheĠ
rec ess
Cont ain
encour agesĠ
op ard
Ġthis ĠtoĠ
den ot
distribut ionĠofĠ
forĠdec ad
befor eĠaĠ
sub stanceĠ
\ right
/ j
M akingĠ
Ä «
aĠ dayĠ
rit ualĠ
Jack son
.Âł TheĠ
compan iesĠthatĠ
sign alsĠ
/ *Ġ
as -
Ġp ush
backĠ ofĠ
it aĠ
sĠtheĠ t
includ ingĠaĠ
sinc eĠtheyĠ
Ġt ens
cal endar
an kingĠ
sm okeĠ
c ylind
persist entĠ
le ans
.ĠWhenĠ IĠ
refl ection
( i.e.Ġ
forĠm akingĠ
H i
b yĊ
fl ict
onesĠ whoĠ
th oseĠ
us e
e.ĠS o,Ġ
for given
NewĠ Year
bur i
incorpor ateĠ
ĠĠĠĠ {Ċ
at ĠtimesĠ
C raig
go -
T y
or sĊ
ro v
step pingĠ
[...]
