{"!":0,"\"":1,"#":2,"$":3,"%":4,"&":5,"'":6,"(":7,")":8,"*":9,"+":10,",":11,"-":12,".":13,"/":14,"0":15,"1":16,"2":17,"3":18,"4":19,"5":20,"6":21,"7":22,"8":23,"9":24,":":25,";":26,"<":27,"=":28,">":29,"?":30,"@":31,"A":32,"B":33,"C":34,"D":35,"E":36,"F":37,"G":38,"H":39,"I":40,"J":41,"K":42,"L":43,"M":44,"N":45,"O":46,"P":47,"Q":48,"R":49,"S":50,"T":51,"U":52,"V":53,"W":54,"X":55,"Y":56,"Z":57,"[":58,"\\":59,"]":60,"^":61,"_":62,"`":63,"a":64,"b":65,"c":66,"d":67,"e":68,"f":69,"g":70,"h":71,"i":72,"j":73,"k":74,"l":75,"m":76,"n":77,"o":78,"p":79,"q":80,"r":81,"s":82,"t":83,"u":84,"v":85,"w":86,"x":87,"y":88,"z":89,"{":90,"|":91,"}":92,"~":93,"¡":94,"¢":95,"£":96,"¤":97,"¥":98,"¦":99,"§":100,"¨":101,"©":102,"ª":103,"«":104,"¬":105,"®":106,"¯":107,"°":108,"±":109,"²":110,"³":111,"´":112,"µ":113,"¶":114,"·":115,"¸":116,"¹":117,"º":118,"»":119,"¼":120,"½":121,"¾":122,"¿":123,"Â":124,"Ã":125,"Ä":126,"Å":127,"Æ":128,"Ç":129,"È":130,"É":131,"Ê":132,"Ë":133,"Ì":134,"Í":135,"Î":136,"Ï":137,"Ð":138,"Ñ":139,"Ò":140,"Ó":141,"Ô":142,"Õ":143,"Ö":144,"×":145,"Ø":146,"Ù":147,"Ú":148,"Û":149,"Ü":150,"Ý":151,"Þ":152,"ß":153,"à":154,"á":155,"â":156,"ã":157,"ä":158,"å":159,"æ":160,"ç":161,"è":162,"é":163,"ê":164,"ë":165,"ì":166,"í":167,"î":168,"ï":169,"ð":170,"ñ":171,"ò":172,"ó":173,"ô":174,"Ā":175,"ā":176,"Ă":177,"ă":178,"Ą":179,"ą":180,"Ć":181,"ć":182,"Ĉ":183,"ĉ":184,"Ċ":185,"ċ":186,"Č":187,"č":188,"Ď":189,"ď":190,"Đ":191,"đ":192,"Ē":193,"ē":194,"Ĕ":195,"ĕ":196,"Ė":197,"ė":198,"Ę":199,"ę":200,"Ě":201,"ě":202,"Ĝ":203,"ĝ":204,"Ğ":205,"ğ":206,"Ġ":207,"ġ":208,"Ģ":209,"ģ":210,"Ĥ":211,"ĥ":212,"Ħ":213,"ħ":214,"Ĩ":215,"ĩ":216,"Ī":217,"ī":218,"Ĭ":219,"ĭ":220,"Į":221,"į":222,"İ":223,"ı":224,"Ĳ":225,"ĳ":226,"Ĵ":227,"ĵ":228,"Ķ":229,"ķ":230,"ĸ":231,"Ĺ":232,"ĺ":233,"Ļ":234,"ļ":235,"Ľ":236,"ľ":237,"Ŀ":238,"ŀ":239,"Ł":240,"ł":241,"Ń":242,"eĠ":243,"Ġt":244,"sĠ":245,"in":246,"Ġth":247,"tĠ":248,"er":249,"an":250,"dĠ":251,"on":252,"en":253,"or":254,"yĠ":255,"ĠtheĠ":256,",Ġ":257,"ou":258,"ar":259,"oĠ":260,"al":261,"at":262,"ing":263,"re":264,".Ġ":265,"th":266,"of":267,"st":268,"aĠ":269,"ĠĠ":270,"it":271,"ic":272,"andĠ":273,"ingĠ":274,"es":275,"om":276,"ion":277,"edĠ":278,"isĠ":279,"ĠtoĠ":280,"erĠ":281,"el":282,"ofĠ":283,"il":284,"ac":285,"atĠ":286,"is":287,"as":288,".Ċ":289,"ow":290,"ed":291,"esĠ":292,"ec":293,"for":294,"inĠ":295,"ha":296,"âĢ":297,"wh":298,"you":299,"ol":300,"us":301,"anĠ":302,"ch":303,"im":304,"Th":305,"veĠ":306,"ent":307,"pl":308,"ro":309,"em":310,"all":311,"et":312,"am":313,"alĠ":314,"ur":315,"asĠ":316,"ig":317,"enĠ":318,"id":319,"ĠĠĠĠ":320,"ir":321,"ab":322,"Ġs":323,"ith":324,"un":325,"eĠth":326,"ad":327,"Ġw":328,"ev":329,"os":330,"Ġc":331,"ĠthatĠ":332,"ation":333,"ag":334,"itĠ":335,"ul":336,"Âł":337,"and":338,"if":339,"ex":340,"Ġm":341,"ay":342,"areĠ":343,"le":344,"no":345,"kĠ":346,"pro":347,"eĠt":348,"ill":349,"oo":350,"Ġb":351,"with":352,"ut":353,"lyĠ":354,"Ġthe":355,"iv":356,".ĠTh":357,"res":358,"entĠ":359,"ofĠtheĠ":360,"Ġd":361,"fr":362,"con":363,"ap":364,"op":365,"com":366,"int":367,"eĠs":368,"e,Ġ":369,"âĢĻ":370,"ak":371,"igh":372,"onĠ":373,".ĠI":374,"orĠ":375,"ereĠ":376,"um":377,"s,Ġ":378,"forĠ":379,"ear":380,"oul":381,"ver":382,"Ġto":383,"haveĠ":384,"up":385,"li":386,"be":387,"hĠ":388,"'sĠ":389,"sh":390,"oun":391,"qu":392,"ect":393,"beĠ":394,"our":395,"ri":396,"oc":397,"inĠtheĠ":398,"ep":399,"utĠ":400,"act":401,"ne":402,"ayĠ":403,"ouldĠ":404,"nĠ":405,"bl":406,"per":407,"ot":408,"est":409,"notĠ":410,"from":411,"ĠandĠ":412,"uc":413,"oth":414,":Ġ":415,"outĠ":416,"eĠw":417,"your":418,"ist":419,"ell":420,"enc":421,"ant":422,"ionĠ":423,"IĠ":424,"od":425,"youĠ":426,"se":427,"allyĠ":428,"ĠthisĠ":429,"ersĠ":430,"oneĠ":431,"gr":432,"wor":433,"cl":434,"pe":435,"art":436,"ess":437,"oug":438,"eĠtoĠ":439,"ain":440,"pr":441,"eĠtheĠ":442,"withĠ":443,"ef":444,"eĠofĠ":445,"anc":446,"end":447,"now":448,"iveĠ":449,"su":450,"etĠ":451,"leĠ":452,"Ġtr":453,"soĠ":454,"TheĠ":455,"ĠtheyĠ":456,"edĠtoĠ":457,"ud":458,".ĠA":459,"y,Ġ":460,"out":461,"lik":462,"Ġh":463,"Wh":464,"ind":465,"str":466,"ationĠ":467,"byĠ":468,"ateĠ":469,"ong":470,",ĠtheĠ":471,"00":472,"av":473,"wasĠ":474,"por":475,"ang":476,"lo":477,"rec":478,"mor":479,"butĠ":480,"ter":481,"go":482,",ĠandĠ":483,"sĠandĠ":484,"tr":485,"'tĠ":486,"Ġthat":487,"ĠĠĠĠĠĠĠĠ":488,"âĢĻsĠ":489,"ustĠ":490,"Ġtheir":491,"ever":492,"sĠofĠ":493,"eĠd":494,"Ġp":495,"ityĠ":496,"anyĠ":497,"ew":498,"sp":499,"we":500,"som":501,"iz":502,"hisĠ":503,"ingĠtheĠ":504,"icĠ":505,"eĠc":506,"chĠ":507,"ov":508,"ough":509,"af":510,"ers":511,"ass":512,"whic":513,"e.Ġ":514,"hasĠ":515,"aw":516,"eĠm":517,"illĠ":518,"ightĠ":519,"og":520,"ack":521,"ĠtoĠtheĠ":522,"aus":523,"form":524,"iesĠ":525,"pos":526,")Ġ":527,"opl":528,"eth":529,"ight":530,"he":531,"..":532,"ard":533,"idĠ":534,".ĠTheĠ":535,"otherĠ":536,"ip":537,"fĠ":538,"ostĠ":539,"eyĠ":540,"fer":541,"terĠ":542,"ob":543,"eĠandĠ":544,"es,Ġ":545,"allĠ":546,"der":547,"onĠtheĠ":548,"ment":549,"ast":550,"how":551,"inc":552,"fromĠ":553,"know":554,"?Ġ":555,"peopl":556,"s.Ġ":557,"aĠs":558,"âĢľ":559,"âĢĿ":560,"e.Ċ":561,"whoĠ":562,"ÂłĠ":563,"sĠtoĠ":564,"Ġthem":565,"estĠ":566,"ingĠtoĠ":567,"adĠ":568,"do":569,"oll":570,"yourĠ":571,"ath":572,"ens":573,"po":574,"br":575,"bec":576,"whatĠ":577,"tion":578,"fl":579,"?Ċ":580,"Ġwith":581,"aboutĠ":582,"mak":583,"over":584,"vi":585,"Ġtim":586,"ach":587,"par":588,"myĠ":589,"canĠ":590,"icalĠ":591,"ail":592,"essĠ":593,"pre":594,"ug":595,"justĠ":596,"ult":597,"ans":598,"ure":599,"port":600,"ĠtheĠs":601,"atedĠ":602,"St":603,"ialĠ":604,"In":605,"ly":606,"ĠofĠ":607,"dr":608,"hadĠ":609,"ph":610,"own":611,"elyĠ":612,"eas":613,"ook":614,"duc":615,"pres":616,"tĠofĠ":617,"ainĠ":618,"andĠtheĠ":619,"whenĠ":620,"inter":621,"\"Ġ":622,"year":623,"new":624,"heĠ":625,"Ch":626,"Ġf":627,"oodĠ":628,"itsĠ":629,"sel":630,"dis":631,".ĠS":632,"alsoĠ":633,"way":634,"s.Ċ":635,"ÂłÂł":636,"arg":637,"mĠ":638,"ifĠ":639,"ust":640,"antĠ":641,"eĠaĠ":642,"ousĠ":643,"eg":644,"beenĠ":645,"rit":646,"ound":647,".ĠH":648,"arĠ":649,"lin":650,"ign":651,"ous":652,"herĠ":653,"stĠ":654,"ureĠ":655,"di":656,"ĠcanĠ":657,"sc":658,"noĠ":659,"-Ġ":660,"acc":661,"att":662,"You":663,"mentĠ":664,"off":665,"not":666,"fir":667,"ĠthereĠ":668,"whichĠ":669,"eĠthatĠ":670,")Ċ":671,"usĠ":672,"sid":673,"abl":674,"astĠ":675,"forĠtheĠ":676,"aĠm":677,"An":678,"ity":679,"ish":680,"ĠwasĠ":681,"getĠ":682,"fin":683,"atĠtheĠ":684,"rem":685,"aryĠ":686,"ition":687,"si":688,"ere":689,"Ġtak":690,"ey":691,"ameĠ":692,"ĠtheirĠ":693,"rel":694,"cont":695,"01":696,"reat":697,"fe":698,"onlyĠ":699,"de":700,"work":701,":Ċ":702,"comm":703,"aĠc":704,"ick":705,"oundĠ":706,"but":707,"ful":708,"erv":709,"sĠareĠ":710,"ableĠ":711,"weĠ":712,"moreĠ":713,"wereĠ":714,"aĠb":715,"ies":716,"Ġthin":717,"hap":718,"get":719,"ord":720,"comp":721,"any":722,"everĠ":723,"ageĠ":724,"ackĠ":725,"owĠ":726,"âĢ¢":727,"evel":728,"itt":729,".ĠB":730,"mostĠ":731,"edĠtheĠ":732,"wouldĠ":733,"him":734,",ĠbutĠ":735,"n'tĠ":736,"doĠ":737,"âĢĻtĠ":738,"reas":739,"me":740,"veryĠ":741,"ourĠ":742,"becaus":743,"ener":744,"yĠtheĠ":745,"Ġ(":746,"aĠl":747,"read":748,"omeĠ":749,"eseĠ":750,"likeĠ":751,"hel":752,"sĠtheĠ":753,"thĠ":754,"part":755,"ll":756,"oseĠ":757,"er,Ġ":758,"Ġcon":759,"sĠthatĠ":760,".ĠItĠ":761,"yst":762,"iffer":763,"I'":764,"âĢ¢Ġ":765,"intoĠ":766,"eĊ":767,"ire":768,"sĊ":769,"oĠtheĠ":770,"Ġthr":771,"min":772,"aĠf":773,"--":774,"evenĠ":775,"peopleĠ":776,"ookĠ":777,"ĠisĠ":778,"emb":779,"ing,Ġ":780,"bet":781,"ark":782,"prov":783,"edĠbyĠ":784,"yp":785,"day":786,".ÂłĠ":787,"ownĠ":788,"ardĠ":789,"ret":790,"eng":791,"toĠ":792,"under":793,"enceĠ":794,"will":795,"reg":796,"fromĠtheĠ":797,"ari":798,"ed,Ġ":799,"edĠinĠ":800,"oldĠ":801,"ub":802,"iceĠ":803,"sĠinĠ":804,"woĠ":805,"plac":806,"oughĠ":807,"ood":808,"reĠ":809,"cr":810,"which":811,"endĠ":812,"ectĠ":813,"chang":814,"upĠ":815,"aid":816,"add":817,"ide":818,"isĠtheĠ":819,".ĠThisĠ":820,"man":821,"iĠ":822,"elĠ":823,"pers":824,"on'tĠ":825,"inv":826,"app":827,"ost":828,"air":829,"well":830,"urn":831,"lif":832,"oryĠ":833,"gu":834,",Ġth":835,"10":836,"entsĠ":837,"mer":838,"olog":839,"Ġcom":840,"ĠĠâĢ¢Ġ":841,"high":842,"des":843,"ert":844,"ict":845,"ext":846,"kingĠ":847,"produc":848,"mon":849,"ileĠ":850,"Ġsh":851,"umb":852,"mu":853,"asĠtheĠ":854,"cho":855,"e-":856,"eĠwasĠ":857,"ystem":858,"help":859,"uallyĠ":860,"lear":861,"bu":862,"about":863,"Un":864,"old":865,"econ":866,"fect":867,"esĠandĠ":868,"stat":869,"ĠthanĠ":870,"arr":871,"yĠtoĠ":872,"so":873,"ific":874,"someĠ":875,"impl":876,"ount":877,"ingsĠ":878,"withĠtheĠ":879,"play":880,"her":881,"aĠg":882,"ech":883,"bas":884,"\"Ċ":885,"ĠwithĠ":886,";Ġ":887,"und":888,"long":889,"differ":890,"ubl":891,"clud":892,"itĠisĠ":893,"!Ġ":894,"On":895,"pol":896,".ĠW":897,"willĠ":898,"amĠ":899,"ĠthatĠtheĠ":900,"whereĠ":901,"ax":902,"WhatĠ":903,"fac":904,"Con":905,"gl":906,"eb":907,"iteĠ":908,"IĠw":909,"pt":910,"ualĠ":911,"pon":912,"requ":913,"ial":914,".ĠM":915,"oy":916,"overĠ":917,"achĠ":918,"dec":919,"ĠinĠ":920,"enĠtheĠ":921,"reallyĠ":922,"tingĠ":923,"ann":924,"esĠofĠ":925,"a,Ġ":926,"eĠinĠ":927,".ĠAn":928,"ock":929,"aveĠ":930,"stud":931,"eĠisĠ":932,"nam":933,"are":934,"happ":935,"firstĠ":936,"compl":937,"it'sĠ":938,"eep":939,"ewĠ":940,"sur":941,"sup":942,"istĠ":943,"again":944,"ampl":945,"mat":946,"look":947,"ement":948,"!Ċ":949,"ould":950,"cre":951,"def":952,"ionsĠ":953,"ject":954,"ansĠ":955,"every":956,"back":957,"eli":958,"fact":959,"inst":960,"includ":961,"beingĠ":962,"=Ġ":963,";Ċ":964,"peri":965,"AĠ":966,"youĠw":967,"oft":968,"val":969,"manyĠ":970,"dat":971,"ank":972,"IĠd":973,"proc":974,"iss":975,"stor":976,"aĠt":977,"cor":978,"cur":979,"self":980,"ThisĠ":981,"âĢĿĠ":982,".ĠIĠ":983,"antĠtoĠ":984,"theĠ":985,"az":986,"cas":987,"âĢĵ":988,"stand":989,"esĠtoĠ":990,".ĠF":991,"exp":992,"med":993,"anceĠ":994,"ib":995,"edĠb":996,"run":997,"ionĠofĠ":998,"atingĠ":999,"ationsĠ":1000,"tim":1001,"quest":1002,"arm":1003,"befor":1004,"leg":1005,"thingĠ":1006,"ineĠ":1007,"wat":1008,"start":1009,"ys":1010,"otĠ":1011,"worl":1012,"isĠaĠ":1013,"indĠ":1014,"ÂłĊ":1015,"ship":1016,"blem":1017,"co":1018,"ingĠaĠ":1019,"ementĠ":1020,"numb":1021,"iaĠ":1022,"org":1023,"Ar":1024,"Tr":1025,"Com":1026,"hav":1027,"suchĠ":1028,"ek":1029,"other":1030,"fun":1031,"afterĠ":1032,"hear":1033,"lat":1034,"e.":1035,"chil":1036,"ik":1037,"fil":1038,"person":1039,"say":1040,"pow":1041,"ĠS":1042,"âĢĶ":1043,"gener":1044,"nat":1045,"oup":1046,"bo":1047,"20":1048,"need":1049,"serv":1050,"),Ġ":1051,"ofĠth":1052,"sl":1053,"ilyĠ":1054,"Al":1055,"eĠofĠtheĠ":1056,"problem":1057,"alth":1058,"ash":1059,"aidĠ":1060,"ular":1061,"ept":1062,"evelop":1063,"mad":1064,"ric":1065,"ros":1066,"ĠthenĠ":1067,"Fr":1068,"es.Ċ":1069,"fic":1070,"ix":1071,"ingĠandĠ":1072,"Ġmor":1073,"meric":1074,"bleĠ":1075,".ĠIn":1076,"ollow":1077,"En":1078,"artĠ":1079,"reeĠ":1080,"issu":1081,"mayĠ":1082,"spec":1083,"ok":1084,"rat":1085,"right":1086,"sub":1087,"car":1088,"esĠtheĠ":1089,"ĠtwoĠ":1090,"provid":1091,"Americ":1092,"giv":1093,"newĠ":1094,"vis":1095,"sm":1096,".ĠTheyĠ":1097,"unt":1098,"contr":1099,"ouldĠbeĠ":1100,"olut":1101,"orsĠ":1102,"vers":1103,"ask":1104,"abil":1105,"wer":1106,".ĠWh":1107,"view":1108,"ort":1109,"dayĠ":1110,"struc":1111,"erĠofĠ":1112,".ĠP":1113,"tyĠ":1114,"12":1115,"s,ĠandĠ":1116,"goĠ":1117,"what":1118,"expl":1119,"reatĠ":1120,"rect":1121,"keep":1122,"equ":1123,"ueĠ":1124,"becauseĠ":1125,"had":1126,"cri":1127,"import":1128,"ident":1129,"ianĠ":1130,"hum":1131,"pec":1132,"youĠcanĠ":1133,".ĠN":1134,"prot":1135,"edĠandĠ":1136,"ItĠ":1137,"hand":1138,"ress":1139,"ĠthinkĠ":1140,"o,Ġ":1141,"ĠtoĠbeĠ":1142,"loc":1143,"writ":1144,"mod":1145,"Ġte":1146,"publ":1147,"liv":1148,"ra":1149,"possi":1150,"you'":1151,"y.Ċ":1152,"uth":1153,"asĠaĠ":1154,"rightĠ":1155,"ĠbeĠ":1156,"knowĠ":1157,"Ġbe":1158,"respon":1159,"neverĠ":1160,"alway":1161,"ĠthemĠ":1162,"ĠmyĠ":1163,"yĠandĠ":1164,"inform":1165,"ningĠ":1166,"call":1167,"ourc":1168,"betwe":1169,"Ġthis":1170,"ilĠ":1171,"fri":1172,"erĠandĠ":1173,"Ġthrough":1174,"ris":1175,"point":1176,"ableĠtoĠ":1177,"someth":1178,"Ġthink":1179,"haveĠtoĠ":1180,"exampl":1181,"oveĠ":1182,",Ċ":1183,"goodĠ":1184,"Sh":1185,"down":1186,"ym":1187,"follow":1188,"elect":1189,"lessĠ":1190,"put":1191,"Re":1192,"fam":1193,"ed.Ċ":1194,"real":1195,"workĠ":1196,".ĠD":1197,"everyĠ":1198,"bod":1199,"pat":1200,"howĠ":1201,"nâĢĻtĠ":1202,"ern":1203,"gam":1204,"11":1205,"appl":1206,"ÂłÂłÂłÂł":1207,"actĠ":1208,"echn":1209,"mov":1210,"exc":1211,"group":1212,"How":1213,"conc":1214,"needĠtoĠ":1215,"err":1216,"eĠsh":1217,"ism":1218,"aut":1219,".ĠIt":1220,"000":1221,"inĠaĠ":1222,"ishĠ":1223,"ingĠthatĠ":1224,"ally":1225,"gover":1226,"lead":1227,"erm":1228,"e,ĠandĠ":1229,"ĠĠĠĠĠĠĠĠĠĠĠĠĠĠĠĠ":1230,"press":1231,"able":1232,"ĠM":1233,"ationĠofĠ":1234,"makeĠ":1235,"icallyĠ":1236,"ittleĠ":1237,"ationalĠ":1238,"Ġtrans":1239,"wayĠ":1240,"buil":1241,"ĠĠĠĠĠĠ":1242,"orĠs":1243,"level":1244,"ah":1245,",ĠtheyĠ":1246,"oci":1247,"portĠ":1248,"iel":1249,"It":1250,"govern":1251,"char":1252,"ump":1253,"eir":1254,"det":1255,"extĠ":1256,"intĠ":1257,"SĠ":1258,"Ġthough":1259,"experi":1260,"entlyĠ":1261,"ĠtimeĠ":1262,"let":1263,"useĠ":1264,"vari":1265,".ĠÂł":1266,".ĠInĠ":1267,".ĠYou":1268,"bre":1269,"omĠ":1270,"ativeĠ":1271,"lim":1272,"Ex":1273,"usedĠ":1274,"don":1275,"cons":1276,"itĠwasĠ":1277,"red":1278,"ĉĉ":1279,"feel":1280,"eachĠ":1281,"chool":1282,"eĠtheyĠ":1283,"col":1284,"alwaysĠ":1285,".ĠIfĠ":1286,"...Ċ":1287,"čĊ":1288,"low":1289,"forc":1290,"alk":1291,"usin":1292,"esĠthatĠ":1293,"sk":1294,"seem":1295,"15":1296,"Pro":1297,"increas":1298,"law":1299,"ellĠ":1300,"cap":1301,"seĠ":1302,"vir":1303,"âĢ¦":1304,"InĠ":1305,"itedĠ":1306,"dep":1307,"Ġwor":1308,"goingĠtoĠ":1309,"allĠtheĠ":1310,"both":1311,"couldĠ":1312,"allow":1313,".\"Ċ":1314,"amp":1315,"ull":1316,"haveĠbeenĠ":1317,"can":1318,"anotherĠ":1319,"wher":1320,"ĠtheseĠ":1321,"intoĠtheĠ":1322,"Ġcan":1323,"alsĠ":1324,".ĠT":1325,"beg":1326,"seeĠ":1327,"itiesĠ":1328,"esĠareĠ":1329,"olv":1330,"disc":1331,".ĠAndĠ":1332,"ins":1333,"just":1334,"backĠ":1335,"effect":1336,"bab":1337,"adv":1338,"differentĠ":1339,"lookĠ":1340,"partic":1341,"ia":1342,"eĠtr":1343,"llĠ":1344,"youĠareĠ":1345,"whyĠ":1346,"yearsĠ":1347,"develop":1348,"usingĠ":1349,"stillĠ":1350,".ĠL":1351,"rop":1352,"lef":1353,"eveĠ":1354,".ĠO":1355,"larg":1356,"happen":1357,"nor":1358,"iousĠ":1359,"valu":1360,"ient":1361,"canĠbeĠ":1362,"ickĠ":1363,"ĠbyĠ":1364,"prof":1365,"aj":1366,"pur":1367,"lastĠ":1368,"ideĠ":1369,"youĠd":1370,"assĠ":1371,"IfĠ":1372,"meĠ":1373,"ĠA":1374,"whileĠ":1375,"aug":1376,"ĠthoseĠ":1377,"aint":1378,"findĠ":1379,"ation,Ġ":1380,"muchĠ":1381,"uf":1382,"aĠh":1383,"ett":1384,"ing.Ċ":1385,"pop":1386,"dist":1387,"giveĠ":1388,"ct":1389,"ott":1390,"iallyĠ":1391,"ivers":1392,"eĠcanĠ":1393,"was":1394,"gram":1395,"aĠlo":1396,"forĠs":1397,"much":1398,"//":1399,"los":1400,"30":1401,"yĠofĠ":1402,"actuallyĠ":1403,"beli":1404,"inu":1405,"cour":1406,"show":1407,"ĠP":1408,"cent":1409,"putĠ":1410,"99":1411,"empl":1412,"fort":1413,".ĠC":1414,"e:Ġ":1415,"aboutĠtheĠ":1416,"...":1417,"uck":1418,"appro":1419,"charact":1420,"aph":1421,"Ġse":1422,"consid":1423,"ButĠ":1424,"esĠinĠ":1425,"struct":1426,"ivid":1427,"ĠasĠ":1428,"eĠto":1429,"aroundĠ":1430,"en,Ġ":1431,"ly,Ġ":1432,"ĠC":1433,"caus":1434,"yĊ":1435,"system":1436,"ome":1437,"ĠtakeĠ":1438,"ser":1439,"coun":1440,",Ġt":1441,"andĠt":1442,"edĠthatĠ":1443,"ĠtooĠ":1444,".ĠButĠ":1445,"fre":1446,"emberĠ":1447,"aim":1448,"forĠaĠ":1449,"Ġme":1450,"mark":1451,"odĠ":1452,"Jo":1453,"esĊ":1454,"hasĠbeenĠ":1455,"ribut":1456,".ĠE":1457,"imag":1458,"friend":1459,"ifi":1460,"Ġthey":1461,"therĠ":1462,"pass":1463,"ever,Ġ":1464,"list":1465,"ox":1466,"beĠs":1467,"interest":1468,"sĠofĠtheĠ":1469,"âĢĺ":1470,"edg":1471,"atesĠ":1472,"one":1473,"said":1474,").Ċ":1475,"yingĠ":1476,"ucc":1477,"IĠwasĠ":1478,"ion,Ġ":1479,"clos":1480,"50":1481,"bestĠ":1482,"reason":1483,"ink":1484,"doesĠ":1485,"eĠthanĠ":1486,"earch":1487,"big":1488,"stop":1489,"some":1490,"For":1491,"order":1492,"activ":1493,"sĠ(":1494,"ityĠofĠ":1495,"result":1496,"net":1497,"whil":1498,"edĠwithĠ":1499,"withoutĠ":1500,"ather":1501,"asĠwell":1502,"ush":1503,"uralĠ":1504,"leas":1505,"ustr":1506,"non":1507,"ĠB":1508,"wom":1509,"product":1510,"gotĠ":1511,"13":1512,"job":1513,"inn":1514,"gen":1515,"init":1516,"sit":1517,"oftenĠ":1518,"ultĠ":1519,"appear":1520,"aĠd":1521,"organ":1522,"Ġdo":1523,"s.":1524,"isĠnotĠ":1525,"does":1526,"it,Ġ":1527,"I'mĠ":1528,"etherĠ":1529,"ecaus":1530,"comeĠ":1531,".Ġ\"":1532,"erg":1533,"rev":1534,"ingĠinĠ":1535,"nect":1536,"'Ġ":1537,"ereĠareĠ":1538,"ers,Ġ":1539,"sheĠ":1540,"Gr":1541,"still":1542,"**":1543,"less":1544,"eĠthisĠ":1545,"jo":1546,"14":1547,"inceĠ":1548,"Ġtyp":1549,"augh":1550,"ipl":1551,"perform":1552,"akeĠ":1553,"action":1554,"AndĠ":1555,"âĢĿĊ":1556,"ongĠ":1557,"pret":1558,"sĠforĠ":1559,"on,Ġ":1560,"Mar":1561,"hard":1562,"dur":1563,"dem":1564,"artic":1565,"ual":1566,"after":1567,"post":1568,"hist":1569,"Br":1570,"16":1571,"ity,Ġ":1572,"Ġthere":1573,"]Ġ":1574,"day,Ġ":1575,"somethingĠ":1576,"kill":1577,"head":1578,"ian":1579,"experienc":1580,"world":1581,".ĠR":1582,"betweenĠ":1583,"prom":1584,"curr":1585,"US":1586,"youĠhaveĠ":1587,"Ph":1588,"edĠbyĠtheĠ":1589,"ction":1590,"complet":1591,"polit":1592,"forĠm":1593,"light":1594,"IĠhaveĠ":1595,"shouldĠ":1596,"ieĠ":1597,"edĠinĠtheĠ":1598,"war":1599,"fig":1600,"eĠtoĠtheĠ":1601,"ĠthroughĠ":1602,"Ad":1603,"Pr":1604,"eful":1605,"nowĠ":1606,"ionalĠ":1607,"question":1608,"oneĠofĠtheĠ":1609,"alread":1610,"bor":1611,"onc":1612,"childr":1613,"erĠtoĠ":1614,"Cl":1615,"iseĠ":1616,"present":1617,"ienc":1618,"redĠ":1619,"'t":1620,"yn":1621,"simpl":1622,"__":1623,"commun":1624,"eat":1625,"itâĢĻsĠ":1626,"econom":1627,"grow":1628,"offic":1629,"ĠD":1630,"word":1631,"perĠ":1632,"log":1633,"needĠ":1634,"require":1635,",ĠthereĠ":1636,"ĠcouldĠ":1637,"to":1638,"WhenĠ":1639,"aĠp":1640,"eĠtim":1641,"eith":1642,"WeĠ":1643,"ignĠ":1644,"land":1645,"rac":1646,"18":1647,"tĠofĠtheĠ":1648,"umĠ":1649,"room":1650,"iqu":1651,"ng":1652,"program":1653,"auth":1654,"eal":1655,"olĠ":1656,"posit":1657,"er.Ċ":1658,"cal":1659,"invest":1660,"ond":1661,"creat":1662,"rist":1663,"spe":1664,"ustom":1665,"sign":1666,"ireĠ":1667,"oper":1668,"plan":1669,"edĠonĠ":1670,"loveĠ":1671,"find":1672,",ĠthatĠ":1673,"nec":1674,"selfĠ":1675,"e'sĠ":1676,"mus":1677,"vent":1678,"suchĠasĠ":1679,"byĠtheĠ":1680,"mar":1681,"pract":1682,"when":1683,"miss":1684,"outĠofĠ":1685,"chec":1686,"ally,Ġ":1687,"each":1688,"pect":1689,"whol":1690,"mightĠ":1691,"icsĠ":1692,"erc":1693,"etim":1694,"step":1695,"IâĢĻ":1696,"urnĠ":1697,"Ġthan":1698,"Or":1699,"yl":1700,"ĠtoĠt":1701,"probab":1702,"ead":1703,"near":1704,"ateg":1705,");Ċ":1706,"ativ":1707,"inalĠ":1708,"hom":1709,"IĠs":1710,"madeĠ":1711,"ingĠt":1712,"Ġbet":1713,"bro":1714,"manĠ":1715,"health":1716,"uchĠ":1717,"ĠmoreĠ":1718,"]Ċ":1719,"SoĠ":1720,"didĠ":1721,"consider":1722,"25":1723,"idd":1724,"rul":1725,"ernĠ":1726,"ies,Ġ":1727,"ofĠthisĠ":1728,"enough":1729,"ream":1730,"kindĠ":1731,"ocialĠ":1732,"isĠthatĠ":1733,"beforeĠ":1734,"yĠt":1735,"ingĠofĠ":1736,"around":1737,"ĠmayĠ":1738,"sec":1739,"ĠbutĠ":1740,"anal":1741,"ĠtheyĠareĠ":1742,"lineĠ":1743,"ryĠ":1744,"individ":1745,"worldĠ":1746,",ĠthisĠ":1747,"eĠwor":1748,"e,ĠtheĠ":1749,"ToĠ":1750,"sĠt":1751,"foundĠ":1752,"process":1753,"imil":1754,"sĠinĠtheĠ":1755,"overĠtheĠ":1756,"itch":1757,"del":1758,"ER":1759,"ical":1760,"readĠ":1761,"'reĠ":1762,"ator":1763,"eadĠ":1764,"graph":1765,"dition":1766,"pot":1767,"pris":1768,"selv":1769,"is,Ġ":1770,"ication":1771,"himĠ":1772,"realĠ":1773,"NewĠ":1774,"17":1775,"izedĠ":1776,"itut":1777,"inĠthisĠ":1778,".ÂłĊ":1779,"cert":1780,"rip":1781,"Qu":1782,"Ġthes":1783,".ĠHow":1784,"eĠthat":1785,"19":1786,"aysĠ":1787,"alreadyĠ":1788,"idn'tĠ":1789,"learn":1790,"edĠtoĠtheĠ":1791,"YouĠ":1792,"ermin":1793,"ham":1794,"againstĠ":1795,"tt":1796,"set":1797,"Wor":1798,"orig":1799,"energ":1800,"becom":1801,"atherĠ":1802,"met":1803,"hop":1804,"ont":1805,"Ġcl":1806,"}Ċ":1807,"imp":1808,"nextĠ":1809,"ble":1810,"akĠ":1811,"qual":1812,"angu":1813,"ientĠ":1814,"ine":1815,"isĠtoĠ":1816,"book":1817,"eĠtheĠs":1818,"ularĠ":1819,"i-":1820,"awayĠ":1821,"full":1822,"mil":1823,"echnolog":1824,"first":1825,"exist":1826,"edĠaĠ":1827,"enef":1828,"ĠT":1829,"age":1830,"hal":1831,"flu":1832,"uss":1833,"want":1834,"rew":1835,"----":1836,"atch":1837,"expect":1838,"downĠ":1839,"onâĢĻtĠ":1840,"irl":1841,"e,ĠbutĠ":1842,"setĠ":1843,"Ġthing":1844,"Bl":1845,"employ":1846,"onĠs":1847,"good":1848,"reduc":1849,"ingĠs":1850,"isc":1851,"playĠ":1852,"even":1853,"sĠaĠ":1854,"eĠtheir":1855,".ĠG":1856,"continu":1857,"event":1858,"pointĠ":1859,"empt":1860,"atelyĠ":1861,"ersĠandĠ":1862,"has":1863,"gettingĠ":1864,"Ġther":1865,"letĠ":1866,"adeĠ":1867,"ely":1868,"whichĠisĠ":1869,"yourĠb":1870,"probablyĠ":1871,"offĠ":1872,"wr":1873,"mun":1874,"ouslyĠ":1875,"Ġcont":1876,"atĠle":1877,"vot":1878,"it.Ċ":1879,"humanĠ":1880,"class":1881,"underst":1882,"aud":1883,"proper":1884,"wouldĠbeĠ":1885,"ures":1886,"AmericanĠ":1887,"ref":1888,".\"Ġ":1889,"youâĢĻ":1890,"econdĠ":1891,"hous":1892,"bodyĠ":1893,"young":1894,"gest":1895,"oot":1896,">Ġ":1897,",\"":1898,"ron":1899,"pay":1900,"hereĠ":1901,"ĠtoĠs":1902,"comment":1903,"medi":1904,"lov":1905,"avail":1906,"ĠwouldĠ":1907,"Le":1908,"IN":1909,"everalĠ":1910,"refer":1911,"open":1912,"direct":1913,"anim":1914,"withĠaĠ":1915,"ankĠ":1916,"cle":1917,",Ġs":1918,"ument":1919,"Ġmon":1920,"identĠ":1921,"governmentĠ":1922,"relation":1923,"yingĠtoĠ":1924,"urr":1925,"sĠonĠ":1926,"Ġwill":1927,"my":1928,"rece":1929,".ĠOn":1930,"wantĠtoĠ":1931,"don'tĠ":1932,"numberĠofĠ":1933,"pri":1934,"endingĠ":1935,"Ġwe":1936,"s:Ġ":1937,"mean":1938,"great":1939,"24":1940,".Ġ(":1941,"akingĠ":1942,"ities":1943,"busin":1944,",ĠthenĠ":1945,"olution":1946,"outĠtheĠ":1947,",ĠtoĠ":1948,"aĠandĠ":1949,"eĠthem":1950,"eptĠ":1951,"tern":1952,"understand":1953,"heĠwasĠ":1954,"hy":1955,"eĠwouldĠ":1956,"jectĠ":1957,"norm":1958,"ityĠtoĠ":1959,"ps":1960,"*Ġ":1961,"fiel":1962,"week":1963,"Pl":1964,"fectĠ":1965,"andĠthenĠ":1966,"{Ċ":1967,"lookingĠ":1968,"vide":1969,"educ":1970,"dom":1971,"lab":1972,"report":1973,"usedĠtoĠ":1974,"pi":1975,"return":1976,"rol":1977,"greatĠ":1978,"Ġtog":1979,"ForĠ":1980,"e_":1981,"erĊ":1982,"ated":1983,"littleĠ":1984,"kid":1985,"italĠ":1986,"aceĠ":1987,"mag":1988,"ĠatĠ":1989,"hor":1990,"s.ĠTh":1991,"ioĠ":1992,".ĠIt'sĠ":1993,"ĠweĠ":1994,"edĠasĠ":1995,"underĠ":1996,"ĠwillĠ":1997,"an,Ġ":1998,"Sp":1999,")ĠandĠ":2000,"necess":2001,"ĠR":2002,"ĠthingsĠ":2003,"top":2004,"bin":2005,"startĠ":2006,"100":2007,"21":2008,"doc":2009,"I'veĠ":2010,"ĠĠĠĠĠĠĠĠĠĠĠĠ":2011,"viron":2012,"ĠofĠtheĠ":2013,"ich":2014,"Dr":2015,"ometh":2016,"goingĠ":2017,"build":2018,"kindĠofĠ":2019,"ionĠofĠtheĠ":2020,"haveĠaĠ":2021,"uresĠ":2022,"bi":2023,"bit":2024,"claim":2025,"found":2026,"ainingĠ":2027,"uch":2028,"connect":2029,"AsĠ":2030,"oughtĠ":2031,"coll":2032,".ĠHeĠ":2033,"vo":2034,"involv":2035,"Joh":2036,"ness":2037,"function":2038,"ingĊ":2039,"foc":2040,"sug":2041,"ofĠt":2042,"importantĠ":2043,"almostĠ":2044,"And":2045,"Christ":2046,"ber":2047,"eĠdo":2048,"ressĠ":2049,"du":2050,"power":2051,"vert":2052,"Ap":2053,"row":2054,"MyĠ":2055,"by":2056,"eeĠ":2057,"nes":2058,"headĠ":2059,"ĠwithĠtheĠ":2060,"only":2061,".S":2062,"che":2063,"earchĠ":2064,"leftĠ":2065,"entialĠ":2066,"orĠd":2067,"charg":2068,"rad":2069,"Is":2070,"icesĠ":2071,"ationĠandĠ":2072,"ldĠ":2073,"22":2074,"etc":2075,"bel":2076,"along":2077,"ung":2078,",\"Ġ":2079,"ision":2080,"ĠforĠ":2081,",ĠitĠ":2082,"langu":2083,"Sc":2084,"liveĠ":2085,"uff":2086,"sw":2087,"ĠorĠ":2088,".ĠI'":2089,"mustĠ":2090,"e.ĠTh":2091,"s:Ċ":2092,"calledĠ":2093,"ĠshouldĠ":2094,"famil":2095,"iffic":2096,"countr":2097,"lesĠ":2098,"phys":2099,".ĠIf":2100,"ward":2101,"oreĠ":2102,"lightĠ":2103,"AT":2104,"ledg":2105,"hair":2106,"public":2107,"al,Ġ":2108,"havingĠ":2109,"hol":2110,"Chin":2111,"40":2112,"knownĠ":2113,"count":2114,"espec":2115,"WhyĠ":2116,"Ġtrad":2117,"hold":2118,"o-":2119,"fail":2120,"econd":2121,"extr":2122,"polic":2123,"rest":2124,".ĠAsĠ":2125,"inĠt":2126,"lifeĠ":2127,"izeĠ":2128,"ĠtheĠsam":2129,"willĠbeĠ":2130,"exper":2131,"option":2132,"abs":2133,"DĠ":2134,"dev":2135,"ay,Ġ":2136,"Ob":2137,"ebr":2138,"chem":2139,"With":2140,"enn":2141,"ĠthatĠtheyĠ":2142,"areĠtheĠ":2143,"manag":2144,"releas":2145,"usuallyĠ":2146,"istsĠ":2147,"Ac":2148,"rot":2149,"pĠ":2150,"ereĠisĠ":2151,"agre":2152,"phot":2153,"environ":2154,"Ġmin":2155,"nessĠ":2156,"outh":2157,"aleĠ":2158,"helpĠ":2159,"acros":2160,"rang":2161,"basedĠ":2162,".ĠItĠisĠ":2163,"addition":2164,"far":2165,"makesĠ":2166,"aĠfew":2167,"ouldn'tĠ":2168,"roc":2169,"aĠgoodĠ":2170,"fut":2171,"proveĠ":2172,"Nor":2173,"withĠs":2174,"uccess":2175,"priv":2176,"eryĠ":2177,"non-":2178,"feat":2179,"eitherĠ":2180,".ĠAl":2181,"etsĠ":2182,"bar":2183,"xĠ":2184,"leep":2185,"fur":2186,"descri":2187,"design":2188,"CĠ":2189,"ON":2190,"driv":2191,"Stat":2192,"quick":2193,"night":2194,"moreĠthanĠ":2195,"erĠisĠ":2196,"ortĠ":2197,"youĠs":2198,"sens":2199,"clear":2200,"betterĠ":2201,"ĠdoĠ":2202,"placeĠ":2203,"Ġthat'sĠ":2204,"sayĠ":2205,"aĊ":2206,"ory":2207,"osĠ":2208,"onĠaĠ":2209,"strong":2210,"prim":2211,"sol":2212,"ait":2213,"ention":2214,"ĠthatĠisĠ":2215,"bil":2216,"AR":2217,"HeĠ":2218,"you'reĠ":2219,"aĠlotĠofĠ":2220,"pleas":2221,"ekĠ":2222,"UnitedĠ":2223,"grad":2224,"ogn":2225,"prettyĠ":2226,"60":2227,"spect":2228,"TĠ":2229,"lob":2230,"likeĠaĠ":2231,"eĠwill":2232,"sideĠ":2233,"yourĠs":2234,"gre":2235,".ĠWeĠ":2236,"ĠthroughĠtheĠ":2237,"particular":2238,"23":2239,"stateĠ":2240,"anythingĠ":2241,"benef":2242,"oupl":2243,"alkĠ":2244,"Eu":2245,"fulĠ":2246,"hon":2247,"Be":2248,"Engl":2249,"Res":2250,"--Ġ":2251,"vol":2252,"s,ĠtheĠ":2253,"ary":2254,"protect":2255,"Rep":2256,"illion":2257,"AN":2258,"I'm":2259,"imilar":2260,"We":2261,"personĠ":2262,"or,Ġ":2263,"sĠwereĠ":2264,"98":2265,"ĠhisĠ":2266,"youĠm":2267,"answer":2268,"aren":2269,"aseĠ":2270,"uredĠ":2271,"atĠleastĠ":2272,"les":2273,"tĠandĠ":2274,".ĠSoĠ":2275,"EĠ":2276,"position":2277,",ĠIĠ":2278,"Ġturn":2279,"entr":2280,"earlyĠ":2281,"...Ġ":2282,"edĠforĠ":2283,"informationĠ":2284,"makingĠ":2285,"fterĠ":2286,"ere'sĠ":2287,"includingĠ":2288,"comput":2289,"web":2290,"oil":2291,"pict":2292,"iredĠ":2293,",Ġand":2294,"TheyĠ":2295,"storyĠ":2296,"alleng":2297,"object":2298,"whenĠtheĠ":2299,"den":2300,"mom":2301,"ength":2302,"ali":2303,"cul":2304,"ityĠandĠ":2305,"key":2306,"sequ":2307,"ĠtheĠt":2308,"urg":2309,"ĠtheĠsameĠ":2310,"relationship":2311,"stitut":2312,"askĠ":2313,"cod":2314,"s.ĠTheĠ":2315,"As":2316,"star":2317,"girl":2318,"ounc":2319,"ainsĠ":2320,"iter":2321,"elf":2322,"amoun":2323,"agg":2324,"antsĠ":2325,"Mon":2326,"ociet":2327,"mall":2328,"El":2329,"aĠlittleĠ":2330,"Of":2331,"ĠthereĠisĠ":2332,"aver":2333,"ethod":2334,"waterĠ":2335,"notĠbeĠ":2336,"orĠm":2337,",Ġbut":2338,"ate":2339,"agesĠ":2340,"==":2341,"got":2342,"feelĠ":2343,"research":2344,",ĠorĠ":2345,"ardsĠ":2346,"compan":2347,"Ġbecaus":2348,"sum":2349,"Ġtri":2350,"Col":2351,"eh":2352,"'s":2353,".ĠJ":2354,"at'sĠ":2355,"ether":2356,"answ":2357,"âĢĵĠ":2358,"ismĠ":2359,"film":2360,"record":2361,"eĠwillĠ":2362,"ingĠtoĠtheĠ":2363,"ater":2364,"aybeĠ":2365,"access":2366,"especiallyĠ":2367,"ersĠareĠ":2368,"link":2369,"cell":2370,"Ġyear":2371,"Ev":2372,"s,ĠbutĠ":2373,",Ġ\"":2374,"Pres":2375,"oĊ":2376,"ĠthereĠareĠ":2377,"ĠL":2378,"perc":2379,"profess":2380,"Ġtw":2381,"ez":2382,"udg":2383,"thatĠ":2384,"havi":2385,"compar":2386,"conf":2387,"ation.Ċ":2388,"edĠup":2389,"ionĠisĠ":2390,"foodĠ":2391,"yĠisĠ":2392,"cop":2393,".Âł":2394,".ĠWhenĠ":2395,"control":2396,"ifĠtheĠ":2397,".ĠThatĠ":2398,"Ġthemselv":2399,"believeĠ":2400,"organiz":2401,"But":2402,"relig":2403,"mind":2404,"spir":2405,"cult":2406,"alkingĠ":2407,"sĠwithĠ":2408,"ĠF":2409,"ner":2410,"son":2411,".ĠThisĠisĠ":2412,"ild":2413,"ĠsoĠ":2414,"doesn'tĠ":2415,"It'sĠ":2416,"YourĠ":2417,"challeng":2418,"intern":2419,"Ġ-Ġ":2420,"conv":2421,"author":2422,"ificĠ":2423,"Ġthos":2424,"maj":2425,"project":2426,"nothingĠ":2427,",ĠaĠ":2428,"ainedĠ":2429,"U.S":2430,".âĢĿĊ":2431,"rap":2432,"everythingĠ":2433,"nov":2434,"avor":2435,"idenc":2436,"ĠH":2437,"y-":2438,"ember":2439,"eri":2440,"until":2441,"ĠtryingĠtoĠ":2442,"itĠtoĠ":2443,"landĠ":2444,"IĠamĠ":2445,"powerĠ":2446,".ĠAnd":2447,"path":2448,"ingleĠ":2449,"beĠtheĠ":2450,"nameĠ":2451,"Am":2452,"Ġthought":2453,"account":2454,"edĠatĠ":2455,"orĠc":2456,"ton":2457,"wayĠtoĠ":2458,"RE":2459,"etimesĠ":2460,"attack":2461,"school":2462,"changeĠ":2463,"orĠtheĠ":2464,"keepĠ":2465,"mult":2466,"familyĠ":2467,"ersĠtoĠ":2468,"express":2469,"ĠG":2470,"ograph":2471,"uringĠ":2472,"ycl":2473,"riv":2474,"support":2475,"ockĠ":2476,"fair":2477,"doneĠ":2478,"pan":2479,"indow":2480,"oog":2481,"flow":2482,"childrenĠ":2483,"pap":2484,"28":2485,"Ġbetwe":2486,"reach":2487,"ther":2488,"check":2489,"viol":2490,"anag":2491,"rid":2492,"pric":2493,"apt":2494,"item":2495,"determin":2496,"arch":2497,"ium":2498,"followingĠ":2499,"avo":2500,"ideaĠ":2501,"Ġbl":2502,"Tim":2503,"leav":2504,"fall":2505,"politicalĠ":2506,"e.ĠTheĠ":2507,"ThatĠ":2508,"amin":2509,"es,ĠandĠ":2510,"IĠdon'tĠ":2511,"Ġdis":2512,"howĠtoĠ":2513,"dataĠ":2514,"Em":2515,"heĠs":2516,"Ġwork":2517,"eel":2518,"insteadĠ":2519,"Ġdi":2520,"irdĠ":2521,"inkĠ":2522,"foreĠ":2523,"ingĠthisĠ":2524,"load":2525,"ought":2526,"blog":2527,"associ":2528,"edit":2529,"localĠ":2530,"Ġteam":2531,"27":2532,"condition":2533,"yourĠc":2534,"untilĠ":2535,"lip":2536,"longĠ":2537,",ĠsoĠ":2538,"watch":2539,"Ġtest":2540,"wareĠ":2541,"e?Ġ":2542,"97":2543,"whetherĠ":2544,"payĠ":2545,",ĠM":2546,"fel":2547,"ST":2548,"mis":2549,"bothĠ":2550,"seenĠ":2551,"workingĠ":2552,"dam":2553,"wid":2554,"ateĠtheĠ":2555,"ecut":2556,"IĠthinkĠ":2557,".ĠAĠ":2558,"ationĠofĠtheĠ":2559,"eĠcouldĠ":2560,".ĠWhatĠ":2561,"IĠcanĠ":2562,"youĠtoĠ":2563,"createĠ":2564,"fund":2565,"thing":2566,"edĊ":2567,"pit":2568,"draw":2569,"ifĠyouĠ":2570,"ĠN":2571,"encyĠ":2572,"edĠs":2573,"hour":2574,"givenĠ":2575,"wasĠtheĠ":2576,">Ċ":2577,"diffic":2578,"aboveĠ":2579,"Ġtop":2580,"better":2581,"yourĠp":2582,"ofĠaĠ":2583,"Car":2584,"ensiveĠ":2585,"esĠ(":2586,"edĠto":2587,"Par":2588,"rup":2589,"eĠwereĠ":2590,"openĠ":2591,"likeĠtheĠ":2592,",ĠasĠ":2593,"If":2594,"yourĠh":2595,"26":2596,"istr":2597,"moneyĠ":2598,"icĠs":2599,"rather":2600,"pingĠ":2601,"uk":2602,".ĠForĠ":2603,"pedĠ":2604,"imm":2605,"example,Ġ":2606,"othersĠ":2607,"achi":2608,"sĠtoĠbeĠ":2609,"represent":2610,"Inter":2611,"fron":2612,"beh":2613,"ĠinĠtheĠ":2614,"personalĠ":2615,"deb":2616,"shar":2617,"</":2618,"ore":2619,"ers.Ċ":2620,"someoneĠ":2621,"custom":2622,"alt":2623,"becomeĠ":2624,"Gu":2625,"financ":2626,"peopleĠwhoĠ":2627,"dest":2628,"opt":2629,"ift":2630,"IĠwouldĠ":2631,"Indi":2632,"er-":2633,"atter":2634,"rectĠ":2635,"a-":2636,"ground":2637,"regard":2638,"ingĠisĠ":2639,"receiv":2640,"exact":2641,"ection":2642,"here":2643,"left":2644,"Us":2645,"Str":2646,"aur":2647,"ID":2648,"popul":2649,"fill":2650,"piec":2651,"careĠ":2652,"cam":2653,"eĠ(":2654,"'veĠ":2655,"keyĠ":2656,"upĠtoĠ":2657,"PĠ":2658,"mot":2659,"pet":2660,"begin":2661,"variousĠ":2662,"a.Ċ":2663,"imin":2664,"mentsĠ":2665,"meas":2666,"esĠaĠ":2667,"epar":2668,"enĠtoĠ":2669,"Im":2670,"eatĠ":2671,"strateg":2672,"howĠm":2673,"rom":2674,"willĠb":2675,"Well":2676,"wit":2677,"information":2678,"viousĠ":2679,"extrem":2680,"igg":2681,"ool":2682,"compet":2683,"Ġtow":2684,"Ġtell":2685,"groundĠ":2686,"ainlyĠ":2687,"portun":2688,"AL":2689,"wholeĠ":2690,"roduc":2691,"esĠinĠtheĠ":2692,"avel":2693,"Ġtot":2694,"edĠwith":2695,"tenĠ":2696,"naturalĠ":2697,"irc":2698,"possibl":2699,"shouldĠbeĠ":2700,"ouse":2701,"ulyĠ":2702,"four":2703,"pack":2704,"responsi":2705,"hadĠbeenĠ":2706,"sourc":2707,"uĠ":2708,"orderĠtoĠ":2709,"atur":2710,"knowledg":2711,"oneĠofĠ":2712,"eed":2713,"NoĠ":2714,"timeĠ":2715,"did":2716,"into":2717,"iet":2718,"ball":2719,"eringĠ":2720,"heav":2721,"ean":2722,"approach":2723,"har":2724,"yt":2725,"e?Ċ":2726,"doingĠ":2727,"|Ġ":2728,"OR":2729,"onceĠ":2730,"isn'tĠ":2731,"iction":2732,"who":2733,"roll":2734,"indic":2735,"Ed":2736,"Fl":2737,"wordĠ":2738,"ĠyearsĠ":2739,"review":2740,"energyĠ":2741,"sĠtoĠtheĠ":2742,"recogn":2743,"small":2744,"accept":2745,"Cont":2746,",Ġw":2747,"ologicalĠ":2748,"fiveĠ":2749,"rough":2750,"mem":2751,"against":2752,"ouch":2753,"market":2754,"els":2755,"netĠ":2756,"gameĠ":2757,"suf":2758,"offer":2759,"ishedĠ":2760,"sex":2761,"eder":2762,"emper":2763,"forĠd":2764,"ych":2765,"opportun":2766,"crit":2767,"food":2768,"80":2769,"twoĠ":2770,"unch":2771,"resourc":2772,"emot":2773,"Ġbr":2774,"ofĠtheseĠ":2775,"onesĠ":2776,"Ġthre":2777,"different":2778,"istic":2779,"itiveĠ":2780,"influ":2781,"occur":2782,"ensĠ":2783,"fullyĠ":2784,"Gre":2785,"als":2786,"defin":2787,"farĠ":2788,"iesĠofĠ":2789,"earĠ":2790,"Ab":2791,"Ã©":2792,"Brit":2793,"ors":2794,"thisĠ":2795,"understandĠ":2796,"y,ĠandĠ":2797,"fix":2798,"stre":2799,"Ġ=Ġ":2800,"Can":2801,"Sup":2802,"ordĠ":2803,"ÂłÂłÂłÂłÂłÂłÂłÂł":2804,"onder":2805,"God":2806,"againĠ":2807,"itionĠ":2808,"processĠ":2809,"partĠofĠ":2810,",ĠwhichĠ":2811,"âĢĻĠ":2812,"e(":2813,"moveĠ":2814,"pull":2815,"Univers":2816,"analys":2817,"urs":2818,"nightĠ":2819,"ĠthingĠ":2820,"ĠwereĠ":2821,"la":2822,"publicĠ":2823,"IĠthink":2824,".ĠBut":2825,"antlyĠ":2826,"wrong":2827,"spac":2828,"everyoneĠ":2829,"eredĠ":2830,"companyĠ":2831,"getsĠ":2832,"doesĠnotĠ":2833,"Ġdes":2834,"saidĠ":2835,"AS":2836,".com":2837,"inglyĠ":2838,"attempt":2839,"bir":2840,"improv":2841,"currentĠ":2842,"improveĠ":2843,"Mr":2844,"Mic":2845,"saf":2846,"most":2847,"cost":2848,"us,Ġ":2849,"cover":2850,"ance,Ġ":2851,"illionĠ":2852,"entalĠ":2853,"ifiedĠ":2854,"ibleĠ":2855,"he'sĠ":2856,"accord":2857,"clus":2858,"29":2859,"IS":2860,"fast":2861,"leaveĠ":2862,"yetĠ":2863,"riveĠ":2864,"ĠheĠ":2865,"in,Ġ":2866,":Ġ\"":2867,".,Ġ":2868,"All":2869,"mess":2870,"ure,Ġ":2871,"onsĠ":2872,"012":2873,"Ġteach":2874,"epend":2875,"omb":2876,"rais":2877,"erĠthanĠ":2878,"break":2879,"DoĠ":2880,"affect":2881,"recomm":2882,"yĠthatĠ":2883,"ersĠofĠ":2884,"heĠw":2885,"consum":2886,"AM":2887,"ofĠthem":2888,"div":2889,"purpos":2890,"highĠ":2891,"e)":2892,"bal":2893,"suggest":2894,"://":2895,"effic":2896,"respond":2897,"aĠw":2898,"age,Ġ":2899,"road":2900,"IĠm":2901,"ÂłĠÂłĠ":2902,"EN":2903,"andĠthatĠ":2904,"%Ġ":2905,"aroundĠtheĠ":2906,"comingĠ":2907,"Cr":2908,"environment":2909,"month":2910,"e.ĠS":2911,"ussi":2912,"eĠforĠ":2913,"90":2914,"odyĠ":2915,"=\"":2916,"simplyĠ":2917,"ifyĠ":2918,"alter":2919,"TheĠs":2920,"ĠthisĠisĠ":2921,"dou":2922,".ĠItĠwasĠ":2923,"esĠofĠtheĠ":2924,"jour":2925,"hadĠtoĠ":2926,"ww":2927,"ienceĠ":2928,"Mus":2929,"practic":2930,"ivelyĠ":2931,"anyoneĠ":2932,"partĠ":2933,"model":2934,"HowĠ":2935,"erĠinĠ":2936,"anceĠofĠ":2937,"past":2938,".ĠTheĠs":2939,"oneĠs":2940,"ge":2941,"Ġtru":2942,"behavi":2943,"industr":2944,"Ġminut":2945,"limit":2946,"omethingĠ":2947,"outsid":2948,"s)":2949,"ld":2950,"respect":2951,"uaryĠ":2952,"government":2953,"mitt":2954,"aĠgreatĠ":2955,"Dec":2956,"cha":2957,"à¤":2958,"wardĠ":2959,"omat":2960,".ĠInĠtheĠ":2961,".âĢĿĠ":2962,"ailĠ":2963,"aĠbitĠ":2964,"ofĠtheirĠ":2965,"establ":2966,"egr":2967,"eÂł":2968,"ĠthreeĠ":2969,",ĠS":2970,"orĠb":2971,"prec":2972,"severalĠ":2973,"Ġpo":2974,"nic":2975,"urityĠ":2976,"io":2977,"plat":2978,"ingĠforĠ":2979,"+Ġ":2980,"eam":2981,"yearĠ":2982,"comesĠ":2983,"reli":2984,"eenĠ":2985,"Goog":2986,"Ġsp":2987,"mayĠbeĠ":2988,"partĠofĠtheĠ":2989,"sinceĠ":2990,"ageĠofĠ":2991,"iedĠ":2992,"onĠandĠ":2993,"makeĠs":2994,"notic":2995,"Ġcan'tĠ":2996,"akesĠ":2997,"Ġsystem":2998,"videoĠ":2999,"Ġmod":3000,"He":3001,"Med":3002,"weĠareĠ":3003,"InĠtheĠ":3004,"Pol":3005,"activeĠ":3006,"eopl":3007,"au":3008,"edĠtoĠbeĠ":3009,"asĠwellĠasĠ":3010,"deep":3011,"mainĠ":3012,"Di":3013,"kind":3014,"Ear":3015,"itud":3016,"Jan":3017,"eĠthatĠtheĠ":3018,"forĠc":3019,",ĠinĠ":3020,"ementsĠ":3021,"firm":3022,"ablyĠ":3023,"IĠc":3024,"badĠ":3025,"specific":3026,"pastĠ":3027,"outĠofĠtheĠ":3028,"abilityĠ":3029,"iesĠandĠ":3030,"bitĠ":3031,"one,Ġ":3032,"isĠt":3033,"ĠtryĠtoĠ":3034,"ingĠto":3035,"field":3036,"histor":3037,"ĠĠĠ":3038,"away":3039,"ThisĠisĠ":3040,"afterĠtheĠ":3041,"quit":3042,"CO":3043,"New":3044,"mater":3045,"At":3046,"lay":3047,"univers":3048,"ĠthoughtĠ":3049,"faceĠ":3050,"insĠ":3051,".ĠY":3052,"oon":3053,"cut":3054,"box":3055,"legalĠ":3056,"goesĠ":3057,"immedi":3058,"edĠhisĠ":3059,"important":3060,"aff":3061,"error":3062,"insid":3063,"edĠm":3064,"last":3065,"joy":3066,"jur":3067,"doĠnotĠ":3068,"whereĠtheĠ":3069,"flo":3070,"availableĠ":3071,"Yor":3072,"sameĠ":3073,"ious":3074,"Now":3075,"presentĠ":3076,"haveĠth":3077,"beaut":3078,"ĠthanĠtheĠ":3079,"discuss":3080,"addĠ":3081,"JohnĠ":3082,"iff":3083,"introduc":3084,"itaryĠ":3085,"IsĠ":3086,"ureĠofĠ":3087,"arkĠ":3088,"Euro":3089,"combin":3090,".ĠIĠd":3091,"hardĠ":3092,"complex":3093,"buyĠ":3094,"ingĠitĠ":3095,"rout":3096,"donâĢĻtĠ":3097,"Ge":3098,"outhĠ":3099,"n't":3100,"assum":3101,"intell":3102,"ofĠtheir":3103,"Fir":3104,".ĠHowever,Ġ":3105,"enoughĠ":3106,"er'sĠ":3107,"ĠtoĠaĠ":3108,"35":3109,"IT":3110,"observ":3111,"45":3112,"orderĠ":3113,"socialĠ":3114,"Ġcour":3115,"cours":3116,"among":3117,"atorĠ":3118,"child":3119,"urb":3120,"homeĠ":3121,"fa":3122,"amountĠofĠ":3123,".ĠYouĠ":3124,"originalĠ":3125,"âĢĻt":3126,"regul":3127,"enceĠofĠ":3128,"cit":3129,"neg":3130,"few":3131,"igr":3132,"judg":3133,"uckĠ":3134,"011":3135,"bookĠ":3136,"butĠtheĠ":3137,"chas":3138,"servic":3139,"013":3140,"pen":3141,"!!":3142,"eĠmyĠ":3143,"andĠtheyĠ":3144,"ĠbeingĠ":3145,",ĠandĠtheĠ":3146,"redi":3147,"fight":3148,"prog":3149,"maint":3150,"womenĠ":3151,"&Ġ":3152,"handĠ":3153,"sĠisĠ":3154,"endedĠ":3155,"ationĠisĠ":3156,"gun":3157,"respons":3158,"'sĠtheĠ":3159,"echan":3160,"pag":3161,"eĠtheirĠ":3162,"believ":3163,"mentĠofĠ":3164,"gaveĠ":3165,"Ġbeli":3166,"itself":3167,"remov":3168,"ceĠ":3169,"AC":3170,",Ġwhich":3171,"itu":3172,"htt":3173,"sal":3174,"Ġsaid":3175,"reasonĠ":3176,"a'sĠ":3177,"vict":3178,"ierĠ":3179,"notĠtheĠ":3180,"ingĠthem":3181,"y'sĠ":3182,"eâĢĻsĠ":3183,"enseĠ":3184,"AP":3185,"GodĠ":3186,"Jun":3187,"pred":3188,"dog":3189,".ĠK":3190,"010":3191,"const":3192,"ĠaĠ":3193,"quiteĠ":3194,"likeĠtoĠ":3195,"ugg":3196,"dig":3197,"character":3198,"holdĠ":3199,"sĠlikeĠ":3200,"sor":3201,"ai":3202,"ingĠm":3203,"ublic":3204,"ledĠ":3205,"princ":3206,"elyĠtoĠ":3207,"viv":3208,"##":3209,"Isl":3210,"itĠandĠ":3211,"ity.Ċ":3212,"sinc":3213,"Ġdat":3214,"-t":3215,"anch":3216,"eption":3217,"print":3218,"ifferentĠ":3219,"riesĠ":3220,"Not":3221,"sĠonĠtheĠ":3222,"heĠisĠ":3223,"hot":3224,"inf":3225,"lot":3226,"suppl":3227,"TV":3228,"sĠorĠ":3229,"aul":3230,"Ag":3231,"sess":3232,"provideĠ":3233,"ahĠ":3234,"ame":3235,"alu":3236,"Ġcontr":3237,"childĠ":3238,"rob":3239,"weĠd":3240,"IĠam":3241,"arryĠ":3242,"athĠ":3243,"yourĠm":3244,"returnĠ":3245,"been":3246,"bon":3247,"Jap":3248,"such":3249,"bott":3250,"Ġboth":3251,"Russi":3252,"advant":3253,"oph":3254,"Do":3255,".ĠâĢľ":3256,"liter":3257,"fromĠaĠ":3258,"resultĠ":3259,"eĠsaid":3260,"Ġhow":3261,"next":3262,"ervic":3263,"riskĠ":3264,"interestĠ":3265,"NotĠ":3266,"Dem":3267,"Ġsup":3268,"itor":3269,"haveĠtheĠ":3270,"Se":3271,"duringĠtheĠ":3272,"ingĠwithĠ":3273,"fore":3274,"aĠtr":3275,"blyĠ":3276,"ifĠtheyĠ":3277,"fortun":3278,"le,Ġ":3279,"effort":3280,"hasĠaĠ":3281,"Obam":3282,"ocrat":3283,"riedĠ":3284,"Ġtoday":3285,"laterĠ":3286,"individualĠ":3287,"aĠlotĠ":3288,"higherĠ":3289,"ordin":3290,"businessĠ":3291,"ibl":3292,"and,Ġ":3293,"else":3294,"detail":3295,"Ġmonth":3296,"whit":3297,"ikeĠ":3298,"drop":3299,"decid":3300,"supportĠ":3301,"areaĠ":3302,"32":3303,"execut":3304,"War":3305,"furtherĠ":3306,"known":3307,"ely,Ġ":3308,"ess,Ġ":3309,"neyĠ":3310,"yet":3311,"ificantĠ":3312,"runningĠ":3313,"studyĠ":3314,"menĠ":3315,"drug":3316,"stayĠ":3317,"Rec":3318,"getĠtheĠ":3319,"ratherĠthanĠ":3320,"numberĠ":3321,"in-":3322,"difficult":3323,"Europe":3324,"heĠd":3325,"ĠdoesĠ":3326,"replac":3327,"eĠweĠ":3328,"nation":3329,"II":3330,"notĠtoĠ":3331,"s.ĠA":3332,"s.ĠS":3333,"uit":3334,"perhap":3335,"aterĠ":3336,"Des":3337,"ThereĠareĠ":3338,"largeĠ":3339,"areĠth":3340,"experienceĠ":3341,"sty":3342,"ĠtakingĠ":3343,"wis":3344,"insur":3345,"entur":3346,"ross":3347,"Mc":3348,"seas":3349,"achin":3350,"entĠtoĠ":3351,"ionĠandĠ":3352,"Vi":3353,"uel":3354,"ĠtakesĠ":3355,"zz":3356,"recentĠ":3357,"Cor":3358,"glob":3359,"apĠ":3360,"depend":3361,"camp":3362,"'dĠ":3363,"completelyĠ":3364,"repl":3365,"inĠmyĠ":3366,"opin":3367,"also":3368,"situ":3369,"matterĠ":3370,"usesĠ":3371,"sĠasĠ":3372,"iful":3373,"refl":3374,"likelyĠ":3375,"aliz":3376,"edĠt":3377,"::":3378,"enu":3379,"upĠtheĠ":3380,"very":3381,"frequ":3382,"s?Ġ":3383,"70":3384,"ench":3385,"eĠcan":3386,"ype":3387,"fric":3388,"eĠwe":3389,"risk":3390,"concern":3391,"ĠtimesĠ":3392,"abilityĠtoĠ":3393,"Per":3394,"âĢĻreĠ":3395,"ertĠ":3396,"Fac":3397,"startedĠ":3398,"Ġbu":3399,"duringĠ":3400,"prote":3401,"fear":3402,"exerc":3403,"parent":3404,"user":3405,"Ir":3406,"andĠth":3407,"008":3408,"short":3409,"diseas":3410,"iansĠ":3411,"actionĠ":3412,"asc":3413,"sam":3414,"ellingĠ":3415,"physicalĠ":3416,"ashĠ":3417,"ĠherĠ":3418,"eĠshouldĠ":3419,"uniqu":3420,"guid":3421,"96":3422,"round":3423,"nut":3424,"yourself":3425,"youĠwantĠtoĠ":3426,"couldĠbeĠ":3427,"aĠfewĠ":3428,"omeoneĠ":3429,"heal":3430,"onĠm":3431,"eĠse":3432,"freeĠ":3433,"whatĠtheĠ":3434,"ram":3435,"Rob":3436,"No":3437,"ing,ĠandĠ":3438,"ption":3439,"best":3440,"cat":3441,"consist":3442,"pick":3443,"friendĠ":3444,"Ġhim":3445,"underĠtheĠ":3446,"estim":3447,"e.ĠA":3448,"edĠintoĠ":3449,"i,Ġ":3450,"investig":3451,"e\"":3452,".ĠWith":3453,"asĠtheyĠ":3454,"ationĊ":3455,"choos":3456,"human":3457,"e,":3458,"eĠinĠtheĠ":3459,"eĠsoĠ":3460,"NewĠYor":3461,"whatĠisĠ":3462,"unn":3463,"yourĠd":3464,"ByĠ":3465,"hib":3466,".ĠToĠ":3467,"applic":3468,"weĠhaveĠ":3469,"bloodĠ":3470,"enter":3471,"enoughĠtoĠ":3472,"promot":3473,"postĠ":3474,"-s":3475,"fol":3476,"cameĠ":3477,"realiz":3478,"tsĠ":3479,"viewĠ":3480,"Dis":3481,"stuff":3482,"worth":3483,"classĠ":3484,"--------":3485,"oud":3486,"imul":3487,"95":3488,"possibleĠ":3489,"tonĠ":3490,"didn'tĠ":3491,"Ġthat,Ġ":3492,"ountĠ":3493,"ushĠ":3494,"runĠ":3495,"iver":3496,"chanc":3497,"meansĠ":3498,"plant":3499,"student":3500,"cript":3501,"aĠisĠ":3502,"agu":3503,"ES":3504,"network":3505,"emerg":3506,"aĠlarg":3507,"betweenĠtheĠ":3508,"articleĠ":3509,"s?Ċ":3510,"likeĠth":3511,"009":3512,"Ġwas":3513,"commonĠ":3514,"fem":3515,"'r":3516,".ĠItâĢĻsĠ":3517,"exactlyĠ":3518,"ago":3519,"Rev":3520,"promis":3521,"success":3522,"Ġhour":3523,"Ġ'":3524,"longerĠ":3525,"useĠofĠ":3526,"hur":3527,"dealĠ":3528,"guy":3529,"Tu":3530,"sound":3531,"ItĠisĠ":3532,"heardĠ":3533,"ofĠthatĠ":3534,"integr":3535,"IĠhadĠ":3536,"admin":3537,".ĠTheĠm":3538,"withĠm":3539,"stra":3540,"oftwareĠ":3541,"egre":3542,"sonĠ":3543,"relat":3544,"block":3545,"ingĠinĠtheĠ":3546,"illi":3547,"IC":3548,"allĠofĠ":3549,"urch":3550,"33":3551,"andĠtoĠ":3552,"youĠwillĠ":3553,"slow":3554,"WorldĠ":3555,"includeĠ":3556,".ĠSt":3557,"expos":3558,"____":3559,"cred":3560,"MĠ":3561,"ren":3562,"costĠ":3563,"atĠall":3564,"pair":3565,"orĠofĠ":3566,"Jew":3567,"Dav":3568,"Rom":3569,"necessar":3570,"historyĠ":3571,"Ġcar":3572,"experim":3573,"asĠanĠ":3574,"esĠforĠ":3575,"inĠthatĠ":3576,"ĠbetweenĠ":3577,"clim":3578,"propert":3579,"/Ġ":3580,"generalĠ":3581,"Afric":3582,"easilyĠ":3583,"choic":3584,"backĠtoĠ":3585,"Ġfil":3586,"children":3587,"Ġtax":3588,"Ġdec":3589,"ĠsomeĠ":3590,"lostĠ":3591,"amb":3592,"anĠandĠ":3593,"Min":3594,"entĠofĠ":3595,"wellĠ":3596,"USĠ":3597,".ĠThereĠ":3598,"areĠnotĠ":3599,"youĠknow":3600,"rection":3601,"feltĠ":3602,"NO":3603,"death":3604,"describ":3605,"ĠtogetherĠ":3606,"sym":3607,"I'dĠ":3608,"Ġtime,Ġ":3609,"echniqu":3610,"Nov":3611,"lingĠ":3612,"anger":3613,"contribut":3614,"studentsĠ":3615,"origin":3616,"ectionĠ":3617,"enjoy":3618,"e.ĠH":3619,"showĠ":3620,"sil":3621,"propos":3622,"s,":3623,"prepar":3624,"LĠ":3625,"pain":3626,"sĠhaveĠ":3627,"definit":3628,"eĠtwoĠ":3629,"}Ġ":3630,"install":3631,"likelyĠtoĠ":3632,"ion.Ċ":3633,"mallĠ":3634,"favor":3635,"arket":3636,"Art":3637,"normalĠ":3638,"iddleĠ":3639,"push":3640,"attr":3641,"cen":3642,"ackĠofĠ":3643,"Ġbas":3644,"sometimesĠ":3645,"plann":3646,"ThereĠ":3647,"buildĠ":3648,"....":3649,"Char":3650,"absolut":3651,"fieldĠ":3652,"see":3653,"util":3654,"ĠtheirĠf":3655,"Appl":3656,"ĠtheirĠs":3657,"Up":3658,"Bar":3659,"multipl":3660,"convers":3661,"makeĠaĠ":3662,"ederalĠ":3663,"isĠanĠ":3664,"ĠcanĠbeĠ":3665,"meet":3666,"aĠlong":3667,"ense":3668,"possible":3669,"heĠhadĠ":3670,"regular":3671,"usingĠtheĠ":3672,"earli":3673,"writtenĠ":3674,"cel":3675,"Ġtreat":3676,"moreĠs":3677,"askedĠ":3678,"pir":3679,"Mod":3680,"icĠandĠ":3681,"quot":3682,"effectiveĠ":3683,"explain":3684,"bol":3685,"egg":3686,"host":3687,"imagin":3688,"said...Ċ":3689,"ic,Ġ":3690,".ĠTheseĠ":3691,"nerĠ":3692,"beĠt":3693,"36":3694,"whenĠtheyĠ":3695,"LE":3696,"finalĠ":3697,"bur":3698,"ionĠinĠ":3699,"{\\":3700,"bad":3701,"sĠatĠ":3702,"ondĠ":3703,"ratherĠ":3704,"31":3705,"inĠtheirĠ":3706,"Ġcr":3707,"ehic":3708,"500":3709,"evidenc":3710,"****":3711,"s/":3712,"caseĠ":3713,"rock":3714,"orĠandĠ":3715,"Dat":3716,"edĠon":3717,"insteadĠofĠ":3718,"umm":3719,"repe":3720,"againstĠtheĠ":3721,"ittl":3722,":ĠTheĠ":3723,"financialĠ":3724,"Isra":3725,"ed,ĠandĠ":3726,"lowerĠ":3727,"win":3728,"arget":3729,"cup":3730,"offĠtheĠ":3731,"advanc":3732,"actualĠ":3733,"ertainĠ":3734,"ĠtookĠ":3735,"youâĢĻreĠ":3736,"independ":3737,"math":3738,"appropri":3739,"ital":3740,"inĠhisĠ":3741,"umentĠ":3742,"useful":3743,"014":3744,"However,Ġ":3745,"derĠ":3746,"wasĠaĠ":3747,"siz":3748,"Ġshow":3749,"Rel":3750,"period":3751,"uct":3752,"Sun":3753,"Ġdef":3754,"nos":3755,"entireĠ":3756,"quicklyĠ":3757,"Int":3758,"wif":3759,"infect":3760,"YouĠcanĠ":3761,"i.":3762,"enĠandĠ":3763,"ings":3764,"cord":3765,"canc":3766,"mic":3767,"edĠfromĠ":3768,"weĠcanĠ":3769,"ĠtoĠgetĠ":3770,"uringĠtheĠ":3771,"accur":3772,"viouslyĠ":3773,"Af":3774,"edĠitĠ":3775,"speak":3776,"agoĠ":3777,"ountr":3778,"ethodĠ":3779,"ier":3780,"checkĠ":3781,"brok":3782,"bigg":3783,"sĠfromĠ":3784,"Ġdr":3785,"mindĠ":3786,"eter":3787,"natur":3788,"mit":3789,"foot":3790,"generallyĠ":3791,"acyĠ":3792,"neigh":3793,"stanc":3794,"irt":3795,"narr":3796,"Ġtechnolog":3797,"ĠĠĠĠâĢ¢Ġ":3798,"argu":3799,"questionĠ":3800,"minut":3801,"ent,Ġ":3802,"e:Ċ":3803,"his":3804,"ield":3805,"U.S.Ġ":3806,"mal":3807,"reci":3808,"rib":3809,"listen":3810,"particip":3811,"Mor":3812,"associatedĠ":3813,"endsĠ":3814,"fromĠs":3815,"Canad":3816,"abor":3817,"awĠ":3818,"OneĠ":3819,"Post":3820,"Ġterm":3821,"withinĠ":3822,"TH":3823,"visit":3824,"nuc":3825,"fire":3826,"bank":3827,"es,ĠtheĠ":3828,"Co":3829,"lateĠ":3830,"Ġday":3831,"stream":3832,"alityĠ":3833,"emperat":3834,"Ġbut":3835,"orĠtoĠ":3836,"alg":3837,"Ġtool":3838,"mention":3839,"application":3840,"Oh":3841,"MostĠ":3842,"Our":3843,"privateĠ":3844,"atedĠbyĠ":3845,"productĠ":3846,"ollar":3847,"ateĠs":3848,"\",Ġ":3849,"oct":3850,"ĠtheirĠp":3851,"Ġtradition":3852,"Ġsay":3853,"DO":3854,"forĠthisĠ":3855,".ĠMyĠ":3856,"potentialĠ":3857,"black":3858,"nativeĠ":3859,"whiteĠ":3860,"shop":3861,"ootĠ":3862,"ingĠofĠtheĠ":3863,"bey":3864,"37":3865,"memb":3866,"discover":3867,"scen":3868,"standardĠ":3869,"encesĠ":3870,"Republic":3871,"eĠmayĠ":3872,"factĠthatĠ":3873,")Ġ{Ċ":3874,"aĠ(":3875,"etterĠ":3876,"erĠ(":3877,"ivil":3878,"vehic":3879,"ologyĠ":3880,"becauseĠtheyĠ":3881,"amaz":3882,"certainĠ":3883,"ignor":3884,"JustĠ":3885,"asĠitĠ":3886,"elev":3887,"whenĠitĠ":3888,"sĠthatĠareĠ":3889,"ingĠanĠ":3890,"focusĠ":3891,"onstr":3892,"useĠtheĠ":3893,"inĠandĠ":3894,"haven":3895,"eah":3896,"half":3897,"ĠsaidĠ":3898,"re-":3899,"nationalĠ":3900,"ential":3901,"employe":3902,"aĠcoupl":3903,"upĠandĠ":3904,"implement":3905,"Aug":3906,"edĠonĠtheĠ":3907,"edd":3908,"positiveĠ":3909,"struction":3910,",Ġthough":3911,"halfĠ":3912,"ste":3913,".ĠThereĠareĠ":3914,"business":3915,"phas":3916,"crim":3917,"mix":3918,"ptĠ":3919,"ufact":3920,"scre":3921,"anti-":3922,"etic":3923,"marketĠ":3924,"48":3925,"psych":3926,"ooth":3927,"PresidentĠ":3928,"aĠth":3929,"similar":3930,"wear":3931,"sett":3932,"attention":3933,"wentĠ":3934,"self-":3935,"infl":3936,"GoogleĠ":3937,"Fig":3938,"ĠW":3939,"scient":3940,".ĠSheĠ":3941,"ildĠ":3942,"aitĠ":3943,"()":3944,"UR":3945,"Faceb":3946,"remember":3947,"ations,Ġ":3948,"duct":3949,"$\\":3950,"aĠbig":3951,"IâĢĻmĠ":3952,"offerĠ":3953,"perfect":3954,"whoĠareĠ":3955,"alĠandĠ":3956,"Ġtalk":3957,"trans":3958,"Ass":3959,"idea":3960,"vill":3961,"Jes":3962,"ittingĠ":3963,"questionsĠ":3964,"Act":3965,"strength":3966,"lock":3967,"AD":3968,"rog":3969,"onĠc":3970,"youĠcan":3971,"AnĠ":3972,"Ġhel":3973,"onĠthisĠ":3974,"38":3975,"(\"":3976,"heart":3977,"eph":3978,"circ":3979,"platform":3980,"idg":3981,"ĠonĠ":3982,"feed":3983,"obt":3984,"lic":3985,"OnĠ":3986,"usinessĠ":3987,"rand":3988,"learnĠ":3989,"relativ":3990,"userĠ":3991,"phoneĠ":3992,"Jam":3993,"'ll":3994,"data":3995,",âĢĿ":3996,"shortĠ":3997,"virt":3998,"method":3999,",ĠthereĠareĠ":4000,"hos":4001,"CanĠ":4002,"onlin":4003,"onĠmyĠ":4004,"007":4005,"them":4006,"lyĠtheĠ":4007,"popular":4008,"blackĠ":4009,"money":4010,"picture":4011,"eĠmon":4012,"onn":4013,"idenceĠ":4014,"odeĠ":4015,"allowĠ":4016,"onym":4017,"ĠseeĠ":4018,"sav":4019,"sch":4020,"encour":4021,"rateĠ":4022,"dd":4023,"forward":4024,"Gener":4025,"earth":4026,"andid":4027,"card":4028,"earn":4029,"dueĠtoĠ":4030,"PC":4031,"oudĠ":4032,"ersĊ":4033,"ive,Ġ":4034,"periodĠ":4035,"olar":4036,"ĠmeĠ":4037,"umer":4038,"email":4039,"lookedĠ":4040,"aĠS":4041,"Ġcompl":4042,"decision":4043,"ĠtoldĠ":4044,"ĠbecauseĠ":4045,"aughtĠ":4046,"iar":4047,"heldĠ":4048,"wantĠ":4049,"partyĠ":4050,"researchĠ":4051,"ĠtellĠ":4052,"deal":4053,"ird":4054,"variet":4055,"livingĠ":4056,"Reg":4057,"Ġpoint":4058,"IĠcouldĠ":4059,"atis":4060,"34":4061,"udd":4062,"UK":4063,"ĠthinkingĠ":4064,"ate,Ġ":4065,"ofĠthoseĠ":4066,"languag":4067,"givesĠ":4068,"bandĠ":4069,"Apr":4070,"ia,Ġ":4071,"Becaus":4072,"projectĠ":4073,"answerĠ":4074,"016":4075,"ingĠtheirĠ":4076,"Er":4077,"ictĠ":4078,"peak":4079,"consc":4080,"whatĠtheyĠ":4081,"endĠofĠtheĠ":4082,"anĠun":4083,"formerĠ":4084,"Fin":4085,"resist":4086,"ĠtakeĠaĠ":4087,".ĠEv":4088,"comfort":4089,"bul":4090,"200":4091,"ĠthoughĠ":4092,"means":4093,"particularlyĠ":4094,".ĠUn":4095,",âĢĿĠ":4096,"Ġmov":4097,",ĠwhoĠ":4098,"Trump":4099,"company":4100,"âĢĻs":4101,"ies.Ċ":4102,"Ġway":4103,"elseĠ":4104,"isterĠ":4105,"notherĠ":4106,"knew":4107,"house":4108,"ouldnâĢĻtĠ":4109,"qualityĠ":4110,"band":4111,"however,Ġ":4112,"someĠofĠtheĠ":4113,"cast":4114,"owerĠ":4115,"ĠtoĠdoĠ":4116,"voic":4117,"effectĠ":4118,"West":4119,"ailyĠ":4120,"Ġtrain":4121,"Ġtend":4122,"Ġin":4123,"What":4124,"perfectĠ":4125,"doesnâĢĻtĠ":4126,"yr":4127,"standĠ":4128,"himself":4129,"ĠtakenĠ":4130,"color":4131,"Ġbec":4132,"05":4133,"SE":4134,"intoĠaĠ":4135,"Ġthere'sĠ":4136,"stick":4137,"ive":4138,"youĠc":4139,"UnitedĠStat":4140,"ofĠthes":4141,"sleep":4142,"RO":4143,"collect":4144,"AfterĠ":4145,"skill":4146,"een":4147,"meanĠ":4148,"Ġback":4149,"ension":4150,"ĠwithĠaĠ":4151,"essĠofĠ":4152,"optim":4153,"burn":4154,"Fil":4155,"Peopl":4156,"Ġwrit":4157,"ly.Ċ":4158,"rief":4159,"atĠaĠ":4160,"finallyĠ":4161,"unk":4162,"water":4163,"edĠby":4164,"boy":4165,"Bu":4166,"differenceĠ":4167,"ourĠs":4168,"batt":4169,"Man":4170,"all,Ġ":4171,"eanĠ":4172,"aĠsingleĠ":4173,"acrossĠtheĠ":4174,"Oct":4175,"esĠwereĠ":4176,"looksĠ":4177,"prev":4178,"sureĠ":4179,"Sk":4180,"beautiful":4181,"match":4182,"notĠonlyĠ":4183,"Ne":4184,"intellig":4185,"rain":4186,",ĠC":4187,"allĠs":4188,".)Ċ":4189,"ju":4190,"didĠnotĠ":4191,"wait":4192,"ings,Ġ":4193,"amm":4194,"quant":4195,"countryĠ":4196,"learningĠ":4197,"acqu":4198,"\"TheĠ":4199,"mediaĠ":4200,"ations":4201,"you'r":4202,"John":4203,"Sch":4204,"engine":4205,"others":4206,"axim":4207,"ence,Ġ":4208,"ugeĠ":4209,"rupt":4210,"lowĠ":4211,"deĠ":4212,"youĠneedĠtoĠ":4213,"jump":4214,"prefer":4215,"alĠofĠ":4216,"ptom":4217,"?\"Ċ":4218,"element":4219,"equip":4220,"relev":4221,"capt":4222,"ĠmanyĠ":4223,"valueĠ":4224,"publish":4225,"roy":4226,"explor":4227,"yth":4228,"establish":4229,"distribut":4230,",Âł":4231,"015":4232,"icĠp":4233,"basedĠonĠ":4234,"weightĠ":4235,"planĠ":4236,"Ġtravel":4237,"onyĠ":4238,"oriesĠ":4239,"Ro":4240,"growth":4241,"mission":4242,"specialĠ":4243,",ĠB":4244,"ureĠthatĠ":4245,"funct":4246,"rik":4247,"individual":4248,"edĠoutĠ":4249,"edĠherĠ":4250,"major":4251,"atoryĠ":4252,"cool":4253,"rememberĠ":4254,"controll":4255,"roomĠ":4256,"on.Ċ":4257,"areasĠ":4258,"ĠtimeĠtoĠ":4259,"previousĠ":4260,"playingĠ":4261,"ourĠc":4262,"achiev":4263,"onlineĠ":4264,"loadĠ":4265,"isticĠ":4266,"Sec":4267,"ationĠinĠ":4268,"arriv":4269,"ynam":4270,"itĠis":4271,"ĠtheirĠh":4272,"surpris":4273,"exercis":4274,"restr":4275,"stag":4276,"Ġtoo":4277,"orr":4278,"IM":4279,"youĠdon'tĠ":4280,"purchas":4281,"strang":4282,"eĠsomeĠ":4283,"omen":4284,"matter":4285,"ually":4286,"usp":4287,"44":4288,"osph":4289,"centr":4290,"ester":4291,"highlyĠ":4292,"edĠthisĠ":4293,"Ġk":4294,"(andĠ":4295,"societ":4296,"Cour":4297,"on't":4298,"âĢĻveĠ":4299,"to-":4300,"ersĠinĠ":4301,"ĠtheirĠc":4302,"unchĠ":4303,"engag":4304,"NA":4305,"Ġthen":4306,"eĠsp":4307,"ĠĠĠĠĠĠĠĠĠĠ":4308,"additionalĠ":4309,"ership":4310,"ingĠhisĠ":4311,"Japan":4312,"she":4313,"?\"Ġ":4314,"men":4315,"listĠ":4316,"esn'tĠ":4317,"ĠthemĠtoĠ":4318,"08":4319,"where":4320,"ÂłÂłĠ":4321,"recentlyĠ":4322,"elsĠ":4323,"inkingĠ":4324,"womanĠ":4325,"entiallyĠ":4326,"subject":4327,"Trans":4328,"communic":4329,"controlĠ":4330,"e.ÂłĠ":4331,"eĠwork":4332,"ĠwithoutĠ":4333,"ĠK":4334,"zer":4335,"formĠofĠ":4336,"avoidĠ":4337,"oppos":4338,"politic":4339,"why":4340,".ĠAfterĠ":4341,"guyĠ":4342,"erĠtheĠ":4343,"asĠtoĠ":4344,"nearlyĠ":4345,"maybeĠ":4346,"so,Ġ":4347,"amet":4348,"ferĠ":4349,"cli":4350,"fat":4351,"NorthĠ":4352,"itĠtheĠ":4353,"atic":4354,"givingĠ":4355,"asterĠ":4356,"sure":4357,"ĠmightĠ":4358,"Ġsom":4359,"makeĠitĠ":4360,"way,Ġ":4361,"oftĠ":4362,"iou":4363,"allowsĠ":4364,"cutĠ":4365,"whateverĠ":4366,"elin":4367,"laugh":4368,"address":4369,"''":4370,"wonder":4371,"edul":4372,"Dep":4373,"ustri":4374,"behindĠ":4375,"callĠ":4376,"ypt":4377,"enem":4378,"MayĠ":4379,"ultim":4380,"music":4381,"becauseĠtheĠ":4382,"heartĠ":4383,"eĠsay":4384,"Ġschool":4385,"isionĠ":4386,"oneĠtoĠ":4387,"companiesĠ":4388,"ief":4389,".ĠV":4390,"negativeĠ":4391,"eni":4392,"content":4393,"empor":4394,"esĠwithĠ":4395,"moreĠd":4396,"ĠthatâĢĻsĠ":4397,"whenĠyouĠ":4398,"s)Ġ":4399,"alb":4400,"NationalĠ":4401,"lad":4402,"withinĠtheĠ":4403,"inĠanĠ":4404,"75":4405,"lar":4406,"sĠto":4407,"another":4408,"issueĠ":4409,"stock":4410,"s.ĠH":4411,"Part":4412,"front":4413,"Ġweek":4414,"fourĠ":4415,"walk":4416,"Bas":4417,"e.ĠI":4418,"sent":4419,"ford":4420,"orn":4421,"ĠbelieveĠ":4422,"spr":4423,"olveĠ":4424,"hadĠaĠ":4425,"noc":4426,"ĠtoĠhaveĠ":4427,"houseĠ":4428,"wall":4429,"relatedĠ":4430,"Ġthey'reĠ":4431,"you,Ġ":4432,"et,Ġ":4433,"ĠJ":4434,"actionsĠ":4435,"Georg":4436,"Frid":4437,"IĠdoĠ":4438,"extremelyĠ":4439,"importĠ":4440,"SouthĠ":4441,"edic":4442,"appoint":4443,"ientsĠ":4444,"hak":4445,"omin":4446,"ingĠonĠ":4447,"Ġmak":4448,"characterĠ":4449,"amer":4450,"veg":4451,"youĠmayĠ":4452,"squ":4453,"aâĢĻsĠ":4454,"ousand":4455,"es.ĠTheĠ":4456,"Har":4457,"oh":4458,"aft":4459,"Ġcall":4460,"board":4461,"createdĠ":4462,"edĠthatĠtheĠ":4463,"Ġdown":4464,"performanc":4465,"Pal":4466,"ĠthatĠitĠ":4467,"ateĠandĠ":4468,"UN":4469,"Pet":4470,"es:Ġ":4471,"material":4472,"figureĠ":4473,"adem":4474,"chann":4475,"anksĠ":4476,"siteĠ":4477,"interview":4478,".ĠYouĠcanĠ":4479,"recommend":4480,"hardĠtoĠ":4481,"eĠthereĠ":4482,"gar":4483,"cook":4484,"impactĠ":4485,"paidĠ":4486,"can'tĠ":4487,"ouseĠ":4488,"Sm":4489,"etail":4490,"aster":4491,"ilos":4492,"eĠsystem":4493,"ating":4494,"39":4495,"youngĠ":4496,"interestingĠ":4497,"ĠthatĠthisĠ":4498,".ĠTheĠc":4499,"institut":4500,".ĠHisĠ":4501,"weekĠ":4502,"globalĠ":4503,"Ang":4504,"acrossĠ":4505,"ED":4506,"edĠofĠ":4507,"Ġcomp":4508,"common":4509,"youĠshouldĠ":4510,"readingĠ":4511,"07":4512,"ichĠ":4513,"peopleĠareĠ":4514,"ifĠitĠ":4515,"edĠwithĠtheĠ":4516,"compon":4517,"request":4518,"eĠtheĠt":4519,"Stud":4520,"secondĠ":4521,"Franc":4522,"ersĠofĠtheĠ":4523,"principl":4524,"allĠofĠtheĠ":4525,"edĠin":4526,"06":4527,"rok":4528,"Ger":4529,"ĠthoseĠwhoĠ":4530,"ru":4531,"StatesĠ":4532,"you'veĠ":4533,"eĠway":4534,"istĠofĠ":4535,"avoid":4536,"Repl":4537,"shareĠ":4538,"âĢĶĠ":4539,"Web":4540,"ereâĢĻsĠ":4541,"Let":4542,"cloth":4543,"BĠ":4544,"enderĠ":4545,"IP":4546,"easyĠtoĠ":4547,"pressĠ":4548,"correct":4549,"document":4550,"'llĠ":4551,"olutionĠ":4552,"futureĠ":4553,"howĠtheĠ":4554,"impress":4555,"ault":4556,"victim":4557,"specificĠ":4558,"body":4559,"aĠveryĠ":4560,"eĠtimeĠ":4561,"sĠcanĠ":4562,"prevent":4563,"mentalĠ":4564,"edom":4565,"stay":4566,"version":4567,"ilityĠ":4568,"amil":4569,"006":4570,"lookĠatĠ":4571,"gott":4572,"radi":4573,"noĠlongerĠ":4574,"gn":4575,"birth":4576,"suppos":4577,"iesĠthatĠ":4578,"reveal":4579,"Austr":4580,"analysisĠ":4581,"excit":4582,".ĠI'mĠ":4583,"typ":4584,"ais":4585,"oĠandĠ":4586,"uggl":4587,"someĠs":4588,"Ġ-":4589,"eĠofĠaĠ":4590,"join":4591,"assist":4592,"ocol":4593,":Âł":4594,"Ġso":4595,"certainlyĠ":4596,"var":4597,"eirĠ":4598,"09":4599,"04":4600,"builtĠ":4601,"e/":4602,"icĠc":4603,"$Ġ":4604,".ĠTheĠd":4605,"LO":4606,"exĠ":4607,"âĢ¦Ċ":4608,"on-":4609,"appreci":4610,"epis":4611,"ĠthemselvesĠ":4612,"ability":4613,"aign":4614,"evalu":4615,"ĠtryĠ":4616,"aĠM":4617,"libr":4618,"enh":4619,"warm":4620,"sn":4621,"55":4622,"e)Ġ":4623,"mid":4624,"ashing":4625,"ellsĠ":4626,"Pleas":4627,"easyĠ":4628,"bringĠ":4629,"Ġbre":4630,"ofĠthemĠ":4631,"roadĠ":4632,"fish":4633,"====":4634,"Out":4635,"``":4636,"mo":4637,"ItâĢĻsĠ":4638,"perhapsĠ":4639,"ureĠtoĠ":4640,"64":4641,"label":4642,".[":4643,"omet":4644,"boardĠ":4645,"brainĠ":4646,"enjo":4647,"Po":4648,"roughĠ":4649,"eyesĠ":4650,"Chang":4651,"itĠinĠ":4652,"youĠcouldĠ":4653,"updat":4654,"contain":4655,"ure.Ċ":4656,"immun":4657,"fing":4658,"Def":4659,"marri":4660,"echĠ":4661,"Ġmil":4662,"ualsĠ":4663,"fastĠ":4664,"separ":4665,"Ġtrack":4666,"enterĠ":4667,"mustĠbeĠ":4668,"ĠthereĠwasĠ":4669,"referenc":4670,"017":4671,"formĠ":4672,"medicalĠ":4673,"hund":4674,"predict":4675,"Paul":4676,"balanc":4677,"iftĠ":4678,"usĠtoĠ":4679,"eĠthingsĠ":4680,"WhoĠ":4681,"occas":4682,"yĠinĠ":4683,"eatingĠ":4684,"Germ":4685,"goĠtoĠ":4686,"->":4687,"eventuallyĠ":4688,"minim":4689,"seeĠtheĠ":4690,"ĠmillionĠ":4691,"story":4692,"whoĠisĠ":4693,"',Ġ":4694,"Ġpol":4695,"amount":4696,"p://":4697,"mir":4698,"namedĠ":4699,"entĠandĠ":4700,"ates":4701,"English":4702,"ĠmostĠ":4703,"IR":4704,"newsĠ":4705,"eĠwas":4706,"factor":4707,"raq":4708,"production":4709,"dark":4710,"movi":4711,"eck":4712,"stead":4713,"ĠdidĠ":4714,"edĠout":4715,"swe":4716,"IL":4717,".)Ġ":4718,"aĠsmall":4719,"Cong":4720,"e.g":4721,"opĠ":4722,"e.ĠÂł":4723,"erveĠ":4724,"mm":4725,"Ġcol":4726,"vious":4727,"onĠhisĠ":4728,"eĠtoĠbeĠ":4729,"doct":4730,"ationĠtoĠ":4731,"Sept":4732,"mass":4733,"esh":4734,"necessaryĠ":4735,"leyĠ":4736,"recordĠ":4737,"eĠthing":4738,"required":4739,"Twit":4740,"receiveĠ":4741,"makeĠtheĠ":4742,"religiousĠ":4743,"%ĠofĠ":4744,"journ":4745,"damag":4746,"Ġ*":4747,"peac":4748,"sun":4749,"moment":4750,"PS":4751,",ĠweĠ":4752,"olderĠ":4753,"considerĠ":4754,"may":4755,"causeĠ":4756,"wereĠs":4757,".ĠSomeĠ":4758,"announc":4759,"hitĠ":4760,"diag":4761,"calcul":4762,"Ġcommun":4763,"fewĠ":4764,"ify":4765,"OĠ":4766,"Sub":4767,"internationalĠ":4768,"quart":4769,"Iraq":4770,"beforeĠtheĠ":4771,"kidsĠ":4772,"uffĠ":4773,"high-":4774,"frontĠ":4775,"ManyĠ":4776,"Ġbeg":4777,"47":4778,"standard":4779,"ingĠthemĠ":4780,"proced":4781,"yz":4782,"aĠC":4783,"bt":4784,"harm":4785,"anĠtoĠ":4786,"factĠ":4787,"used":4788,"Ġter":4789,"programm":4790,"ĠthatĠwasĠ":4791,"Ġseem":4792,"yourselfĠ":4793,"reflect":4794,"computerĠ":4795,"agreeĠ":4796,"automat":4797,"IĠknow":4798,"s.ÂłĠ":4799,"Ġpos":4800,"reatedĠ":4801,"lotĠofĠ":4802,"ridĠ":4803,"below":4804,",ĠâĢľ":4805,":ĠtheĠ":4806,"omenĠ":4807,"Octob":4808,"wo":4809,"ane":4810,"implyĠ":4811,"ament":4812,"vertis":4813,"Ġtime":4814,"rich":4815,"weĠw":4816,"itselfĠ":4817,"aren'tĠ":4818,"cheap":4819,"electric":4820,"keptĠ":4821,"syn":4822,"primaryĠ":4823,"To":4824,"IĠjustĠ":4825,"militaryĠ":4826,"serveĠ":4827,".ĠTheyĠareĠ":4828,"youĠwill":4829,"issuesĠ":4830,"config":4831,"whoseĠ":4832,"SomeĠ":4833,"youĠhaveĠtoĠ":4834,"s-":4835,"forn":4836,"escap":4837,"driveĠ":4838,"Window":4839,"ĉĉĉ":4840,"auc":4841,"ry":4842,"injur":4843,"innerĠ":4844,"HisĠ":4845,"succ":4846,"youĠdoĠ":4847,"sing":4848,"argetĠ":4849,"âĢ¦Ġ":4850,"possibleĠtoĠ":4851,"akenĠ":4852,"Democrat":4853,"mightĠbeĠ":4854,"positionĠ":4855,"sheĠwasĠ":4856,"perspect":4857,"Ġweb":4858,"goingĠtoĠbeĠ":4859,"percent":4860,"aftĠ":4861,"OS":4862,"UnitedĠStatesĠ":4863,"ison":4864,"Som":4865,"Ġcentur":4866,"abb":4867,"Ġsur":4868,"door":4869,"ning":4870,"cityĠ":4871,"confl":4872,"hang":4873,"ellow":4874,"ĠsheĠ":4875,"al-":4876,"itl":4877,"Israel":4878,"Mat":4879,"problemĠ":4880,"well-":4881,"volum":4882,"mur":4883,"Bo":4884,"ideasĠ":4885,"Read":4886,"Ġperc":4887,"JanuaryĠ":4888,"whether":4889,"grand":4890,"EuropeanĠ":4891,"resh":4892,"\"ĠandĠ":4893,"ment,Ġ":4894,"><":4895,"atingĠtheĠ":4896,"painĠ":4897,"averageĠ":4898,"rig":4899,"electron":4900,"care":4901,"appar":4902,"AllĠ":4903,".com/":4904,"fi":4905,"length":4906,"atâĢĻsĠ":4907,"De":4908,"edlyĠ":4909,"cycl":4910,"TheseĠ":4911,"behind":4912,"a.":4913,"entire":4914,"xim":4915,"02":4916,"domin":4917,"would":4918,"easi":4919,"ones":4920,"growingĠ":4921,"arc":4922,"downĠtheĠ":4923,"usiness":4924,"005":4925,"abov":4926,".ĠSh":4927,"ival":4928,"orpor":4929,"IâĢĻveĠ":4930,"I'mĠnotĠ":4931,"policeĠ":4932,"deathĠ":4933,"six":4934,"reportĠ":4935,"IV":4936,"Well,Ġ":4937,"pun":4938,"aliforn":4939,".ĠThenĠ":4940,"y,ĠbutĠ":4941,"anyĠotherĠ":4942,"clin":4943,"unction":4944,"pageĠ":4945,"axĠ":4946,"itĠwouldĠ":4947,"eĠtrans":4948,"languageĠ":4949,"aveĠaĠ":4950,"people,Ġ":4951,"bear":4952,"healthyĠ":4953,"sĠbyĠ":4954,"elt":4955,"demonstr":4956,"Ġpar":4957,"ityĠofĠtheĠ":4958,"edĠhim":4959,"farm":4960,"lib":4961,"ĠtheirĠb":4962,"healthĠ":4963,"fullĠ":4964,"ednes":4965,"althoughĠ":4966,"Mo":4967,"priceĠ":4968,"able,Ġ":4969,"examin":4970,"uggest":4971,"gett":4972,"select":4973,"hus":4974,"Sy":4975,"seemsĠ":4976,"scal":4977,"intend":4978,"imilarĠ":4979,"possibil":4980,"Writ":4981,"eĠthan":4982,"ricĠ":4983,"iesĠtoĠ":4984,"Ġsub":4985,"CD":4986,"#Ġ":4987,"46":4988,"erefor":4989,"icĠm":4990,"Mac":4991,"aultĠ":4992,"AtĠ":4993,"broughtĠ":4994,"ene":4995,",ĠthereĠisĠ":4996,"erâĢĻsĠ":4997,"Ġcontinu":4998,"ani":4999,"ification":5000,"soĠthatĠ":5001,"isnâĢĻtĠ":5002,"Over":5003,"construct":5004,"aneĠ":5005,"ired":5006,"pattern":5007,"becameĠ":5008,"lean":5009,"orm":5010,"eticĠ":5011,"you.Ċ":5012,"oop":5013,"one.Ċ":5014,"edĠupĠ":5015,"Earth":5016,"sĠaboutĠ":5017,"Fre":5018,",ĠL":5019,"ivesĠ":5020,"AreĠ":5021,"paint":5022,"wast":5023,"agon":5024,"ĠbyĠtheĠ":5025,"ureĠandĠ":5026,"liqu":5027,"whichĠareĠ":5028,"al.Ċ":5029,"eĠcall":5030,"allyĠtheĠ":5031,"viaĠ":5032,"mand":5033,"though":5034,"buildingĠ":5035,"ĠtoĠtakeĠ":5036,"colleg":5037,"Muslim":5038,"ĠdifferentĠ":5039,"consequ":5040,"north":5041,"lĠ":5042,"bill":5043,"Ital":5044,"JuneĠ":5045,"motherĠ":5046,"Hol":5047,"removeĠ":5048,".ĠIĠw":5049,"professionalĠ":5050,"High":5051,"SS":5052,"Rem":5053,"ically":5054,"weak":5055,"luck":5056,"cannotĠ":5057,"Pat":5058,"prob":5059,"Ġconc":5060,"fightĠ":5061,"sĠfor":5062,"influenc":5063,"ainĠtheĠ":5064,"itĠwas":5065,"grav":5066,"oss":5067,"wood":5068,"numer":5069,"hoodĠ":5070,"faith":5071,"requiredĠ":5072,"edĠfromĠtheĠ":5073,"Ġhigh":5074,"ballĠ":5075,"NewĠYorkĠ":5076,".ĠIĠhaveĠ":5077,"ourĠf":5078,"playersĠ":5079,"coupl":5080,"ve":5081,"Ġhe":5082,"Ind":5083,"playerĠ":5084,"belief":5085,"esĠtoĠtheĠ":5086,"progress":5087,"ĠtheirĠm":5088,"alĠtoĠ":5089,"ortĠofĠ":5090,"ET":5091,"onĊ":5092,"accordingĠtoĠ":5093,"WhileĠ":5094,"soundĠ":5095,"later":5096,"happenĠ":5097,"ĠtheyĠwereĠ":5098,"ĠhasĠ":5099,"commerc":5100,"IĠcan":5101,"whichĠtheĠ":5102,"rum":5103,";ĠtheĠ":5104,"ately":5105,"bag":5106,"one.Ġ":5107,"bornĠ":5108,"'Ċ":5109,"immediatelyĠ":5110,"enz":5111,"as,Ġ":5112,":ĠS":5113,"aĠnew":5114,"alco":5115,"gasĠ":5116,"onderĠ":5117,"ipp":5118,"ING":5119,"ĠbeforeĠ":5120,"ently":5121,"inesĠ":5122,"special":5123,"responsibleĠ":5124,"verĠ":5125,"Tues":5126,"ĠmustĠ":5127,"ingĠyourĠ":5128,"dateĠ":5129,"chos":5130,"eu":5131,"dream":5132,"Tod":5133,"inĠterm":5134,"Her":5135,"accountĠ":5136,"es,ĠbutĠ":5137,"uponĠ":5138,"Net":5139,"home":5140,"bigĠ":5141,"aĠser":5142,"recogniz":5143,"remain":5144,"imageĠ":5145,"camer":5146,"mentĠandĠ":5147,"Kore":5148,"Islam":5149,"ationĠ(":5150,"Chr":5151,"propertyĠ":5152,"ions,Ġ":5153,"otsĠ":5154,"edĠanĠ":5155,"contentĠ":5156,"efullyĠ":5157,"Id":5158,"ieldĠ":5159,"atorsĠ":5160,"currentlyĠ":5161,"Comment":5162,"blood":5163,"map":5164,"awareĠ":5165,"_{":5166,".ĠNoĠ":5167,"umn":5168,"lackĠofĠ":5169,"aĠB":5170,"03":5171,"lessĠthanĠ":5172,"intĠofĠ":5173,"becauseĠofĠ":5174,"mostlyĠ":5175,"eĠdes":5176,"finish":5177,"sell":5178,"CH":5179,"habit":5180,",Ġh":5181,"responsibil":5182,"mort":5183,"Lat":5184,"exic":5185,"Washing":5186,"appe":5187,"should":5188,"soonĠ":5189,"erryĠ":5190,"pac":5191,"ecid":5192,"knowĠwhatĠ":5193,"problemsĠ":5194,"contactĠ":5195,"dead":5196,"liber":5197,"likeĠm":5198,"Ġ|":5199,"becomesĠ":5200,"bow":5201,"erĠofĠtheĠ":5202,"gh":5203,"Contr":5204,"eĠmightĠ":5205,".ĠNotĠ":5206,"Austral":5207,"ationsĠofĠ":5208,"youĠgetĠ":5209,"asĠwellĠ":5210,",ĠisĠ":5211,"requir":5212,"fallĠ":5213,"thoughĠ":5214,"its":5215,"interpret":5216,"conserv":5217,"economicĠ":5218,"ĠtoĠthisĠ":5219,"styl":5220,"smallĠ":5221,",Ġtoo":5222,"MS":5223,"crib":5224,"endĠofĠ":5225,"nav":5226,"airĠ":5227,"guessĠ":5228,"clean":5229,"eĠsup":5230,"providesĠ":5231,"arant":5232,"oneĠthatĠ":5233,"Ġtrou":5234,"),ĠandĠ":5235,"yâĢĻsĠ":5236,"ine,Ġ":5237,"share":5238,"bound":5239,"FromĠ":5240,"buy":5241,"church":5242,"strik":5243,"hyp":5244,"WhatĠisĠ":5245,"etĠal":5246,"audienc":5247,"pil":5248,"Ġthreat":5249,"excell":5250,"contin":5251,"importantĠtoĠ":5252,"weap":5253,"thingĠtoĠ":5254,"ization":5255,"rub":5256,"whenĠIĠ":5257,"gramĠ":5258,"myself":5259,"May":5260,"ed:Ġ":5261,"ĠtypeĠofĠ":5262,"antedĠtoĠ":5263,"pal":5264,"mist":5265,"From":5266,"iesĠareĠ":5267,"attach":5268,"eĠwayĠ":5269,"-ter":5270,"hotĠ":5271,"poll":5272,"ThereĠisĠ":5273,"hat":5274,"AB":5275,"kin":5276,"urrentĠ":5277,"filmĠ":5278,"ĠĠĠĠĠĠĠĠĠĠĠĠĠĠĠĠĠĠĠĠĠĠĠĠĠĠĠĠĠĠĠĠ":5279,"adjust":5280,"CĊ":5281,"getĠtoĠ":5282,"particularĠ":5283,"otalĠ":5284,"saveĠ":5285,"ĠperĠ":5286,"websit":5287,".Ġ.Ġ":5288,"RĠ":5289,"EvenĠ":5290,"standingĠ":5291,"remainĠ":5292,"scienc":5293,"born":5294,"changesĠ":5295,"Whil":5296,"ror":5297,"completeĠ":5298,"Ġspec":5299,"saysĠ":5300,"leadĠ":5301,"Jul":5302,"Lif":5303,"Wednes":5304,"neighbor":5305,"YouĠareĠ":5306,"knownĠasĠ":5307,"restĠ":5308,"strongĠ":5309,"song":5310,"one-":5311,"001":5312,"recover":5313,"Air":5314,"Don":5315,"s\"":5316,"fram":5317,"okeĠ":5318,"daugh":5319,"Europ":5320,"42":5321,"inĠorderĠtoĠ":5322,"eĠdis":5323,"achieveĠ":5324,"properĠ":5325,"committ":5326,"embl":5327,"enabl":5328,"happyĠ":5329,"edĠfrom":5330,"incom":5331,"gamesĠ":5332,"ersĠwhoĠ":5333,"ible":5334,"search":5335,"rewĠ":5336,"018":5337,"BritishĠ":5338,"comb":5339,"asĠmuchĠ":5340,"directlyĠ":5341,"lotsĠofĠ":5342,"engthĠ":5343,"iat":5344,"levelĠofĠ":5345,"usernam":5346,"Ġpart":5347,"Asi":5348,"imeĠ":5349,"heatĠ":5350,"ertain":5351,"peopleĠtoĠ":5352,"So,Ġ":5353,"That'sĠ":5354,"eĠmustĠ":5355,"fav":5356,"kĠandĠ":5357,"Ġbefor":5358,"ed,ĠtheĠ":5359,"tĠtheĠ":5360,".ĠIfĠyouĠ":5361,"iscuss":5362,"impleĠ":5363,"itĠhasĠ":5364,"Thurs":5365,"iumĠ":5366,"\"Ġ(":5367,",ĠheĠ":5368,".ĠSom":5369,"index":5370,"assign":5371,"ĠtodayĠ":5372,"fatherĠ":5373,"Ð¾":5374,"requiresĠ":5375,"Ġclass":5376,"studentĠ":5377,"eventĠ":5378,"Arab":5379,"Ġmean":5380,"antic":5381,"UT":5382,"Ġde":5383,"ollowĠ":5384,"consideredĠ":5385,"Av":5386,"brain":5387,"resultsĠ":5388,"orĠw":5389,"ignificantĠ":5390,"forceĠ":5391,"49":5392,"y:Ġ":5393,"spaceĠ":5394,"communityĠ":5395,"second":5396,"knowsĠ":5397,"struggl":5398,"shap":5399,"parentsĠ":5400,"se,Ġ":5401,"ksĠ":5402,"EM":5403,"increasedĠ":5404,"mechan":5405,"Californ":5406,"olec":5407,"Every":5408,"lap":5409,"incredi":5410,"NowĠ":5411,"youĠmightĠ":5412,"ĠisĠaĠ":5413,"EnglishĠ":5414,"lotĠ":5415,"evil":5416,"concept":5417,"signific":5418,"askingĠ":5419,"orb":5420,"whileĠtheĠ":5421,"is.Ċ":5422,",ĠnotĠ":5423,"asp":5424,"friendsĠ":5425,"orĠaĠ":5426,"blu":5427,"ster":5428,"Ġthem.Ċ":5429,"haven'tĠ":5430,"essĠandĠ":5431,"ger":5432,"assess":5433,"Mag":5434,"mount":5435,"andĠtheĠs":5436,"EL":5437,"retĠ":5438,"devic":5439,",ĠD":5440,"GreatĠ":5441,"fileĠ":5442,"anx":5443,"mut":5444,"ocial":5445,"eĠthingĠ":5446,"inyĠ":5447,"LeaveĠaĠ":5448,"preventĠ":5449,"functionĠ":5450,"forĠanĠ":5451,"wind":5452,",ĠwithĠ":5453,"breath":5454,"pickĠ":5455,"ajorĠ":5456,"hers":5457,"aĠbetterĠ":5458,"breakĠ":5459,"FacebookĠ":5460,"amongĠ":5461,"occup":5462,"enhanc":5463,"Ġtogether":5464,"exceptĠ":5465,"expens":5466,"restaur":5467,"ovi":5468,"elf-":5469,"patient":5470,"aĠmin":5471,"Ġdevelop":5472,"manufact":5473,"reachĠ":5474,"odd":5475,"alĠt":5476,"embr":5477,"Ġher":5478,"knewĠ":5479,".ĠMostĠ":5480,"ling":5481,"arilyĠ":5482,"Ġtogeth":5483,".ĠAll":5484,"ollect":5485,"littl":5486,"federalĠ":5487,"citiz":5488,"orĠisĠ":5489,"dim":5490,"CP":5491,"youĠwouldĠ":5492,"idesĠ":5493,"absolutelyĠ":5494,"existingĠ":5495,"FirstĠ":5496,"argument":5497,"advertis":5498,")ĠisĠ":5499,"DavidĠ":5500,"stant":5501,"cross":5502,"stuffĠ":5503,"aĠlargeĠ":5504,"forĠtheĠs":5505,"Ġwell":5506,"astr":5507,"goal":5508,"relativelyĠ":5509,"worksĠ":5510,"groupĠofĠ":5511,"ItĠwasĠ":5512,"many":5513,".ĠNow":5514,"sist":5515,"knowĠthatĠ":5516,"suffer":5517,"restĠofĠtheĠ":5518,"www":5519,"advis":5520,"unlessĠ":5521,"StateĠ":5522,"danger":5523,"feelingĠ":5524,"FĠ":5525,"between":5526,"Ġpres":5527,".ĠIfĠtheĠ":5528,"window":5529,"-year":5530,"thĠcentur":5531,"e.ĠButĠ":5532,"cient":5533,"plast":5534,"eedĠ":5535,"ifĠ(":5536,"veget":5537,"ps://":5538,"categ":5539,"ofĠtim":5540,"onĠtoĠ":5541,"obil":5542,"hadĠtheĠ":5543,"Ð°":5544,"writingĠ":5545,"MoreĠ":5546,"ofĠcours":5547,"alsoĠbeĠ":5548,"explan":5549,"up,Ġ":5550,"Law":5551,"gainĠ":5552,"Ðµ":5553,"System":5554,"industryĠ":5555,"So":5556,"65":5557,"really":5558,"hasĠtheĠ":5559,"wel":5560,"worthĠ":5561,"shotĠ":5562,"adapt":5563,"approv":5564,"HT":5565,"possiblyĠ":5566,"isĊ":5567,"piteĠ":5568,"comeĠtoĠ":5569,"abol":5570,"Pers":5571,"stup":5572,".ĠIĠwasĠ":5573,"winĠ":5574,"atĠthisĠ":5575,"funn":5576,"anaĠ":5577,"untilĠtheĠ":5578,"surviv":5579,"Ġcas":5580,"ured":5581,"formul":5582,"pregn":5583,"itĊ":5584,"rightĠnow":5585,"ĠtheĊ":5586,"EC":5587,"ities,Ġ":5588,"ped":5589,"emĠ":5590,"aloneĠ":5591,"iesĊ":5592,"ma":5593,"arketĠ":5594,"reateĠ":5595,"Micha":5596,"List":5597,"sĠtheyĠ":5598,"spendĠ":5599,"powerful":5600,"eachĠother":5601,"remind":5602,"court":5603,"vest":5604,"profession":5605,"invent":5606,"anĠin":5607,"closeĠ":5608,"eĠtyp":5609,"Ser":5610,"Get":5611,"MarchĠ":5612,"paperĠ":5613,"woodĠ":5614,"ĠtrueĠ":5615,"fact,Ġ":5616,"chron":5617,"machin":5618,"Hel":5619,"styleĠ":5620,"elimin":5621,"eĠdoesĠ":5622,"Ġtheor":5623,"ourĠb":5624,"?ÂłĠ":5625,"exampleĠ":5626,"iec":5627,"civil":5628,"sĠout":5629,"OctoberĠ":5630,"impact":5631,"instanc":5632,"weight":5633,"http://":5634,"JulyĠ":5635,"004":5636,"needsĠ":5637,"ilosoph":5638,".ĠThereĠisĠ":5639,"Commun":5640,"command":5641,"yĠ(":5642,"iew":5643,"edĠmyĠ":5644,"benefit":5645,"often":5646,"Eg":5647,"ultipl":5648,"election":5649,"I'll":5650,"individualsĠ":5651,"plent":5652,"Stre":5653,"ableĠandĠ":5654,"writeĠ":5655,"aĠcr":5656,"Gl":5657,"suit":5658,"muscl":5659,"attribut":5660,"Ġ*Ġ":5661,",ĠforĠ":5662,"groupĠ":5663,"Ok":5664,"Sw":5665,"needsĠtoĠ":5666,"forĠb":5667,"itĠcanĠ":5668,"300":5669,"expensiveĠ":5670,"medic":5671,"attackĠ":5672,"hood":5673,"bud":5674,"eiv":5675,"pre-":5676,"bed":5677,"aĠmon":5678,"latestĠ":5679,"whereĠtheyĠ":5680,"elessĠ":5681,"es.Ġ":5682,"SheĠ":5683,"acter":5684,"Ġ/":5685,"inĠyourĠ":5686,"OfĠcour":5687,"Sen":5688,"e:":5689,"contract":5690,"divid":5691,"recip":5692,"aĠcertainĠ":5693,"epĠ":5694,"test":5695,"Ġword":5696,"episod":5697,"AprilĠ":5698,"Ġsaid...Ċ":5699,"Op":5700,"IfĠyouĠ":5701,"fal":5702,"clearlyĠ":5703,"ĠtheĠotherĠ":5704,"animal":5705,"forwardĠ":5706,"Go":5707,"Gen":5708,"ounter":5709,"levelĠ":5710,"ĠtypesĠofĠ":5711,"aspect":5712,"IĠwas":5713,"til":5714,",ĠH":5715,"stopĠ":5716,"Sam":5717,"WithĠ":5718,"ately,Ġ":5719,"wouldĠhaveĠ":5720,"Quest":5721,"Imag":5722,"eningĠ":5723,"Ġcomput":5724,"preh":5725,"legis":5726,"encourag":5727,"Sal":5728,"structureĠ":5729,"facil":5730,"helpsĠ":5731,"-basedĠ":5732,"erviceĠ":5733,"ĠbetterĠ":5734,"gain":5735,"41":5736,"ux":5737,"launch":5738,"van":5739,";ĠandĠ":5740,"idnâĢĻtĠ":5741,"e.\"Ċ":5742,"eĠtooĠ":5743,"stimul":5744,"acr":5745,"ml":5746,"Anonym":5747,"life,Ġ":5748,"Satur":5749,"'sĠt":5750,"Big":5751,"goneĠ":5752,"deadĠ":5753,"oralĠ":5754,"greenĠ":5755,".ĠAtĠ":5756,"eĠdi":5757,"freedom":5758,"88":5759,"usedĠinĠ":5760,"vel":5761,"me,Ġ":5762,"itiz":5763,"plantĠ":5764,"connection":5765,"Ġfe":5766,"mail":5767,".ĠThey":5768,"lawĠ":5769,"Artic":5770,"networkĠ":5771,"s.ĠThisĠ":5772,"orith":5773,"setĠofĠ":5774,"we'reĠ":5775,"dro":5776,"eĠthemĠ":5777,"withĠanĠ":5778,".ĠThat'sĠ":5779,"amilyĠ":5780,"leadĠtoĠ":5781,"Ġtherap":5782,"ĠwillĠbeĠ":5783,"lyingĠ":5784,"Ġph":5785,".ĠOf":5786,"fortĠ":5787,"Ġco":5788,"area":5789,"aĠnewĠ":5790,"abas":5791,"learĠ":5792,"cir":5793,"s'":5794,"overn":5795,"vit":5796,"studiesĠ":5797,"comesĠtoĠ":5798,"ourn":5799,"won'tĠ":5800,"includesĠ":5801,"Ġdep":5802,"portsĠ":5803,"ĠshouldĠbeĠ":5804,"constitut":5805,"novel":5806,"explainĠ":5807,"coverĠ":5808,"goalĠ":5809,"ĠworkĠ":5810,"region":5811,"Febr":5812,"atchĠ":5813,"officialĠ":5814,"celebr":5815,"gi":5816,"atsĠ":5817,"Mal":5818,"Willi":5819,"arrang":5820,"definitelyĠ":5821,"ofĠhisĠ":5822,"biggestĠ":5823,"official":5824,"ML":5825,"uitĠ":5826,"adition":5827,"varietyĠofĠ":5828,",ĠR":5829,"âĢĵÂł":5830,"securityĠ":5831,"album":5832,"aticĠ":5833,"pert":5834,"crimin":5835,"umption":5836,"ras":5837,"Connect":5838,"ower":5839,"issue_":5840,"echnologyĠ":5841,"ĠbackĠ":5842,"atom":5843,"nâĢĻt":5844,"it'sĠnotĠ":5845,"Yes,Ġ":5846,"e.ĠThisĠ":5847,"icatedĠ":5848,"Auth":5849,"haveĠanĠ":5850,"Lib":5851,"ors,Ġ":5852,"differenc":5853,"ourselv":5854,"linesĠ":5855,"apart":5856,"aĠsmallĠ":5857,"eĠsom":5858,"hun":5859,"countri":5860,"Ġmillion":5861,"izz":5862,"e.ĠItĠ":5863,".ĠHowever":5864,"orĠnot":5865,"eĠcas":5866,"gĠ":5867,"ersĠthatĠ":5868,"ÂłÂłÂłĠ":5869,"orĊ":5870,"etyĠ":5871,"statement":5872,",ĠP":5873,"y,ĠtheĠ":5874,"other,Ġ":5875,"patientĠ":5876,"middleĠ":5877,"deliv":5878,"iĊ":5879,".ĠCh":5880,"ThenĠ":5881,"iven":5882,"ender":5883,"majorĠ":5884,"musicĠ":5885,"020":5886,".ĠEvenĠ":5887,"ĠtotalĠ":5888,"immigr":5889,"sĠandĠtheĠ":5890,"eĠdoĠ":5891,"cu":5892,"lack":5893,"candid":5894,".ĠJustĠ":5895,"vac":5896,"uls":5897,"guess":5898,"enjoyĠ":5899,"Cal":5900,"WhiteĠ":5901,"ingĠherĠ":5902,"arri":5903,"meetĠ":5904,"scor":5905,"edĠbyĠaĠ":5906,"activityĠ":5907,"edĠ(":5908,"ĠturnĠ":5909,"wayĠofĠ":5910,"ingĠoutĠ":5911,"Hum":5912,"stret":5913,"rep":5914,"Li":5915,"cardĠ":5916,"Phot":5917,",ĠbutĠitĠ":5918,"Intern":5919,"needĠtoĠbeĠ":5920,"fitĠ":5921,"largestĠ":5922,"scri":5923,"developmentĠ":5924,"-th":5925,"becauseĠitĠ":5926,"onĠyourĠ":5927,"industri":5928,"findĠtheĠ":5929,"e\"Ġ":5930,"significantĠ":5931,"initialĠ":5932,"www.":5933,"eĠthenĠ":5934,"accompl":5935,".ÂłĠTheĠ":5936,"âĢĻdĠ":5937,"charactersĠ":5938,",ĠifĠ":5939,"bĠ":5940,"phen":5941,"ousandsĠofĠ":5942,"oilĠ":5943,"OP":5944,"straightĠ":5945,"ĠmoreĠthanĠ":5946,"administr":5947,"usualĠ":5948,"ality":5949,",ĠI":5950,"Oc":5951,",ĠT":5952,"eĠmov":5953,"pleaseĠ":5954,"en.Ċ":5955,"ChristianĠ":5956,"corpor":5957,".ĠOr":5958,"sĠand":5959,"onom":5960,"arianĠ":5961,"IĠwantĠtoĠ":5962,"heavyĠ":5963,".ĠInĠthisĠ":5964,"decad":5965,"uniqueĠ":5966,"anyway":5967,"IâĢĻm":5968,"eachĠotherĠ":5969,"ranĠ":5970,"aps":5971,"random":5972,".ĠBecaus":5973,"warĠ":5974,"('":5975,"alog":5976,"eĠwithĠ":5977,"presidentĠ":5978,"hearĠ":5979,"ipĠ":5980,",ĠbutĠtheĠ":5981,"Att":5982,"niceĠ":5983,"urt":5984,"becam":5985,"ĠtheĠsameĠtim":5986,"AnotherĠ":5987,"youĠthinkĠ":5988,"zĠ":5989,"beginningĠ":5990,"âĢĻsĠtheĠ":5991,"reaction":5992,"ingĠfromĠ":5993,"Publ":5994,"objectĠ":5995,"(S":5996,"main":5997,"popularĠ":5998,"adult":5999,"ĠtheÂł":6000,"SeptemberĠ":6001,"jobĠ":6002,"AugustĠ":6003,"distinc":6004,"rightĠtoĠ":6005,"somethingĠthatĠ":6006,"ission":6007,"Just":6008,"bus":6009,"initi":6010,"directĠ":6011,"at,Ġ":6012,"Prof":6013,"eĠthrough":6014,"chick":6015,"himselfĠ":6016,".ĠWe":6017,"familiar":6018,"eâĢĿ":6019,"ideaĠofĠ":6020,"enchĠ":6021,"OK":6022,"noĠoneĠ":6023,"kn":6024,"DecemberĠ":6025,"text":6026,"rar":6027,"avingĠ":6028,"flag":6029,"oesĠ":6030,"richĠ":6031,"atĠleast":6032,"article":6033,"IĠknowĠ":6034,"ĠdaysĠ":6035,"IĠwillĠ":6036,"mp":6037,"JesusĠ":6038,"raĠ":6039,"43":6040,"ĠtrulyĠ":6041,"protectĠ":6042,"usersĠ":6043,"mouth":6044,"-to-":6045,"aĠcoupleĠofĠ":6046,"WarĠ":6047,"pok":6048,"hasĠtoĠ":6049,"edĠatĠtheĠ":6050,"although":6051,"inĊ":6052,"âĪ":6053,"designĠ":6054,"oryĠofĠ":6055,"chemicalĠ":6056,"alongĠtheĠ":6057,"offersĠ":6058,"whoĠwasĠ":6059,"organization":6060,"dram":6061,"sayĠthatĠ":6062,"edĠaboutĠ":6063,"gradu":6064,"username_":6065,"withĠc":6066,"YĠ":6067,"CE":6068,"Met":6069,"years,Ġ":6070,"sĠthatĠtheĠ":6071,"soĠmuch":6072,"etĠandĠ":6073,"Log":6074,"evidenceĠ":6075,"famousĠ":6076,"maĠ":6077,"Ġmus":6078,"shot":6079,"Jos":6080,"modern":6081,"ealthĠ":6082,"performanceĠ":6083,"spl":6084,"Ġl":6085,"Ġdist":6086,"PD":6087,"eĠthey":6088,"surfac":6089,").ĠTheĠ":6090,"ingĠatĠ":6091,".ĠI'veĠ":6092,"bridg":6093,"never":6094,"ed.ĠTheĠ":6095,"insuranceĠ":6096,"backĠtoĠtheĠ":6097,"85":6098,"wheel":6099,"Mexic":6100,"itherĠ":6101,"oler":6102,"ReplyĊ":6103,"weĠs":6104,"innov":6105,"Ġtook":6106,"Ġtransform":6107,"emotion":6108,"pictureĊ":6109,"onĠb":6110,"expert":6111,"Ġmet":6112,"esĠonĠ":6113,"raw":6114,"amountĠ":6115,"root":6116,"https://":6117,"estin":6118,"sect":6119,"eĠday":6120,"enseĠofĠ":6121,"ĠĠĠĠTheĠ":6122,"appli":6123,"youĠandĠ":6124,"003":6125,"FF":6126,"ed-":6127,"animalĠ":6128,"ightlyĠ":6129,"ÂŃ":6130,"handl":6131,"requireĠ":6132,"neededĠtoĠ":6133,"drink":6134,"ofĠcour":6135,"infr":6136,"coff":6137,"obl":6138,"Any":6139,"pray":6140,"increaseĠ":6141,"reditĠ":6142,"Ġtoward":6143,"fordĠ":6144,"heĠhasĠ":6145,"motiv":6146,"hapterĠ":6147,"nowledg":6148,"internetĠ":6149,"ney":6150,"ĉĉĉĉ":6151,"Ġcomment":6152,"ploy":6153,"North":6154,"useĠaĠ":6155,"Ann":6156,"went":6157,"counter":6158,"demand":6159,"itleĠ":6160,"umentsĠ":6161,"ocrac":6162,"Âł(":6163,"able.Ċ":6164,"The":6165,"ocalĠ":6166,"gard":6167,"alternativeĠ":6168,"entirelyĠ":6169,"creditĠ":6170,"leĠofĠ":6171,"grat":6172,"guil":6173,"hamp":6174,"ableĠs":6175,"methodĠ":6176,"ionĊ":6177,"storeĠ":6178,"guarant":6179,"Manag":6180,"sust":6181,"MĊ":6182,",ĠitĠisĠ":6183,",ĠwhichĠisĠ":6184,"eventsĠ":6185,"itect":6186,"exception":6187,"orĠinĠ":6188,"ĠtalkingĠ":6189,"obileĠ":6190,"atterĠ":6191,"Lab":6192,"eĠmod":6193,"fit":6194,"approxim":6195,"whatĠhappen":6196,"Mil":6197,"season":6198,"ee":6199,"alleg":6200,"soĠmanyĠ":6201,"ires":6202,"greaterĠ":6203,"ary,Ġ":6204,"le-":6205,"unit":6206,"atm":6207,"Ġthrow":6208,"instr":6209,"IG":6210,"IĠwill":6211,"ey,Ġ":6212,"super":6213,"):Ġ":6214,"inceĠtheĠ":6215,"y?Ġ":6216,"ĠareĠ":6217,"limitedĠ":6218,"algorith":6219,"prison":6220,"ages":6221,"izingĠ":6222,"NovemberĠ":6223,"ĠsaysĠ":6224,"onĠtheirĠ":6225,"isol":6226,"orĠevenĠ":6227,"concentr":6228,"afford":6229,"environmentĠ":6230,"??":6231,"wiseĠ":6232,"Ġser":6233,"reserv":6234,"ãģ":6235,",ĠtheyĠareĠ":6236,"accessĠtoĠ":6237,"aboutĠit":6238,"AG":6239,"ĠwouldĠbeĠ":6240,"icĠb":6241,"given":6242,"saw":6243,"ationĠforĠ":6244,"isedĠ":6245,"eĠtheseĠ":6246,"itĠofĠ":6247,"inaĠ":6248,"maxim":6249,"HaveĠ":6250,".ĠCon":6251,"ij":6252,"019":6253,"staff":6254,"direction":6255,"e!Ġ":6256,"Del":6257,"unĠ":6258,"ing-":6259,"ensur":6260,"broad":6261,"berĠ":6262,"hundred":6263,"upĠwithĠ":6264,"s.ĠÂł":6265,"Cap":6266,"iouslyĠ":6267,"more,Ġ":6268,"produceĠ":6269,"aldĠ":6270,"ĠwayĠ":6271,"beĠableĠtoĠ":6272,"onĠofĠ":6273,"programĠ":6274,"president":6275,"itle":6276,"clearĠ":6277,"thes":6278,"valid":6279,"numbersĠ":6280,".ĠAnĠ":6281,"Hist":6282,"west":6283,"s.ĠI":6284,"patientsĠ":6285,"pointĠofĠ":6286,"poorĠ":6287,"ĠtotallyĠ":6288,"o.Ċ":6289,"inĠtermsĠofĠ":6290,"ingĠ(":6291,"journal":6292,"eĠcr":6293,"ĠtakeĠtheĠ":6294,"JamesĠ":6295,"sĠitĠ":6296,"strip":6297,"conduct":6298,"HowĠdoĠ":6299,"TheĠt":6300,"paramet":6301,"Don'tĠ":6302,".Ġ[":6303,"rangeĠofĠ":6304,"IĠdidn'tĠ":6305,"cordingĠtoĠ":6306,"edĠfor":6307,"umstanc":6308,"satis":6309,"Exc":6310,"likeĠs":6311,"Ros":6312,"Lo":6313,"fant":6314,"sÂł":6315,").":6316,"inĠS":6317,"ageĠandĠ":6318,"and/":6319,"prior":6320,"channel":6321,"entir":6322,"what'sĠ":6323,"ingĠmyĠ":6324,"uzz":6325,"IĠcan'tĠ":6326,"mostĠofĠtheĠ":6327,"Jer":6328,"/Ċ":6329,"GoodĠ":6330,"castĠ":6331,"lost":6332,"I'llĠ":6333,"edĠinĠaĠ":6334,"ĠdownĠ":6335,"ancyĠ":6336,"pressureĠ":6337,"ChineseĠ":6338,"leastĠ":6339,"outĠandĠ":6340,"Mart":6341,"improveĠthisĠ":6342,"MP":6343,"Yeah":6344,"serviceĠ":6345,"appropriateĠ":6346,"kick":6347,"isĠthatĠtheĠ":6348,"achineĠ":6349,"ementĠofĠ":6350,"being":6351,"wordsĠ":6352,"ics,Ġ":6353,"eĠdidĠ":6354,"esĠfromĠ":6355,"youĠwereĠ":6356,"decreas":6357,"Ġsign":6358,"86":6359,"002":6360,"ĠtraditionalĠ":6361,"GetĠ":6362,"issĠ":6363,"ingredi":6364,"regist":6365,"eff":6366,"expectĠ":6367,"es.":6368,"denlyĠ":6369,"Ġconsid":6370,"beganĠ":6371,"shown":6372,"centur":6373,"suffic":6374,"emotionalĠ":6375,".ĠTheĠt":6376,"internalĠ":6377,"Phil":6378,"Ġdem":6379,"ION":6380,"dollar":6381,"cris":6382,"ery":6383,"Ref":6384,"spirit":6385,"irstĠ":6386,"Ġtext":6387,"voteĠ":6388,"Alex":6389,"extern":6390,"adopt":6391,"%ĠofĠtheĠ":6392,"bring":6393,"ĠtrainingĠ":6394,"IĠdonâĢĻtĠ":6395,"ĠpercentĠ":6396,"LastĠ":6397,"chooseĠ":6398,"intens":6399,"aterial":6400,"god":6401,"forĠhisĠ":6402,"daysĠ":6403,"flex":6404,"oneĠw":6405,"Ø§":6406,"BC":6407,"crow":6408,"ago,Ġ":6409,"Govern":6410,"aheadĠ":6411,"essentialĠ":6412,"lyĠtoĠ":6413,".ĠForĠexample,Ġ":6414,"pool":6415,".ĠManyĠ":6416,"passĠ":6417,"pill":6418,"berg":6419,"afr":6420,"echnicalĠ":6421,"):Ċ":6422,"areas":6423,"kinĠ":6424,"secur":6425,"ocument":6426,"enĊ":6427,"ancientĠ":6428,"Lik":6429,"esĠasĠ":6430,"display":6431,"didnâĢĻtĠ":6432,"academ":6433,",ĠthisĠisĠ":6434,"himĠtoĠ":6435,"killĠ":6436,"however":6437,"addressĠ":6438,"ban":6439,"e!Ċ":6440,"IĠdidĠ":6441,"degre":6442,"Val":6443,"Nam":6444,"elfĠ":6445,"77":6446,"roundĠ":6447,"onĠthatĠ":6448,"cy":6449,"ĠthroughoutĠtheĠ":6450,"puttingĠ":6451,"emphas":6452,"Ġcor":6453,"attent":6454,"an'sĠ":6455,"arn":6456,"justĠasĠ":6457,"oid":6458,"mitĠ":6459,"AmericansĠ":6460,"-oldĠ":6461,"Thank":6462,"alcohol":6463,".ĠHeĠwasĠ":6464,",Ġit'sĠ":6465,"ationsĠandĠ":6466,"atmosph":6467,".ĠThes":6468,"Ġ\\":6469,"iddenĠ":6470,"aĠtoĠ":6471,"lyĠandĠ":6472,"align":6473,"400":6474,"Tur":6475,"choiceĠ":6476,"ven":6477,"grap":6478,"going":6479,"Back":6480,"pursu":6481,"ypeĠ":6482,"e;Ġ":6483,"understandĠtheĠ":6484,"emp":6485,"ĠtalkĠ":6486,"isĠinĠ":6487,"WestĠ":6488,"ableĠofĠ":6489,"are,Ġ":6490,"nerv":6491,"haveĠnoĠ":6492,"carĠ":6493,"fash":6494,"club":6495,"Wik":6496,"wideĠ":6497,"iot":6498,".ĠIĠdon'tĠ":6499,"ityĊ":6500,"nuclear":6501,"react":6502,"street":6503,"readyĠtoĠ":6504,"remot":6505,"ThankĠ":6506,"ĠdayĠ":6507,"extraĠ":6508,"BlackĠ":6509,"plyĠ":6510,",ĠK":6511,"dependingĠ":6512,"ĠĠâĢ¢":6513,"oleĠ":6514,"in.Ċ":6515,"TwitterĠ":6516,"policyĠ":6517,"gas":6518,"notĠaĠ":6519,"frontĠofĠ":6520,"waysĠ":6521,",ĠthoughĠ":6522,"proteinĠ":6523,"gent":6524,")ĠtoĠ":6525,"Ġtime.Ċ":6526,"one'sĠ":6527,"Test":6528,"Micros":6529,"ionĠ(":6530,"argumentĠ":6531,"enforc":6532,"][":6533,"scap":6534,"orĠofĠtheĠ":6535,"autom":6536,"Bre":6537,"aboutĠthisĠ":6538,"Ant":6539,"anything":6540,"anĊ":6541,"ingĠup":6542,"ifyingĠ":6543,"urchĠ":6544,"multipleĠ":6545,"evic":6546,"ĠtheyĠcanĠ":6547,"stress":6548,"fatĠ":6549,"accident":6550,"riskĠofĠ":6551,"OneĠofĠtheĠ":6552,"inĠtoĠ":6553,"honest":6554,"Bel":6555,"fireĠ":6556,"materialĠ":6557,"alĊ":6558,"growĠ":6559,".ĠAc":6560,"Amaz":6561,"correctĠ":6562,"getĠaĠ":6563,"ray":6564,"ãĢ":6565,"approachĠ":6566,"case,Ġ":6567,"heĠt":6568,"sha":6569,"Pop":6570,"UniversityĠofĠ":6571,"insp":6572,"andĊ":6573,"ifĠh":6574,"Ġtre":6575,"coldĠ":6576,"ifĠyouĠareĠ":6577,"sayingĠ":6578,"|improveĠthisĠ":6579,"56":6580,"utter":6581,"uni":6582,"frustr":6583,"LeaveĠaĠReplyĊ":6584,"solution":6585,"Gam":6586,"FebruaryĠ":6587,"Ġthere,Ġ":6588,"courtĠ":6589,"wasn'tĠ":6590,"plusĠ":6591,"Ġsecond":6592,"longĠasĠ":6593,"storiesĠ":6594,"andĠtheirĠ":6595,"XĠ":6596,"highestĠ":6597,"isĠandĠ":6598,"acid":6599,"HO":6600,"Work":6601,"whichĠwasĠ":6602,"detect":6603,"park":6604,"sampl":6605,"alesĠ":6606,"s.ĠItĠ":6607,"FigureĠ":6608,"and-":6609,"ĠtestĠ":6610,"mother":6611,"Thom":6612,"difficultĠtoĠ":6613,"attitud":6614,"lor":6615,"Ġcaus":6616,"Tak":6617,"largerĠ":6618,"neededĠ":6619,"attend":6620,"Christm":6621,"Ġ\"":6622,"ObamaĠ":6623,"OfĠ":6624,"roph":6625,"wantedĠtoĠ":6626,"notĠjustĠ":6627,"requirement":6628,"you'llĠ":6629,"outĠtoĠ":6630,"burg":6631,"name":6632,",ĠtheseĠ":6633,"forĠyou":6634,"vacc":6635,"Ã¡":6636,".ĠAd":6637,"hydr":6638,"ness,Ġ":6639,"allĠthatĠ":6640,".ĠSo,Ġ":6641,"linkĠ":6642,"forĠthatĠ":6643,"imĠ":6644,"PleaseĠ":6645,"eĠthink":6646,"First":6647,"yg":6648,"population":6649,"ugĠ":6650,"country":6651,".ĠByĠ":6652,"itĠwillĠ":6653,"Bro":6654,"Jack":6655,",Ġp":6656,"Count":6657,"depress":6658,"natureĠ":6659,"sĠthisĠ":6660,"South":6661,"interestedĠinĠ":6662,"statesĠ":6663,"analyz":6664,"Tex":6665,"batter":6666,"AmericaĠ":6667,"erefore,Ġ":6668,"Ġcount":6669,"suchĠaĠ":6670,"GermanĠ":6671,"Ġmed":6672,"here,Ġ":6673,"ĠĠĠĠĠĠĠĠĠĠĠĠĠĠĠĠĠĠĠĠ":6674,"morningĠ":6675,"practiceĠ":6676,"straight":6677,"ideas":6678,"Group":6679,"\".Ċ":6680,"stepĠ":6681,"ĠthereĠisĠnoĠ":6682,"attemptĠtoĠ":6683,"forĠmyĠ":6684,"hell":6685,"verb":6686,"leagu":6687,"now,Ġ":6688,"voidĠ":6689,"Inc":6690,"?ĠWhatĠ":6691,"Leg":6692,"WhereĠ":6693,"conclus":6694,"ĠmoneyĠ":6695,"relax":6696,"string":6697,"Ġcompan":6698,"eĠdat":6699,"aÂł":6700,"rossĠ":6701,"movingĠ":6702,"existĠ":6703,"summ":6704,"basicallyĠ":6705,"willingĠtoĠ":6706,"either":6707,"ensu":6708,"Review":6709,"Ġg":6710,"cer":6711,"uspect":6712,"ingu":6713,"actingĠ":6714,"Jav":6715,"locatedĠ":6716,"lem":6717,"cription":6718,"ymptom":6719,"Christian":6720,"ingĠthat":6721,"oundsĠ":6722,".C":6723,"Sourc":6724,"excellentĠ":6725,"watchĠ":6726,"Mad":6727,"withĠhisĠ":6728,"esĠorĠ":6729,"rh":6730,"ĠmeanĠ":6731,"portion":6732,"ran":6733,"officeĠ":6734,"illustr":6735,"<issue_":6736,"ecurityĠ":6737,"remark":6738,"AA":6739,"eĠmostĠ":6740,"frame":6741,"sĠforĠtheĠ":6742,"father":6743,".ĠAllĠ":6744,",ĠN":6745,"seemsĠtoĠ":6746,"forĠtheirĠ":6747,"OtherĠ":6748,"forĠyourĠ":6749,"esĠisĠ":6750,"CC":6751,"upĠinĠ":6752,"ogen":6753,"ipul":6754,"ios":6755,"accessĠ":6756,"opinion":6757,"ht":6758,"umin":6759,"Ã¢":6760,"share|improveĠthisĠ":6761,"beyondĠ":6762,"plo":6763,"convent":6764,"(th":6765,"ĠtowardsĠ":6766,"Top":6767,"itar":6768,"surv":6769,"profil":6770,"us.Ċ":6771,"basicĠ":6772,"Cath":6773,"waitĠ":6774,"sych":6775,"ationĠthatĠ":6776,"number":6777,"edĠorĠ":6778,"illionsĠofĠ":6779,"ĠdoesĠnotĠ":6780,"or.Ċ":6781,"fuel":6782,"wealth":6783,"movieĠ":6784,"pecific":6785,"Arch":6786,"iaĠandĠ":6787,"systemĠ":6788,"amongĠtheĠ":6789,"Play":6790,"East":6791,"expand":6792,"!\"Ġ":6793,"wish":6794,"BecauseĠ":6795,"IĠloveĠ":6796,"inher":6797,"HowĠtoĠ":6798,"ing:Ġ":6799,"s.ĠTheyĠ":6800,"independentĠ":6801,"surround":6802,"Ret":6803,"oneĠofĠtheĠmostĠ":6804,",ĠwhenĠ":6805,"âĤ":6806,"isionsĠ":6807,"Mak":6808,"equival":6809,"kne":6810,"obviouslyĠ":6811,"ment.Ċ":6812,"youĠknowĠ":6813,".ĠU":6814,"agenc":6815,"day.Ċ":6816,"ĠthinkĠthatĠ":6817,"nois":6818,"57":6819,"Ġpost":6820,"iveĠandĠ":6821,"etĠofĠ":6822,"hadow":6823,"Ġtimes":6824,"inĠL":6825,"eckĠ":6826,"beginn":6827,"bomb":6828,"sterĠ":6829,"fle":6830,"-up":6831,"ourĠh":6832,"sĠwith":6833,"exualĠ":6834,"becomeĠaĠ":6835,"depart":6836,"statementĠ":6837,"Flor":6838,"possess":6839,"critic":6840,"eĠsaidĠ":6841,"rightsĠ":6842,"carryĠ":6843,"cond":6844,"confirm":6845,"ontoĠ":6846,"philosoph":6847,"necessarilyĠ":6848,"sem":6849,"umbl":6850,"experiment":6851,"ingsĠandĠ":6852,"ooĠ":6853,"uelĠ":6854,"heard":6855,"ersĠhaveĠ":6856,"\"S":6857,"WindowsĠ":6858,"}}":6859,"youĠwantĠ":6860,"EV":6861,"loseĠ":6862,"entralĠ":6863,"witch":6864,"aĠmanĠ":6865,"women":6866,"PeopleĠ":6867,"danc":6868,"future":6869,"Comp":6870,"Right":6871,"instruction":6872,"eless":6873,"ĠtheyĠhaveĠ":6874,"rianĠ":6875,"leadership":6876,"ant,Ġ":6877,"redĠtoĠ":6878,"realityĠ":6879,"Fri":6880,"e)Ċ":6881,"context":6882,"runn":6883,"negot":6884,"sortĠofĠ":6885,".ĠWhyĠ":6886,"Eng":6887,"scar":6888,"gather":6889,".ĠTr":6890,"refus":6891,"Scot":6892,"ĠtoĠtr":6893,"sĠfrom":6894,"spok":6895,"My":6896,"induc":6897,"relativeĠ":6898,"urĠ":6899,"pitalĠ":6900,"ĠĠĠĠĠĠĠ":6901,"icul":6902,"placesĠ":6903,"reject":6904,"Ver":6905,"ĠsuchĠ":6906,"growthĠ":6907,"itesĠ":6908,"emporaryĠ":6909,".j":6910,"chief":6911,".ĠWhil":6912,"ofĠthos":6913,"planet":6914,"eĠcar":6915,"âĢĿĠ(":6916,"Add":6917,"singleĠ":6918,"ectĠofĠ":6919,"utr":6920,"vul":6921,"gold":6922,"investmentĠ":6923,"Vis":6924,"e.ĠIĠ":6925,"//Ġ":6926,"foreignĠ":6927,"efficientĠ":6928,"olf":6929,"mel":6930,"memor":6931,"s.ĠButĠ":6932,"ĠmonthsĠ":6933,"anyth":6934,"Nat":6935,"campaign":6936,"s;Ġ":6937,"ifyĠtheĠ":6938,"sĠthat":6939,"engin":6940,"ontĠ":6941,"anxiet":6942,"Ġsid":6943,"basedĠonĠtheĠ":6944,"abus":6945,"andĠthisĠ":6946,"midd":6947,"Ġpat":6948,"capac":6949,"eightĠ":6950,"izationĠ":6951,"eĠtheĠw":6952,"alizedĠ":6953,"ingĠonĠtheĠ":6954,"digitalĠ":6955,"youĠdonâĢĻtĠ":6956,"physic":6957,"the":6958,"metĠ":6959,"Â°":6960,"ingĠthatĠtheĠ":6961,"er,ĠandĠ":6962,"oz":6963,"Ġman":6964,"Ġcomplet":6965,"azyĠ":6966,"TheĠB":6967,"eamĠ":6968,"jok":6969,"architect":6970,"dynam":6971,"poor":6972,"east":6973,"likeĠthis":6974,"âĢĿĠandĠ":6975,"eĠcanĠbeĠ":6976,"addres":6977,"protest":6978,"----------------":6979,"navig":6980,"oneĠisĠ":6981,"relevantĠ":6982,",\"Ġh":6983,"DoesĠ":6984,"King":6985,"activitiesĠ":6986,"American":6987,"spend":6988,".ĠWhileĠ":6989,"articl":6990,"shipĠ":6991,"commentĠ":6992,"aiĠ":6993,"sendĠ":6994,"inoĠ":6995,"*Ċ":6996,"destroy":6997,"edĠtheĠs":6998,"howĠmuch":6999,"education":7000,"fullĠofĠ":7001,"ĠtypicallyĠ":7002,"es:Ċ":7003,"storm":7004,"PR":7005,"Ġmodel":7006,"ofĠtheĠt":7007,"eĠseem":7008,"profit":7009,"Ġtast":7010,"belong":7011,"gottenĠ":7012,"justĠtheĠ":7013,"hopeĠ":7014,"oward":7015,"chair":7016,"ivityĠ":7017,"ĠtoĠseeĠ":7018,"ingĠupĠ":7019,"ession":7020,"volunt":7021,"NewĠYork":7022,"UL":7023,"French":7024,"Angel":7025,"MichaelĠ":7026,"perman":7027,"guysĠ":7028,"awes":7029,"operatingĠ":7030,"âĢĻr":7031,"ed,ĠbutĠ":7032,"roĠ":7033,"outputĠ":7034,"abet":7035,"readĠtheĠ":7036,"Ġhop":7037,"messag":7038,"withĠmyĠ":7039,"Aut":7040,"bird":7041,"eĠorĠ":7042,"reshĠ":7043,"spentĠ":7044,"outsideĠ":7045,"ated,Ġ":7046,"anceĠandĠ":7047,".ĠSo":7048,"printĠ":7049,"shownĠ":7050,"eĠdown":7051,"Depart":7052,"defend":7053,"stretch":7054,"sĠinĠaĠ":7055,"lav":7056,"Ġtime.Ġ":7057,"modernĠ":7058,"usĠandĠ":7059,"erĠthatĠ":7060,"ReadĠ":7061,"knowĠhow":7062,"edĠintoĠtheĠ":7063,"unct":7064,"s)Ċ":7065,"Ġbel":7066,"convinc":7067,"rank":7068,"outcom":7069,"iscover":7070,"walkĠ":7071,"ultĠofĠ":7072,"However":7073,"versionĠ":7074,"sud":7075,"GeneralĠ":7076,"AnonymousĠ":7077,"becauseĠofĠtheĠ":7078,"Ġthem,Ġ":7079,"View":7080,"roop":7081,"includingĠtheĠ":7082,"relatedĠtoĠ":7083,"forĠsomeĠ":7084,"Ġcontrol":7085,"ĠmakeĠ":7086,"ĠtimeĠandĠ":7087,"ourĠm":7088,"hospit":7089,"modul":7090,"kindsĠofĠ":7091,"hu":7092,"productsĠ":7093,"stateĠofĠ":7094,"feelsĠ":7095,"angĠ":7096,"GeorgeĠ":7097,"chest":7098,"ersĠ(":7099,"arrest":7100,"ff":7101,"EastĠ":7102,"?ĠTheĠ":7103,"likeĠthat":7104,"sĠareĠnotĠ":7105,"focusedĠ":7106,"oxid":7107,"crew":7108,"********":7109,"Prot":7110,"exclus":7111,"ricalĠ":7112,"atĠtheĠtim":7113,"diagnos":7114,"emperatureĠ":7115,"topĠ":7116,"seemĠtoĠ":7117,"opportunityĠtoĠ":7118,"eĠdon'tĠ":7119,"Vir":7120,"AĠs":7121,"A:Ġ":7122,"noĠmatterĠ":7123,"you'll":7124,"mart":7125,"asksĠ":7126,"knowĠtheĠ":7127,"youâĢĻr":7128,"lawy":7129,"aĠP":7130,"goldĠ":7131,"58":7132,"simpleĠ":7133,"softwareĠ":7134,"inĠB":7135,"Ġteeth":7136,"again,Ġ":7137,"stageĠ":7138,"willĠs":7139,"repair":7140,"isĠthat":7141,"à¥":7142,"livesĠ":7143,"tru":7144,"distr":7145,"helpful":7146,"dueĠtoĠtheĠ":7147,"orient":7148,"Ġdon'tĠ":7149,"Ð¸":7150,"ĠwasĠtheĠ":7151,"animalsĠ":7152,"startingĠ":7153,"ooper":7154,"yster":7155,"co-":7156,"exactĠ":7157,"ĠteamĠ":7158,"ently,Ġ":7159,"wa":7160,"TS":7161,"eĠme":7162,"frag":7163,"yĠofĠtheĠ":7164,"ying":7165,"quickĠ":7166,"customerĠ":7167,"scop":7168,"edĠthat":7169,"Ġdiffer":7170,"eĠthatĠisĠ":7171,"800":7172,"aggress":7173,"averag":7174,"leadingĠ":7175,"emat":7176,"momentĠ":7177,"Ġ[":7178,"haveĠtoĠbeĠ":7179,"ibil":7180,"Ġtrust":7181,"esĠthisĠ":7182,"howĠmuchĠ":7183,"ersĠwereĠ":7184,"isĠofĠ":7185,".ĠInĠaddition":7186,"esc":7187,"etermin":7188,"urv":7189,"ountryĠ":7190,"countriesĠ":7191,"aĠ\"":7192,"ablesĠ":7193,"a,ĠandĠ":7194,"ajor":7195,"Sha":7196,"eĠmeĠ":7197,"economic":7198,"voiceĠ":7199,"insul":7200,"stom":7201,"Star":7202,"ĠmeansĠ":7203,"instead":7204,"inaryĠ":7205,"âĢĵÂłĠ":7206,"brow":7207,"chip":7208,"usion":7209,"Ġtwo":7210,"like,Ġ":7211,"heĠwouldĠ":7212,"uckingĠ":7213,"eĠshow":7214,"divers":7215,"ĠtypeĠ":7216,"angr":7217,"lockĠ":7218,",Ġsh":7219,"isĠalsoĠ":7220,"orrow":7221,"south":7222,"NĠ":7223,"affectĠ":7224,"OnceĠ":7225,"Â£":7226,"obviousĠ":7227,"inj":7228,"here.Ċ":7229,"followĠ":7230,"atesĠtheĠ":7231,"spar":7232,"ace":7233,"efficienc":7234,"deliver":7235,"ĠthereĠisĠaĠ":7236,"earlierĠ":7237,"omanĠ":7238,"doĠtheĠ":7239,"catch":7240,"continueĠtoĠ":7241,"Vol":7242,"culturalĠ":7243,"keepĠtheĠ":7244,"evit":7245,"reasonsĠ":7246,",ĠwhereĠ":7247,"Ans":7248,"aperĠ":7249,"atedĠtoĠ":7250,"oment":7251,"Ġtechniqu":7252,"FrenchĠ":7253,"Under":7254,"ĠmakesĠ":7255,"likeĠthisĠ":7256,"containĠ":7257,"66":7258,"statusĠ":7259,"âĤ¬":7260,".ĠDoĠ":7261,"IF":7262,";čĊ":7263,"sĠofĠaĠ":7264,"declar":7265,"iaĊ":7266,"notĠhaveĠ":7267,"ively":7268,"codeĠ":7269,"enth":7270,"iĠandĠ":7271,"fromĠtheĠs":7272,"negoti":7273,"Hous":7274,"CT":7275,"sĠfromĠtheĠ":7276,"Ġcondition":7277,"coreĠ":7278,"s,ĠorĠ":7279,"Ġtouch":7280,"itĠwouldĠbeĠ":7281,"kitch":7282,"yĠforĠ":7283,"urpris":7284,"comment>":7285,"acknowledg":7286,",Ġthen":7287,"yester":7288,"GĠ":7289,".ĠFor":7290,"howĠmanyĠ":7291,"exchang":7292,"conven":7293,"Es":7294,"ariesĠ":7295,"situation":7296,"becomingĠ":7297,"Ġshar":7298,"sentĠ":7299,"aĠsup":7300,"ForĠexample,Ġ":7301,":)Ċ":7302,"server":7303,"fold":7304,"RussianĠ":7305,"script":7306,"DayĠ":7307,"CS":7308,"ically,Ġ":7309,"ChinaĠ":7310,"er:Ġ":7311,"es_":7312,".ĠOneĠ":7313,"LetĠ":7314,"Ġcell":7315,"DidĠ":7316,"Will":7317,"IfĠtheĠ":7318,"unableĠtoĠ":7319,"sugar":7320,"upĠwith":7321,"plug":7322,"click":7323,"Ġwar":7324,"searchĠ":7325,"identifi":7326,"greatestĠ":7327,"backĠandĠ":7328,"insideĠ":7329,"secret":7330,"hugeĠ":7331,"resid":7332,"vision":7333,"ter,Ġ":7334,"eĠdec":7335,"input":7336,"pip":7337,"eĠwillĠbeĠ":7338,"loy":7339,"aĠlot":7340,"eathĠ":7341,"lookĠatĠtheĠ":7342,"processĠofĠ":7343,"youĠwant":7344,"hug":7345,"commit":7346,"spot":7347,"erri":7348,"remeĠ":7349,"allowedĠtoĠ":7350,"fromĠh":7351,"dryĠ":7352,"wav":7353,"photograph":7354,"difficultĠ":7355,"t,Ġ":7356,".ĠPeopl":7357,"stockĠ":7358,"reatmentĠ":7359,"reform":7360,"Ġmemb":7361,"administ":7362,"let'sĠ":7363,"occasion":7364,"ĠminutesĠ":7365,",Ġthat'sĠ":7366,"TwoĠ":7367,"Ġtrip":7368,"fell":7369,"isĠtheĠs":7370,"weĠwereĠ":7371,"bottom":7372,"ificationĠ":7373,"providingĠ":7374,"Ġspe":7375,"Ġhelp":7376,"revers":7377,"^{":7378,"whoĠhasĠ":7379,"eyeĠ":7380,"],Ġ":7381,"ald":7382,"theĠs":7383,"();Ċ":7384,"aĠmod":7385,"eĠdoesn'tĠ":7386,"ealĠ":7387,"ifĠs":7388,"Stor":7389,"Ġthank":7390,"everything":7391,"es?Ġ":7392,"ÂłĠÂłĠÂłĠÂłĠ":7393,"gonn":7394,"plot":7395,"EU":7396,"Ġbeh":7397,"arenâĢĻtĠ":7398,"es?Ċ":7399,"increasingĠ":7400,"ism,Ġ":7401,"a:Ġ":7402,"identifyĠ":7403,"resultĠofĠ":7404,"skinĠ":7405,"voc":7406,"Word":7407,"artist":7408,"low-":7409,"athlet":7410,"memoryĠ":7411,"playedĠ":7412,"previouslyĠ":7413,"bell":7414,"MO":7415,"itim":7416,"pump":7417,"determineĠ":7418,"phon":7419,"fib":7420,"ingĠthis":7421,"out,Ġ":7422,"showsĠ":7423,"bes":7424,"y.ĠTheĠ":7425,"doorĠ":7426,"answerĊ":7427,"whenĠheĠ":7428,"constantĠ":7429,"s'Ġ":7430,"ponent":7431,"desir":7432,"carr":7433,"emailĠ":7434,"onlyĠtheĠ":7435,"Ġconnect":7436,"eum":7437,"!\"Ċ":7438,",Ġthey":7439,".ĠI'm":7440,"_t":7441,"ing,ĠbutĠ":7442,"s:":7443,"-Ċ":7444,"wash":7445,"historicalĠ":7446,"normallyĠ":7447,"ofĠmyĠ":7448,"Direct":7449,"MA":7450,"\"H":7451,".Ġ^":7452,"lett":7453,".ĠEx":7454,"mĊ":7455,"fli":7456,"wrot":7457,"heâĢĻsĠ":7458,"ĠtheirĠd":7459,"DS":7460,"dir":7461,"uteĠ":7462,".ĠBe":7463,"icit":7464,"factorsĠ":7465,"addedĠ":7466,"massĠ":7467,"Link":7468,"bath":7469,"sĠon":7470,"ulturalĠ":7471,"TheĠS":7472,"beyond":7473,"ing?Ġ":7474,"Blog":7475,"ï¼":7476,"withĠthisĠ":7477,"flash":7478,"ing?Ċ":7479,"itĠisĠnotĠ":7480,"brand":7481,"knoc":7482,"corn":7483,"video":7484,"ueĠtoĠ":7485,"ially":7486,"post-":7487,"suchĠasĠtheĠ":7488,"opy":7489,"heĠc":7490,"history":7491,"closeĠtoĠ":7492,"evenĠtheĠ":7493,"fo":7494,"waysĠtoĠ":7495,"ingĠorĠ":7496,"ly,ĠtheĠ":7497,"eastĠ":7498,"ing,ĠtheĠ":7499,"Bob":7500,"glass":7501,"th,Ġ":7502,"fromĠhisĠ":7503,"es/":7504,"style":7505,"er.":7506,"(orĠ":7507,"plentyĠofĠ":7508,"Jim":7509,"capital":7510,"grant":7511,"butĠtheyĠ":7512,"foreign":7513,"Ġbecom":7514,"IĠbelieveĠ":7515,"ofÂł":7516,"myselfĠ":7517,"Port":7518,"out.Ċ":7519,"ĠtoĠthatĠ":7520,"lastĠyear":7521,"Mess":7522,"benefitĠ":7523,"enedĠ":7524,"riev":7525,"ket":7526,"s!Ċ":7527,"canâĢĻtĠ":7528,"an-":7529,"fineĠ":7530,"compos":7531,"DN":7532,"________":7533,"hand,Ġ":7534,"Ġbuild":7535,"Institut":7536,"999":7537,"CR":7538,"ifĠyouĠhaveĠ":7539,"Monday,Ġ":7540,"darkĠ":7541,"Answer":7542,"ateĠtoĠ":7543,"ĠbetweenĠtheĠ":7544,"ily":7545,"Hill":7546,"yourĠownĠ":7547,"howeverĠ":7548,"las":7549,"?âĢĿĊ":7550,"EP":7551,"visitĠ":7552,"erĠwasĠ":7553,"sĠwhoĠ":7554,"ordinaryĠ":7555,"green":7556,"hero":7557,"commod":7558,"eĠshouldĠbeĠ":7559,"InternetĠ":7560,"iPh":7561,"anth":7562,"whom":7563,".ĠIĠamĠ":7564,"AboutĠ":7565,"communication":7566,"otherĠword":7567,"listĠofĠ":7568,"Pre":7569,"Wil":7570,"asĠaĠs":7571,"needsĠtoĠbeĠ":7572,".ĠIĠthinkĠ":7573,"}\\":7574,"demandĠ":7575,"ondon":7576,"ous,Ġ":7577,"ational":7578,"IĠthoughtĠ":7579,"andĠthere":7580,"ivilĠ":7581,"IĠdon't":7582,"aintĠ":7583,"soĠmuchĠ":7584,"switch":7585,"deriv":7586,"sĠintoĠ":7587,"edĠforĠtheĠ":7588,"environmentalĠ":7589,"Kar":7590,"actor":7591,"rag":7592,"aum":7593,"eĠworldĠ":7594,"lit":7595,"igitalĠ":7596,"erĠforĠ":7597,"unchĠofĠ":7598,"atedĠtheĠ":7599,"InternationalĠ":7600,"Ġclos":7601,"ĠtooĠmuch":7602,"Mari":7603,"abilitiesĠ":7604,"pectĠ":7605,"-year-oldĠ":7606,"numerousĠ":7607,"family":7608,"Creat":7609,"criptĠ":7610,"zenĠ":7611,"e.ÂłĊ":7612,"Tor":7613,"remainsĠ":7614,"59":7615,"Down":7616,"climateĠ":7617,"advoc":7618,"aqu":7619,"edĠtheirĠ":7620,"seek":7621,"slightlyĠ":7622,"regularĠ":7623,"Offic":7624,"except":7625,"maintainĠ":7626,"efulĠ":7627,"payingĠ":7628,"Span":7629,"instance,Ġ":7630,"geĠ":7631,"quiteĠaĠ":7632,"anno":7633,"caughtĠ":7634,"ii":7635,"broth":7636,"nothingĠtoĠ":7637,"receivedĠ":7638,"largelyĠ":7639,"aĠwasĠ":7640,"seriousĠ":7641,"speakĠ":7642,"entertain":7643,"inĠtheĠworld":7644,"och":7645,"irst":7646,"elm":7647,"eĠsub":7648,"Gold":7649,"sĠwhenĠ":7650,"bottomĠ":7651,"creen":7652,"avelĠ":7653,"centralĠ":7654,"DNA":7655,"usingĠaĠ":7656,"cess":7657,"Hom":7658,"esĠthatĠareĠ":7659,"-ĠandĠ":7660,"oneĠt":7661,"ingsĠofĠ":7662,"contact":7663,"ĠtriedĠtoĠ":7664,"alp":7665,"ootingĠ":7666,"IndianĠ":7667,"urther":7668,"beĠaĠ":7669,"output":7670,"someĠofĠ":7671,"IĠreallyĠ":7672,".\"":7673,"Ġdirect":7674,"ifĠw":7675,"justic":7676,"scienceĠ":7677,"Keep":7678,"Ġdesign":7679,"ageĊ":7680,"Wednesday,Ġ":7681,"ofĠcourse,Ġ":7682,"sĠwillĠ":7683,"edĠasĠaĠ":7684,"ifĠweĠ":7685,"absorb":7686,"LikeĠ":7687,"successful":7688,"Associ":7689,",ĠyouĠcanĠ":7690,"incorpor":7691,"quir":7692,"ismĠandĠ":7693,"missionĠ":7694,"easierĠtoĠ":7695,"evolv":7696,"expectedĠ":7697,",ĠanĠ":7698,"edyĠ":7699,":ĠâĢľ":7700,"oidĠ":7701,"interĠ":7702,"versionĠofĠ":7703,"confer":7704,"station":7705,"ĠandĠtheĠ":7706,"movement":7707,"There'sĠ":7708,"Ġmanag":7709,"acceptĠ":7710,"Cathol":7711,"apparentlyĠ":7712,"Ġcap":7713,"Elect":7714,"Sil":7715,"Ġserv":7716,"ing.ĠTheĠ":7717,"dict":7718,"streetĠ":7719,".ĠItsĠ":7720,"Clint":7721,"edĠthem":7722,"visualĠ":7723,"structure":7724,"hid":7725,"morn":7726,"highĠschool":7727,"antsĠtoĠ":7728,"smil":7729,"economyĠ":7730,"terĠtheĠ":7731,"solv":7732,"52":7733,"location":7734,"onĠtheĠotherĠ":7735,"compreh":7736,"Tuesday,Ġ":7737,"earsĠ":7738,"blow":7739,"destr":7740,"Book":7741,"reduceĠ":7742,"87":7743,"Rich":7744,"vastĠ":7745,"itionĠofĠ":7746,"life.Ċ":7747,"No,Ġ":7748,"(t":7749,"downĠtoĠ":7750,"haz":7751,"it?Ġ":7752,"rix":7753,"havingĠaĠ":7754,"==Ġ":7755,"iment":7756,"Sol":7757,"Ġthat.Ċ":7758,"USA":7759,"managementĠ":7760,"datedĠ":7761,"andĠtr":7762,"World":7763,"accomplish":7764,"creatingĠ":7765,"Black":7766,"sever":7767,"licens":7768,"OL":7769,"operation":7770,"exhib":7771,"portr":7772,"likely":7773,"self.":7774,"ĠtheoryĠ":7775,"cos":7776,"aminĠ":7777,"roidĠ":7778,"elet":7779,"phenomen":7780,"otherwis":7781,"algorithm":7782,"actĠofĠ":7783,"micro":7784,"discipl":7785,"cĠ":7786,"BS":7787,"als,Ġ":7788,"designedĠtoĠ":7789,"Ġtarget":7790,"otyp":7791,"evenĠthoughĠ":7792,"sĠoutĠ":7793,"Me":7794,"aĠofĠ":7795,"RepublicanĠ":7796,"Bi":7797,"alternat":7798,"radioĠ":7799,"alongĠwithĠ":7800,"ually,Ġ":7801,"stoodĠ":7802,"fath":7803,"rangeĠ":7804,"alf":7805,"chanceĠtoĠ":7806,"<br":7807,"beĠtr":7808,"chart":7809,"brief":7810,"Key":7811,"DOCĊ":7812,"youĠthink":7813,"TR":7814,"king":7815,"ence":7816,"p.":7817,"onĠtop":7818,"eĠmin":7819,"ĠÐ":7820,"youĠse":7821,"nutrit":7822,"InĠthisĠ":7823,"groupsĠ":7824,",ĠevenĠ":7825,"age.Ċ":7826,"-S":7827,"eĠdef":7828,"letter":7829,"acy":7830,"seemĠ":7831,"section":7832,"inĠwhichĠ":7833,"brandĠ":7834,"51":7835,"smok":7836,"hostĠ":7837,"inch":7838,"amazingĠ":7839,"button":7840,"interfac":7841,"s\"Ġ":7842,"evereĠ":7843,",ĠyouĠ":7844,"youâĢĻveĠ":7845,"ity,ĠandĠ":7846,"America":7847,"influenceĠ":7848,"Yes":7849,"e,ĠorĠ":7850,"neur":7851,"Rad":7852,"life.Ġ":7853,"soft":7854,"folk":7855,"utt":7856,"ĠonĠtheĠ":7857,"sexualĠ":7858,"commonlyĠ":7859,"doĠitĠ":7860,"orĠt":7861,"ology":7862,"advic":7863,"Park":7864,"onlyĠoneĠ":7865,"âĢĻll":7866,"iggerĠ":7867,"enceĠandĠ":7868,"600":7869,"ultimatelyĠ":7870,"cleanĠ":7871,":ÂłĠ":7872,"Ġworld":7873,"rareĠ":7874,"aband":7875,"wasĠnotĠ":7876,"Tom":7877,"sinceĠtheĠ":7878,"kyĠ":7879,"evolution":7880,"opposit":7881,"VĠ":7882,"vulner":7883,"externalĠ":7884,"eĠwrit":7885,"usĊ":7886,"fairlyĠ":7887,");Ġ":7888,"DA":7889,"monĠ":7890,"ityĠisĠ":7891,"150":7892,"fasc":7893,"rulesĠ":7894,"abilityĠofĠ":7895,"Ġtransport":7896,"restrict":7897,"guard":7898,"effectivelyĠ":7899,"Ġbetter":7900,"betterĠthanĠ":7901,"eler":7902,",ĠG":7903,"beginĠ":7904,"oblig":7905,"haveĠt":7906,"we'veĠ":7907,"Hy":7908,"ĠTH":7909,"PM":7910,"ĠdataĠ":7911,"990":7912,"inspir":7913,"later,Ġ":7914,"layĠ":7915,"School":7916,"Thursday,Ġ":7917,"adequ":7918,"associatedĠwithĠ":7919,"lerĠ":7920,"aĠD":7921,"inputĠ":7922,"elementsĠ":7923,"havingĠtoĠ":7924,"Journ":7925,"presentsĠ":7926,"favoriteĠ":7927,"up.Ċ":7928,"meansĠthatĠ":7929,"featuresĠ":7930,"nod":7931,"boyĠ":7932,"atĠandĠ":7933,"petĠ":7934,"changingĠ":7935,"city":7936,"Class":7937,"EveryĠ":7938,"-ĠtheĠ":7939,"conflict":7940,"umul":7941,"Ġtransl":7942,"aboutĠaĠ":7943,"legitim":7944,"onĠd":7945,"perfectlyĠ":7946,"gap":7947,"ĠtoĠtheirĠ":7948,"ians":7949,"forcesĠ":7950,"husbandĠ":7951,"emor":7952,"inĠtheĠfirstĠ":7953,"ed?Ċ":7954,"recommendĠ":7955,"wouldn'tĠ":7956,"merc":7957,"yes,Ġ":7958,"chedul":7959,",ĠbecauseĠ":7960,")Ġ(":7961,"s!Ġ":7962,"constantlyĠ":7963,"fab":7964,"Chic":7965,"OurĠ":7966,"Friday,Ġ":7967,"ensionĠ":7968,"moreĠc":7969,"ĠthereĠwereĠ":7970,"ButĠtheĠ":7971,"hes":7972,"intellect":7973,"nectĠ":7974,"53":7975,"photoĊ":7976,"null":7977,"spreadĠ":7978,"optionĠ":7979,"ÂłÂłĊ":7980,"dieĠ":7981,"dang":7982,"Ġfre":7983,"iger":7984,"behavior":7985,"IĠgotĠ":7986,"movementĠ":7987,"beat":7988,"carri":7989,"DE":7990,"believeĠthatĠ":7991,"cann":7992,"youĠcan'tĠ":7993,"steadĠ":7994,"schedul":7995,"impos":7996,"Spec":7997,"allowingĠ":7998,"affic":7999,"Wal":8000,"Inform":8001,"WeĠareĠ":8002,"weet":8003,"s.Ġ\"":8004,"?âĢĿĠ":8005,"beganĠtoĠ":8006,"symptom":8007,"edĠit":8008,"rug":8009,"eĠwer":8010,"Look":8011,"Ġmuch":8012,"ake":8013,"asm":8014,"es)":8015,"gan":8016,"riz":8017,"optionsĠ":8018,"justĠaĠ":8019,"prop":8020,"sometim":8021,"doubt":8022,"sâĢĻ":8023,"whatĠwasĠ":8024,"commercialĠ":8025,"aĠR":8026,"restor":8027,"inĠherĠ":8028,"revolution":8029,"ass,Ġ":8030,"agueĠ":8031,"reput":8032,"forĠw":8033,"ersĠinĠtheĠ":8034,"properlyĠ":8035,"essentiallyĠ":8036,"settingĠ":8037,"atĠtheĠsameĠtim":8038,"theyĠ":8039,"ymbol":8040,"could":8041,"overĠandĠ":8042,"=>Ġ":8043,"servicesĠ":8044,"boo":8045,"on'sĠ":8046,"backgroundĠ":8047,"placeĠtoĠ":8048,"pathĠ":8049,"e.\"Ġ":8050,"worryĠ":8051,"soul":8052,".ĠCom":8053,",ĠF":8054,"neutr":8055,",\"ĠsaidĠ":8056,"igar":8057,",Ġthere'sĠ":8058,"productionĠ":8059,"beĠth":8060,"onĠisĠ":8061,"horr":8062,"levelsĠofĠ":8063,"MaybeĠ":8064,"line":8065,"rettyĠ":8066,"vect":8067,"age.Ġ":8068,"moralĠ":8069,"SanĠ":8070,"whatĠitĠ":8071,"Shar":8072,"people":8073,"forĠexample,Ġ":8074,"rialĠ":8075,"Type":8076,".ĠButĠtheĠ":8077,"virtualĠ":8078,"rainĠ":8079,"intention":8080,"atureĠ":8081,"nap":8082,"Hell":8083,"disappear":8084,"uh":8085,"valuesĠ":8086,"Mov":8087,"femaleĠ":8088,"feature":8089,"ÑĤ":8090,"Mos":8091,"Day":8092,"literallyĠ":8093,"heĠcouldĠ":8094,"ĠhowĠ":8095,"muchĠmoreĠ":8096,"patch":8097,"NY":8098,"ForĠtheĠ":8099,"ableĠto":8100,"stressĠ":8101,"\">":8102,"vsĠ":8103,"circumstanc":8104,"esnâĢĻtĠ":8105,"knowledgeĠ":8106,"criticalĠ":8107,"organis":8108,"rail":8109,"anymor":8110,"incomeĠ":8111,"assert":8112,"awayĠfromĠ":8113,"alsoĠtheĠ":8114,"RobertĠ":8115,"ĠisĠnotĠ":8116,"aignĠ":8117,"son,Ġ":8118,"overallĠ":8119,"KingĠ":8120,"secut":8121,"ork":8122,"jack":8123,"OldĠ":8124,"usĠtheĠ":8125,"o'sĠ":8126,".ĠHerĠ":8127,"ency":8128,"Sar":8129,"pricesĠ":8130,"fromĠm":8131,"(theĠ":8132,"onĠanĠ":8133,"aĠsignificantĠ":8134,".ĠEvery":8135,"meĠtoĠ":8136,"accordingĠtoĠtheĠ":8137,"etaryĠ":8138,"brokenĠ":8139,"eĠinĠaĠ":8140,"fresh":8141,"rapid":8142,"certain":8143,"Ġdoesn'tĠ":8144,"upperĠ":8145,".ĠNot":8146,"ÂłÂłÂłÂłÂłÂłÂłÂłÂłÂłÂłÂłÂłÂłÂłÂł":8147,"exampleĠofĠ":8148,"olecul":8149,"Medic":8150,"regim":8151,"seeingĠ":8152,"e,ĠsoĠ":8153,"again.Ċ":8154,"meaning":8155,"attor":8156,"expans":8157,"ofĠtr":8158,"photo":8159,"susp":8160,"Servic":8161,"format":8162,"BestĠ":8163,"oneâĢĻsĠ":8164,"overwh":8165,"somewhatĠ":8166,"ituation":8167,"forĠthem":8168,"rong":8169,"OnĠtheĠ":8170,"findĠoutĠ":8171,"olly":8172,"irth":8173,"allel":8174,"neitherĠ":8175,"Ġclaim":8176,"}$":8177,"SP":8178,"WĠ":8179,"nin":8180,"awaren":8181,"comparedĠtoĠ":8182,"soundsĠ":8183,"Ġcreat":8184,"inĠaĠs":8185,"SeeĠ":8186,"ĠmayĠbeĠ":8187,"comfortableĠ":8188,"inĠitsĠ":8189,"willĠnotĠ":8190,",Ġetc":8191,"App":8192,"convert":8193,"letterĠ":8194,"generateĠ":8195,"otherwiseĠ":8196,"ureĠtheĠ":8197,"Ġcal":8198,"howĠtheyĠ":8199,"dress":8200,"howĠitĠ":8201,"SocialĠ":8202,"figureĠoutĠ":8203,"killedĠ":8204,"increasinglyĠ":8205,"mann":8206,"ans,Ġ":8207,"Princ":8208,"UniversityĠ":8209,"caseĠofĠ":8210,"addingĠ":8211,"her,Ġ":8212,"asset":8213,"measure":8214,".ĠAny":8215,"e,ĠitĠ":8216,"automaticallyĠ":8217,"unkĠ":8218,"extend":8219,"ownĠs":8220,".p":8221,"humansĠ":8222,"othĠ":8223,"something":8224,"respectĠ":8225,"advantageĠ":8226,"StarĠ":8227,"bedĠ":8228,"eem":8229,"ĠcomeĠ":8230,"overall":8231,"capitalĠ":8232,"aditionalĠ":8233,"Google":8234,"ed.Ġ":8235,"chocol":8236,"consistentĠ":8237,"eĠcol":8238,"ustomerĠ":8239,"piteĠtheĠ":8240,"heat":8241,"newsp":8242,"sĠsuchĠasĠ":8243,"CourtĠ":8244,"Ġdegre":8245,"equalĠ":8246,"Smith":8247,"handleĠ":8248,"colon":8249,"aĠT":8250,"insideĠtheĠ":8251,"eesĠ":8252,"i.e.Ġ":8253,"RedĠ":8254,"component":8255,"ifficult":8256,"flowĠ":8257,"aĠcar":8258,"rootĠ":8259,"eĠthroughĠ":8260,"CN":8261,"aĠbadĠ":8262,"iped":8263,"conscious":8264,"La":8265,"ä¸":8266,"life":8267,"erk":8268,"urfac":8269,"ettingĠ":8270,"dut":8271,"Ġton":8272,"punish":8273,"FA":8274,"precis":8275,"url":8276,"ridicul":8277,"infra":8278,"ive.Ċ":8279,"leanĠ":8280,"andÂł":8281,"foundĠinĠ":8282,"CA":8283,"lookingĠatĠ":8284,"a)":8285,"shift":8286,"Î±":8287,"favorit":8288,"awn":8289,"Pe":8290,"lung":8291,"fishĠ":8292,"wo-":8293,"aĠlittl":8294,"aĠgener":8295,"ate.Ċ":8296,"makeĠsureĠ":8297,"HĠ":8298,"normal":8299,"eĠsheĠ":8300,"cleĠ":8301,"e.ĠYou":8302,"orsĠandĠ":8303,"ĠĠĠĠĠ":8304,"ourĠp":8305,"Florid":8306,"izeĠtheĠ":8307,"Ġbo":8308,"restĠofĠ":8309,"ationĠinĠtheĠ":8310,"authent":8311,"conclud":8312,"agr":8313,"invit":8314,"correspond":8315,"errorĠ":8316,"ĠbothĠ":8317,"udic":8318,"aĠhugeĠ":8319,"all-":8320,"ingÂł":8321,"interaction":8322,"rush":8323,"dailyĠ":8324,"soĠtheĠ":8325,"Eli":8326,"hasĠnoĠ":8327,"originallyĠ":8328,"antib":8329,"IĠhaveĠtoĠ":8330,"WhenĠtheĠ":8331,"explo":8332,"armĠ":8333,"agent":8334,"agĠ":8335,"pressur":8336,"leavingĠ":8337,"development":8338,"AfricanĠ":8339,"i.e.":8340,"EX":8341,"mill":8342,"murder":8343,"ance":8344,"toĠtheĠ":8345,"ĠtheirĠownĠ":8346,"Vide":8347,"HouseĠ":8348,"OT":8349,"e.ĠW":8350,"prol":8351,"changedĠ":8352,"urviv":8353,"whyĠtheĠ":8354,"Off":8355,"atedĠandĠ":8356,"asĠheĠ":8357,"aa":8358,"JapaneseĠ":8359,",ĠJ":8360,"client":8361,"screen":8362,"weren":8363,"chargeĠ":8364,"long-ter":8365,"btĠ":8366,"54":8367,"Ġshort":8368,",ĠwhatĠ":8369,"67":8370,"s.ĠInĠ":8371,"nearĠtheĠ":8372,"anyĠofĠtheĠ":8373,"ed?Ġ":8374,"uffer":8375,"scrib":8376,"itz":8377,"Numb":8378,"quiet":8379,"countĠ":8380,"boughtĠ":8381,"helpedĠ":8382,"stair":8383,"Whit":8384,"whoĠhaveĠ":8385,"ductĠ":8386,"remainingĠ":8387,"valueĠofĠ":8388,"lessĠofĠ":8389,"labor":8390,"whenĠitĠcomesĠtoĠ":8391,"hadĠnoĠ":8392,"Â©":8393,"(\\":8394,"German":8395,"Ġcompar":8396,"while,Ġ":8397,"len":8398,"you'dĠ":8399,"aĠinĠ":8400,"herself":8401,"asĠpossible":8402,"basic":8403,"vin":8404,"boxĠ":8405,"lieĠ":8406,"Mill":8407,"estĠandĠ":8408,"Thes":8409,"âĢľTheĠ":8410,"him.Ċ":8411,"benefitsĠ":8412,"media":8413,"entryĠ":8414,"letsĠ":8415,"####":8416,"ingĠforĠtheĠ":8417,"aĠlif":8418,"wantsĠtoĠ":8419,"))":8420,"paper":8421,"him,Ġ":8422,"oneĠandĠ":8423,"owl":8424,"KĠ":8425,"clickĠ":8426,"Â»":8427,"CityĠ":8428,"bond":8429,"religion":8430,"ityĠthatĠ":8431,"Cent":8432,"strok":8433,"cept":8434,"itĠforĠ":8435,"packag":8436,"cloud":8437,"(Ġ":8438,"adultĠ":8439,"icon":8440,"ivenĠ":8441,"atĠtheĠs":8442,"ĠthinkĠofĠ":8443,"CI":8444,"ĠĠĠĠĠĠĠĠĠĠĠĠĠĠ":8445,"esty":8446,"ousandĠ":8447,"femal":8448,"highlight":8449,"orc":8450,".ĠAr":8451,"an.Ċ":8452,"Develop":8453,"potentiallyĠ":8454,"norĠ":8455,"giveĠyouĠ":8456,"frequentlyĠ":8457,"ures,Ġ":8458,"cruc":8459,"980":8460,"iesĠinĠ":8461,"()Ċ":8462,"AĠf":8463,"prem":8464,"eyes":8465,"()Ġ":8466,"ringĠ":8467,"figur":8468,"\",Ġ\"":8469,"lect":8470,"Constitut":8471,"iciousĠ":8472,"Lou":8473,"illegalĠ":8474,"dependentĠ":8475,"ofĠtwoĠ":8476,"esĠhaveĠ":8477,"statist":8478,"amentalĠ":8479,"Atl":8480,"ten":8481,"âĢĻllĠ":8482,"delet":8483,"confus":8484,"evenĠmoreĠ":8485,"Afgh":8486,"prep":8487,"y?Ċ":8488,"mostĠofĠ":8489,"They":8490,"nessĠandĠ":8491,"equal":8492,"========":8493,"Person":8494,"dens":8495,"LordĠ":8496,"subjectĠ":8497,"compil":8498,"iticalĠ":8499,"ofĊ":8500,"ĠcareĠ":8501,"edÂł":8502,"uppos":8503,"proofĠ":8504,"Ul":8505,"buyingĠ":8506,"oxĠ":8507,".get":8508,"Form":8509,"gotĠtoĠ":8510,"creenĠ":8511,"mistak":8512,"leĠs":8513,"ables":8514,"whatever":8515,"ÃŃ":8516,"nak":8517,"Perhap":8518,"atedĠinĠ":8519,"farĠasĠ":8520,"Mel":8521,"seg":8522,"s,ĠwhichĠ":8523,"Ġtask":8524,"requiredĠtoĠ":8525,"AnonymousĠsaid...Ċ":8526,"consult":8527,"illyĠ":8528,"LA":8529,"inĠtheĠt":8530,"moreĠandĠ":8531,"eĠthes":8532,"Ġtour":8533,"containsĠ":8534,"oĠisĠ":8535,"craft":8536,"yeah":8537,"s,ĠandĠtheĠ":8538,"sâĢĿ":8539,"it's":8540,"bind":8541,"pointsĠ":8542,"oughtĠtoĠ":8543,"bacter":8544,"sustain":8545,"akist":8546,"ingĠtheĠt":8547,"ocket":8548,"Ġwer":8549,"stoppedĠ":8550,"it,ĠandĠ":8551,"HereĠ":8552,"xx":8553,"Ġmy":8554,"significantlyĠ":8555,"actsĠ":8556,"uz":8557,"Gal":8558,"necessaryĠtoĠ":8559,"esĠonĠtheĠ":8560,"Health":8561,"gift":8562,"eĠB":8563,"lobalĠ":8564,"Egypt":8565,"databas":8566,"e'":8567,"of-":8568,"substant":8569,"startedĠtoĠ":8570,"findĠaĠ":8571,"share|improveĠthisĠanswerĊ":8572,"agreementĠ":8573,"neighb":8574,"Ma":8575,"itĠasĠ":8576,"idealĠ":8577,"uro":8578,"maintain":8579,"byĠaĠ":8580,"destro":8581,"acceler":8582,"bankĠ":8583,"Cod":8584,"I'mĠs":8585,"uis":8586,"se.Ċ":8587,"pieceĠofĠ":8588,"ÙĦ":8589,"quer":8590,"s;":8591,"obvious":8592,"attleĠ":8593,"ibilityĠ":8594,"lookingĠforĠ":8595,"powerfulĠ":8596,"riedĠtoĠ":8597,"<Ġ":8598,"ussĠ":8599,"intervent":8600,"shock":8601,"eĠmak":8602,"Ġcult":8603,"onĠherĠ":8604,"behindĠtheĠ":8605,"PartĠ":8606,"drivenĠ":8607,"migr":8608,"ĠtheseĠs":8609,"intim":8610,"itiesĠandĠ":8611,"endĠtoĠ":8612,"soon":8613,"youĠdo":8614,"solut":8615,"Ġhum":8616,"p.Ġ":8617,"thirdĠ":8618,"Ġcod":8619,"IB":8620,"ourĠd":8621,"blueĠ":8622,"Anal":8623,"MiddleĠ":8624,"eĠworld":8625,"decidedĠtoĠ":8626,"ive.Ġ":8627,".ĠAlso,Ġ":8628,"Pos":8629,"pron":8630,"truth":8631,"iy":8632,"manufactur":8633,"conom":8634,"applyĠ":8635,"practicalĠ":8636,"babyĠ":8637,"aĠgood":8638,"cart":8639,"flightĠ":8640,"reward":8641,"gin":8642,"commandĠ":8643,"aĠL":8644,"anywhereĠ":8645,"urelyĠ":8646,"arrow":8647,"plet":8648,"emptyĠ":8649,"fruit":8650,"loss":8651,"featureĠ":8652,"sho":8653,"edicalĠ":8654,"ĠtrustĠ":8655,"WillĠ":8656,"pitch":8657,"ecret":8658,"Ġmethod":8659,"flyĠ":8660,"involvedĠinĠ":8661,"eĠS":8662,"weapon":8663,"azz":8664,".ĠUs":8665,"forest":8666,"craftĠ":8667,"Ġcamp":8668,"symbol":8669,"sĠtheĠs":8670,"personal":8671,"chees":8672,"whis":8673,"yearsĠofĠ":8674,"),ĠtheĠ":8675,"assiveĠ":8676,"neck":8677,"prosecut":8678,"lifeĠandĠ":8679,"(x":8680,"kidĠ":8681,"Hop":8682,"erĠorĠ":8683,"findingĠ":8684,"Ġthis,Ġ":8685,"lossĠ":8686,"ĠthatĠyouĠ":8687,"PostĠ":8688,"appeal":8689,"whenĠweĠ":8690,"fuck":8691,"available":8692,"ersĠcanĠ":8693,"ĠĠĠĠ\"":8694,"eĠtod":8695,"effectsĠ":8696,"knowingĠ":8697,"modelĠ":8698,"windĠ":8699,"sheĠw":8700,"agoĊ":8701,"Miss":8702,"eĠword":8703,"ĠthatĠhasĠ":8704,"emon":8705,"blogg":8706,"urbanĠ":8707,"nobodyĠ":8708,"learnedĠ":8709,"cream":8710,"ocietyĠ":8711,"isĠtheĠmostĠ":8712,"overwhelm":8713,"blockĠ":8714,"a)Ġ":8715,".ĠThere'sĠ":8716,"comment>username_":8717,"rockĠ":8718,"onĠtheĠt":8719,"sitĠ":8720,"Bab":8721,"stopp":8722,"ĠtoĠdo":8723,"RA":8724,"ĠwaterĠ":8725,"leĊ":8726,"uccessful":8727,"Cas":8728,"When":8729,"Ġfiles_":8730,"stres":8731,"understandingĠ":8732,"ĠthrowĠ":8733,"Ġ|Ġfiles_":8734,"daughterĠ":8735,"ĠwillĠb":8736,"lightlyĠ":8737,"Hen":8738,"Nav":8739,"seen":8740,"icitĠ":8741,"<issue_comment>username_":8742,"lient":8743,"dos":8744,"provideĠaĠ":8745,"unfortun":8746,"s.ÂłĊ":8747,"otherĠthanĠ":8748,"foundĠthatĠ":8749,"keepingĠ":8750,"le.Ċ":8751,"SQ":8752,"exha":8753,"eĠisĠaĠ":8754,"edĠtoĠaĠ":8755,"Luc":8756,"eĠtryingĠtoĠ":8757,"Sand":8758,"BillĠ":8759,"recept":8760,"ĠthereâĢĻsĠ":8761,"Coll":8762,"fromĠmyĠ":8763,"tak":8764,"apartĠ":8765,".ĠIĠf":8766,"primarilyĠ":8767,"constr":8768,"relief":8769,"icket":8770,"Ġthemselves":8771,"ĠmuchĠ":8772,"say,Ġ":8773,"Ã³":8774,"fro":8775,"eĠtheyĠareĠ":8776,"Ġbook":8777,"clar":8778,"monitor":8779,"FL":8780,"whoĠhadĠ":8781,"aris":8782,"shor":8783,"Dan":8784,"expression":8785,"Eth":8786,"eĠturn":8787,"Vict":8788,"Prov":8789,"approximatelyĠ":8790,"experiencedĠ":8791,"afterno":8792,"heĠwas":8793,"hĠandĠ":8794,"imagineĠ":8795,"nail":8796,"acidĠ":8797,"HD":8798,"ĠworkingĠ":8799,"inessĠ":8800,"declin":8801,"Â·":8802,".ĠAndĠtheĠ":8803,"denĠ":8804,"Found":8805,"s,ĠsoĠ":8806,"merg":8807,"mayĠhaveĠ":8808,"WhichĠ":8809,"lengthĠ":8810,"opp":8811,".m":8812,"oonĠ":8813,"fiction":8814,"I'veĠbeenĠ":8815,"ationĠs":8816,"{Ġ":8817,"Ep":8818,"hourĠ":8819,"youĠmustĠ":8820,"developedĠ":8821,"ontoĠtheĠ":8822,"dish":8823,"effectsĠofĠ":8824,"it?Ċ":8825,"isonĠ":8826,"supposedĠtoĠ":8827,"fillĠ":8828,"ipsĠ":8829,"vaccin":8830,"ĠtreatmentĠ":8831,"consequenc":8832,"89":8833,"marg":8834,"JewishĠ":8835,"yourĠt":8836,"ation,ĠandĠ":8837,"bitĠofĠ":8838,"stringĠ":8839,"ebodyĠ":8840,"PeterĠ":8841,"aes":8842,"island":8843,"reasonableĠ":8844,"queĠ":8845,"ruleĠ":8846,"evenĠthough":8847,"X-":8848,"ody":8849,"Ġpass":8850,"ĠtoĠtak":8851,"Church":8852,"wild":8853,"givenĠtheĠ":8854,"Chil":8855,"olid":8856,"hil":8857,"Ġhealth":8858,"referredĠtoĠ":8859,"GB":8860,"}{":8861,"affĠ":8862,"evenĠifĠ":8863,"employmentĠ":8864,"a_":8865,"work,Ġ":8866,"sâĢĶ":8867,"hateĠ":8868,"strategyĠ":8869,"hamĠ":8870,"indicat":8871,"sideĠofĠtheĠ":8872,"profitĠ":8873,"isĠthisĠ":8874,"local":8875,"partn":8876,"RomanĠ":8877,"\\n":8878,"iron":8879,"awayĠfromĠtheĠ":8880,"icid":8881,"resident":8882,"Ġdriv":8883,"ingĠtheseĠ":8884,"hir":8885,"hors":8886,"gear":8887,"potential":8888,"debtĠ":8889,".ĠAf":8890,"despiteĠ":8891,"explos":8892,"Loc":8893,"rarelyĠ":8894,"MarkĠ":8895,"ĠyearĠ":8896,"configur":8897,"ouchĠ":8898,"conver":8899,"ston":8900,"eĠthoseĠ":8901,"ĠofĠaĠ":8902,"istĠandĠ":8903,"Colleg":8904,"changeĠtheĠ":8905,"flight":8906,"involvesĠ":8907,"sight":8908,"wrongĠ":8909,"characteristic":8910,"ĠtendĠtoĠ":8911,"ĠthatĠwouldĠ":8912,"hoursĠ":8913,"aĠseriesĠofĠ":8914,"IĠgetĠ":8915,"yes":8916,"requestĠ":8917,"s.ĠIĠ":8918,"makesĠitĠ":8919,"odg":8920,"hem":8921,"mast":8922,"sy":8923,"ertainlyĠ":8924,"differenceĠbetweenĠ":8925,"background":8926,".ĠAsĠaĠ":8927,"nurs":8928,"older":8929,"incrediblyĠ":8930,"alent":8931,"esp":8932,"eĠdidn'tĠ":8933,"owardsĠ":8934,"Ġwebsit":8935,"rĠ":8936,"CB":8937,"Counc":8938,"s.ĠW":8939,"weĠc":8940,"hisĠt":8941,"WesternĠ":8942,"isĠveryĠ":8943,"withĠnoĠ":8944,"forth":8945,"RelatedĠ":8946,"cin":8947,"asĠandĠ":8948,"ĠtellsĠ":8949,"ely.Ċ":8950,"aboutĠwhatĠ":8951,"constĠ":8952,"holid":8953,"ofĠtimeĠ":8954,"buck":8955,"hall":8956,".ĠOfĠcour":8957,"ðŁ":8958,"eĠtheĠsameĠ":8959,".ĠAlthough":8960,"general":8961,"ĠsomethingĠ":8962,"providedĠ":8963,"naturallyĠ":8964,"s_":8965,"IâĢĻdĠ":8966,"abstr":8967,"awk":8968,"proceed":8969,"ificialĠ":8970,"relyĠ":8971,"advancedĠ":8972,"Valu":8973,"ations.Ċ":8974,"filter":8975,"beatĠ":8976,"âĢĻsĠt":8977,"Ġconf":8978,"goĠtoĠtheĠ":8979,"Ġcost":8980,"ĠhelpĠ":8981,"ware":8982,"MicrosoftĠ":8983,"Frank":8984,"s,Ġwhich":8985,"AppleĠ":8986,".ĠPer":8987,"ally.Ċ":8988,"forĠexampl":8989,"keepsĠ":8990,"angel":8991,"branch":8992,"ĠĠĠĠ}Ċ":8993,"Carol":8994,"021":8995,"bonĠ":8996,"eĠmoneyĠ":8997,"year,Ġ":8998,"Ñģ":8999,"says:Ċ":9000,"++":9001,"elementĠ":9002,"manipul":9003,"starĠ":9004,"default":9005,"allĠtheĠtim":9006,"Facebook":9007,"screenĠ":9008,"isĠitĠ":9009,"ĠitĠ":9010,"GP":9011,"cow":9012,"distanc":9013,"annualĠ":9014,"250":9015,"ed.Ġ\"":9016,"pleĠ":9017,"eason":9018,"ate.Ġ":9019,"ME":9020,"everyth":9021,"ĠthatĠIĠ":9022,"hi":9023,"forcedĠtoĠ":9024,"forĠmanyĠ":9025,"ĠbillionĠ":9026,"ossĠ":9027,"nost":9028,"Ð½":9029,"inningĠ":9030,"Ġmean,Ġ":9031,"withĠd":9032,"inject":9033,"etr":9034,"ivingĠ":9035,"resourcesĠ":9036,"advantag":9037,"insist":9038,"butĠnotĠ":9039,"strugg":9040,"ÃĹ":9041,"icĠd":9042,"rior":9043,"aĠsecondĠ":9044,"bothĠtheĠ":9045,"gal":9046,"inĠanyĠ":9047,"moreĠthan":9048,"easierĠ":9049,"leavesĠ":9050,"hab":9051,"soldĠ":9052,"MR":9053,"chaseĠ":9054,"admitt":9055,"ĠthatĠareĠ":9056,"ain,Ġ":9057,"Mont":9058,"Polic":9059,"usi":9060,"ĠhoursĠ":9061,"itsĠownĠ":9062,"roleĠ":9063,"indeedĠ":9064,"apolog":9065,"Vers":9066,"notĠbeenĠ":9067,"ĠtechnologyĠ":9068,"armsĠ":9069,"Let'sĠ":9070,"e,ĠasĠ":9071,"ãĤ":9072,"issues":9073,"Hand":9074,"Ef":9075,"Ġhear":9076,".ĠNowĠ":9077,"logg":9078,"hit":9079,"Ben":9080,"atar":9081,"footĠ":9082,"solveĠ":9083,"forĠanyĠ":9084,"drivingĠ":9085,"libraryĠ":9086,".ĠAt":9087,"fan":9088,"ities.Ċ":9089,"atĊ":9090,"Ven":9091,"ĠmanĠ":9092,"responseĠ":9093,"instrument":9094,"suddenlyĠ":9095,"Sunday,Ġ":9096,"erĠthanĠtheĠ":9097,"rod":9098,"oldi":9099,".ĠĠ":9100,"nothing":9101,"revenu":9102,"retire":9103,",ĠjustĠ":9104,"rc":9105,"ENT":9106,"nature":9107,"ĠtheyâĢĻreĠ":9108,"adviceĠ":9109,"earnĠ":9110,"ingĠtheir":9111,"na":9112,"NS":9113,"ineĠandĠ":9114,"Chines":9115,"eralĠ":9116,"Ġtruth":9117,"stoneĠ":9118,"Ġpre":9119,"Dar":9120,"instruct":9121,"frac":9122,"releaseĠ":9123,"hurtĠ":9124,"outsideĠtheĠ":9125,"Orig":9126,"Syri":9127,"fightingĠ":9128,"hospitalĠ":9129,"Dist":9130,"vess":9131,"ton,Ġ":9132,"aĠtim":9133,"gradeĠ":9134,"ÑĢ":9135,"defaultĠ":9136,"aer":9137,"phras":9138,"ãĥ":9139,"GO":9140,"aĠtimeĠ":9141,"reamĠ":9142,"landscap":9143,"causesĠ":9144,"Event":9145,"column":9146,",ĠandĠitĠ":9147,"intr":9148,"insuranc":9149,"Jon":9150,"asticĠ":9151,"ptionĠ":9152,"youĠtheĠ":9153,"floor":9154,"Cam":9155,"ists,Ġ":9156,"costĠofĠ":9157,"ĠinĠaĠ":9158,"affair":9159,"ĠtooĠmuchĠ":9160,"actually":9161,"institution":9162,"stĠofĠ":9163,"ousĠandĠ":9164,"yanĠ":9165,"Iran":9166,"sen":9167,"Ġphot":9168,"erĠinĠtheĠ":9169,"e,ĠaĠ":9170,"IĠb":9171,"decideĠ":9172,"Open":9173,"Steph":9174,"asĠaĠm":9175,"Bet":9176,"herĠtoĠ":9177,"fashion":9178,"OF":9179,"armyĠ":9180,"Ġhand":9181,"atell":9182,"plotĠ":9183,"imalĠ":9184,"Object":9185,"vehicleĠ":9186,"oubl":9187,"s,ĠtheyĠ":9188,"DP":9189,"orĠnotĠ":9190,"tooĠ":9191,"aĠbigĠ":9192,"intent":9193,"ISĠ":9194,"withĠb":9195,"assumption":9196,"Expl":9197,"atĠthatĠ":9198,"analog":9199,"ViewĠ":9200,"ories":9201,"Ġtold":9202,"peopleĠinĠ":9203,"preced":9204,"DV":9205,"DC":9206,"WeĠhaveĠ":9207,"ileg":9208,"calledĠtheĠ":9209,"eĠsuchĠ":9210,"conversation":9211,"..Ġ":9212,"newĠs":9213,"feetĠ":9214,"freez":9215,"Year":9216,"losingĠ":9217,"s[":9218,"ĠtermĠ":9219,"cand":9220,"withĠyourĠ":9221,"ersĠtheĠ":9222,"s.ĠIn":9223,"photoĠ":9224,"diff":9225,"pressure":9226,"sheĠisĠ":9227,"ĠthatĠcanĠ":9228,"concep":9229,"startsĠ":9230,"madeĠaĠ":9231,"Red":9232,"WhatĠisĠtheĠ":9233,"likeĠthatĠ":9234,"send":9235,"zeroĠ":9236,"anceĠofĠtheĠ":9237,"ĠtowardĠ":9238,"ishingĠ":9239,"e.ĠTheyĠ":9240,"createĠaĠ":9241,"Econom":9242,"IE":9243,"ĠĠĠĠS":9244,"insight":9245,"loanĠ":9246,"les,Ġ":9247,"peopleĠandĠ":9248,"vibr":9249,".D":9250,"sevenĠ":9251,"westĠ":9252,"Oper":9253,"itiv":9254,"itchĠ":9255,"exchangeĠ":9256,"edĠthroughĠ":9257,"pictureĠ":9258,"SteveĠ":9259,"ĠsinceĠ":9260,"laĠ":9261,"cannotĠbeĠ":9262,"grab":9263,"well,Ġ":9264,"prompt":9265,"onĠS":9266,"includedĠ":9267,"a,ĠtheĠ":9268,"970":9269,"friendlyĠ":9270,"icationsĠ":9271,"ĠtenĠ":9272,"ratesĠ":9273,"Ġ|Ġ":9274,"eparateĠ":9275,".ĠIĠthink":9276,"ĠmadeĠ":9277,"angleĠ":9278,",ĠwasĠ":9279,"spotĠ":9280,"weetĠ":9281,"aĠsystem":9282,"sad":9283,"crack":9284,"legisl":9285,"Dam":9286,">>":9287,"advent":9288,"\"ĠisĠ":9289,"seeĠaĠ":9290,"nutri":9291,"Scienc":9292,".ĠWithĠ":9293,"ĠwantĠtoĠ":9294,"ornĠ":9295,"appingĠ":9296,"etect":9297,"AtĠtheĠ":9298,"shr":9299,"inct":9300,"soldi":9301,"eĠdiffer":9302,"Mot":9303,"Author":9304,"ubeĠ":9305,"youngerĠ":9306,"this":9307,"eĠtog":9308,"walkingĠ":9309,"ChrisĠ":9310,"hack":9311,"othes":9312,"stack":9313,".ĠPl":9314,"flatĠ":9315,"unitĠ":9316,"rateĠofĠ":9317,"Ġdollar":9318,"blam":9319,"occurr":9320,"))Ċ":9321,"WashingtonĠ":9322,"weĠt":9323,"Ur":9324,"effortĠ":9325,"clust":9326,"she'sĠ":9327,"Pakist":9328,"loos":9329,"eĠmanag":9330,"Q:Ġ":9331,"inĠtheir":9332,"occ":9333,"oubleĠ":9334,"bug":9335,"Ġhist":9336,"flaw":9337,"resolv":9338,"developingĠ":9339,"weĠcan":9340,"aboutĠtoĠ":9341,"boot":9342,"reality":9343,"adingĠ":9344,"copy":9345,"ternĠ":9346,"playsĠ":9347,"yourĠown":9348,"London":9349,"term":9350,"Ġtry":9351,"equipmentĠ":9352,"eĠmadeĠ":9353,"ĠtoĠsayĠ":9354,"AlsoĠ":9355,"e,ĠwhichĠ":9356,"whos":9357,"vs.Ġ":9358,"aĠH":9359,"grewĠ":9360,"hundredsĠofĠ":9361,"volunte":9362,"Äģ":9363,"holdingĠ":9364,"ĠworldĠ":9365,"worstĠ":9366,"crowd":9367,"ĠdoingĠ":9368,"ĠthingsĠthatĠ":9369,"IĠwant":9370,"YO":9371,"widelyĠ":9372,"ALL":9373,"array":9374,"leadsĠtoĠ":9375,"ndĠ":9376,"upĠtoĠtheĠ":9377,"Ġbehavi":9378,"partsĠofĠtheĠ":9379,"baseĠ":9380,"igarett":9381,"readyĠ":9382,"majorityĠofĠ":9383,"Ġshould":9384,",ĠA":9385,"ecom":9386,"anĠimportantĠ":9387,"oreover":9388,"Cho":9389,"NE":9390,"cold":9391,"mainlyĠ":9392,"withĠtheĠs":9393,"applicationĠ":9394,"benefic":9395,"handsĠ":9396,"68":9397,"Ġmarket":9398,"Organ":9399,"Ġfin":9400,"quareĠ":9401,"antĠandĠ":9402,"flav":9403,"eniorĠ":9404,"orang":9405,"eĠthereĠareĠ":9406,"reduceĠtheĠ":9407,"inevit":9408,"hill":9409,"adm":9410,"alloc":9411,"whetherĠtheĠ":9412,"sĠcanĠbeĠ":9413,"complexĠ":9414,"ecur":9415,"irĠ":9416,"gayĠ":9417,"messageĠ":9418,"features":9419,"sĠandĠotherĠ":9420,"contro":9421,"ĠtoĠhisĠ":9422,"ni":9423,"invas":9424,"e,ĠandĠtheĠ":9425,"glassĠ":9426,"Ġtransfer":9427,"exam":9428,"Ġmeans":9429,"ongo":9430,"preserv":9431,"ĠthatĠweĠ":9432,"peakĠ":9433,"renew":9434,"merelyĠ":9435,"Ġweap":9436,"asyĠ":9437,"lymp":9438,"rowĠ":9439,"oneĠth":9440,"stupid":9441,"gall":9442,"Blu":9443,"ĠcameĠ":9444,".ĠAlthoughĠ":9445,"](":9446,"negl":9447,"eĠwouldĠbeĠ":9448,"tax":9449,"usefulĠ":9450,"asĠwellĠasĠtheĠ":9451,"smart":9452,"Naz":9453,"Sing":9454,"emergencyĠ":9455,"and/orĠ":9456,"cancerĠ":9457,"booksĠ":9458,"(C":9459,"energy":9460,"helpingĠ":9461,"ence.Ċ":9462,"sense":9463,"protein":9464,"UĠ":9465,"easeĠ":9466,"ensureĠ":9467,"eĠspec":9468,"brightĠ":9469,"hurt":9470,"definition":9471,"elebr":9472,"happensĠ":9473,"withoutĠtheĠ":9474,"privileg":9475,"OrĠ":9476,"lives":9477,"Tre":9478,"TO":9479,"Stand":9480,"Ġtrick":9481,"OnlyĠ":9482,"parad":9483,"soĠtheyĠ":9484,"dayĠandĠ":9485,"Ġsome":9486,"ManĠ":9487,"liquidĠ":9488,"exerciseĠ":9489,"that":9490,"e.Ġ\"":9491,"reviewĠ":9492,"Hear":9493,"IĠalsoĠ":9494,"lift":9495,"hyper":9496,"guarante":9497,"aĠtyp":9498,"overĠaĠ":9499,"edĠwhenĠ":9500,"whatĠyouĠ":9501,"disappoint":9502,"anticĠ":9503,"websiteĠ":9504,"speciesĠ":9505,"esĠatĠ":9506,"Unfortun":9507,"warn":9508,"ings.Ċ":9509,"sĠthanĠ":9510,"Typ":9511,"justĠtoĠ":9512,"ChristmasĠ":9513,"din":9514,"Mer":9515,"IsĠitĠ":9516,"ĠcalledĠ":9517,"regardingĠ":9518,"âĪĴ":9519,"thĠofĠ":9520,",ĠmyĠ":9521,"imper":9522,"edĠthemĠ":9523,"priseĠ":9524,"redit":9525,"articlesĠ":9526,"Sl":9527,"metalĠ":9528,"edĠwithĠaĠ":9529,"yourĠw":9530,"deepĠ":9531,"latterĠ":9532,"e,Ċ":9533,"HealthĠ":9534,"orĠmor":9535,"Know":9536,"nearĠ":9537,"way.Ċ":9538,"usedĠforĠ":9539,"agric":9540,"he'dĠ":9541,"roid":9542,"representĠ":9543,"Ram":9544,"freshĠ":9545,"roleĠinĠ":9546,"haveĠanyĠ":9547,"ĠthirdĠ":9548,"?\"":9549,"feelĠlikeĠ":9550,"liveĠinĠ":9551,"volt":9552,"!!Ġ":9553,"engineĠ":9554,"arrayĠ":9555,"yellow":9556,"favour":9557,"IfĠyouĠareĠ":9558,"ysicalĠ":9559,"Ah":9560,"NOT":9561,"Run":9562,"Color":9563,"ĠĠâĢ¢ĠTheĠ":9564,"incident":9565,"ing:Ċ":9566,"Div":9567,"ĠtoĠthem":9568,"que":9569,"s),Ġ":9570,"elevision":9571,"peopleĠhaveĠ":9572,"sort":9573,"allĠb":9574,"aĠmajorĠ":9575,"iĠs":9576,"html":9577,"capableĠofĠ":9578,"s,ĠsuchĠasĠ":9579,"himĠandĠ":9580,"someĠd":9581,"competition":9582,"allowedĠ":9583,"doubl":9584,".ĠIâĢĻ":9585,"ĠfromĠ":9586,"âĦ":9587,"Te":9588,"Good":9589,"perspectiveĠ":9590,"rein":9591,"icro":9592,"finishedĠ":9593,".org":9594,"inhib":9595,"Profess":9596,"yog":9597,"ĠsomeoneĠ":9598,"HowĠcanĠ":9599,"URL":9600,"aryĠofĠ":9601,"goingĠonĠ":9602,"hip":9603,"susĠ":9604,"aĠbunchĠofĠ":9605,"Now,Ġ":9606,"involveĠ":9607,".t":9608,"e.ĠAndĠ":9609,"carriedĠ":9610,"contextĠ":9611,"witness":9612,"aboutĠitĠ":9613,"Pan":9614,"beenĠtheĠ":9615,"speech":9616,"cienc":9617,"suchĠas":9618,"onâĢĻt":9619,"ia.Ċ":9620,"Linu":9621,"ithub":9622,"anspar":9623,"depos":9624,"itsĠown":9625,"potĠ":9626,"wayĠthatĠ":9627,"abin":9628,"oung":9629,"orĠotherĠ":9630,"doĠyouĠ":9631,"British":9632,"dialog":9633,".ĠOnceĠ":9634,"TP":9635,"altyĠ":9636,"Bit":9637,"Ġbreak":9638,"fet":9639,"couldn'tĠ":9640,"compens":9641,"casesĠ":9642,"s.ĠAndĠ":9643,"rend":9644,"ical,Ġ":9645,"!!Ċ":9646,"ty":9647,"startĠtoĠ":9648,"man,Ġ":9649,"e;":9650,"stem":9651,"ache":9652,"hag":9653,"slowlyĠ":9654,"libert":9655,"eĠso":9656,"ement,Ġ":9657,"employeesĠ":9658,"industrialĠ":9659,"allĠoverĠtheĠ":9660,"orĠtwoĠ":9661,"%Ċ":9662,"specificallyĠ":9663,"olidĠ":9664,"plantsĠ":9665,"ĠbloodĠ":9666,"aĠF":9667,"eĠcareĠ":9668,"e.ĠHeĠ":9669,"orph":9670,"eag":9671,"wonâĢĻtĠ":9672,"developĠ":9673,"Memb":9674,"spendingĠ":9675,"Deb":9676,"ers,ĠandĠ":9677,"chainĠ":9678,"negativ":9679,"watchingĠ":9680,"SO":9681,"scrip":9682,"ĠtheĠsecondĠ":9683,"erious":9684,"Question":9685,"desc":9686,"loveĠtoĠ":9687,"coordin":9688,"causingĠ":9689,"wereĠtheĠ":9690,"-m":9691,"settl":9692,"accumul":9693,"Start":9694,"proportion":9695,"nit":9696,"abandon":9697,"youĠjustĠ":9698,"Ġset":9699,"educationĠ":9700,"icĠofĠ":9701,"Ow":9702,"iresĠ":9703,"ĠtrackĠ":9704,"weĠdoĠ":9705,"ixĠ":9706,"Capt":9707,"icateĠ":9708,"ations.Ġ":9709,"understandingĠofĠ":9710,"genu":9711,"peopleĠthatĠ":9712,"publishedĠ":9713,"emin":9714,"narrow":9715,"futur":9716,"s,ĠitĠ":9717,"populationĠ":9718,"pup":9719,"Ġsays:Ċ":9720,"gotĠtheĠ":9721,"].Ċ":9722,"pel":9723,"Bal":9724,"atedĠbyĠtheĠ":9725,"essential":9726,"hasĠanĠ":9727,"encounter":9728,"planetĠ":9729,"efficient":9730,"onlyĠtoĠ":9731,"eneĠ":9732,"hiddenĠ":9733,"uponĠtheĠ":9734,").Ġ":9735,"everybodyĠ":9736,"rogenĠ":9737,"SupremeĠ":9738,"\"W":9739,"Ã¼":9740,"Sim":9741,"Tri":9742,"eĠthereĠisĠ":9743,".ĠOnĠ":9744,"uccessĠ":9745,"accurateĠ":9746,"killingĠ":9747,"coffe":9748,"entre":9749,"Ġthere.Ċ":9750,"aĠfil":9751,"engageĠ":9752,"infection":9753,"Uk":9754,"wereĠt":9755,"grac":9756,"audienceĠ":9757,"helpĠyouĠ":9758,"imit":9759,"weigh":9760,"aĠsing":9761,"Ġdel":9762,"Full":9763,"investment":9764,"administrat":9765,"ntĠ":9766,"democrac":9767,"quickly":9768,"pg":9769,"CL":9770,"ember,Ġ":9771,"guitar":9772,"fract":9773,"shoot":9774,"rictĠ":9775,"ĠtoĠm":9776,"Rock":9777,"heĠdidĠ":9778,"apor":9779,"staticĠ":9780,"flyingĠ":9781,"ants,Ġ":9782,"routin":9783,"alongĠwith":9784,"oust":9785,"asĠmanyĠ":9786,"Ġsit":9787,".ĠLet":9788,"useĠtoĠ":9789,"fromĠthisĠ":9790,"orryĠ":9791,"William":9792,"FO":9793,"destin":9794,"citizen":9795,":ĠH":9796,"equallyĠ":9797,"fulfill":9798,"ictionĠ":9799,"establishedĠ":9800,"Onc":9801,"|Ċ":9802,"noneĠ":9803,"IĠshouldĠ":9804,"enorm":9805,"ring":9806,"areĠyouĠ":9807,"spread":9808,"domest":9809,"openingĠ":9810,"schoolĠ":9811,"height":9812,"ili":9813,"download":9814,"withĠherĠ":9815,"Den":9816,"Ġpossi":9817,"FederalĠ":9818,"ofĠanĠ":9819,"lossĠofĠ":9820,"ĠtoĠmakeĠ":9821,"\",Ċ":9822,"loop":9823,"incent":9824,"ist,Ġ":9825,"wheneverĠ":9826,"Educ":9827,"collabor":9828,"Ġtox":9829,"preadĠ":9830,">Ġ<":9831,"ultipleĠ":9832,".ĠWell":9833,"FreeĠ":9834,"bull":9835,"erĠwhoĠ":9836,"acrific":9837,"infer":9838,"community":9839,"hairĠ":9840,"Ġfeel":9841,"Pyth":9842,"obtainĠ":9843,".A":9844,"String":9845,"inĠH":9846,".ĠAtĠtheĠ":9847,"upĠinĠtheĠ":9848,"raiseĠ":9849,",ĠtheĠt":9850,"woman":9851,"signĠ":9852,"ratioĠ":9853,"current":9854,"allerg":9855,"-the-":9856,"orĠ\"":9857,")Ġs":9858,"astic":9859,"orĠmoreĠ":9860,"ifest":9861,"sellĠ":9862,"asĠwell.Ċ":9863,"levelsĠ":9864,"Pac":9865,"stuckĠ":9866,"belowĠ":9867,"internet":9868,"upgrad":9869,"anti":9870,"referr":9871,"igĠ":9872,"</p":9873,"subsequ":9874,"998":9875,"ĠduringĠ":9876,"afetyĠ":9877,"Ġmad":9878,"ĠduringĠtheĠ":9879,",ĠW":9880,"Cha":9881,"people.Ċ":9882,"aĠmatterĠ":9883,"Camp":9884,"connectĠ":9885,"ĠĠĠĠĠĠĠĠĠĠĠĠĠĠĠĠĠĠĠĠĠĠĠĠ":9886,"lu":9887,"Ġtroubl":9888,"jav":9889,"isn't":9890,"untĠ":9891,"maleĠ":9892,"somethingĠtoĠ":9893,"Program":9894,"continueĠ":9895,"ordersĠ":9896,"ho":9897,"reck":9898,"fromĠanĠ":9899,"s,Ġt":9900,"ĠthatĠheĠ":9901,"ovietĠ":9902,"anticip":9903,"seemedĠ":9904,"CongressĠ":9905,"Ã¶":9906,"anceĠtoĠ":9907,"partner":9908,"PO":9909,"initelyĠ":9910,"ology,Ġ":9911,"ancest":9912,"retail":9913,"Braz":9914,"undayĠ":9915,"Spr":9916,"excess":9917,"withĠsomeĠ":9918,"afficĠ":9919,"Ġhas":9920,"said,Ġ":9921,"Ġmoney":9922,"conceptĠ":9923,"stronglyĠ":9924,"linĠ":9925,"ureĊ":9926,"anist":9927,"AnyĠ":9928,"yearsĠago":9929,"hampion":9930,"StreetĠ":9931,"Energ":9932,"e.ĠIfĠ":9933,"alm":9934,".ĠMaybeĠ":9935,"yard":9936,"Ġspac":9937,"moreĠm":9938,"eĠthoughtĠ":9939,"Mean":9940,"edĠmeĠ":9941,"study":9942,"ermĠ":9943,"hyth":9944,"Your":9945,"(Ċ":9946,"Ġcompet":9947,"ignific":9948,"urrentlyĠ":9949,"stupidĠ":9950,"ofĠthis":9951,"CharlesĠ":9952,".ĠInstead":9953,"brilli":9954,"award":9955,"namesĠ":9956,"icsĠandĠ":9957,"putĠtheĠ":9958,"EnglandĠ":9959,"emptĠ":9960,"e.âĢĿĊ":9961,"spell":9962,"Spir":9963,"s.ĠB":9964,"ultr":9965,"ĠthusĠ":9966,"e.ĠSoĠ":9967,".ĠBecauseĠ":9968,"compat":9969,"Map":9970,"A-":9971,"GoĠ":9972,".ĠThatâĢĻsĠ":9973,"irel":9974,"hook":9975,"sĠ-Ġ":9976,"DR":9977,"pharm":9978,"IĠdid":9979,"ingĠfor":9980,"eĠmanyĠ":9981,"s.\"Ċ":9982,"agedĠ":9983,"expectedĠtoĠ":9984,"ateĠinĠ":9985,"-and-":9986,".ĠFrom":9987,"itĠtoĠtheĠ":9988,"dĠandĠ":9989,"Call":9990,"ĠbeenĠ":9991,"Exampl":9992,"eĠofĠhisĠ":9993,"arioĠ":9994,"increaseĠinĠ":9995,"passion":9996,"df":9997,"iness":9998,"shak":9999,"Ġthen,Ġ":10000,"withĠtheirĠ":10001,"aĠnumberĠofĠ":10002,"defens":10003,"validĠ":10004,"Jud":10005,"param":10006,"oom":10007,"chooseĠtoĠ":10008,"inspiredĠ":10009,"held":10010,"erĠt":10011,"TheĠfirstĠ":10012,"pushĠ":10013,"be,Ġ":10014,"criminalĠ":10015,"plansĠ":10016,"stepsĠ":10017,"eingĠ":10018,"leadersĠ":10019,"pm":10020,"Doct":10021,"e,ĠtheyĠ":10022,"authorĠ":10023,"conceptĠofĠ":10024,"carbon":10025,"responseĠtoĠ":10026,"similarĠ":10027,"BeforeĠ":10028,"canĠbeĠs":10029,"sport":10030,".ĠWhenĠtheĠ":10031,"unc":10032,"asĠmuchĠasĠ":10033,"itorĠ":10034,"Cub":10035,"aĠtheĠ":10036,"Answ":10037,"Pot":10038,"omorrow":10039,"place,Ġ":10040,"Comput":10041,"What'sĠ":10042,"ultane":10043,"ensureĠthatĠ":10044,"seed":10045,"(B":10046,"Ġthey'r":10047,"afeĠ":10048,"propag":10049,"terĊ":10050,"passedĠ":10051,"blank":10052,"Ð¾Ð":10053,"prene":10054,"s,ĠincludingĠ":10055,"neĠ":10056,"ThanksĠ":10057,"marketingĠ":10058,"battleĠ":10059,"social":10060,"en-":10061,"audioĠ":10062,"Ġsm":10063,"iverĠ":10064,"e.g.Ġ":10065,"ĠcomesĠ":10066,",ĠwhileĠ":10067,"utor":10068,"MM":10069,"commentsĠ":10070,"Gi":10071,"eĠther":10072,"successĠ":10073,"pin":10074,"Tru":10075,"mac":10076,"ĠcompanyĠ":10077,"Kat":10078,"obtain":10079,".ĠDes":10080,"alpha":10081,"AccordingĠtoĠ":10082,"Adv":10083,"HP":10084,"grownĠ":10085,"iusĠ":10086,"agend":10087,"ummerĠ":10088,"qui":10089,"CanadianĠ":10090,"ies,ĠandĠ":10091,"limitĠ":10092,"wingĠ":10093,"poly":10094,"fool":10095,"amentĠ":10096,"ogg":10097,"downĠandĠ":10098,"progres":10099,"thingsĠ":10100,"genetic":10101,"ionĠforĠ":10102,"ItalianĠ":10103,"Ġhead":10104,"ĠtoĠtell":10105,"fif":10106,"dangerousĠ":10107,"nan":10108,"work.Ċ":10109,"productiveĠ":10110,"Ġterror":10111,"http://www.":10112,"gonnaĠ":10113,"ageĠtoĠ":10114,"da":10115,"electricalĠ":10116,"FB":10117,"personallyĠ":10118,"creativeĠ":10119,"opyrightĠ":10120,"Ġservic":10121,"surg":10122,"weatherĠ":10123,"Budd":10124,"brotherĠ":10125,"violentĠ":10126,"furn":10127,"hardlyĠ":10128,"Hon":10129,"hisĠownĠ":10130,")ĠareĠ":10131,"Ham":10132,"120":10133,"aĠcol":10134,"ÂłÂłÂłÂłĠ":10135,"WilliamĠ":10136,"IĠdo":10137,"assembl":10138,"Dev":10139,"enthusi":10140,"upĠofĠ":10141,"s.ĠIfĠ":10142,".ĠInĠfact,Ġ":10143,".ĠandĠ":10144,"960":10145,"Saturday,Ġ":10146,"en'sĠ":10147,"sittingĠ":10148,".ĠIĠwouldĠ":10149,"ĠtoĠyourĠ":10150,"bann":10151,"now.Ċ":10152,"ĠthousandsĠofĠ":10153,"inĠourĠ":10154,"ifĠIĠ":10155,"sizeĠ":10156,"eleph":10157,"eĠdownĠ":10158,"debt":10159,"meaningĠ":10160,"horiz":10161,"mayĠnotĠ":10162,"stableĠ":10163,"embrac":10164,"drinkĠ":10165,"appedĠ":10166,"fromĠc":10167,"Job":10168,"itĠisĠaĠ":10169,"hereĠtoĠ":10170,"winn":10171,"phy":10172,"understoodĠ":10173,"structĠ":10174,"desper":10175,"patternĠ":10176,"yell":10177,"....Ċ":10178,"aĠK":10179,"UnitedĠStates":10180,"el,Ġ":10181,"ifĠheĠ":10182,"recall":10183,"noticeĠ":10184,"NAS":10185,"aĠgreat":10186,"hamm":10187,"github":10188,"wonderĠ":10189,"ĠĠĠĠIĠ":10190,",Ġthat":10191,"ResearchĠ":10192,"eĠtoldĠ":10193,"hearingĠ":10194,"afterĠaĠ":10195,"ifĠyou":10196,"EarthĠ":10197,"Ġmot":10198,"MB":10199,".ĠAp":10200,"emoryĠ":10201,"morning":10202,"immediateĠ":10203,"WithĠtheĠ":10204,"asĊ":10205,"forum":10206,"massiveĠ":10207,"AI":10208,"mentionedĠ":10209,"HumanĠ":10210,"breakingĠ":10211,"RichardĠ":10212,"dedic":10213,")ĠinĠ":10214,"historyĠofĠ":10215,"eĠmad":10216,"imultane":10217,"etc.Ċ":10218,"yĠwasĠ":10219,"ic.Ċ":10220,"asĠlongĠasĠ":10221,"Ġmark":10222,"ives":10223,"heavilyĠ":10224,"Ġtip":10225,"noteĠ":10226,"ĠteachĠ":10227,"interesting":10228,"69":10229,"conflictĠ":10230,"Happ":10231,"expertĠ":10232,"firstĠtim":10233,"markĠ":10234,"Cat":10235,"jointĠ":10236,"78":10237,".ĠÂłTheĠ":10238,"displayĠ":10239,"girlsĠ":10240,"ĠtoĠmyĠ":10241,"chrom":10242,"formsĠofĠ":10243,"eut":10244,"legislat":10245,"Adam":10246,"exhaust":10247,"princip":10248,"\")":10249,"defineĠ":10250,"alkingĠaboutĠ":10251,"eĠdifferentĠ":10252,"eriesĠ":10253,"lunch":10254,"Harr":10255,"genderĠ":10256,"flavor":10257,"nessĠofĠ":10258,"ally,ĠtheĠ":10259,"runsĠ":10260,"consciousĠ":10261,"wifeĠ":10262,"itĠall":10263,"leak":10264,"union":10265,"liesĠ":10266,"clock":10267,"courseĠ":10268,"aĠsimpleĠ":10269,"lawsĠ":10270,"payment":10271,"happenedĠ":10272,"alongĠ":10273,"usĠofĠ":10274,"judic":10275,"yourĠbodyĠ":10276,"moder":10277,"doĠwithĠ":10278,"distingu":10279,"TVĠ":10280,"($":10281,"umnĠ":10282,"presenceĠofĠ":10283,"organism":10284,"icaĠ":10285,"workĠandĠ":10286,"soci":10287,"makingĠitĠ":10288,"churchĠ":10289,"edĠbackĠ":10290,"okay":10291,"shell":10292,"people.Ġ":10293,"jail":10294,"wearĠ":10295,"itĠwill":10296,"construction":10297,"..Ċ":10298,"eliber":10299,"President":10300,"Ġconsum":10301,"eĠtax":10302,"ancerĠ":10303,"electĠ":10304,"}Ġ\\":10305,"subt":10306,"Respon":10307,"aĠbitĠofĠ":10308,"meĠaĠ":10309,"attract":10310,"Rand":10311,"bless":10312,"resent":10313,"right,Ġ":10314,"irr":10315,"Ġpolic":10316,"wasĠtoĠ":10317,"veter":10318,"andsĠ":10319,"smooth":10320,"urround":10321,"agreeĠwithĠ":10322,"Ġmeet":10323,"ThomasĠ":10324,"Ã¢âĤ¬":10325,"aĠbas":10326,"response":10327,"promin":10328,"beĠtoĠ":10329,"electedĠ":10330,"upĠforĠ":10331,"utiliz":10332,"applicationsĠ":10333,"real-":10334,"desk":10335,"obsess":10336,"innoc":10337,"paymentĠ":10338,"ebĠ":10339,"eĠdoesĠnotĠ":10340,"name,Ġ":10341,"visual":10342,"anz":10343,"couldĠhaveĠ":10344,"eĠdevelop":10345,"riticalĠ":10346,".ĠAlsoĠ":10347,".ĠAnotherĠ":10348,"fascin":10349,"meantĠtoĠ":10350,"Mark":10351,".ĠWhen":10352,"femin":10353,"Consid":10354,"ofĠcourse":10355,"ityĠinĠ":10356,"Tal":10357,"least":10358,"```":10359,"spiritualĠ":10360,"embarr":10361,"attentionĠ":10362,"easy":10363,"extract":10364,"contractĠ":10365,"dee":10366,"Nic":10367,"ativesĠ":10368,"workedĠ":10369,"heĠsaid":10370,"randomĠ":10371,"ledĠtoĠ":10372,"doĠthisĠ":10373,"certaint":10374,"lifesty":10375,"protocol":10376,"mas":10377,"Ġmess":10378,"i'sĠ":10379,"purchaseĠ":10380,"ory,Ġ":10381,"eĠshar":10382,"IIĠ":10383,"calm":10384,"ingĠasĠ":10385,"oyĠ":10386,"Updat":10387,".ĠIĠs":10388,"conservativeĠ":10389,"joinĠ":10390,"nest":10391,"whomĠ":10392,"proph":10393,"eĠsomethingĠ":10394,"developmentĠofĠ":10395,"games":10396,"icationĠ":10397,"youth":10398,"Viet":10399,"poem":10400,"plainĠ":10401,"Roy":10402,"violenceĠ":10403,"essayĠ":10404,"weĠshouldĠ":10405,"Max":10406,"Ukrain":10407,"crop":10408,"Bur":10409,"ageĠisĠ":10410,".ĠÂłĊ":10411,"yield":10412,"borrow":10413,"adoĠ":10414,"SinceĠ":10415,".ĠAĠs":10416,"abilities":10417,"combinationĠofĠ":10418,"IĠsaw":10419,"?ĠW":10420,"Ġhom":10421,"perceiv":10422,"Long":10423,"someĠm":10424,"ognitiveĠ":10425,"Il":10426,"youĠneedĠ":10427,"bringsĠ":10428,"Ã¤":10429,"ance.Ċ":10430,"idsĠ":10431,"StepĠ":10432,"greatlyĠ":10433,"Green":10434,"Girl":10435,"listenĠtoĠ":10436,"PG":10437,"zen":10438,",ĠthenĠtheĠ":10439,"s,Ġbut":10440,"budgetĠ":10441,"CentralĠ":10442,"Ġpop":10443,"HA":10444,"eight":10445,"HomeĠ":10446,"destruct":10447,"uniform":10448,"////":10449,"joint":10450,"cav":10451,"howĠw":10452,"erverĠ":10453,"qualityĠofĠ":10454,"VID":10455,"Mich":10456,"extra":10457,"equation":10458,"colorĠ":10459,"Ġmag":10460,"Pass":10461,"Ġbenef":10462,"basisĠ":10463,"itemsĠ":10464,".ĠEn":10465,"BookĠ":10466,"edgeĠ":10467,"ionĠtoĠ":10468,"robot":10469,"ĠØ":10470,"forgetĠ":10471,"e,Ġbut":10472,"makingĠtheĠ":10473,"FindĠ":10474,"fansĠ":10475,"loud":10476,"yout":10477,"islandĠ":10478,"-b":10479,"upĠaĠ":10480,"verseĠ":10481,"ettl":10482,"ified":10483,"\"ĠandĠ\"":10484,"compass":10485,"cock":10486,"prohib":10487,"plement":10488,"agreement":10489,":Ġ'":10490,"ĠthisĠyear":10491,"magnet":10492,"ingredient":10493,"memberĠ":10494,"persist":10495,"gang":10496,"producedĠ":10497,"SecurityĠ":10498,"ĠtextĠ":10499,"climb":10500,"senseĠofĠ":10501,"necessary":10502,"analyt":10503,"extens":10504,"usedĠbyĠ":10505,"further":10506,"collegeĠ":10507,"$$":10508,"Ġsupport":10509,"eĠtest":10510,"sĠwasĠ":10511,"âĦ¢":10512,"iev":10513,"ruption":10514,"eĠthis":10515,"prais":10516,"azin":10517,"et.Ċ":10518,"whatĠweĠ":10519,"lovedĠ":10520,"boil":10521,"guest":10522,"WorldĠWarĠ":10523,"researchersĠ":10524,"dot":10525,"without":10526,"s,Ġ\"":10527,",ĠespeciallyĠ":10528,"water,Ġ":10529,"NextĠ":10530,"BeĠ":10531,"Text":10532,"bb":10533,"aught":10534,"ings.Ġ":10535,"distanceĠ":10536,"valuableĠ":10537,"yaĠ":10538,"DB":10539,"pig":10540,"drinkingĠ":10541,"AsĠaĠ":10542,"eĠdep":10543,"ĠcouldĠbeĠ":10544,"eĠofĠmyĠ":10545,"generation":10546,"Ġn":10547,"Ġà¤":10548,"es.ĠS":10549,"ThatâĢĻsĠ":10550,"Ġteen":10551,",Ġor":10552,")ĠtheĠ":10553,".ĠAnyĠ":10554,"chosenĠ":10555,"IĠguessĠ":10556,"egreeĠ":10557,"it'sĠaĠ":10558,"tre":10559,"IĠamĠnotĠ":10560,".ĠHeĠisĠ":10561,"eil":10562,"ixt":10563,"letĠmeĠ":10564,".ĠRem":10565,"edĠoverĠ":10566,"sin":10567,"aterialĠ":10568,"Gar":10569,"ĠthroughoutĠ":10570,"ecidedĠtoĠ":10571,"disturb":10572,"Ġcover":10573,"passeng":10574,"Lic":10575,"aĠperson":10576,"%sĊ":10577,"ĠO":10578,"actic":10579,"involvedĠ":10580,"inĠtheĠworldĠ":10581,"isĠtooĠ":10582,"cash":10583,"os,Ġ":10584,"personĠwhoĠ":10585,"ConnectingĠtoĠ":10586,"Ġ=":10587,"ingĠfromĠtheĠ":10588,"Ġbillion":10589,"ruit":10590,"TheĠF":10591,"eĠcap":10592,"eĠdist":10593,"mentĠtoĠ":10594,"ates,Ġ":10595,"cameĠtoĠ":10596,"ĠtoĠtellĠ":10597,"s(":10598,"hung":10599,"GermanyĠ":10600,"activities":10601,"entĠinĠ":10602,"facilit":10603,"describeĠ":10604,"MC":10605,"endĠup":10606,"TimeĠ":10607,"CaliforniaĠ":10608,"smallerĠ":10609,"Ġcontribut":10610,"peopleĠs":10611,"Ric":10612,"generatedĠ":10613,"proof":10614,"paid":10615,"',Ġ'":10616,".ĠFin":10617,"insert":10618,"700":10619,"erior":10620,"medium":10621,"electionĠ":10622,"milit":10623,"supplyĠ":10624,"otherĠwords,Ġ":10625,"Che":10626,"EachĠ":10627,"blind":10628,"(P":10629,"outĠthereĠ":10630,"waveĠ":10631,"ifĠyou'reĠ":10632,"whenĠIĠwasĠ":10633,"arbit":10634,"andĠthen":10635,"Rul":10636,"prospect":10637,",Ġtr":10638,"resultĠinĠ":10639,"sellingĠ":10640,"deploy":10641,"importanceĠofĠ":10642,"amountsĠofĠ":10643,"ides":10644,"âĢĿ.Ċ":10645,"Ġpur":10646,"itĠthatĠ":10647,"no-":10648,"Data":10649,"alkĠaboutĠ":10650,"sheĠhadĠ":10651,"asĠ\"":10652,"ayingĠ":10653,"edĠasĠtheĠ":10654,"findĠitĠ":10655,"Ġtimes,Ġ":10656,"ensor":10657,"FridayĠ":10658,"refr":10659,"Ash":10660,"varyĠ":10661,"Ali":10662,"ĠthingĠtoĠ":10663,"doing":10664,"meĠthatĠ":10665,"streamĠ":10666,"increaseĠtheĠ":10667,"full-":10668,"Sant":10669,"ConnectingĠtoĠ%sĊ":10670,"coach":10671,"felt":10672,"edĠhimĠ":10673,"itiesĠofĠ":10674,"ĠthatĠtheyĠareĠ":10675,"focusĠonĠ":10676,"vend":10677,"utch":10678,"grip":10679,"sĠhisĠ":10680,"iP":10681,"ataĠ":10682,"rim":10683,"presum":10684,"raceĠ":10685,"discrimin":10686,"orough":10687,"leĠandĠ":10688,"esĠcanĠ":10689,"referenceĠ":10690,"dietĠ":10691,"FacebookĠphotoĊ":10692,"TwitterĠpictureĊ":10693,"py":10694,"ence.Ġ":10695,"opol":10696,"eableĠ":10697,"alism":10698,"dil":10699,"somewhereĠ":10700,"impossibleĠtoĠ":10701,"exactly":10702,"cordingĠtoĠtheĠ":10703,"Afghanist":10704,"Cre":10705,"begin{":10706,"mobil":10707,"prepareĠ":10708,"lineĠofĠ":10709,"ideaĠthatĠ":10710,"brows":10711,"exclud":10712,"eĠthatĠtheyĠ":10713,"ĠtheĠsystem":10714,"seriesĠ":10715,"UseĠ":10716,"ĠthankĠ":10717,"restriction":10718,"sĠwithĠtheĠ":10719,"prettyĠmuchĠ":10720,"juic":10721,"mortg":10722,"infin":10723,"whichĠcanĠ":10724,"ation:Ġ":10725,"objectiveĠ":10726,"ĠtoĠthinkĠ":10727,"sheĠs":10728,"ĠprettyĠ":10729,"forget":10730,"ly-":10731,"Jas":10732,"pros":10733,"ifĠnotĠ":10734,"kept":10735,"states":10736,"rent":10737,".ĠRe":10738,"?ÂłĊ":10739,"interfer":10740,"here.Ġ":10741,".ĠPeopleĠ":10742,"threeĠ":10743,"Ġbusiness":10744,"inĠwhich":10745,"guidelin":10746,".ĠCl":10747,"urningĠ":10748,",Ġthes":10749,"aĠco":10750,"might":10751,"ĠV":10752,"aĠmuch":10753,"E:Ġ":10754,"rever":10755,"HarryĠ":10756,"ĠweeksĠ":10757,",Ġ,Ġ":10758,"end{":10759,"variableĠ":10760,"notĠthatĠ":10761,"bik":10762,"ĠhereĠ":10763,"GreenĠ":10764,"IĠsaid":10765,"earlier":10766,"whatĠIĠ":10767,"esĠtoĠbeĠ":10768,"Ġtemperat":10769,"executiveĠ":10770,"ingĠwithĠtheĠ":10771,"T-":10772,"lookedĠatĠ":10773,"s.ĠYou":10774,"end,Ġ":10775,"Arm":10776,"permanentĠ":10777,"SovietĠ":10778,"falseĠ":10779,"emperatur":10780,"BO":10781,"flour":10782,"unitsĠ":10783,"irtĠ":10784,"Ġ+Ġ":10785,"forĠitsĠ":10786,".ĠThoseĠ":10787,"ounterĠ":10788,"occurredĠ":10789,"eĠthemselv":10790,"agingĠ":10791,"withĠthem":10792,"laidĠ":10793,"oxyg":10794,"speed":10795,"oubt":10796,"track":10797,"fundamentalĠ":10798,"weĠwillĠ":10799,"anderĠ":10800,"eĠworkĠ":10801,"their":10802,"fru":10803,"reduct":10804,"seasonĠ":10805,"\")Ċ":10806,"oddĠ":10807,"Ġfunction":10808,"andĠaĠ":10809,"encod":10810,"matt":10811,"withĠaĠs":10812,"beingĠtheĠ":10813,"max":10814,"frontĠofĠtheĠ":10815,"urtherĠ":10816,"someĠc":10817,"997":10818,"inspect":10819,"Ber":10820,"ThisĠisĠtheĠ":10821,"scaleĠ":10822,"nuclearĠ":10823,"whatâĢĻsĠ":10824,"extremeĠ":10825,"asĠyouĠ":10826,"e),Ġ":10827,"firstĠtimeĠ":10828,"fest":10829,"inĠfactĠ":10830,"DĊ":10831,"itĠcanĠbeĠ":10832,"don't":10833,"moreĠlikelyĠtoĠ":10834,"oĠ(":10835,"embarrass":10836,"ied":10837,"Control":10838,"Show":10839,"sĠwouldĠ":10840,"sâĢĻĠ":10841,"ingĠthroughĠ":10842,"},Ġ":10843,"Aud":10844,"E-":10845,"ingĠtr":10846,"saidĠthatĠ":10847,"AddĠ":10848,"oneĠofĠmyĠ":10849,"machineĠ":10850,"Tw":10851,".ĠHe'sĠ":10852,"Enter":10853,"preneur":10854,"nextĠtoĠ":10855,"hasn'tĠ":10856,"leaderĠ":10857,"HerĠ":10858,"ĠwomenĠ":10859,"schem":10860,"eĠwordĠ":10861,"lower":10862,"causedĠbyĠ":10863,"eĠworkingĠ":10864,"flip":10865,"magn":10866,"alsĠandĠ":10867,"WhatĠdoĠ":10868,"formatĠ":10869,"Ġbeliev":10870,"entĠofĠtheĠ":10871,"âĢī":10872,".ĠThereĠwasĠ":10873,",ĠthoseĠ":10874,"membersĠ":10875,"Head":10876,"IO":10877,"ĠtowardsĠtheĠ":10878,"deviceĠ":10879,"eĠmus":10880,"craz":10881,"es.ÂłĠ":10882,"stere":10883,"ationsĠareĠ":10884,"termĠ":10885,"barelyĠ":10886,"cooper":10887,"Market":10888,"atĠtheĠendĠofĠtheĠ":10889,"Ġtap":10890,"withdraw":10891,"ĠmenĠ":10892,"description":10893,"underlyingĠ":10894,".ĠPleas":10895,"fault":10896,"powerĠofĠ":10897,"youĠb":10898,"eâĢĶ":10899,"earningĠ":10900,"tool":10901,"speedĠ":10902,"ShareĠ":10903,"Build":10904,"Ġthis.Ċ":10905,"Tok":10906,"coinĠ":10907,"authorsĠ":10908,"catĠ":10909,"Ġdeb":10910,"aĠbre":10911,"Ġconcern":10912,"RightĠ":10913,"heĠcanĠ":10914,"aĠG":10915,"=Ġ\"":10916,"dealĠwithĠ":10917,"recycl":10918,"millionsĠofĠ":10919,"easure":10920,"atchingĠ":10921,"k,Ġ":10922,"TheĠD":10923,"youâĢĻllĠ":10924,"igen":10925,"crash":10926,".ĠThatĠisĠ":10927,"howĠdoĠ":10928,"Ext":10929,"ĠhimĠ":10930,"Vall":10931,"ancesĠ":10932,"eq":10933,"home,Ġ":10934,"cultureĠ":10935,"information,Ġ":10936,"stickĠ":10937,"oneĠcanĠ":10938,"needed":10939,"ionsĠofĠtheĠ":10940,"elyĠtheĠ":10941,"othingĠ":10942,"awareĠofĠ":10943,"doubleĠ":10944,"suck":10945,"eĠthought":10946,"âĢĻĊ":10947,"everydayĠ":10948,"ized":10949,"ive-":10950,"fruitĠ":10951,"eur":10952,"abaseĠ":10953,"meant":10954,"buf":10955,"understood":10956,"udeĠ":10957,"virusĠ":10958,"JapanĠ":10959,"hasĠtoĠbeĠ":10960,"imagesĠ":10961,"mentĊ":10962,"Ġthere.Ġ":10963,"peopleĠw":10964,"forĠsom":10965,"TableĠ":10966,",Ġhowever,Ġ":10967,"built":10968,"E_":10969,"eĠtimeĠtoĠ":10970,"fundament":10971,"Mom":10972,"refug":10973,"Ġfac":10974,"investĠ":10975,"rideĠ":10976,".ĠFr":10977,"perpet":10978,"stol":10979,"DonaldĠ":10980,"bak":10981,"okingĠ":10982,"quad":10983,"No.Ġ":10984,"enceĠofĠtheĠ":10985,"societyĠ":10986,"ĠbusinessĠ":10987,"monthĠ":10988,"YouTu":10989,"girlĠ":10990,"ĠpointsĠ":10991,"jew":10992,"Sat":10993,"parallel":10994,"flood":10995,"satisf":10996,"it,ĠbutĠ":10997,"be.Ċ":10998,"master":10999,",ĠthereĠwasĠ":11000,"balanceĠ":11001,"youĠseeĠ":11002,"repeated":11003,"whoĠwereĠ":11004,"istak":11005,"edĠoff":11006,"afraid":11007,"away,Ġ":11008,"fundĠ":11009,"Wikiped":11010,"sequenc":11011,"selectĠ":11012,"Oh,Ġ":11013,"adesĠ":11014,"Palestin":11015,"e.ĠInĠ":11016,"rab":11017,"notĠevenĠ":11018,"effortĠtoĠ":11019,"long-":11020,"79":11021,"world,Ġ":11022,"train":11023,"eticalĠ":11024,"996":11025,"LookĠ":11026,"hydro":11027,"PartyĠ":11028,"A,Ġ":11029,"abund":11030,"WW":11031,"JackĠ":11032,"Ġpercent":11033,"Japanes":11034,"youĠhaveĠaĠ":11035,"ientlyĠ":11036,"encr":11037,"Wel":11038,"TheĠC":11039,"Fire":11040,"BB":11041,":ĠC":11042,"andĠthusĠ":11043,"Way":11044,".ĠOur":11045,"eddingĠ":11046,"nom":11047,"knownĠasĠtheĠ":11048,"mid-":11049,"angl":11050,"Also,Ġ":11051,"fellĠ":11052,"rdĠ":11053,"sĠbutĠ":11054,"Ġfeat":11055,"usual":11056,"itĠdoesn'tĠ":11057,"eĠdr":11058,"IĠfoundĠ":11059,"ander":11060,"Pur":11061,"oneĠwasĠ":11062,"irrit":11063,"puzz":11064,"InĠaddition":11065,"oneĊ":11066,"always":11067,"agentĠ":11068,"regularlyĠ":11069,"ShouldĠ":11070,"consumerĠ":11071,"IĠthinkĠtheĠ":11072,"inĠaĠc":11073,"process,Ġ":11074,"FT":11075,"LoveĠ":11076,"s.ĠHeĠ":11077,"steel":11078,"compress":11079,".c":11080,"iateĠ":11081,"ofĠthat":11082,"decentĠ":11083,"senseĠ":11084,"it'sĠtheĠ":11085,"UserĠ":11086,"edĠ\"":11087,")čĊ":11088,"powerĠtoĠ":11089,"complic":11090,"TheĠw":11091,"Ġtown":11092,".ĠTheyĠwereĠ":11093,"comparison":11094,"pep":11095,"accommod":11096,"ÂłandĠ":11097,"omething":11098,"Here'sĠ":11099,"reducedĠ":11100,"boundĠ":11101,"staffĠ":11102,"?ĠÂł":11103,"interestĠinĠ":11104,"eĠisĠnotĠ":11105,"iffĠ":11106,"Ġdiseas":11107,"ionĠinĠtheĠ":11108,"ĠwasĠaĠ":11109,"uttingĠ":11110,".ĠHowĠ":11111,"goingĠon":11112,"e;Ċ":11113,"\\\\":11114,"compromis":11115,".ĠHowever,ĠtheĠ":11116,"s.ĠF":11117,"ervicesĠ":11118,"easonĠ":11119,"iĠ(":11120,"resum":11121,"Ġ+":11122,"),ĠbutĠ":11123,"opportunityĠ":11124,"MaryĠ":11125,"itĠinĠtheĠ":11126,"liberalĠ":11127,"concret":11128,"summar":11129,"osĠAngel":11130,"showingĠ":11131,"(c":11132,"asĠweĠ":11133,"fuckingĠ":11134,"contrast":11135,"game,Ġ":11136,"dimens":11137,"know,Ġ":11138,"pullĠ":11139,"She":11140,"eless,Ġ":11141,"Kim":11142,"irtyĠ":11143,"onlyĠbeĠ":11144,"areĠt":11145,"representsĠ":11146,"ofĠcourseĠ":11147,"ScienceĠ":11148,"ationsĠofĠtheĠ":11149,"friendsĠandĠ":11150,"IĠse":11151,".ĠPerhap":11152,",Ġthere":11153,"ingsĠareĠ":11154,"steadĠofĠ":11155,"beingĠaĠ":11156,"Ther":11157,"artificialĠ":11158,"usedĠtheĠ":11159,"Pub":11160,"extensiveĠ":11161,"realizeĠ":11162,"andĠisĠ":11163,"bran":11164,"initiallyĠ":11165,"debateĠ":11166,"owardĠ":11167,"Ġdeal":11168,"activity":11169,"ingĠintoĠ":11170,"GreekĠ":11171,"happens":11172,"apply":11173,"releasedĠ":11174,"kiss":11175,"One":11176,"irect":11177,"mechanism":11178,"Set":11179,"remainedĠ":11180,"reportedĠ":11181,"Hor":11182,"vil":11183,"ongu":11184,"theĠc":11185,"asĠsoonĠ":11186,"Greek":11187,"serious":11188,"thĠandĠ":11189,"aĠlongĠ":11190,"awayĠfrom":11191,"Kr":11192,"elineĠ":11193,".ĠTheĠw":11194,"afet":11195,"ingly,Ġ":11196,"producingĠ":11197,"chickenĠ":11198,"OhĠ":11199,"doesĠtheĠ":11200,"closedĠ":11201,"whichĠs":11202,"Virgin":11203,"wors":11204,"muchĠmor":11205,"grabb":11206,"herb":11207,"Ġtopic":11208,"ersĠforĠ":11209,"laptop":11210,",ĠhisĠ":11211,"illeg":11212,"es.ĠThisĠ":11213,"eon":11214,"isĠjustĠ":11215,"ultimateĠ":11216,"costsĠ":11217,"catchĠ":11218,"ĠisĠanĠ":11219,"iam":11220,"frequenc":11221,"Guid":11222,"Cart":11223,"eĠthinkĠ":11224,"riot":11225,"rhyth":11226,"alwaysĠbeenĠ":11227,"enableĠ":11228,"Pen":11229,"industry":11230,"Ġtype":11231,"weĠneedĠtoĠ":11232,"uryĠ":11233,"Olymp":11234,"AsĠtheĠ":11235,"o:Ġ":11236,"Power":11237,"Card":11238,".ĠUnfortun":11239,"complicatedĠ":11240,"Lov":11241,"others,Ġ":11242,"Ġdid":11243,"ĠpowerĠ":11244,"weĠcouldĠ":11245,"controvers":11246,"Ġthis.":11247,"herselfĠ":11248,")ĠthatĠ":11249,"encourageĠ":11250,"aĠcoupleĠ":11251,"haw":11252,"Mur":11253,"competitiveĠ":11254,"or'sĠ":11255,"letâĢĻsĠ":11256,"barri":11257,"afraidĠ":11258,"Committ":11259,"['":11260,"factorĠ":11261,"Ren":11262,"ouredĠ":11263,"idi":11264,"nameĠofĠ":11265,"ĠTheĠ":11266,"jobsĠ":11267,"matchĠ":11268,"point,Ġ":11269,"ematic":11270,"minor":11271,"Tel":11272,"That":11273,"bright":11274,"livingĠinĠ":11275,"apol":11276,"Equ":11277,"admit":11278,"DonâĢĻtĠ":11279,"LL":11280,"AlthoughĠ":11281,"strangeĠ":11282,".âĢĿ":11283,"closelyĠ":11284,"onĠ(":11285,"measuredĠ":11286,".ĠSinceĠ":11287,"stabil":11288,"madeĠtheĠ":11289,"restaurantĠ":11290,"995":11291,"guideĠ":11292,"brush":11293,"horri":11294,"actorĠ":11295,"<brĠ/":11296,"ockingĠ":11297,"Name":11298,"elv":11299,"choolĠ":11300,"SQL":11301,"ingerĠ":11302,"formalĠ":11303,"Item":11304,"intelligenceĠ":11305,"conventionalĠ":11306,"weĠwouldĠ":11307,"familiesĠ":11308,"Ġdrug":11309,"istryĠ":11310,"aĠgam":11311,"ownership":11312,"bub":11313,"HS":11314,"potat":11315,"ather,Ġ":11316,"refin":11317,"Court":11318,"ĠÎ":11319,"sand":11320,"exual":11321,"Holly":11322,"ĠbuyĠ":11323,"profileĠ":11324,"peopleĠwhoĠareĠ":11325,"ein":11326,"chanceĠ":11327,"aith":11328,"Veg":11329,"ediaĠ":11330,"football":11331,",ĠtheirĠ":11332,"partiesĠ":11333,"Bill":11334,"forec":11335,"healthcareĠ":11336,"hadn'tĠ":11337,"sufficientĠ":11338,".ĠLik":11339,"Brazil":11340,"-d":11341,"etc.":11342,"pollut":11343,"world.Ċ":11344,"JoeĠ":11345,"damageĠ":11346,".ĠAs":11347,"ActĠ":11348,"game":11349,"asĠIĠ":11350,"propertiesĠ":11351,"Scient":11352,"liquid":11353,"Lad":11354,"ationĠwithĠ":11355,"lon":11356,"72":11357,"eĠtak":11358,"lesson":11359,"justĠlikeĠ":11360,"regardlessĠofĠ":11361,"ulg":11362,"purposeĠ":11363,"Invest":11364,".ĠIfĠyouĠareĠ":11365,"letĠtheĠ":11366,"giveĠthem":11367,"ated.Ċ":11368,"OpenĠ":11369,"harmon":11370,"categor":11371,"ent.Ċ":11372,"careful":11373,"leaf":11374,"chanceĠofĠ":11375,")$":11376,"ThoseĠ":11377,"withĠthatĠ":11378,"haveĠtheĠs":11379,"Congres":11380,"beĠthatĠ":11381,"youĠknow,Ġ":11382,"natureĠofĠ":11383,"users":11384,"ana":11385,"eĠwillĠb":11386,"engineer":11387,"cienceĠ":11388,"honestĠ":11389,"false":11390,"mostĠimportantĠ":11391,"wantedĠ":11392,"OfĠcourse,Ġ":11393,"sourceĠ":11394,"separateĠ":11395,"\"theĠ":11396,"Syn":11397,"line,Ġ":11398,"isĠsoĠ":11399,"provinc":11400,"Light":11401,"unless":11402,"ultureĠ":11403,"pul":11404,"functionalĠ":11405,"TexasĠ":11406,"Dur":11407,"iesĠtheĠ":11408,"aĠâĢľ":11409,"allĠc":11410,"opinionĠ":11411,"placedĠ":11412,"nip":11413,"itic":11414,"IĠwantedĠtoĠ":11415,"Lead":11416,"lettingĠ":11417,"\\begin{":11418,",ĠandĠthenĠ":11419,"theirĠ":11420,"Ġthread":11421,"wildĠ":11422,"team":11423,"Cast":11424,"By":11425,"iac":11426,"reasonĠtoĠ":11427,"sĠup":11428,"-of-":11429,"missingĠ":11430,"surviveĠ":11431,"Ġbelow":11432,"extendedĠ":11433,"pro-":11434,"Ġtwent":11435,"oulder":11436,"installĠ":11437,"Next":11438,"uplo":11439,"inde":11440,"eĠthat'sĠ":11441,"democrat":11442,"sixĠ":11443,"dadĠ":11444,"Ġtrigg":11445,"endĠtheĠ":11446,"limb":11447,"narrativeĠ":11448,"s,Ċ":11449,"status":11450,"right?Ġ":11451,"outĠthatĠ":11452,"metabol":11453,"asĠtheĠs":11454,"ed.ÂłĠ":11455,"doĠisĠ":11456,"IĠseeĠ":11457,"beingĠableĠtoĠ":11458,"geograph":11459,"Mass":11460,"flat":11461,"hundredĠ":11462,"hardwareĠ":11463,"allĠthisĠ":11464,".ĠAsĠtheĠ":11465,"figure":11466,"Him":11467,"children,Ġ":11468,"guiltyĠ":11469,"meantĠ":11470,"place.Ċ":11471,"sensitiveĠ":11472,"inĠfrontĠofĠ":11473,"andem":11474,"oneĠwhoĠ":11475,"soil":11476,"Although":11477,"Tag":11478,"IĠneverĠ":11479,"viewĠofĠ":11480,"peopleĠofĠ":11481,"bother":11482,"parentĠ":11483,"disput":11484,"ilt":11485,"me.Ċ":11486,"aĠsm":11487,"esĠbyĠ":11488,"inĠmanyĠ":11489,"Andrew":11490,"900":11491,"Ġbar":11492,"onĠw":11493,"ownersĠ":11494,"nick":11495,"IĠwantĠ":11496,"Forc":11497,"Secret":11498,"Greg":11499,"superĠ":11500,".ĠTherefore,Ġ":11501,"aĠlocalĠ":11502,"er,ĠtheĠ":11503,"frameĠ":11504,"\\end{":11505,"culture":11506,"knock":11507,"e.ĠWhenĠ":11508,"armedĠ":11509,"her.Ċ":11510,"Jenn":11511,"otentialĠ":11512,"Chief":11513,"educationalĠ":11514,"eĠdonâĢĻtĠ":11515,"osh":11516,"effectĠofĠ":11517,"PP":11518,"ourceĠ":11519,"iPhoneĠ":11520,"weâĢĻreĠ":11521,"pa":11522,"itâĢĻsĠnotĠ":11523,"chol":11524,"IndiaĠ":11525,"ki":11526,"followĠtheĠ":11527,"drugĠ":11528,"restaurant":11529,"Wat":11530,"resĠ":11531,"smartĠ":11532,"colour":11533,".ĠPro":11534,"ituationĠ":11535,"echanism":11536,"scream":11537,"Mu":11538,"Today":11539,".ĠItĠalsoĠ":11540,"sul":11541,"aĠlittleĠbitĠ":11542,"customersĠ":11543,"thre":11544,"Conf":11545,"Ġtranslat":11546,"ĠcannotĠ":11547,"aven":11548,"ĠweĠareĠ":11549,"who'sĠ":11550,"scientific":11551,"Ùİ":11552,"godĠ":11553,"rayĠ":11554,"clas":11555,"aĠsenseĠofĠ":11556,"gluc":11557,"alistĠ":11558,"roughlyĠ":11559,"careerĠ":11560,"edit]Ċ":11561,"myst":11562,"forĠme":11563,"Ris":11564,"ingĠsystem":11565,"ĠandĠaĠ":11566,"}čĊ":11567,"ans.Ċ":11568,"glad":11569,"monthsĠ":11570,"eĠcan'tĠ":11571,"heightĠ":11572,"ahead":11573,"CheckĠ":11574,"aĠlaw":11575,"virtuallyĠ":11576,"opportunitiesĠ":11577,"Brown":11578,"seekĠ":11579,"TE":11580,"rigu":11581,"roleĠofĠ":11582,"ing/":11583,"Pow":11584,"SD":11585,"barĠ":11586,"forĠit":11587,"End":11588,"render":11589,"wĠ":11590,"bertĠ":11591,"similarĠtoĠ":11592,"ruptĠ":11593,"GM":11594,"newspap":11595,"abeth":11596,"makesĠtheĠ":11597,"partsĠ":11598,"eĠonĠ":11599,"Libr":11600,"managedĠtoĠ":11601,"eĠfromĠ":11602,"havenâĢĻtĠ":11603,"discussion":11604,"ĠthereforeĠ":11605,"atmospher":11606,"ThankĠyouĠ":11607,"versusĠ":11608,",ĠinĠtheĠ":11609,"intellectualĠ":11610,"Path":11611,"regionalĠ":11612,"doubtĠ":11613,"IPĠ":11614,"ainĠandĠ":11615,"AND":11616,"rescu":11617,"cloudĠ":11618,"ador":11619,"),Ċ":11620,"IranĠ":11621,"hormon":11622,"Wood":11623,"shiftĠ":11624,"altĠ":11625,"Spe":11626,"simul":11627,"ingly":11628,"folksĠ":11629,"madeĠitĠ":11630,"950":11631,"elig":11632,"whenĠaĠ":11633,"eld":11634,"AustralianĠ":11635,"entenc":11636,"activelyĠ":11637,"ÂłÂłÂł":11638,"scientificĠ":11639,"nomin":11640,"question,Ġ":11641,"programsĠ":11642,"canĠalsoĠ":11643,"mainten":11644,"variabl":11645,"eepĠ":11646,"i'":11647,"couldĠnotĠ":11648,"notĠsureĠ":11649,"resembl":11650,"body,Ġ":11651,"You'reĠ":11652,"Ġcup":11653,"isĠnotĠaĠ":11654,"struggleĠ":11655,"Finally,Ġ":11656,"62":11657,"obst":11658,"Ġtoday,Ġ":11659,"strengthĠ":11660,"goalsĠ":11661,"wonderful":11662,"\"t":11663,"aĠmoreĠ":11664,"forĠherĠ":11665,".ĠEveryĠ":11666,"Academ":11667,"clinicalĠ":11668,"FromĠtheĠ":11669,"beach":11670,"DoĠyouĠ":11671,"TheyĠareĠ":11672,"aĠfair":11673,"ologistĠ":11674,"expressionĠ":11675,".ĠTheir":11676,"iestĠ":11677,"circl":11678,"isĠaĠveryĠ":11679,"âĢĭ":11680,"Lin":11681,"oard":11682,"lyric":11683,"aĠpiec":11684,"Emp":11685,"Templ":11686,"?ĠWhyĠ":11687,"brut":11688,"ighter":11689,"orĠsoĠ":11690,"speakingĠ":11691,"onicĠ":11692,"failedĠtoĠ":11693,",ĠbutĠnotĠ":11694,",ĠtwoĠ":11695,"ĠthoseĠofĠ":11696,"forĠthoseĠ":11697,"happyĠtoĠ":11698,")ĠwasĠ":11699,"Priv":11700,"cashĠ":11701,"O'":11702,"Ġcombin":11703,"anonym":11704,"Jesus":11705,"iderĠ":11706,":ĠD":11707,"Irel":11708,"fallingĠ":11709,"PA":11710,"fly":11711,"usingĠyourĠ":11712,"ifer":11713,"descript":11714,"oppon":11715,"differencesĠ":11716,"knif":11717,"ĠtoĠgoĠ":11718,"orth":11719,"exploit":11720,"cellsĠ":11721,"panel":11722,".ĠOnc":11723,"recruit":11724,"forĠmostĠ":11725,"orrect":11726,"ie,Ġ":11727,"inĠoneĠ":11728,"myth":11729,",\"ĠheĠsaid":11730,"whereĠtoĠ":11731,"icĊ":11732,"ĠtellingĠ":11733,"ancedĠ":11734,"ChapterĠ":11735,"resolution":11736,"Option":11737,"unknown":11738,"Childr":11739,"(D":11740,"MikeĠ":11741,"snow":11742,".ĠEachĠ":11743,"devot":11744,"wag":11745,"availableĠtoĠ":11746,"contrad":11747,"drag":11748,"youâĢĻll":11749,"estr":11750,"F-":11751,"conditionsĠ":11752,"Engine":11753,",ĠthusĠ":11754,"s,ĠaĠ":11755,"halfĠofĠtheĠ":11756,"Index":11757,"aĠsimpl":11758,"versionĠofĠtheĠ":11759,"startingĠtoĠ":11760,"ateĠthatĠ":11761,"etteĠ":11762,"shutĠ":11763,"shall":11764,"upport":11765,"cuttingĠ":11766,"alcul":11767,"appreciateĠ":11768,"lovesĠ":11769,"ofĠusĠ":11770,"esĠtheĠs":11771,"Rog":11772,"edĠitsĠ":11773,"ophist":11774,"I,Ġ":11775,"ivalĠ":11776,"enemyĠ":11777,"Ey":11778,"Pay":11779,"characters":11780,"identityĠ":11781,"Ken":11782,"aĠfre":11783,"eĠdaysĠ":11784,"Ġthey'veĠ":11785,"longer":11786,"Ġby":11787,"ateĠt":11788,"Laur":11789,"ance.Ġ":11790,"rapidĠ":11791,"sentenc":11792,"PublicĠ":11793,"sharedĠ":11794,"gro":11795,"inÂł":11796,"Follow":11797,"ugar":11798,"ed.":11799,"year.Ċ":11800,"db":11801,"earthĠ":11802,"intoĠtheĠs":11803,"ĠtradeĠ":11804,"soĠfar":11805,"hadĠanĠ":11806,"SU":11807,"areaĠofĠ":11808,"Ha":11809,"concernĠ":11810,"whereasĠ":11811,"needĠforĠ":11812,"width":11813,"party":11814,"enzym":11815,"m,Ġ":11816,"giantĠ":11817,"eĠwasĠtheĠ":11818,"Research":11819,"fertil":11820,"ingĠit":11821,".ĠDon'tĠ":11822,"clientĠ":11823,"GovernmentĠ":11824,"MD":11825,"doĠit":11826,"wereĠnotĠ":11827,"sudd":11828,"behaviour":11829,"cong":11830,"story,Ġ":11831,"Ġtreatment":11832,"eĠman":11833,"ĠtellĠyouĠ":11834,"dump":11835,"opposition":11836,"ationĠwasĠ":11837,"hh":11838,"years.Ċ":11839,"opath":11840,"UsingĠ":11841,"idingĠ":11842,"planĠtoĠ":11843,"fluidĠ":11844,"Ùħ":11845,"esĠfromĠtheĠ":11846,"Haw":11847,"Council":11848,"ĠclassĠ":11849,"\"Ġs":11850,"Bell":11851,"allĠtheseĠ":11852,"we'r":11853,"roteĠ":11854,"clip":11855,"ancialĠ":11856,"relationsĠ":11857,"aĠdifferentĠ":11858,"utureĠ":11859,"ingĠwasĠ":11860,"avi":11861,"nearbyĠ":11862,"fabric":11863,"willĠhaveĠ":11864,"allĠm":11865,"igu":11866,"Ox":11867,"Point":11868,"aĠmom":11869,"aĠbit":11870,"organizationsĠ":11871,"persu":11872,"addict":11873,"ermanĠ":11874,"Ak":11875,"ingĠatĠtheĠ":11876,"itĠtakesĠ":11877,"proposedĠ":11878,"ementĠandĠ":11879,"over-":11880,"linear":11881,"Lef":11882,"diet":11883,"forwardĠtoĠ":11884,"Dog":11885,"VP":11886,"ft":11887,"decisionĠ":11888,"Ġblock":11889,"franch":11890,"progressĠ":11891,"warr":11892,"almost":11893,"Admin":11894,"frac{":11895,"updateĠ":11896,"s.ĠSoĠ":11897,"AĠc":11898,"weeksĠ":11899,"manyĠofĠtheĠ":11900,"Hind":11901,"etern":11902,"alarm":11903,"awar":11904,"ry,Ġ":11905,"angerĠ":11906,"challengeĠ":11907,"editor":11908,"forĠallĠ":11909,"Lord":11910,"WH":11911,"esĠandĠtheĠ":11912,"artistĠ":11913,"corporateĠ":11914,"likeĠanĠ":11915,"eĠtoo":11916,"doesĠitĠ":11917,".ĠLog":11918,"p>":11919,"lam":11920,"asteĠ":11921,"ixedĠ":11922,"AndĠtheĠ":11923,"allyĠtoĠ":11924,"eĠtheĠsam":11925,"CreateĠ":11926,"fewerĠ":11927,"ailingĠ":11928,"ĠwithĠs":11929,".ĠCanĠ":11930,",ĠitĠwasĠ":11931,"alfĠ":11932,"useĠofĠtheĠ":11933,"protection":11934,".ĠWeĠareĠ":11935,"wip":11936,"Super":11937,"confront":11938,",\"ĠsaysĠ":11939,"whereĠitĠ":11940,"eĠcount":11941,"partsĠofĠ":11942,"63":11943,"LittleĠ":11944,"page":11945,"lamb":11946,"NewsĠ":11947,"sĠatĠtheĠ":11948,"ecretĠ":11949,"ummar":11950,"ArmyĠ":11951,"s.ĠWhenĠ":11952,"minimum":11953,"noth":11954,"IĠneedĠtoĠ":11955,"daughter":11956,"Az":11957,"ï¼Į":11958,"Ġhard":11959,"Lond":11960,"Ġyears,Ġ":11961,"EuropeĠ":11962,"Check":11963,"aĠmatterĠofĠ":11964,"lever":11965,"ĠtheirĠown":11966,"urthermore,Ġ":11967,"assistĠ":11968,"multi-":11969,"sĠanĠ":11970,"yardĠ":11971,"flam":11972,"eĠmonth":11973,"e.ĠThatĠ":11974,"Germany":11975,"fanĠ":11976,"howĠf":11977,"101":11978,"offeringĠ":11979,"sĠhaveĠbeenĠ":11980,"actorsĠ":11981,"Ġ@":11982,"expressĠ":11983,"youĠthatĠ":11984,"pureĠ":11985,"alli":11986,"etĠal.,Ġ":11987,"Internet":11988,"attentionĠtoĠ":11989,"ĠwhenĠ":11990,"TomĠ":11991,"FC":11992,"PL":11993,"asid":11994,"s.Ġ(":11995,",ĠandĠthatĠ":11996,"-B":11997,":Ġs":11998,"Ġpartic":11999,"itĠwithĠ":12000,"aboutĠhowĠ":12001,"realizedĠ":12002,"brown":12003,"oneĠofĠthoseĠ":12004,"Ġtransition":12005,"auseĠ":12006,"ĠPMĊ":12007,"id,Ġ":12008,"utterĠ":12009,"Columb":12010,"RepublicansĠ":12011,"Still":12012,"Ġmiss":12013,"workersĠ":12014,"ortun":12015,"proudĠ":12016,"all.Ċ":12017,")ĠorĠ":12018,"Bush":12019,"ĠbehindĠ":12020,"anâĢĻsĠ":12021,"ĠcontinueĠtoĠ":12022,"Ġthick":12023,"allĠd":12024,"answersĠ":12025,"AreĠyouĠ":12026,"realis":12027,"domĠ":12028,"vitalĠ":12029,"followingĠtheĠ":12030,"itĠbeĠ":12031,",ĠthereĠisĠnoĠ":12032,"itĠtak":12033,"std":12034,"abyĠ":12035,"journe":12036,"ĠtoĊ":12037,"angryĠ":12038,"ationsĊ":12039,"deliverĠ":12040,"aĠgivenĠ":12041,"Marc":12042,"Ġthro":12043,"weakĠ":12044,"processingĠ":12045,"e.âĢĿĠ":12046,"ed,Ġ\"":12047,"stomach":12048,"wasnâĢĻtĠ":12049,"changesĠinĠ":12050,"We'reĠ":12051,"=Ġ(":12052,"Bern":12053,"eâĢĿĠ":12054,"Scholar":12055,"Plat":12056,"interactĠ":12057,"Ġwat":12058,"ebook":12059,"meatĠ":12060,"conclusion":12061,".ĠGr":12062,"ChurchĠ":12063,"ĠdoĠnotĠ":12064,"McC":12065,"sick":12066,"VeryĠ":12067,"ed)":12068,"HeĠwasĠ":12069,"Ġpiec":12070,"lastĠweek":12071,"Mas":12072,"icketĠ":12073,"ountainĠ":12074,"itĠseem":12075,"moreĠofĠ":12076,"changeĠinĠ":12077,"NameĠ":12078,"digest":12079,"pod":12080,"994":12081,"safetyĠ":12082,"esĠtheyĠ":12083,"someoneĠwhoĠ":12084,"ÙĨ":12085,"ersĠtoĠtheĠ":12086,".ĠBoth":12087,"elĠandĠ":12088,"SuperĠ":12089,"backĠinĠ":12090,"!\"":12091,"Langu":12092,"istsĠandĠ":12093,"whereĠyouĠ":12094,"stanceĠ":12095,"edĠthroughĠtheĠ":12096,"eĠweek":12097,"Psych":12098,"wouldĠnotĠ":12099,"programmingĠ":12100,"s,ĠasĠ":12101,"Pap":12102,"fulĠofĠ":12103,"edĠtoĠt":12104,"PrimeĠ":12105,"CommentĊ":12106,"banĠ":12107,"onĠt":12108,"Âł/":12109,"attemptsĠtoĠ":12110,"criptionĠ":12111,"errit":12112,"neverĠbeenĠ":12113,"s.ĠTheseĠ":12114,"e{":12115,"arian":12116,"EE":12117,"ownerĠ":12118,"deserv":12119,"LatinĠ":12120,"ĠforĠtheĠ":12121,"ĠwithinĠtheĠ":12122,"RS":12123,"61":12124,"Judg":12125,"speciallyĠ":12126,"back,Ġ":12127,".ĠIĠjustĠ":12128,"itĠmayĠ":12129,"analysis":12130,"replaceĠ":12131,"attractiveĠ":12132,"forĠeachĠ":12133,"more":12134,"nucle":12135,"edomĠ":12136,"Ġcons":12137,"firmĠ":12138,"aĠsaid":12139,".ĠIĠam":12140,"ed.ĠS":12141,"Both":12142,"ed:Ċ":12143,"novelĠ":12144,".ĠWhat":12145,"suspect":12146,"Ġinch":12147,"reinforc":12148,"topĠofĠtheĠ":12149,"IDĠ":12150,"Scott":12151,"Math":12152,"slip":12153,"putĠitĠ":12154,"Ġdrop":12155,".ĠÂłĠ":12156,"MemberĊ":12157,"conspir":12158,".ĠtheĠ":12159,"s.ĠWeĠ":12160,"repor":12161,"Swed":12162,"sĠthatĠhaveĠ":12163,"KoreanĠ":12164,"seeĠthatĠ":12165,"AsianĠ":12166,"orĠsomeĠ":12167,"delay":12168,"structur":12169,"quality":12170,"universityĠ":12171,"veryĠwell":12172,",'":12173,"oster":12174,"ifĠtheyĠareĠ":12175,"reatment":12176,"Du":12177,"AnswerĊ":12178,"responsibilityĠ":12179,"safeĠ":12180,"Bat":12181,"Cy":12182,"orĠthatĠ":12183,"ively,Ġ":12184,"compareĠ":12185,"followedĠbyĠ":12186,"atĠallĠ":12187,"ariju":12188,"onĠtheir":12189,"rapidlyĠ":12190,"erson":12191,"aĠlistĠofĠ":12192,"Fig.Ġ":12193,"s.\"Ġ":12194,"approachĠtoĠ":12195,"CEO":12196,"operationsĠ":12197,"journeyĠ":12198,"amĊ":12199,"DemocraticĠ":12200,"},Ċ":12201,"itĠisĠtheĠ":12202,".ĠOnĠtheĠ":12203,"Turk":12204,"ley":12205,".ĠYouĠareĠ":12206,"knowĠwhat":12207,"gettingĠtheĠ":12208,"optĠ":12209,"Plan":12210,"rickĠ":12211,"filesĠ":12212,"giveĠtheĠ":12213,"elyĠt":12214,"Help":12215,"edingĠ":12216,"ifiesĠ":12217,"ĠsupportĠ":12218,"onĠitsĠ":12219,"WhatĠareĠ":12220,"ĠmarketĠ":12221,"MakeĠ":12222,"smell":12223,"ĠtalkingĠaboutĠ":12224,"iminalĠ":12225,"names":12226,",Ġd":12227,"forĠmoreĠ":12228,"infoĠ":12229,"checkingĠ":12230,"alsoĠaĠ":12231,"meg":12232,"Conserv":12233,"onĠinĠ":12234,"comprehensiveĠ":12235,"carefullyĠ":12236,",ĠsinceĠ":12237,"withoutĠanyĠ":12238,"ĠtaxĠ":12239,"Â®":12240,"orĠâĢľ":12241,"Matth":12242,"VER":12243,"eĠtru":12244,":ĠAĠ":12245,"physicallyĠ":12246,"orĠsh":12247,"substanc":12248,"ownedĠ":12249,"budget":12250,"milk":12251,"Common":12252,"vic":12253,"aĠmess":12254,"OO":12255,"emblyĠ":12256,"\":Ġ\"":12257,"makeĠsur":12258,"vas":12259,"ofĠherĠ":12260,"ationsĠinĠ":12261,"likeĠc":12262,"Model":12263,"Ġpay":12264,".ĠYourĠ":12265,"Western":12266,".ĠForĠtheĠ":12267,"Fox":12268,"detailedĠ":12269,"Mik":12270,"Mid":12271,"thĠcenturyĠ":12272,"âĢĿĠisĠ":12273,"lan":12274,"Ġpack":12275,"welcom":12276,"ifĠaĠ":12277,"oricalĠ":12278,"operator":12279,"e,ĠIĠ":12280,"er/":12281,"focusingĠ":12282,"Ġmg":12283,"ability,Ġ":12284,"learlyĠ":12285,"oticĠ":12286,"HolyĠ":12287,"e.g.,Ġ":12288,"must":12289,"çļ":12290,"updatedĠ":12291,"lackĠ":12292,"à¦":12293,"aĠhasĠ":12294,".ĠAĠf":12295,"eĠdirect":12296,")ĠandĠtheĠ":12297,"chemical":12298,"crap":12299,"iro":12300,"e,Ġwhich":12301,"ĠthingĠthatĠ":12302,"eĠsureĠ":12303,"export":12304,"!ÂłĠ":12305,"quietĠ":12306,"opposedĠtoĠ":12307,"ourceĠofĠ":12308,"icienc":12309,"wik":12310,"Harv":12311,"ales":12312,"elli":12313,"isĠstillĠ":12314,"sĠandĠt":12315,"liverĠ":12316,"ditionally,Ġ":12317,"ifĠthisĠ":12318,":Ġ(":12319,"?ĠAndĠ":12320,"biologicalĠ":12321,"-in-":12322,",ĠandĠIĠ":12323,"ollarĠ":12324,"Ġconsider":12325,"hunt":12326,"ing.":12327,"Ġtraffic":12328,"ĠisĠtheĠ":12329,"ayl":12330,",\"Ġsh":12331,"entrepreneur":12332,"resultingĠ":12333,"registr":12334,"specul":12335,"aspectsĠofĠ":12336,"improvement":12337,"Ġbi":12338,"Vo":12339,"operateĠ":12340,"busyĠ":12341,"Eliz":12342,"looksĠlikeĠ":12343,"inĠ(":12344,"gon":12345,"oppress":12346,"breast":12347,"chill":12348,"ostlyĠ":12349,"obtainedĠ":12350,"expertsĠ":12351,",ĠbyĠ":12352,"notion":12353,"ruralĠ":12354,"rif":12355,"family,Ġ":12356,"winningĠ":12357,"experimentĠ":12358,"beyondĠtheĠ":12359,"universalĠ":12360,"groc":12361,"relevant":12362,"Far":12363,"âĨ":12364,"Ġpow":12365,"meĠandĠ":12366,"tryingĠtoĠ":12367,"guardĠ":12368,"ateĊ":12369,"decor":12370,"Level":12371,"ProjectĠ":12372,"accusedĠ":12373,"T_":12374,"ifĠyouĠwantĠtoĠ":12375,"center":12376,"ĠtoĠanĠ":12377,"eĠthreeĠ":12378,"oothĠ":12379,"intoĠanĠ":12380,"deeplyĠ":12381,"distinctĠ":12382,"amend":12383,"Vari":12384,"sweet":12385,"Ġdam":12386,"Kev":12387,"ibleĠtoĠ":12388,"sĠupĠ":12389,"risingĠ":12390,"definedĠ":12391,"nervousĠ":12392,"ongoingĠ":12393,"chap":12394,"sugg":12395,"fellow":12396,"bsp":12397,"Gard":12398,"scientistsĠ":12399,"hitĠtheĠ":12400,"boost":12401,"Command":12402,"aboutĠhisĠ":12403,"already":12404,"s,Ġand":12405,"peaceĠ":12406,"characteriz":12407,"ĠbeĠableĠtoĠ":12408,"improvedĠ":12409,"esĠhisĠ":12410,"uction":12411,"Find":12412,"man'sĠ":12413,"NOTĠ":12414,"ries":12415,"numbers":12416,"andĠandĠ":12417,"eachĠs":12418,".ĠThis":12419,")ĠofĠ":12420,".ĠInĠfact":12421,"virus":12422,"ĠĠâĢ¢ĠS":12423,"funĠ":12424,"ingĠtoĠbeĠ":12425,"mobileĠ":12426,"edĠisĠ":12427,"çļĦ":12428,"lines":12429,"appĠ":12430,"ingĠitsĠ":12431,"isĠisĠ":12432,"metric":12433,"more.Ċ":12434,"-inĠ":12435,":ĠB":12436,"This":12437,"summerĠ":12438,"suitĠ":12439,"info":12440,"emiss":12441,".ĠAlso":12442,"inĠtheseĠ":12443,"yearsĠagoĠ":12444,"Penn":12445,"asleep":12446,"Ky":12447,"worldĠofĠ":12448,"cellĠ":12449,"advantageĠofĠ":12450,"Project":12451,"valĠ":12452,"seatĠ":12453,"Ġthree-":12454,"e,ĠthatĠ":12455,"ingĠwith":12456,"statedĠ":12457,"half-":12458,"NB":12459,"storageĠ":12460,"Ġtun":12461,"shitĠ":12462,"argumentsĠ":12463,"ingĠthingsĠ":12464,"edĠS":12465,"brid":12466,".ĠOneĠofĠtheĠ":12467,".ĠThank":12468,"outerĠ":12469,"AndroidĠ":12470,"acob":12471,"enormousĠ":12472,"middleĠofĠtheĠ":12473,"yourĠbod":12474,"choicesĠ":12475,"theĠm":12476,"likeĠthis:Ċ":12477,",ĠbutĠIĠ":12478,"circul":12479,"motion":12480,"commentĊ":12481,"diabet":12482,"Nob":12483,"suggestĠ":12484,"happy":12485,"itativeĠ":12486,"ĠmakingĠ":12487,"weirdĠ":12488,"HTML":12489,"Jef":12490,"leadingĠtoĠ":12491,"ocketĠ":12492,"outĠinĠ":12493,"radio":12494,"responsibleĠforĠ":12495,"geomet":12496,"terĠandĠ":12497,"Young":12498,"campaignĠ":12499,"isĠthereĠ":12500,"bias":12501,"anielĠ":12502,"Ġhtt":12503,"ĠthatĠaĠ":12504,"forever":12505,"Ġtwic":12506,"containingĠ":12507,"ed_":12508,"ĠturnedĠ":12509,"stall":12510,"RNA":12511,"sĠyouĠ":12512,"havingĠtheĠ":12513,"everyĠday":12514,"pieceĠ":12515,"oneĠwouldĠ":12516,"identifiedĠ":12517,"IsĠthereĠ":12518,"veloc":12519,"absoluteĠ":12520,".ĠOtherĠ":12521,"credit":12522,"examplesĠofĠ":12523,"border":12524,"finishĠ":12525,"wound":12526,"RN":12527,"asĠthisĠ":12528,"facingĠ":12529,"electricĠ":12530,"onĠB":12531,"aĠback":12532,"systemsĠ":12533,"ji":12534,"less,Ġ":12535,"Tha":12536,"Ġpubl":12537,"I'mĠgoingĠtoĠ":12538,"Ġdev":12539,"agencyĠ":12540,"visibleĠ":12541,"eriousĠ":12542,",ĠandĠtheyĠ":12543,"loan":12544,"commentingĠ":12545,"inner":12546,"ino":12547,"funnyĠ":12548,"moon":12549,"ulti-":12550,"mos":12551,":ĠW":12552,"discour":12553,"documentĠ":12554,"</a":12555,"eĠthe":12556,"ufactur":12557,"mentĠofĠtheĠ":12558,"husband":12559,"haveĠbeen":12560,"Ġconsist":12561,"inĠC":12562,"undĠ":12563,"so-":12564,"cham":12565,"eĠthroughĠtheĠ":12566,"\"ĠtoĠ":12567,"itledĠ":12568,"wonderingĠ":12569,"vitaminĠ":12570,"diseaseĠ":12571,"vanĠ":12572,"ingĠS":12573,"sle":12574,"gly":12575,"eĠco":12576,"ĠcompaniesĠ":12577,"newĠc":12578,"Linux":12579,"butĠalsoĠ":12580,"placeĠinĠ":12581,"IĠmightĠ":12582,"haveĠto":12583,"Jump":12584,"oxygenĠ":12585,"eĠspe":12586,"ĠmustĠbeĠ":12587,"BushĠ":12588,"suitableĠ":12589,"immuneĠsystem":12590,"eĠcour":12591,"TakeĠ":12592,"ClickĠ":12593,"aĠteam":12594,"FS":12595,"um,Ġ":12596,"',Ċ":12597,"ĠthatĠtheĠs":12598,"aĠfamilyĠ":12599,"riseĠ":12600,"Result":12601,"atĠanĠ":12602,"NorthernĠ":12603,"aspir":12604,"eĠsinceĠ":12605,"OSĠ":12606,"YouĠmayĠ":12607,"establishĠ":12608,"factĠthatĠtheĠ":12609,"conditionĠ":12610,"ego":12611,"ilitaryĠ":12612,"healthĠcareĠ":12613,"strict":12614,"ukeĠ":12615,"leftĠtheĠ":12616,"Mir":12617,"ĠwithinĠ":12618,"signal":12619,"shootingĠ":12620,"betĠ":12621,"ĠweightĠ":12622,"ĠtoĠbeĠaĠ":12623,"neuro":12624,"\");Ċ":12625,"ÙĬ":12626,"communicateĠ":12627,"oppingĠ":12628,"ializ":12629,"statistic":12630,"beĠseenĠ":12631,"riverĠ":12632,"Intell":12633,"eĠscen":12634,".ĠOurĠ":12635,"Ġtroop":12636,"Error":12637,",ĠnoĠ":12638,"ocusĠ":12639,"oneĠofĠthem":12640,"Content":12641,"hypothes":12642,"astyĠ":12643,"ITĠ":12644,"kitchenĠ":12645,"related":12646,"doctor":12647,"parkĠ":12648,"aboveĠtheĠ":12649,".ĠThankĠ":12650,"Even":12651,"odiesĠ":12652,".ĠThisĠisĠtheĠ":12653,"shin":12654,"\\math":12655,"ScottĠ":12656,"wouldĠhaveĠbeenĠ":12657,"ridg":12658,"LetâĢĻsĠ":12659,"s).Ċ":12660,"estateĠ":12661,"mallerĠ":12662,"hasĠnotĠ":12663,".čĊ":12664,"?ĠS":12665,"unnyĠ":12666,"ourĠownĠ":12667,"pant":12668,"organĠ":12669,"cc":12670,"DuringĠtheĠ":12671,"illness":12672,"tri":12673,"sufferĠ":12674,".ĠTheĠfirstĠ":12675,"beginĠtoĠ":12676,"spon":12677,"LifeĠ":12678,"goingĠto":12679,"outsideĠofĠ":12680,"ĠtransferĠ":12681,",ĠtoĠtheĠ":12682,"eraĠ":12683,"studi":12684,"includeĠtheĠ":12685,".ĠTod":12686,"inĠtwoĠ":12687,"perception":12688,"pagesĠ":12689,"ious,Ġ":12690,"amaĠ":12691,"Kingdom":12692,"byĠt":12693,"shootĠ":12694,"withĠotherĠ":12695,"overe":12696,"butĠthatĠ":12697,"percept":12698,"aĠcor":12699,"remoteĠ":12700,"whichĠtheyĠ":12701,"ĠtroubleĠ":12702,".ĠIĠcanĠ":12703,"experiencesĠ":12704,".ĠTheirĠ":12705,"Club":12706,"alert":12707,"beautifulĠ":12708,"biggerĠ":12709,".ĠAm":12710,"boneĠ":12711,"aĠmov":12712,"remend":12713,"u,Ġ":12714,"Ġtrail":12715,"IslamicĠ":12716,"Ġconst":12717,"iousĠandĠ":12718,"InĠaĠ":12719,"varĠ":12720,"cryst":12721,"(n":12722,"ustomersĠ":12723,"C-":12724,"ĠtheĠmostĠ":12725,"ĠyearsĠago":12726,"itĠdoesĠ":12727,"depth":12728,"sawĠ":12729,"Ġtempl":12730,"ay.Ċ":12731,"ia'sĠ":12732,"ĠE":12733,"RealĠ":12734,"AV":12735,"eĠdem":12736,"weĠdon'tĠ":12737,"overĠtoĠ":12738,"PageĠ":12739,"mountain":12740,"DepartmentĠofĠ":12741,"orĠ(":12742,".ĠOver":12743,"Ġminutes":12744,":ĠF":12745,"ruin":12746,"ossil":12747,"iceĠc":12748,"deem":12749,"ĠwithĠanĠ":12750,"earingĠ":12751,"distinct":12752,"aĠbu":12753,"explainsĠ":12754,"Washington":12755,"ĠthroughĠaĠ":12756,"aĠsecond":12757,".ĠThat":12758,"bra":12759,"beforeĠtheyĠ":12760,"ĠĠĠĠĠĠĠĠĠĠĠ":12761,"steal":12762,"incidentĠ":12763,"measureĠ":12764,"ountain":12765,"e.ĠIn":12766,"inclus":12767,"ably":12768,"aspectĠ":12769,"protectionĠ":12770,"experimentalĠ":12771,"ChristĠ":12772,"vacu":12773,".ĠThisĠwasĠ":12774,"-upĠ":12775,"happeningĠ":12776,"isĠtru":12777,"ThereĠwasĠ":12778,"seat":12779,"Anim":12780,"awak":12781,"informationĠaboutĠ":12782,"iĠd":12783,"Ġfind":12784,"-f":12785,"steam":12786,")Ġ=Ġ":12787,"ĠsetĠ":12788,"howĠh":12789,"ierarch":12790,"WS":12791,"eleg":12792,"beĠsoĠ":12793,"eĠmoney":12794,"Tun":12795,"gaz":12796,"TodayĠ":12797,"Prim":12798,"ĠwentĠ":12799,"e.Ġ(":12800,"substitut":12801,"olfĠ":12802,"ervis":12803,"enueĠ":12804,"SecondĠ":12805,"NP":12806,"first-":12807,"killsĠ":12808,"excitedĠ":12809,"natural":12810,"punch":12811,"perm":12812,"eĠtalk":12813,"td":12814,"iverse":12815,"ThisĠisĠaĠ":12816,"ĠtooĠmanyĠ":12817,"glut":12818,"geneĠ":12819,"fraud":12820,"ration":12821,"officerĠ":12822,"agnet":12823,"Requ":12824,"Method":12825,"ItsĠ":12826,"sĠthem":12827,"Ġfollow":12828,"PhotoĠ":12829,"itĠcouldĠ":12830,"Ti":12831,"password":12832,"Week":12833,"frequencyĠ":12834,"weren'tĠ":12835,"resolveĠ":12836,"asĠinĠ":12837,"poison":12838,"Again":12839,"agraph":12840,"Sher":12841,"y.":12842,"pronounc":12843,"dependingĠonĠtheĠ":12844,"ifficultĠ":12845,"OutĠ":12846,"stamp":12847,"honor":12848,"lowestĠ":12849,"enterpris":12850,"ex-":12851,",Ġso":12852,"Wall":12853,"bust":12854,"itĠturn":12855,"ocr":12856,"itĠjustĠ":12857,"apparent":12858,"lux":12859,"ss":12860,"ature":12861,"forestĠ":12862,"ippingĠ":12863,"anes":12864,"MinisterĠ":12865,"atmosphereĠ":12866,"StringĠ":12867,".ĠOb":12868,"ĠfeetĠ":12869,"administration":12870,"isĠbeingĠ":12871,"IĠhadĠtoĠ":12872,"framework":12873,"graphĠ":12874,"iĠwasĠ":12875,"entitl":12876,"ingĠthroughĠtheĠ":12877,"Environ":12878,"questionĊ":12879,"veryĠmuchĠ":12880,"makeĠm":12881,"ThinkĠ":12882,"loom":12883,"Ġcoll":12884,"Wis":12885,"livedĠ":12886,"Report":12887,"IĠsaidĠ":12888,"]Ġ=Ġ":12889,"crazyĠ":12890,"inition":12891,"hisĠown":12892,"respectiveĠ":12893,"a/":12894,"umĠofĠ":12895,"'sĠpictureĊ":12896,"ing.ÂłĠ":12897,"bowl":12898,"node":12899,"questionĠofĠ":12900,"Ġtogether,Ġ":12901,"ingĠtwoĠ":12902,"leaveĠtheĠ":12903,"isĠ(":12904,"cort":12905,"Alb":12906,"DataĠ":12907,"]Ġ[":12908,"centuryĠ":12909,"Interest":12910,"possibilityĠofĠ":12911,"consol":12912,"athanĠ":12913,"moreĠtoĠ":12914,"**Ċ":12915,"thetic":12916,"ĠthenĠtheĠ":12917,"planningĠ":12918,"TheĠM":12919,"readerĠ":12920,"aries":12921,"aĠhalf":12922,"aĠman":12923,"sharp":12924,".ĠWeĠhaveĠ":12925,"electricityĠ":12926,"Box":12927,"ableĠt":12928,"controlledĠ":12929,"layerĠ":12930,"consideringĠ":12931,"WallĠ":12932,"lookingĠfor":12933,"moviesĠ":12934,"anĠhour":12935,"CM":12936,"colleagu":12937,"bot":12938,"timeĠtoĠ":12939,"rubb":12940,".ĠI'dĠ":12941,"ĠMar":12942,"nu":12943,"away.Ċ":12944,"Saud":12945,"ĠtoĠhelp":12946,"affil":12947,"shad":12948,"promoteĠ":12949,"arriveĠ":12950,"Ru":12951,"Su":12952,"bread":12953,"oogl":12954,"IĠsuppos":12955,"outlin":12956,":ĠA":12957,"allĠaboutĠ":12958,"reasonĠwhyĠ":12959,"sayingĠthatĠ":12960,"grown":12961,"howĠs":12962,":ĠM":12963,"figuredĠ":12964,"ismĠisĠ":12965,"old,Ġ":12966,"interi":12967,"entĠtoĠtheĠ":12968,"\"IĠ":12969,"ImageĠ":12970,"chain":12971,"fromĠthatĠ":12972,"ing.Ġ":12973,"MedicalĠ":12974,"off-":12975,"Ġbehind":12976,"ContactĠ":12977,"annoy":12978,"ister":12979,"exactlyĠwhatĠ":12980,"CenterĠ":12981,"weekend":12982,"992":12983,"Kir":12984,"Ġtag":12985,"foodĠandĠ":12986,"meetingĠ":12987,"masterĠ":12988,".ĠSheĠwasĠ":12989,"BlueĠ":12990,"eĠtookĠ":12991,"said.Ċ":12992,"plastic":12993,".ĠRes":12994,"lak":12995,"ÏĦ":12996,"decisionsĠ":12997,"Kenn":12998,"ralĠ":12999,"esĠthatĠtheĠ":13000,"inflam":13001,"scenari":13002,"blingĠ":13003,"not,Ġ":13004,"Sir":13005,"inĠtheĠsameĠ":13006,"preferĠ":13007,"aĠcop":13008,"acheĠ":13009,"uncertaint":13010,"onz":13011,"uddenlyĠ":13012,"Design":13013,"subsid":13014,"e,Ġt":13015,"weĠm":13016,"etter":13017,".ĠBas":13018,"purposeĠofĠ":13019,"issueĠofĠ":13020,"citiesĠ":13021,"feet":13022,"performĠ":13023,"kern":13024,"AIĠ":13025,"hasĠalsoĠ":13026,"getĠitĠ":13027,"really,Ġ":13028,"raisedĠ":13029,"portray":13030,"oceanĠ":13031,"friends,Ġ":13032,"edĠthrough":13033,"eĠcreat":13034,"aticallyĠ":13035,"ĠdidĠnotĠ":13036,"elder":13037,"requires":13038,"yself":13039,"IfĠyouĠhaveĠ":13040,"Feat":13041,"estimatedĠ":13042,"afterward":13043,"setĠtheĠ":13044,"wearingĠ":13045,"edĠtoĠhaveĠ":13046,"continuesĠtoĠ":13047,"ĠcomputerĠ":13048,"Title":13049,"ingĠthoseĠ":13050,"Hard":13051,"implementĠ":13052,"Ġcontain":13053,"WithoutĠ":13054,"storyĠofĠ":13055,"offens":13056,"where,Ġ":13057,"s.ĠC":13058,"gladĠ":13059,"victoryĠ":13060,"economy":13061,"IĠcouldn'tĠ":13062,"relatedĠtoĠtheĠ":13063,"eltĠ":13064,"isticsĠ":13065,"OctĠ":13066,"GE":13067,"osystem":13068,"iantĠ":13069,"raseĠ":13070,"westernĠ":13071,"seekingĠ":13072,"IĠhaveĠaĠ":13073,"House":13074,"ampleĠ":13075,"LosĠAngel":13076,"sĠthatĠcanĠ":13077,"anceĊ":13078,"TypeĠ":13079,"Hub":13080,"edĠdown":13081,"dy":13082,"ĠĠĠĠĠĠĠĠ}Ċ":13083,"abortion":13084,".ĠOnlyĠ":13085,"history,Ġ":13086,"people'sĠ":13087,"isĠun":13088,"mentionĠ":13089,",ĠsheĠ":13090,"Boy":13091,"dad":13092,"SpanishĠ":13093,"legend":13094,"kil":13095,"AK":13096,"reflectĠ":13097,"createsĠ":13098,"ref=\"":13099,"pover":13100,"area,Ġ":13101,",ĠareĠ":13102,"vessel":13103,"ullĠ":13104,"successfullyĠ":13105,"passingĠ":13106,"Ġtheory":13107,"racialĠ":13108,"evilĠ":13109,",ĠandĠaĠ":13110,"ĠpartĠ":13111,"seriouslyĠ":13112,"eĠmakesĠ":13113,"pregnanc":13114,"ori":13115,"aroundĠandĠ":13116,"athe":13117,"exceed":13118,"pp":13119,"elit":13120,"ky":13121,"alsoĠhaveĠ":13122,"Effect":13123,"IĠdoĠnotĠ":13124,"span":13125,"eĠcalledĠ":13126,"Det":13127,"atingĠandĠ":13128,"User":13129,"icalsĠ":13130,"[âĢĵ":13131,"esterĠ":13132,"PE":13133,"eshĠ":13134,"writerĠ":13135,"oxy":13136,"JS":13137,"forĠmeĠtoĠ":13138,"****************":13139,"becameĠaĠ":13140,"aboutĠtheĠs":13141,"erĠthan":13142,"integratedĠ":13143,"observeĠ":13144,"ĠpercentĠofĠ":13145,"s.ĠHowever,Ġ":13146,"eĠwell":13147,"Ġsiz":13148,"orĠherĠ":13149,"erver":13150,"fus":13151,"Kh":13152,"inters":13153,"anybodyĠ":13154,"toĠbeĠ":13155,"howĠyouĠ":13156,"thatĠtheĠ":13157,"cak":13158,"grandĠ":13159,"Ident":13160,"cott":13161,"Greec":13162,"explainedĠ":13163,"uper":13164,"edĠwithĠs":13165,"edition":13166,"ecr":13167,"NoĠcomment":13168,"graduallyĠ":13169,"eĠdid":13170,"hind":13171,"is:Ġ":13172,"safet":13173,"eiveĠ":13174,"Discuss":13175,"hyd":13176,"worship":13177,"meat":13178,"peopleĠinĠtheĠ":13179,"ÂłtheĠ":13180,"originĠ":13181,"):":13182,"TER":13183,"findĠthatĠ":13184,"morph":13185,"d,Ġ":13186,"cardsĠ":13187,"understandĠthatĠ":13188,"github.com/":13189,"itĠaĠ":13190,"fitt":13191,"reachedĠ":13192,"IĠdon'tĠknowĠ":13193,"psychologicalĠ":13194,"itĠwasĠaĠ":13195,"Land":13196,"chlor":13197,".ĠAccordingĠtoĠ":13198,"osaur":13199,"occasionallyĠ":13200,"itsĠt":13201,"disabl":13202,"engineeringĠ":13203,"IĠdon'tĠthinkĠ":13204,"ï¿":13205,"ivity":13206,"discussĠ":13207,"Ju":13208,"ChicagoĠ":13209,"Execut":13210,"III":13211,"ĠyearsĠofĠ":13212,"eet":13213,"receivingĠ":13214,"visionĠ":13215,"chocolateĠ":13216,"993":13217,"ĠtoĠtheĠt":13218,"/t":13219,"youĠwer":13220,"whichĠhasĠ":13221,"increasesĠ":13222,"ĠtoĠsaveĠ":13223,".ĠIâĢĻmĠ":13224,"obb":13225,"hesit":13226,"ĠtakingĠtheĠ":13227,"Fal":13228,"herĠandĠ":13229,"needĠaĠ":13230,"âĢĿ,Ġ":13231,"rear":13232,"forĠmeĠ":13233,"Script":13234,"portfol":13235,"atĠthat":13236,"(b":13237,"wasĠthatĠ":13238,"StartĠ":13239,"TimesĠ":13240,"halfĠofĠ":13241,"Ġsuggest":13242,"aĠgirl":13243,"Ġdeath":13244,".ĠThereĠisĠnoĠ":13245,"coast":13246,"language":13247,"grass":13248,"ĠtradingĠ":13249,"Problem":13250,"inĠM":13251,"oldĠandĠ":13252,"refusedĠtoĠ":13253,"youĠcanâĢĻtĠ":13254,"ageĠofĠtheĠ":13255,"bestĠwayĠtoĠ":13256,"reson":13257,"-minut":13258,"isĠaĠs":13259,"examplesĠ":13260,"seyĠ":13261,"s.ĠM":13262,"inflamm":13263,"ĠtargetĠ":13264,"limateĠ":13265,"IsraelĠ":13266,"!ĠTheĠ":13267,"ĠtypicalĠ":13268,"AĊ":13269,"okĠ":13270,"sĠthatĠwereĠ":13271,"pub":13272,"power,Ġ":13273,"eĠdoingĠ":13274,"membersĠofĠtheĠ":13275,"sg":13276,"anction":13277,"ĠweĠhaveĠ":13278,"IĠthought":13279,"peopleĠwereĠ":13280,"partnerĠ":13281,"~~":13282,"attemptingĠtoĠ":13283,"ingsĊ":13284,"Ġ<":13285,"endĊ":13286,"involvingĠ":13287,"willĠbeĠaĠ":13288,"GrandĠ":13289,"isĠmoreĠ":13290,"cheapĠ":13291,"eĠcameĠ":13292,"ĠthemĠandĠ":13293,"cameraĠ":13294,"fromĠherĠ":13295,"Four":13296,"bf":13297,"Pack":13298,"(R":13299,"useĠthisĠ":13300,"(M":13301,"vig":13302,"lookingĠtoĠ":13303,"continuedĠtoĠ":13304,"Bost":13305,"aĠlow":13306,"Arth":13307,"iltĠ":13308,",ĠlikeĠ":13309,"Ġthreaten":13310,"Email":13311,"Ġ*Ġ@":13312,"ellyĠ":13313,"TL":13314,"collaps":13315,"waterĠandĠ":13316,"diction":13317,"confident":13318,"ina":13319,"judgeĠ":13320,"FoodĠ":13321,"991":13322,"ĠDec":13323,"radicalĠ":13324,"usedĠinĠtheĠ":13325,"Ġdisc":13326,"nationĠ":13327,"Ð²":13328,"holĠ":13329,"fuelĠ":13330,"autonom":13331,"elleĠ":13332,"Ġscen":13333,"ini":13334,"ThereĠisĠnoĠ":13335,"Publish":13336,"aĠthirdĠ":13337,"accidentĠ":13338,"authoritiesĠ":13339,"constant":13340,"HenryĠ":13341,"questionĠisĠ":13342,"je":13343,".ĠLetĠ":13344,"pic":13345,"Ġbox":13346,"Ill":13347,"Ġbetween":13348,"practicesĠ":13349,"Ġwant":13350,"doĠthat":13351,"sâĢĿĠ":13352,"ilesĠ":13353,"e,ĠthenĠ":13354,"curv":13355,"ĠteachingĠ":13356,"ritic":13357,"Elizabeth":13358,"sĠ=Ġ":13359,"neighborhood":13360,"ByĠtheĠ":13361,"lientĠ":13362,"do.Ċ":13363,"Jewish":13364,"ref{":13365,"!!!!":13366,"feelĠtheĠ":13367,"eĠdoĠnotĠ":13368,"-likeĠ":13369,"foughtĠ":13370,"Lind":13371,"eousĠ":13372,"myĠt":13373,"surfaceĠ":13374,"eĠtool":13375,"Jess":13376,"isĠtheĠonlyĠ":13377,"\\cit":13378,"Ġtransaction":13379,"medit":13380,"BusinessĠ":13381,"Amend":13382,"Ly":13383,"upt":13384,"aircraftĠ":13385,"Proc":13386,"feelingsĠ":13387,"findsĠ":13388,"Ġtheat":13389,"despiteĠtheĠ":13390,".ÂłÂłĠ":13391,"IĠhaveĠnoĠ":13392,"virtu":13393,"lifeĠisĠ":13394,"aĠlevel":13395,"gig":13396,"IĠmeanĠ":13397,"iveĊ":13398,"ĠtheseĠm":13399,"eĠsign":13400,"utsĠ":13401,"volumeĠ":13402,"players":13403,"etĠtheĠ":13404,"realizeĠthatĠ":13405,"GlobalĠ":13406,".ĠDo":13407,"endĠupĠ":13408,"ĠthingsĠtoĠ":13409,"account.ĠLog":13410,"Init":13411,"winterĠ":13412,"tersĠ":13413,"ĠinĠmind":13414,"\"\"":13415,",ĠitâĢĻsĠ":13416,"explicit":13417,"AY":13418,"edi":13419,"awesom":13420,"pens":13421,"ĠtheseĠt":13422,"SpaceĠ":13423,"alongĠwithĠtheĠ":13424,"HR":13425,"knowĠhowĠtoĠ":13426,"readersĠ":13427,"offe":13428,"authorityĠ":13429,"ofĠthingsĠ":13430,"eĠsome":13431,"Victor":13432,"ines":13433,"embedd":13434,"carryingĠ":13435,"JanĠ":13436,"justĠaboutĠ":13437,"e.ĠWeĠ":13438,"Tool":13439,"jar":13440,"-D":13441,"commentingĠusingĠyourĠ":13442,"Hos":13443,"YouĠareĠcommentingĠusingĠyourĠ":13444,"management":13445,"batteryĠ":13446,"allowĠtheĠ":13447,"ben":13448,".ĠLikeĠ":13449,"locationĠ":13450,"ÙĪ":13451,"ÂłOut":13452,"mg":13453,"Ġtermin":13454,"ĠweĠcanĠ":13455,"collectĠ":13456,"experience,Ġ":13457,"SundayĠ":13458,"obstac":13459,"centerĠ":13460,"ĠtravelĠ":13461,"officialsĠ":13462,"oardĠ":13463,"poseĠ":13464,"dependĠ":13465,":Ġ[":13466,"estimat":13467,"IĠhop":13468,"charm":13469,"deliber":13470,"benefitsĠofĠ":13471,"itorsĠ":13472,"SaturdayĠ":13473,"edĠtheĠt":13474,"usĠthatĠ":13475,"blameĠ":13476,"returnĠtoĠ":13477,"ĠputĠ":13478,"priceĠofĠ":13479,"akeĠofĠ":13480,"busĠ":13481,"butter":13482,"dumb":13483,"affectĠtheĠ":13484,"ingĠaboutĠ":13485,"Spanish":13486,"_{\\":13487,"UnitedĠStates,Ġ":13488,"ĠfindĠ":13489,"shirt":13490,"inĠsom":13491,"anyoneĠwhoĠ":13492,"onĠM":13493,"lyĊ":13494,"s.ĠThatĠ":13495,"ourselvesĠ":13496,"autoĠ":13497,"China":13498,"AĠandĠ":13499,"cm":13500,"atĠsomeĠ":13501,"world'sĠ":13502,"confidenc":13503,"traditionalĠ":13504,"foundĠtheĠ":13505,"fromĠb":13506,"Step":13507,"Stan":13508,"overcom":13509,"Ġcomm":13510,"years":13511,"coin":13512,"state,Ġ":13513,"irm":13514,"chor":13515,"others.Ċ":13516,"ĠtrainĠ":13517,".N":13518,"Which":13519,"beĠtakenĠ":13520,"Analys":13521,"ChangeÂł":13522,"ecosystem":13523,"effectiven":13524,"Rh":13525,"skin":13526,"ingsĠtoĠ":13527,"Second":13528,"Ġterrit":13529,"PerhapsĠ":13530,"ifĠthatĠ":13531,"onĠyour":13532,"agger":13533,"110":13534,"\"C":13535,"farĠmoreĠ":13536,"property":13537,"ï¿½":13538,"Ġtruck":13539,"Ãł":13540,"holdsĠ":13541,"oneĠinĠ":13542,"awnĠ":13543,"willĠc":13544,"YouĠareĠcommentingĠusingĠyourĠaccount.ĠLog":13545,"Pi":13546,"formedĠ":13547,"apl":13548,".ĠIs":13549,"ÂłOutÂł/":13550,"noticedĠ":13551,"haha":13552,"heroĠ":13553,"peopleĠwithĠ":13554,"in'":13555,"ĠdonâĢĻtĠ":13556,"moreĠandĠmoreĠ":13557,"eĠthre":13558,"ayĠandĠ":13559,"YouĠareĠcommentingĠusingĠyourĠaccount.ĠLogÂłOutÂł/":13560,"avell":13561,"cultur":13562,"putt":13563,"ChangeÂł)Ċ":13564,"Union":13565,"XX":13566,"aboutĠthatĠ":13567,"oneĠdayĠ":13568,"eticallyĠ":13569,"firedĠ":13570,"ĠwithĠhisĠ":13571,"itudeĠ":13572,"process.Ċ":13573,"investorsĠ":13574,"syĠ":13575,"through":13576,"eĠthatĠthisĠ":13577,".ĠMak":13578,"back.Ċ":13579,"elevisionĠ":13580,"Son":13581,"commonĠs":13582,"downloadĠ":13583,"WouldĠ":13584,"sugarĠ":13585,"aĠcas":13586,"resultsĠinĠ":13587,"becauseĠweĠ":13588,"allowsĠyouĠtoĠ":13589,"Record":13590,"asĠâĢľ":13591,"ĠĠĠĠH":13592,"satĠ":13593,"hungr":13594,"causedĠ":13595,"Guard":13596,"producesĠ":13597,"organizedĠ":13598,"oppositeĠ":13599,"'llĠbeĠ":13600,"ĠAd":13601,"nineĠ":13602,"endar":13603,"ĠheĠwasĠ":13604,"eaĠ":13605,"askedĠtoĠ":13606,"seemsĠtoĠbeĠ":13607,"deeperĠ":13608,"epid":13609,"icideĠ":13610,"ĠsoĠthatĠ":13611,"fright":13612,"willĠhelpĠ":13613,"running":13614,"friendship":13615,"BankĠ":13616,"Learn":13617,"DM":13618,"register":13619,"lesĠandĠ":13620,"filledĠwithĠ":13621,"logicalĠ":13622,"encounterĠ":13623,"Ġsl":13624,"pread":13625,"ĠthatĠthereĠ":13626,"esid":13627,"wallĠ":13628,"Ø±":13629,"osom":13630,"[âĢĵ]":13631,"However,ĠtheĠ":13632,"behaviorĠ":13633,"HIV":13634,"feedbackĠ":13635,"](https://":13636,"Ġtur":13637,"us,ĠtheĠ":13638,"conductĠ":13639,"likeĠw":13640,"aggressiveĠ":13641,"offĠandĠ":13642,"workĠinĠ":13643,"manyĠotherĠ":13644,"newlyĠ":13645,"aĠsimilar":13646,"reducingĠ":13647,"ĠSh":13648,"againĠandĠ":13649,"olutionsĠ":13650,",Ġ'":13651,"ologist":13652,"house,Ġ":13653,"Pict":13654,"jac":13655,"shallĠ":13656,"Doc":13657,".ĠIt'sĠnotĠ":13658,".ĠHeĠs":13659,"asideĠ":13660,"Kur":13661,"thersĠ":13662,"Vit":13663,"ĠmethodĠ":13664,"BackĠ":13665,".ĠHereĠ":13666,"ofĠyourĠ":13667,"yieldĠ":13668,":ĠT":13669,"erĠtoĠtheĠ":13670,"nodd":13671,"eĠsaid...Ċ":13672,"atĠhisĠ":13673,"âĢĶandĠ":13674,"Bank":13675,"pecialĠ":13676,"beingĠt":13677,"Carl":13678,"presidentialĠ":13679,"useĠitĠ":13680,"(A":13681,"ĠthatĠthereĠareĠ":13682,"stories":13683,"alis":13684,"ingĠthemĠtoĠ":13685,"quar":13686,"regionĠ":13687,"suddenĠ":13688,"scholar":13689,"hasĠbeen":13690,"ĠthemĠinĠ":13691,"fals":13692,"orsĠareĠ":13693,"MondayĠ":13694,"SM":13695,"arth":13696,"doĠthatĠ":13697,"eĠdesign":13698,"me.Ġ":13699,"enessĠ":13700,"physi":13701,"Gall":13702,"anythingĠtoĠ":13703,"artistsĠ":13704,"credi":13705,"Brook":13706,"etch":13707,"whenĠyou":13708,"ilder":13709,"moreĠt":13710,"pix":13711,"ittle":13712,"blogĠ":13713,"Fe":13714,"arbitr":13715,"ĠĠĠĠ@":13716,"England":13717,"agentsĠ":13718,"eĠcannotĠ":13719,"COVID":13720,"));Ċ":13721,"lesslyĠ":13722,"by-":13723,"ĠdeĠ":13724,"dent":13725,"curs":13726,"impressiveĠ":13727,"udgetĠ":13728,"ureĠisĠ":13729,"aeĠ":13730,"cust":13731,"million":13732,"quis":13733,"aliveĠ":13734,"strongerĠ":13735,"Fact":13736,"conj":13737,"myster":13738,"jer":13739,"!âĢĿĠ":13740,"EVER":13741,"ircl":13742,"ĠtheyĠhadĠ":13743,"youĠdoĠnotĠ":13744,"Anth":13745,"gainedĠ":13746,"rt":13747,"eĠde":13748,"solid":13749,"esÂł":13750,"considerĠtheĠ":13751,"»¿":13752,"enterĠtheĠ":13753,"Return":13754,"galax":13755,"loudĠ":13756,"country,Ġ":13757,"e).Ċ":13758,"ers.ĠTheĠ":13759,".ĠWhoĠ":13760,"aĠseriousĠ":13761,"time,Ġ":13762,"ertific":13763,"QueenĠ":13764,"oftwar":13765,"Ġmaterial":13766,"northernĠ":13767,",Ġun":13768,"laug":13769,"data,Ġ":13770,"excessiveĠ":13771,"classicĠ":13772,"void":13773,"eĠwant":13774,"anĠoldĠ":13775,"structuralĠ":13776,"ĠthoseĠs":13777,"deed,Ġ":13778,"before,Ġ":13779,"ramp":13780,"Alli":13781,"supportĠtheĠ":13782,"Press":13783,"ĠtoĠturnĠ":13784,"asĠaĠc":13785,"eĠwantĠtoĠ":13786,"noiseĠ":13787,"fromĠotherĠ":13788,"fromĠp":13789,"Issu":13790,"onĠit":13791,"Skip":13792,"awl":13793,"somebodyĠ":13794,"ĠwayĠtoĠ":13795,"avesĠ":13796,"à¸":13797,"personn":13798,"sayĠtheĠ":13799,"fixĠ":13800,"(T":13801,",ĠandĠsoĠ":13802,"OnĠtheĠotherĠ":13803,"gotĠaĠ":13804,"NoĠcomments:Ċ":13805,"becomeĠtheĠ":13806,"SignĠ":13807,"contest":13808,":-":13809,"inĠturn":13810,"policy":13811,"Cook":13812,"otherap":13813,"criter":13814,"DNAĠ":13815,"alon":13816,"eez":13817,"room,Ġ":13818,"showĠthatĠ":13819,"360":13820,"estĠofĠ":13821,"After":13822,"ĠthoseĠthatĠ":13823,"butĠitĠ":13824,"IĠfeelĠ":13825,"excessĠ":13826,"forĠthis":13827,"coolĠ":13828,"lifetim":13829,"!)":13830,"injuryĠ":13831,"Chann":13832,"lookĠlikeĠ":13833,"winter":13834,"isĠgoingĠtoĠ":13835,"isĠwhatĠ":13836,"aĠbook":13837,"pectĠofĠ":13838,"gunĠ":13839,"ewis":13840,"ĠbutĠtheĠ":13841,"aĠmassiveĠ":13842,"IĠhaveĠbeenĠ":13843,"fixedĠ":13844,"aĠmonth":13845,"paceĠ":13846,"lover":13847,"worseĠ":13848,"shadow":13849,"ï»¿":13850,"Ell":13851,"GL":13852,"Categ":13853,"skyĠ":13854,"fromĠoneĠ":13855,"extension":13856,"secretĠ":13857,"opportunities":13858,"manifest":13859,"Lim":13860,"continuousĠ":13861,"bench":13862,"ĠtheĠsameĠtimeĠ":13863,"OnlineĠ":13864,"ountry":13865,"asĠsheĠ":13866,"Island":13867,"mineĠ":13868,"WhetherĠ":13869,"Ġcent":13870,"night,Ġ":13871,"childhoodĠ":13872,"yesĠ":13873,"ĠtoÂł":13874,".ĠFirst":13875,"aĠlargerĠ":13876,"\"D":13877,"ĠĠĠĠĠĠâĢ¢Ġ":13878,"Camer":13879,"chatĠ":13880,"insect":13881,"organizationĠ":13882,"itarianĠ":13883,"enceĠinĠ":13884,"HereĠareĠ":13885,"edĠmeĠtoĠ":13886,"BL":13887,"explod":13888,"irelessĠ":13889,"accompan":13890,"years.Ġ":13891,"Ġtoler":13892,"atedĠinĠtheĠ":13893,")Ġ-Ġ":13894,"ĠpointĠ":13895,"eros":13896,"YesĠ":13897,"Vill":13898,"withĠitsĠ":13899,"airĠofĠ":13900,"Other":13901,"America,Ġ":13902,"enciesĠ":13903,"hotel":13904,"vag":13905,".ĠSinc":13906,"Watch":13907,"ians,Ġ":13908,"planeĠ":13909,"Ath":13910,"[edit]Ċ":13911,"onĠwhatĠ":13912,"ector":13913,"eĠteam":13914,"permission":13915,"representativeĠ":13916,"rack":13917,"gust":13918,"Process":13919,"madeĠofĠ":13920,"focus":13921,"ArticleĠ":13922,"solidĠ":13923,"apparentĠ":13924,"(N":13925,"meanĠthatĠ":13926,"assin":13927,"Technolog":13928,"ano":13929,"Ġsens":13930,"regardingĠtheĠ":13931,"combatĠ":13932,"Chem":13933,"ing\"":13934,"medication":13935,"aĠto":13936,"ingsĠthatĠ":13937,"byt":13938,"es,":13939,"CivilĠ":13940,"HE":13941,"whileĠs":13942,"etĊ":13943,"CaptainĠ":13944,"isÂł":13945,"ostĠofĠ":13946,"molecul":13947,"Gul":13948,"callingĠ":13949,"use,Ġ":13950,"vegetabl":13951,"above,Ġ":13952,"alone":13953,"seemĠtoĠbeĠ":13954,"Ġdom":13955,",ĠthereâĢĻsĠ":13956,"/s":13957,"factoryĠ":13958,"eĠweb":13959,"brother":13960,"eĠdidĠnotĠ":13961,"AME":13962,"majorityĠ":13963,"parkingĠ":13964,"Ġpict":13965,"?ĠHow":13966,"forĠall":13967,"periodĠofĠ":13968,"rm":13969,"appliedĠ":13970,"veryĠgoodĠ":13971,"ServiceĠ":13972,"happenedĠtoĠ":13973,"orĠdis":13974,"repli":13975,"youĠeverĠ":13976,"sectionĠ":13977,"chapterĠ":13978,"aoĠ":13979,"legitimateĠ":13980,"areĠtheyĠ":13981,".ĠHe":13982,"eĠwentĠ":13983,"prediction":13984,"inĠsomeĠ":13985,"ipher":13986,"ation,ĠtheĠ":13987,"reliableĠ":13988,"educt":13989,"statementsĠ":13990,"s,ĠtoĠ":13991,"trad":13992,"tail":13993,"abĠ":13994,"ing)":13995,"GoogleĠScholar":13996,"weâĢĻveĠ":13997,"nerveĠ":13998,"sortĠ":13999,"goĊ":14000,"kickĠ":14001,"uallyĠtheĠ":14002,"Ġtrend":14003,"defĠ":14004,"inĠtheĠsam":14005,"gend":14006,"ie":14007,"font":14008,"alwaysĠbeĠ":14009,"Ġposition":14010,"omethingĠthatĠ":14011,"EasternĠ":14012,"UC":14013,"seĊ":14014,"itness":14015,"burnĠ":14016,"ĠtheĠfirstĠ":14017,"provideĠtheĠ":14018,"officersĠ":14019,"Ġpoints":14020,"eĠduringĠtheĠ":14021,"Are":14022,"whenĠyouĠareĠ":14023,".ĠSometimesĠ":14024,"discussionĠ":14025,"repeatedĠ":14026,"jectĠofĠ":14027,"mouthĠ":14028,"Qual":14029,"Ġ*/Ċ":14030,"policiesĠ":14031,"stuck":14032,"alĠofĠtheĠ":14033,"studioĠ":14034,"adequateĠ":14035,"Î¿":14036,"appearĠ":14037,"hash":14038,",ĠincludingĠ":14039,"ism.Ċ":14040,"dispos":14041,"episodeĠ":14042,"AF":14043,"ermalĠ":14044,"Rang":14045,"eĠcod":14046,"introduct":14047,"Mah":14048,"partialĠ":14049,"action,Ġ":14050,"allĠoverĠ":14051,"kingdom":14052,"Tax":14053,"shouldĠhaveĠ":14054,"processesĠ":14055,"UKĠ":14056,"changes":14057,"einĠ":14058,"ysic":14059,"Ġtrac":14060,"eĠdetail":14061,"DI":14062,"D-":14063,"Meg":14064,"opponent":14065,"minutesĠ":14066,"desireĠtoĠ":14067,"doĠsoĠ":14068,"pound":14069,",\\":14070,"ematicalĠ":14071,"calledĠ\"":14072,"Resourc":14073,"TrumpĠ":14074,"quantum":14075,".org/":14076,"Doug":14077,"appet":14078,"BeingĠ":14079,"e,ĠtoĠ":14080,"forĠtwoĠ":14081,"RussiaĠ":14082,"inueĠ":14083,"ationsĠtoĠ":14084,"er.ĠTheĠ":14085,"isĠinĠtheĠ":14086,"fearĠofĠ":14087,"ĠtransportĠ":14088,"a.Ġ":14089,"enforcementĠ":14090,"phosph":14091,"seeminglyĠ":14092,"seeĠwhatĠ":14093,"optimalĠ":14094,"employeeĠ":14095,"starsĠ":14096,"Ġtel":14097,"showedĠ":14098,"forĠseveralĠ":14099,"Ã¨":14100,"Ġwould":14101,"generationĠ":14102,"comeĠinĠ":14103,"Ġbreath":14104,"ĠthatĠwillĠ":14105,"weird":14106,"inĠaĠm":14107,"s.âĢĿĊ":14108,"improvementĠ":14109,"referĠtoĠ":14110,"menu":14111,"vamp":14112,"erlyĠ":14113,"JunĠ":14114,"Ġcloth":14115,"spark":14116,"workĠofĠ":14117,"Ġblack":14118,"wouldnâĢĻtĠ":14119,"olic":14120,"><br":14121,"zoneĠ":14122,"CON":14123,"Ð»":14124,"RoyalĠ":14125,"answerĠisĠ":14126,"eĠsens":14127,".ĠAfter":14128,"vĠ":14129,"ingingĠ":14130,"Est":14131,"recognizedĠ":14132,"hast":14133,"inhabit":14134,"isĠaĠm":14135,"prox":14136,"anxietyĠ":14137,"Ġten":14138,"ĠtalkĠaboutĠ":14139,"Tit":14140,"ages,Ġ":14141,"opeĠ":14142,"elfareĠ":14143,"!âĢĿĊ":14144,"basket":14145,"92":14146,"orousĠ":14147,"doĠtoĠ":14148,"ures.Ċ":14149,"{čĊ":14150,"areerĠ":14151,"upl":14152,".Ġ.Ġ.Ġ":14153,"intendedĠtoĠ":14154,"decis":14155,"andĠhisĠ":14156,"SenateĠ":14157,"ĠthinkĠaboutĠ":14158,"StephenĠ":14159,"salt":14160,"recordsĠ":14161,"cholar":14162,").ĠThisĠ":14163,"unusualĠ":14164,"UP":14165,"insightĠ":14166,"ers,ĠtheĠ":14167,"appearanc":14168,"ĠtheĠtwoĠ":14169,"pend":14170,"seud":14171,"YouTubeĠ":14172,"ĠmilesĠ":14173,"NeverĠ":14174,"ĠAMĊ":14175,"nameĠofĠtheĠ":14176,"ocyt":14177,"e.Âł":14178,"oâĢĻsĠ":14179,"ĠwasĠnotĠ":14180,"ĠpeopleĠ":14181,"everth":14182,"listeningĠtoĠ":14183,"intrigu":14184,"explainĠtheĠ":14185,"Â©Ġ":14186,"itĠup":14187,"equenc":14188,"performedĠ":14189,"contamin":14190,"offensiveĠ":14191,".ĠTwoĠ":14192,"professional":14193,"ĠĠĠĠĠĠĠĠ//":14194,"i.Ċ":14195,"early":14196,"repet":14197,"offeredĠ":14198,"Ġthings,Ġ":14199,"h,Ġ":14200,"spic":14201,"=Ġs":14202,"continuedĠ":14203,"adaĠ":14204,"esĠthem":14205,"ethyl":14206,"ere,Ġ":14207,"ĠMayĠ":14208,"member":14209,"ĠpostĠ":14210,"Turn":14211,"whisper":14212,"sweetĠ":14213,"openĠtheĠ":14214,"invis":14215,"andĠturn":14216,"sideĠofĠ":14217,"totalĠ":14218,"Field":14219,"fromĠbeingĠ":14220,"ant.Ċ":14221,"baseb":14222,"long-term":14223,"homeĠandĠ":14224,"it.ĠTheĠ":14225,"(L":14226,"thĠofĠtheĠ":14227,"identsĠ":14228,"knownĠtoĠ":14229,"aggreg":14230,"right.Ċ":14231,"ingĠbyĠ":14232,"photos":14233,"eĠsomeoneĠ":14234,"yesterday":14235,"WeekĠ":14236,"summer":14237,"ĠNew":14238,"EnergyĠ":14239,"fallenĠ":14240,"ĠcaseĠ":14241,"BM":14242,"comfortĠ":14243,"ThreeĠ":14244,"challengesĠ":14245,"putsĠ":14246,"âĢľtheĠ":14247,"surger":14248,"side,Ġ":14249,"intelligentĠ":14250,"ishop":14251,"productionĠofĠ":14252,"CatholicĠ":14253,"ĠfirstĠ":14254,"lord":14255,"forĠus":14256,"appearsĠ":14257,"counsel":14258,"picturesĠ":14259,"portionĠofĠ":14260,"ĠcontrolĠ":14261,"componentsĠ":14262,"fuckĠ":14263,"ĠtoĠtalk":14264,"Ġcompany":14265,"antibiot":14266,"money,Ġ":14267,"suchĠanĠ":14268,"Java":14269,"madeĠtoĠ":14270,"astingĠ":14271,"gat":14272,".ÂłÂł":14273,"sightĠ":14274,"WhyĠdoĠ":14275,"haveĠsomeĠ":14276,"Here":14277,"violenc":14278,"attemptĠ":14279,"elabor":14280,"began":14281,"luckyĠ":14282,"seemedĠtoĠ":14283,"musicalĠ":14284,"determineĠtheĠ":14285,"packageĠ":14286,"sĠbetweenĠ":14287,"coffeeĠ":14288,"ĠandĠhisĠ":14289,"andĠnotĠ":14290,"Ry":14291,"binaryĠ":14292,"endedĠup":14293,"ily,Ġ":14294,"milkĠ":14295,"etc.Ġ":14296,"didĠtheĠ":14297,"GameĠ":14298,"escapeĠ":14299,"uccessfulĠ":14300,"graphic":14301,"doĠthis":14302,"nameĠisĠ":14303,"BenĠ":14304,"packĠ":14305,"Friend":14306,"brought":14307,"eĠspac":14308,"Ġhere":14309,"Ġterri":14310,"everyĠdayĠ":14311,"drum":14312,"depict":14313,"ificationĠofĠ":14314,"aged":14315,"YetĠ":14316,"fift":14317,"movedĠ":14318,"upĠonĠ":14319,"substantialĠ":14320,"undredĠ":14321,"hadĠtoĠbeĠ":14322,"workĠwithĠ":14323,"Cur":14324,"describedĠ":14325,"admir":14326,"spokenĠ":14327,"extĠofĠ":14328,"iallyĠtheĠ":14329,",ĠbutĠtheyĠ":14330,"Ton":14331,"s,ĠthatĠ":14332,"rememb":14333,"Fall":14334,"ThereâĢĻsĠ":14335,"stir":14336,"annyĠ":14337,"understandingĠofĠtheĠ":14338,"trueĠ":14339,"I-":14340,"Sign":14341,"devicesĠ":14342,"painful":14343,"Ol":14344,"chestĠ":14345,"obes":14346,"destroyĠ":14347,"attyĠ":14348,"videosĠ":14349,"aĠhug":14350,"counterĠ":14351,"PowerĠ":14352,"Brad":14353,"nationsĠ":14354,"session":14355,".ĠThen,Ġ":14356,")ĠTheĠ":14357,"powerĠandĠ":14358,"drom":14359,"C,Ġ":14360,"Î½":14361,"turn":14362,"whenĠtheyĠareĠ":14363,"driverĠ":14364,"ogĠ":14365,"Fair":14366,"Compar":14367,"justiceĠ":14368,"oven":14369,"equipment":14370,".ĠOrĠ":14371,"screw":14372,"ysĠ":14373,"newĠb":14374,"olt":14375,"refersĠtoĠ":14376,"birdĠ":14377,".ĠYes,Ġ":14378,"bringingĠ":14379,"otic":14380,"ously":14381,"pizz":14382,
[...]
