{
  "version": "1.0",
  "truncation": null,
  "padding": null,
  "added_tokens": [
    {
      "id": 200000,
      "content": "|||IP_ADDRESS|||",
      "single_word": false,
      "lstrip": false,
      "rstrip": false,
      "normalized": true,
      "special": false
    },
    {
      "id": 200001,
      "content": "<|padding|>",
      "single_word": false,
      "lstrip": false,
      "rstrip": false,
      "normalized": false,
      "special": true
    },
    {
      "id": 200002,
      "content": "|||EMAIL_ADDRESS|||",
      "single_word": false,
      "lstrip": false,
      "rstrip": false,
      "normalized": true,
      "special": false
    },
    {
      "id": 200003,
      "content": "|||PHONE_NUMBER|||",
      "single_word": false,
      "lstrip": false,
      "rstrip": false,
      "normalized": true,
      "special": false
    },
    {
      "id": 200004,
      "content": "<|endoftext|>",
      "single_word": false,
      "lstrip": false,
      "rstrip": false,
      "normalized": false,
      "special": true
    }
  ],
  "normalizer": null,
  "pre_tokenizer": {
    "type": "Sequence",
    "pretokenizers": [
      {
        "type": "Digits",
        "individual_digits": false
      },
      {
        "type": "Split",
        "pattern": {
          "Regex": "(?=(\\d{3})+(?!\\d))"
        },
        "behavior": "Isolated",
        "invert": false
      },
      {
        "type": "ByteLevel",
        "add_prefix_space": false,
        "trim_offsets": true,
        "use_regex": false
      }
    ]
  },
  "post_processor": null,
  "decoder": null,
  "model": {
    "type": "BPE",
    "dropout": null,
    "unk_token": null,
    "continuing_subword_prefix": null,
    "end_of_word_suffix": null,
    "fuse_unk": false,
    "byte_fallback": false,
    "ignore_merges": false,
    "vocab": {
      "!": 0,
      "\"": 1,
      "#": 2,
      "$": 3,
      "%": 4,
      "&": 5,
      "'": 6,
      "(": 7,
      ")": 8,
      "*": 9,
      "+": 10,
      ",": 11,
      "-": 12,
      ".": 13,
      "/": 14,
      "0": 15,
      "1": 16,
      "2": 17,
      "3": 18,
      "4": 19,
      "5": 20,
      "6": 21,
      "7": 22,
      "8": 23,
      "9": 24,
      ":": 25,
      ";": 26,
      "<": 27,
      "=": 28,
      ">": 29,
      "?": 30,
      "@": 31,
      "A": 32,
      "B": 33,
      "C": 34,
      "D": 35,
      "E": 36,
      "F": 37,
      "G": 38,
      "H": 39,
      "I": 40,
      "J": 41,
      "K": 42,
      "L": 43,
      "M": 44,
      "N": 45,
      "O": 46,
      "P": 47,
      "Q": 48,
      "R": 49,
      "S": 50,
      "T": 51,
      "U": 52,
      "V": 53,
      "W": 54,
      "X": 55,
      "Y": 56,
      "Z": 57,
      "[": 58,
      "\\": 59,
      "]": 60,
      "^": 61,
      "_": 62,
      "`": 63,
      "a": 64,
      "b": 65,
      "c": 66,
      "d": 67,
      "e": 68,
      "f": 69,
      "g": 70,
      "h": 71,
      "i": 72,
      "j": 73,
      "k": 74,
      "l": 75,
      "m": 76,
      "n": 77,
      "o": 78,
      "p": 79,
      "q": 80,
      "r": 81,
      "s": 82,
      "t": 83,
      "u": 84,
      "v": 85,
      "w": 86,
      "x": 87,
      "y": 88,
      "z": 89,
      "{": 90,
      "|": 91,
      "}": 92,
      "~": 93,
      "\u00a1": 94,
      "\u00a2": 95,
      "\u00a3": 96,
      "\u00a4": 97,
      "\u00a5": 98,
      "\u00a6": 99,
      "\u00a7": 100,
      "\u00a8": 101,
      "\u00a9": 102,
      "\u00aa": 103,
      "\u00ab": 104,
      "\u00ac": 105,
      "\u00ae": 106,
      "\u00af": 107,
      "\u00b0": 108,
      "\u00b1": 109,
      "\u00b2": 110,
      "\u00b3": 111,
      "\u00b4": 112,
      "\u00b5": 113,
      "\u00b6": 114,
      "\u00b7": 115,
      "\u00b8": 116,
      "\u00b9": 117,
      "\u00ba": 118,
      "\u00bb": 119,
      "\u00bc": 120,
      "\u00bd": 121,
      "\u00be": 122,
      "\u00bf": 123,
      "\u00c2": 124,
      "\u00c3": 125,
      "\u00c4": 126,
      "\u00c5": 127,
      "\u00c6": 128,
      "\u00c7": 129,
      "\u00c8": 130,
      "\u00c9": 131,
      "\u00ca": 132,
      "\u00cb": 133,
      "\u00cc": 134,
      "\u00cd": 135,
      "\u00ce": 136,
      "\u00cf": 137,
      "\u00d0": 138,
      "\u00d1": 139,
      "\u00d2": 140,
      "\u00d3": 141,
      "\u00d4": 142,
      "\u00d5": 143,
      "\u00d6": 144,
      "\u00d7": 145,
      "\u00d8": 146,
      "\u00d9": 147,
      "\u00da": 148,
      "\u00db": 149,
      "\u00dc": 150,
      "\u00dd": 151,
      "\u00de": 152,
      "\u00df": 153,
      "\u00e0": 154,
      "\u00e1": 155,
      "\u00e2": 156,
      "\u00e3": 157,
      "\u00e4": 158,
      "\u00e5": 159,
      "\u00e6": 160,
      "\u00e7": 161,
      "\u00e8": 162,
      "\u00e9": 163,
      "\u00ea": 164,
      "\u00eb": 165,
      "\u00ec": 166,
      "\u00ed": 167,
      "\u00ee": 168,
      "\u00ef": 169,
      "\u00f0": 170,
      "\u00f1": 171,
      "\u00f2": 172,
      "\u00f3": 173,
      "\u00f4": 174,
      "\u0100": 175,
      "\u0101": 176,
      "\u0102": 177,
      "\u0103": 178,
      "\u0104": 179,
      "\u0105": 180,
      "\u0106": 181,
      "\u0107": 182,
      "\u0108": 183,
      "\u0109": 184,
      "\u010a": 185,
      "\u010b": 186,
      "\u010c": 187,
      "\u010d": 188,
      "\u010e": 189,
      "\u010f": 190,
      "\u0110": 191,
      "\u0111": 192,
      "\u0112": 193,
      "\u0113": 194,
      "\u0114": 195,
      "\u0115": 196,
      "\u0116": 197,
      "\u0117": 198,
      "\u0118": 199,
      "\u0119": 200,
      "\u011a": 201,
      "\u011b": 202,
      "\u011c": 203,
      "\u011d": 204,
      "\u011e": 205,
      "\u011f": 206,
      "\u0120": 207,
      "\u0121": 208,
      "\u0122": 209,
      "\u0123": 210,
      "\u0124": 211,
      "\u0125": 212,
      "\u0126": 213,
      "\u0127": 214,
      "\u0128": 215,
      "\u0129": 216,
      "\u012a": 217,
      "\u012b": 218,
      "\u012c": 219,
      "\u012d": 220,
      "\u012e": 221,
      "\u012f": 222,
      "\u0130": 223,
      "\u0131": 224,
      "\u0132": 225,
      "\u0133": 226,
      "\u0134": 227,
      "\u0135": 228,
      "\u0136": 229,
      "\u0137": 230,
      "\u0138": 231,
      "\u0139": 232,
      "\u013a": 233,
      "\u013b": 234,
      "\u013c": 235,
      "\u013d": 236,
      "\u013e": 237,
      "\u013f": 238,
      "\u0140": 239,
      "\u0141": 240,
      "\u0142": 241,
      "\u0143": 242,
      "\u0120t": 243,
      "\u0120a": 244,
      "he": 245,
      "in": 246,
      "re": 247,
      "\u0120the": 248,
      "on": 249,
      "\u0120s": 250,
      "er": 251,
      "\u0120w": 252,
      "at": 253,
      "\u0120o": 254,
      "\u0120c": 255,
      "nd": 256,
      "it": 257,
      "is": 258,
      "\u0120b": 259,
      "ou": 260,
      "es": 261,
      "en": 262,
      "ing": 263,
      "or": 264,
      "\u0120f": 265,
      "\u0120p": 266,
      "\u0120m": 267,
      "an": 268,
      "ed": 269,
      "\u0120to": 270,
      "al": 271,
      "\u0120d": 272,
      "ar": 273,
      "\u0120of": 274,
      "\u0120in": 275,
      "\u0120th": 276,
      "\u0120and": 277,
      "\u0120h": 278,
      "le": 279,
      "ic": 280,
      "as": 281,
      "om": 282,
      "\u0120\u0120": 283,
      "ion": 284,
      "\u0120l": 285,
      "\u0120n": 286,
      "\u0120e": 287,
      "ll": 288,
      "ve": 289,
      "ly": 290,
      "st": 291,
      "\u0120I": 292,
      "\u0120g": 293,
      "ent": 294,
      "\u0120re": 295,
      "\u0120be": 296,
      "ot": 297,
      "\u0120y": 298,
      "\u0120is": 299,
      "ct": 300,
      "ut": 301,
      "ow": 302,
      "et": 303,
      "\u00e2\u0122": 304,
      "\u0120that": 305,
      "\u0120you": 306,
      "ro": 307,
      "se": 308,
      "id": 309,
      "\u0120T": 310,
      "im": 311,
      "\u0120on": 312,
      "ay": 313,
      "\u0120u": 314,
      "\u0120it": 315,
      "ad": 316,
      "\u0120for": 317,
      "ig": 318,
      "ce": 319,
      "ver": 320,
      "ld": 321,
      "am": 322,
      "\u0120st": 323,
      "ur": 324,
      "ch": 325,
      "\u0120A": 326,
      "\u0120S": 327,
      "\u0120he": 328,
      "\u0120wh": 329,
      "ith": 330,
      "ir": 331,
      "ation": 332,
      "\u0120an": 333,
      "\u0120as": 334,
      "\u0120with": 335,
      "\u0120we": 336,
      "\u00c2\u0142": 337,
      "if": 338,
      "ol": 339,
      "ke": 340,
      "ra": 341,
      "\u0120ha": 342,
      "il": 343,
      "\u0120C": 344,
      "\u0120are": 345,
      "ter": 346,
      "her": 347,
      "ill": 348,
      "od": 349,
      "\u0120\u0120\u0120\u0120": 350,
      "\u0120con": 351,
      "ul": 352,
      "\u0120M": 353,
      "\u0120or": 354,
      "ge": 355,
      "\u0120was": 356,
      "op": 357,
      "\u0120The": 358,
      "\u0120se": 359,
      "ers": 360,
      "ck": 361,
      "\u0120B": 362,
      "ore": 363,
      "ate": 364,
      "\u0120de": 365,
      "\u00e2\u0122\u013b": 366,
      "\u0120(": 367,
      "\u0120com": 368,
      "ri": 369,
      "ess": 370,
      "us": 371,
      "\u0120pro": 372,
      "pe": 373,
      "\u0120not": 374,
      "ht": 375,
      "\u0120W": 376,
      "\u0120ex": 377,
      "um": 378,
      "\u0120at": 379,
      "\u0120P": 380,
      "est": 381,
      "\u0120have": 382,
      "\u0120r": 383,
      "ist": 384,
      "ab": 385,
      "\u0120H": 386,
      "ould": 387,
      "th": 388,
      "\u0120ne": 389,
      "ant": 390,
      "rom": 391,
      "em": 392,
      "qu": 393,
      "\u0120do": 394,
      "\u0120this": 395,
      "pp": 396,
      "\u0120v": 397,
      "\u0120su": 398,
      "\u0120can": 399,
      "nt": 400,
      "ain": 401,
      "ally": 402,
      "\u0120D": 403,
      "os": 404,
      "ment": 405,
      "ive": 406,
      "res": 407,
      "\u0120sh": 408,
      "ust": 409,
      "\u0120al": 410,
      "ight": 411,
      "un": 412,
      "ome": 413,
      "ity": 414,
      "\u0120ch": 415,
      "\u0120ab": 416,
      "and": 417,
      "\u0120from": 418,
      "\u0120by": 419,
      "el": 420,
      "out": 421,
      "art": 422,
      "\u0120R": 423,
      "\u0120le": 424,
      "\u0120F": 425,
      "\u0120k": 426,
      "\u0120they": 427,
      "ort": 428,
      "\u0120your": 429,
      "\u0120\u00e2\u0122": 430,
      "ies": 431,
      "\u0120go": 432,
      "\u0120but": 433,
      "\u0120j": 434,
      "\u0120so": 435,
      "\u0120wor": 436,
      "ie": 437,
      "ost": 438,
      "iv": 439,
      "\u0120whe": 440,
      "red": 441,
      "\u0120N": 442,
      "all": 443,
      "\u0120G": 444,
      "\u0120me": 445,
      "\u0120E": 446,
      "\u0120all": 447,
      "\u0120L": 448,
      "ak": 449,
      "oug": 450,
      "pt": 451,
      "ard": 452,
      "fe": 453,
      "\u0120\"": 454,
      "one": 455,
      "\u0120\u0120\u0120": 456,
      "oo": 457,
      "\u0120int": 458,
      "ure": 459,
      "\u0120pl": 460,
      "ide": 461,
      "\u0120li": 462,
      "..": 463,
      "ci": 464,
      "\u0120will": 465,
      "ag": 466,
      "our": 467,
      "\u0120us": 468,
      "ud": 469,
      "ast": 470,
      "ack": 471,
      "ther": 472,
      "\u0120O": 473,
      "\u0120out": 474,
      "pl": 475,
      "\u0120their": 476,
      "ction": 477,
      "The": 478,
      "ind": 479,
      "ine": 480,
      "ich": 481,
      "ame": 482,
      "\u0120tr": 483,
      "per": 484,
      "ous": 485,
      "ake": 486,
      "\u0120his": 487,
      "very": 488,
      "\u0120up": 489,
      "\u0120more": 490,
      "ound": 491,
      "\u0120my": 492,
      "00": 493,
      "ong": 494,
      "\u0120has": 495,
      "age": 496,
      "\u0120one": 497,
      "og": 498,
      "\u0120about": 499,
      "\u0120J": 500,
      "ime": 501,
      "ac": 502,
      "au": 503,
      "\u0120like": 504,
      "\u0120en": 505,
      "\u0120who": 506,
      "ough": 507,
      "\u0120im": 508,
      "ans": 509,
      "\u0120Th": 510,
      "\u0120ar": 511,
      "iz": 512,
      "are": 513,
      "\u0120some": 514,
      "ook": 515,
      "\u0120ad": 516,
      "ated": 517,
      "act": 518,
      "so": 519,
      "\u0120would": 520,
      "\u0120comp": 521,
      "\u0120te": 522,
      "\u0120if": 523,
      "ice": 524,
      "\u0120cl": 525,
      "\u0120there": 526,
      "ue": 527,
      "\u0120pe": 528,
      "ap": 529,
      "\u0120them": 530,
      "\u0120what": 531,
      "\u0120fe": 532,
      "\u0120other": 533,
      "\u0120kn": 534,
      "\u0120which": 535,
      "\u0120man": 536,
      "able": 537,
      "\u0120get": 538,
      "\u0120cont": 539,
      "ven": 540,
      "cc": 541,
      "\u0120U": 542,
      "\u0120when": 543,
      "ep": 544,
      "ib": 545,
      "ink": 546,
      "ite": 547,
      "ople": 548,
      "ear": 549,
      "\u0120were": 550,
      "ical": 551,
      "\u0120any": 552,
      "\u0120bec": 553,
      "\u0120had": 554,
      "\u0120It": 555,
      "\u0120un": 556,
      "ult": 557,
      "ions": 558,
      "own": 559,
      "ays": 560,
      "\u0120just": 561,
      "\u0120qu": 562,
      "ry": 563,
      "orm": 564,
      "ass": 565,
      "\u0120sa": 566,
      "\u0120time": 567,
      "\u0120Y": 568,
      "\u0120res": 569,
      "ose": 570,
      "\u0120her": 571,
      "ile": 572,
      "\u0120-": 573,
      "\u00e2\u0122\u013f": 574,
      "ip": 575,
      "ance": 576,
      "\u0120people": 577,
      "ace": 578,
      "\u0120dis": 579,
      "ence": 580,
      "oc": 581,
      "ber": 582,
      "\u0120In": 583,
      "ase": 584,
      "ach": 585,
      "\u0120work": 586,
      "ire": 587,
      "ause": 588,
      "\u0120ag": 589,
      "ary": 590,
      "reat": 591,
      "\u0120than": 592,
      "ress": 593,
      "ings": 594,
      "\u0120no": 595,
      "ations": 596,
      "ia": 597,
      "ign": 598,
      "\u0120how": 599,
      "ub": 600,
      "int": 601,
      "cl": 602,
      "du": 603,
      "ff": 604,
      "\u0120\u0120\u0120\u0120\u0120\u0120\u0120\u0120": 605,
      "\u0120into": 606,
      "\u0120per": 607,
      "ru": 608,
      "ick": 609,
      "\u0120K": 610,
      "\u0120been": 611,
      "ne": 612,
      "\u0120sp": 613,
      "\u0120also": 614,
      "\u0120over": 615,
      "av": 616,
      "\u0120part": 617,
      "\u0120gr": 618,
      "\u0120\u00e2\u0122\u013e": 619,
      "hing": 620,
      "ount": 621,
      "vel": 622,
      "ens": 623,
      "\u0120pr": 624,
      "\u0120know": 625,
      "ang": 626,
      "\u0120spe": 627,
      "ove": 628,
      "ond": 629,
      "ree": 630,
      "\u0120pre": 631,
      "\u00c2\u0142\u00c2\u0142": 632,
      "ial": 633,
      "nder": 634,
      "ory": 635,
      "ord": 636,
      "\u0120imp": 637,
      "te": 638,
      "\u0120need": 639,
      "\u0120off": 640,
      "\u0120she": 641,
      "ood": 642,
      "\u0120our": 643,
      "\u0120bl": 644,
      "\u0120year": 645,
      "ition": 646,
      "\u0120po": 647,
      "\u0120only": 648,
      "ail": 649,
      "ren": 650,
      "\u0120am": 651,
      "\u0120sc": 652,
      "\u0120bet": 653,
      "ents": 654,
      "we": 655,
      "ild": 656,
      "ors": 657,
      "\u0120could": 658,
      "ark": 659,
      "\u0120He": 660,
      "form": 661,
      "\u0120new": 662,
      "\u0120app": 663,
      "sel": 664,
      "\u0120because": 665,
      "\u0120St": 666,
      "hat": 667,
      "\u0120dif": 668,
      "ov": 669,
      "itt": 670,
      "rent": 671,
      "\u0120want": 672,
      "ob": 673,
      "ect": 674,
      ").": 675,
      "\u0120ro": 676,
      "irst": 677,
      "\u0120act": 678,
      "\u0120think": 679,
      "\u0120don": 680,
      "fter": 681,
      "\u0120co": 682,
      "\u0120tw": 683,
      "ces": 684,
      "\u0120then": 685,
      "ater": 686,
      "\u0120Ch": 687,
      "\u0120him": 688,
      "01": 689,
      "\u0120make": 690,
      "uch": 691,
      "ict": 692,
      "\u0120most": 693,
      "\u0120may": 694,
      "ons": 695,
      "\u0120V": 696,
      "mer": 697,
      "ious": 698,
      "ish": 699,
      "ple": 700,
      "\u0120every": 701,
      "urn": 702,
      "\u0120rec": 703,
      "ade": 704,
      "\u0120This": 705,
      "ual": 706,
      "\u0120see": 707,
      "\u0120back": 708,
      "\u0120its": 709,
      "\u0120did": 710,
      "\u0120way": 711,
      "\u0120even": 712,
      "\u0120these": 713,
      "\u0120thr": 714,
      "\u0120use": 715,
      "\u0120does": 716,
      "\u0120should": 717,
      "\u0120under": 718,
      "\u0120said": 719,
      "ell": 720,
      "\u0120sy": 721,
      "...": 722,
      "omet": 723,
      "wn": 724,
      "ates": 725,
      "\u0120fl": 726,
      "\u0120look": 727,
      "ian": 728,
      "oy": 729,
      "\u0120cons": 730,
      "end": 731,
      "\u0120des": 732,
      "xt": 733,
      "hy": 734,
      "\u0120acc": 735,
      "ft": 736,
      "\u0120\u00e2\u0122\u00a2": 737,
      "ull": 738,
      "\u0120where": 739,
      "\u0120very": 740,
      "\u0120much": 741,
      "fore": 742,
      "erv": 743,
      "other": 744,
      "hed": 745,
      "\u0120comm": 746,
      "vers": 747,
      "ble": 748,
      "\u0120first": 749,
      "fect": 750,
      "ually": 751,
      "\u0120ind": 752,
      "igh": 753,
      "\u0120rel": 754,
      "\u0120two": 755,
      "hen": 756,
      "ise": 757,
      "\u0120good": 758,
      "ating": 759,
      "\u0120many": 760,
      "\u0120bu": 761,
      "\u0120wr": 762,
      "ific": 763,
      "oss": 764,
      "\u0120diffe": 765,
      "ife": 766,
      "ath": 767,
      "\u0120ra": 768,
      "ks": 769,
      "\u0120hel": 770,
      "\u0120tra": 771,
      "ning": 772,
      "\u0120em": 773,
      "\u0120inc": 774,
      "\u0120being": 775,
      "\u0120sm": 776,
      "\u0120through": 777,
      "lic": 778,
      "ily": 779,
      "\u0120You": 780,
      "\u0120too": 781,
      "\u0120now": 782,
      "\u0120br": 783,
      "les": 784,
      "\u0120inter": 785,
      "gr": 786,
      "iss": 787,
      "cess": 788,
      "cial": 789,
      "\u0120ke": 790,
      "ower": 791,
      "\u0120well": 792,
      "\u0120right": 793,
      "\u0120att": 794,
      "ert": 795,
      "\u0120after": 796,
      "\u0120help": 797,
      "erm": 798,
      "\u0120gen": 799,
      "\u0120rem": 800,
      "\u0120And": 801,
      "ful": 802,
      "aking": 803,
      "\u0120pers": 804,
      "ject": 805,
      "ange": 806,
      "\u0120down": 807,
      "ting": 808,
      "ock": 809,
      "ty": 810,
      "ments": 811,
      "get": 812,
      "ible": 813,
      "oll": 814,
      "\u0120somet": 815,
      "\u0120add": 816,
      "\u0120=": 817,
      "\u0120such": 818,
      "\u0120long": 819,
      "10": 820,
      "\u0120If": 821,
      "aw": 822,
      "ph": 823,
      "oth": 824,
      "\u0120ev": 825,
      "pect": 826,
      "self": 827,
      "\u0120We": 828,
      "ced": 829,
      ".\"": 830,
      "ew": 831,
      "ular": 832,
      "\u0120those": 833,
      "--": 834,
      "\u0120again": 835,
      "ec": 836,
      "\u0120inv": 837,
      "\u0120ob": 838,
      "),": 839,
      "\u0120rep": 840,
      "lect": 841,
      "olog": 842,
      "li": 843,
      "\u0120say": 844,
      "stem": 845,
      "\u0120years": 846,
      "ics": 847,
      "\u0120But": 848,
      "\u0120really": 849,
      "\u0120sim": 850,
      "iew": 851,
      "\u0120own": 852,
      "old": 853,
      "\u0120$": 854,
      "\u0120'": 855,
      "ative": 856,
      "\u0120start": 857,
      "ars": 858,
      "\u0120play": 859,
      "ere": 860,
      "\u0120gu": 861,
      "\u0120call": 862,
      "rib": 863,
      "\u0120same": 864,
      "\u0120supp": 865,
      "\u0120used": 866,
      "\u0120dec": 867,
      "ont": 868,
      "\u0120inst": 869,
      "\u0120produ": 870,
      "clud": 871,
      "als": 872,
      "\u0120end": 873,
      "\u0120bel": 874,
      "\u0120cr": 875,
      "In": 876,
      "\u0120reg": 877,
      "its": 878,
      "\u0120point": 879,
      "ility": 880,
      "\u0120take": 881,
      "\u0120before": 882,
      "\u0120going": 883,
      "\u0120sec": 884,
      "ident": 885,
      "ever": 886,
      "alk": 887,
      "\u0120still": 888,
      "ffect": 889,
      "\u0120read": 890,
      "Th": 891,
      "\u0120ac": 892,
      "day": 893,
      "ities": 894,
      "hes": 895,
      "\u0120find": 896,
      "\u0120set": 897,
      "cept": 898,
      "\u0120They": 899,
      "ote": 900,
      "ows": 901,
      "\u0120world": 902,
      "ave": 903,
      "\u0120different": 904,
      "\u0120pol": 905,
      "ased": 906,
      "\u0120person": 907,
      "ought": 908,
      "\u0120real": 909,
      "\u0120col": 910,
      "up": 911,
      "imes": 912,
      "\u0120sub": 913,
      "\u0120ent": 914,
      "\u0120aw": 915,
      "\u0120ph": 916,
      "ween": 917,
      "\u0120system": 918,
      "ef": 919,
      "ied": 920,
      "\u0120mod": 921,
      "\u0120stud": 922,
      "\u0120things": 923,
      "ody": 924,
      "\u0120sur": 925,
      "ax": 926,
      "\u0120hand": 927,
      "\u0120As": 928,
      "\u0120life": 929,
      "cy": 930,
      "akes": 931,
      "ms": 932,
      "ving": 933,
      "\u0120something": 934,
      "\u0120here": 935,
      "\u0120happ": 936,
      "\u0120feel": 937,
      "ather": 938,
      "ract": 939,
      "\u0120che": 940,
      "\u0120str": 941,
      "read": 942,
      "\u0120made": 943,
      "\u0120between": 944,
      "\u0120ins": 945,
      "\u0120day": 946,
      "\u0120prov": 947,
      "\u0120while": 948,
      "\u0120num": 949,
      "\u0120ass": 950,
      "uring": 951,
      "ures": 952,
      "ution": 953,
      "\u0120car": 954,
      "ince": 955,
      "\u0120exper": 956,
      "\u0120around": 957,
      "\u0120char": 958,
      "\u0120sl": 959,
      "tern": 960,
      "gg": 961,
      "\u0120great": 962,
      "ata": 963,
      "\u0120high": 964,
      "\u0120[": 965,
      "owing": 966,
      "\u0120So": 967,
      "\u0120pres": 968,
      "\u0120met": 969,
      "\u0120fact": 970,
      "\u0120An": 971,
      "ying": 972,
      "thing": 973,
      "\u0120trans": 974,
      "ues": 975,
      "ward": 976,
      "ness": 977,
      "ize": 978,
      "ically": 979,
      "\u0120lot": 980,
      "\u0120exp": 981,
      "\u0120min": 982,
      "\u0120includ": 983,
      "\u0120each": 984,
      "\u0120count": 985,
      "ix": 986,
      "the": 987,
      "ool": 988,
      "ins": 989,
      "ited": 990,
      "ps": 991,
      "ism": 992,
      "any": 993,
      "\u00c2\u0142\u010a": 994,
      "\u0120def": 995,
      "alth": 996,
      "ng": 997,
      "\u0120cre": 998,
      "\u0120mon": 999,
      "ank": 1000,
      "led": 1001,
      "\u0120How": 1002,
      "air": 1003,
      "ittle": 1004,
      "\u0120quest": 1005,
      "\u0120fin": 1006,
      "ives": 1007,
      "\u0120gener": 1008,
      "ctions": 1009,
      "arch": 1010,
      "\u0120Re": 1011,
      "be": 1012,
      "ah": 1013,
      "velop": 1014,
      "com": 1015,
      "\u0120Un": 1016,
      "gan": 1017,
      "ways": 1018,
      "atch": 1019,
      "\u0120exam": 1020,
      "ines": 1021,
      "\u0120ret": 1022,
      "\u0120might": 1023,
      "\u0120ty": 1024,
      "20": 1025,
      "\u0120\u0120\u0120\u0120\u0120\u0120\u0120": 1026,
      "\u0120med": 1027,
      "\u0120fun": 1028,
      "ten": 1029,
      "ason": 1030,
      "con": 1031,
      "\u0120det": 1032,
      "\u0120proble": 1033,
      "ublic": 1034,
      "\u0120There": 1035,
      "\u0120op": 1036,
      "ational": 1037,
      "meric": 1038,
      "\u0120art": 1039,
      "ves": 1040,
      "\u0120seem": 1041,
      "\u0120foll": 1042,
      "\u0120few": 1043,
      "\u0120cor": 1044,
      "\u0120val": 1045,
      "\u0120ear": 1046,
      "\u0120never": 1047,
      "\u0120both": 1048,
      "ists": 1049,
      "ss": 1050,
      "ork": 1051,
      "It": 1052,
      "\u0120ap": 1053,
      "und": 1054,
      "\u0120cur": 1055,
      "\u0120requ": 1056,
      "\u0120sign": 1057,
      "\u0120form": 1058,
      "\u0120child": 1059,
      "ices": 1060,
      "ense": 1061,
      "\u0120little": 1062,
      "ages": 1063,
      "der": 1064,
      "\u0120using": 1065,
      "\u0120disc": 1066,
      "\u0120run": 1067,
      "\u0120why": 1068,
      "hip": 1069,
      "ved": 1070,
      "io": 1071,
      "less": 1072,
      "\u0120import": 1073,
      "\u0120fam": 1074,
      "ale": 1075,
      "12": 1076,
      "\u0120hum": 1077,
      "\u0120better": 1078,
      "ys": 1079,
      "vern": 1080,
      "\u0120found": 1081,
      "iness": 1082,
      "\u0120Al": 1083,
      "\u0120ser": 1084,
      "erest": 1085,
      "ex": 1086,
      "ner": 1087,
      "\u0120poss": 1088,
      "\u0120cle": 1089,
      "\u0120fil": 1090,
      "ger": 1091,
      "pr": 1092,
      "ute": 1093,
      "\u0120last": 1094,
      "stand": 1095,
      "\u0120put": 1096,
      "\u0120For": 1097,
      "ern": 1098,
      "\u0120ide": 1099,
      "\u0120let": 1100,
      "\u0120gl": 1101,
      "\u0120Americ": 1102,
      "\u0120comple": 1103,
      "\u0120another": 1104,
      "\u0120develop": 1105,
      "riend": 1106,
      "\u0120expl": 1107,
      "ouse": 1108,
      "\u0120best": 1109,
      "ric": 1110,
      "ention": 1111,
      "\u0120cour": 1112,
      "fl": 1113,
      "\u0120got": 1114,
      "\u0120mov": 1115,
      "\u0120lead": 1116,
      "az": 1117,
      "\u0120ext": 1118,
      "oney": 1119,
      "\u0120keep": 1120,
      "\u0120effect": 1121,
      "uth": 1122,
      "\u0120result": 1123,
      "ized": 1124,
      "\u0120belie": 1125,
      "\u0120lar": 1126,
      "\u0120without": 1127,
      "\u0120always": 1128,
      "\u0120sk": 1129,
      "\u0120hard": 1130,
      "\u0120bus": 1131,
      "\u0120That": 1132,
      "\u0120mark": 1133,
      "\u0120el": 1134,
      "arm": 1135,
      "\u0120thing": 1136,
      "ably": 1137,
      "\u0120power": 1138,
      "\u0120process": 1139,
      "\u0120eas": 1140,
      "\u0120dist": 1141,
      "\u0120come": 1142,
      "chn": 1143,
      "\u0120state": 1144,
      "\u00c2\u0142\u00c2\u0142\u00c2\u0142\u00c2\u0142": 1145,
      "\u0120i": 1146,
      "ient": 1147,
      "\u0120less": 1148,
      "\u0120inform": 1149,
      "ead": 1150,
      "\u0120fr": 1151,
      "ts": 1152,
      "11": 1153,
      "ature": 1154,
      ",\"": 1155,
      "\u0120turn": 1156,
      "gy": 1157,
      "ash": 1158,
      "\u0120ask": 1159,
      "\u0120var": 1160,
      "\u0120serv": 1161,
      "\u0120What": 1162,
      "\u0120big": 1163,
      "ets": 1164,
      "\u0120mem": 1165,
      "000": 1166,
      "\u0120post": 1167,
      "ode": 1168,
      "\u0120ref": 1169,
      "\u0120spec": 1170,
      "uss": 1171,
      "\u0120ca": 1172,
      "\u0120small": 1173,
      "atter": 1174,
      "\u0120bo": 1175,
      "ined": 1176,
      "\u0120interest": 1177,
      "uck": 1178,
      "This": 1179,
      "iting": 1180,
      "\u0120head": 1181,
      "\u0120wom": 1182,
      "\u0120place": 1183,
      "ug": 1184,
      "\u0120old": 1185,
      "ertain": 1186,
      "\u0120home": 1187,
      "pend": 1188,
      "\u0120word": 1189,
      "\u0120data": 1190,
      "\u0120dire": 1191,
      "uc": 1192,
      "here": 1193,
      "\u0120av": 1194,
      "\u0120must": 1195,
      "\u0120mean": 1196,
      "\u0120di": 1197,
      "sw": 1198,
      "\u0120loc": 1199,
      "\u0120resp": 1200,
      "\u0120water": 1201,
      "\u0120book": 1202,
      "\u0120adv": 1203,
      "\u0120lear": 1204,
      "ience": 1205,
      "\u0120\u00e2\u0122\u0135": 1206,
      "\u0120sol": 1207,
      "\u0120Is": 1208,
      "\u0120govern": 1209,
      "\u0120care": 1210,
      "\u0120number": 1211,
      "\u0120Sh": 1212,
      "man": 1213,
      "ider": 1214,
      "ared": 1215,
      "\u0120grou": 1216,
      "\u0120thought": 1217,
      ".\u00e2\u0122\u013f": 1218,
      "chool": 1219,
      "ately": 1220,
      "\u0120show": 1221,
      "amp": 1222,
      "\u0120class": 1223,
      "\u0120pass": 1224,
      "\u0120incre": 1225,
      "\u0120main": 1226,
      "\u0120partic": 1227,
      "ption": 1228,
      "ants": 1229,
      "rol": 1230,
      "\u010d\u010a": 1231,
      "\u0120wee": 1232,
      "\u0120Com": 1233,
      "\u0120plan": 1234,
      "\u0120iss": 1235,
      "ames": 1236,
      "\u0120understand": 1237,
      "15": 1238,
      "\u0120actually": 1239,
      "err": 1240,
      "\u0120money": 1241,
      "\u0120sure": 1242,
      "\u0120pat": 1243,
      "\u0120since": 1244,
      "\u0120level": 1245,
      "ret": 1246,
      "\u0120important": 1247,
      "\u0120ed": 1248,
      "\u0120pay": 1249,
      "ology": 1250,
      "\u0120tri": 1251,
      "\u0120tell": 1252,
      "\u0120three": 1253,
      "view": 1254,
      "oun": 1255,
      "\u0120against": 1256,
      "ired": 1257,
      "to": 1258,
      "ier": 1259,
      "\u0120She": 1260,
      "\u0120didn": 1261,
      "\u0120beh": 1262,
      "ee": 1263,
      "ural": 1264,
      "\u0120enough": 1265,
      "\u0120stand": 1266,
      "\u0120test": 1267,
      "What": 1268,
      "rop": 1269,
      "ases": 1270,
      "\u0120case": 1271,
      "\u0120doesn": 1272,
      "\u0120during": 1273,
      "ield": 1274,
      "osed": 1275,
      "\u0120rest": 1276,
      "\u0120often": 1277,
      "\u0120Wh": 1278,
      "\u0120mus": 1279,
      "ety": 1280,
      "\u0120example": 1281,
      "oh": 1282,
      "ruct": 1283,
      "\u0120list": 1284,
      "line": 1285,
      "\u0120Ar": 1286,
      "iving": 1287,
      "me": 1288,
      "\u0120friend": 1289,
      "\u0120says": 1290,
      "gram": 1291,
      "\u00e2\u0122\u0136": 1292,
      "ross": 1293,
      "\u0120vis": 1294,
      "\u0120techn": 1295,
      "br": 1296,
      "ters": 1297,
      "\u0120kind": 1298,
      "\u0120able": 1299,
      "\u0120pop": 1300,
      "\u0120information": 1301,
      "land": 1302,
      "\u0120law": 1303,
      "bs": 1304,
      "You": 1305,
      "\u0120health": 1306,
      "\u0120away": 1307,
      "\u0120game": 1308,
      "\u0120body": 1309,
      "aj": 1310,
      "\u0120cent": 1311,
      "\u0120pur": 1312,
      "\u0120support": 1313,
      "\u0120conf": 1314,
      "\u0120give": 1315,
      "ital": 1316,
      "\u0120open": 1317,
      "//": 1318,
      "\u0120talk": 1319,
      "\u0120*": 1320,
      "30": 1321,
      "rence": 1322,
      "\u0120gra": 1323,
      "\u0120contin": 1324,
      ");": 1325,
      "\u0120bre": 1326,
      "\u0120unt": 1327,
      "\u0120second": 1328,
      "\u0120love": 1329,
      "oot": 1330,
      "\u0120change": 1331,
      "\u0120next": 1332,
      "99": 1333,
      "\u0120though": 1334,
      "iven": 1335,
      "\u0120When": 1336,
      "\u0120business": 1337,
      "\u0120dri": 1338,
      "\u0120pos": 1339,
      "\u0120dr": 1340,
      "\u0120dem": 1341,
      "\u0120top": 1342,
      "\u0120bra": 1343,
      "\u0120New": 1344,
      "inal": 1345,
      "\u0120commun": 1346,
      "orn": 1347,
      "\u0120\u0120\u0120\u0120\u0120": 1348,
      "\u0120const": 1349,
      "\u0120happen": 1350,
      "ither": 1351,
      "\u00e2\u0122\u00a6": 1352,
      "dd": 1353,
      "\u0120build": 1354,
      "\u0120charact": 1355,
      "\u0120called": 1356,
      "ling": 1357,
      "\u0120question": 1358,
      "If": 1359,
      "\u0120sit": 1360,
      "\u0120opp": 1361,
      "\u0120product": 1362,
      "aug": 1363,
      "ok": 1364,
      "ides": 1365,
      "\u0120name": 1366,
      "ality": 1367,
      "\u0120De": 1368,
      "ats": 1369,
      "\u0120term": 1370,
      "\u0120full": 1371,
      "\u0120Br": 1372,
      "arent": 1373,
      "\u0120chang": 1374,
      "\u0120prof": 1375,
      "\u0120{": 1376,
      "\u0120public": 1377,
      "\u0120bas": 1378,
      "\u0120problem": 1379,
      "We": 1380,
      "\u0120far": 1381,
      "\u0120free": 1382,
      "\u0120food": 1383,
      "sh": 1384,
      "bers": 1385,
      "\u0120left": 1386,
      "\u0120war": 1387,
      "\u0120school": 1388,
      "\u0120appe": 1389,
      "\u0120prev": 1390,
      "port": 1391,
      "\u0120government": 1392,
      "\u0120means": 1393,
      "\u0120doing": 1394,
      "\u0120equ": 1395,
      "\u0120someone": 1396,
      "\u0120human": 1397,
      "\u0120light": 1398,
      "St": 1399,
      "50": 1400,
      "ember": 1401,
      "ently": 1402,
      "ivid": 1403,
      "\u0120move": 1404,
      "\u0120bit": 1405,
      "not": 1406,
      "sc": 1407,
      "\u0120reason": 1408,
      "\u0120leg": 1409,
      "\u0120prob": 1410,
      "\u0120making": 1411,
      "\u0120having": 1412,
      "lf": 1413,
      "\u0120pri": 1414,
      "ik": 1415,
      "oad": 1416,
      "\u0120program": 1417,
      "\u0120cost": 1418,
      "\u0120makes": 1419,
      "ream": 1420,
      "\u0120month": 1421,
      "ids": 1422,
      "reen": 1423,
      "\u0120order": 1424,
      "13": 1425,
      "ains": 1426,
      "\u0120certain": 1427,
      "\u0120times": 1428,
      "ump": 1429,
      "gin": 1430,
      "\u0120\u0120\u0120\u0120\u0120\u0120\u0120\u0120\u0120\u0120\u0120\u0120\u0120\u0120\u0120\u0120": 1431,
      "ered": 1432,
      "\u0120.": 1433,
      "\u0120answ": 1434,
      "\u0120Q": 1435,
      "ator": 1436,
      "cent": 1437,
      "\u0120On": 1438,
      "ished": 1439,
      "\u0120until": 1440,
      "\u0120es": 1441,
      "\u0120sw": 1442,
      "\u0120hist": 1443,
      "\u0120design": 1444,
      "\u0120|": 1445,
      "\u0120mind": 1446,
      "\u0120US": 1447,
      "\u0120done": 1448,
      "\u0120ele": 1449,
      "\u0120story": 1450,
      "\u0120job": 1451,
      "\u0120direct": 1452,
      "\u0120large": 1453,
      "\u0120--": 1454,
      "ploy": 1455,
      "med": 1456,
      "\u0120Pro": 1457,
      "\u0120ever": 1458,
      "ann": 1459,
      "14": 1460,
      "ien": 1461,
      "eng": 1462,
      "ering": 1463,
      "\u0120least": 1464,
      "\u0120par": 1465,
      "els": 1466,
      "cing": 1467,
      "conom": 1468,
      "\u0120cap": 1469,
      "ready": 1470,
      "att": 1471,
      "icle": 1472,
      "\u0120polit": 1473,
      "\u0120return": 1474,
      "\u0120ey": 1475,
      "ird": 1476,
      "uff": 1477,
      "16": 1478,
      "ision": 1479,
      "ining": 1480,
      "hys": 1481,
      "ott": 1482,
      "atic": 1483,
      "aring": 1484,
      "\u0120ve": 1485,
      "\u0120family": 1486,
      "How": 1487,
      "\u0120become": 1488,
      "ron": 1489,
      "\u0120course": 1490,
      "\u0120team": 1491,
      "\u0120side": 1492,
      "ope": 1493,
      "\u0120days": 1494,
      "\u0120appro": 1495,
      "\u0120invest": 1496,
      "work": 1497,
      "\u0120sing": 1498,
      "\u0120market": 1499,
      "ustom": 1500,
      "\u0120occ": 1501,
      "ization": 1502,
      "\u0120possible": 1503,
      "\u0120perform": 1504,
      "itive": 1505,
      "\u0120Cl": 1506,
      "ised": 1507,
      "rist": 1508,
      "lease": 1509,
      "\u0120control": 1510,
      "\u0120current": 1511,
      "ccess": 1512,
      "\u0120&": 1513,
      "\u0120ben": 1514,
      "\u0120et": 1515,
      "\u0120already": 1516,
      "\u0120line": 1517,
      "\u0120stop": 1518,
      "\u0120air": 1519,
      "\u0120organ": 1520,
      "ories": 1521,
      "__": 1522,
      "\u0120Be": 1523,
      "most": 1524,
      "\u0120bad": 1525,
      "\u0120others": 1526,
      "\u0120anything": 1527,
      "\u0120\u00e2\u0122\u013a": 1528,
      "\u0120men": 1529,
      "rap": 1530,
      "iqu": 1531,
      "\u0120prot": 1532,
      "\u0120Z": 1533,
      "\u0120To": 1534,
      "\u0120getting": 1535,
      "app": 1536,
      "iter": 1537,
      "\u0120rese": 1538,
      "ional": 1539,
      "of": 1540,
      "\u0120try": 1541,
      "\u0120children": 1542,
      "18": 1543,
      "\u0120At": 1544,
      "used": 1545,
      "ential": 1546,
      "**": 1547,
      "ulation": 1548,
      "ards": 1549,
      "\u0120within": 1550,
      "ided": 1551,
      "\u0120eng": 1552,
      "\u0120Bl": 1553,
      "\u0120Tr": 1554,
      "\u0120<": 1555,
      "aps": 1556,
      "An": 1557,
      "iron": 1558,
      "ton": 1559,
      "\u0120proper": 1560,
      "ajor": 1561,
      "\u0120sound": 1562,
      "\u0120group": 1563,
      "by": 1564,
      "\u0120country": 1565,
      "ified": 1566,
      "hod": 1567,
      "\u0120view": 1568,
      "As": 1569,
      "\u0120Se": 1570,
      "ane": 1571,
      "\u0120\\": 1572,
      "\u0120pot": 1573,
      "ged": 1574,
      "ries": 1575,
      "\u0120once": 1576,
      "ox": 1577,
      "ior": 1578,
      "\u0120hour": 1579,
      "ffic": 1580,
      "illion": 1581,
      "\u0120report": 1582,
      "\u0120idea": 1583,
      "\u0120econom": 1584,
      "\u0120past": 1585,
      "So": 1586,
      "ians": 1587,
      "pro": 1588,
      "idd": 1589,
      "\u0120learn": 1590,
      "\u0120mil": 1591,
      "\u0120pa": 1592,
      "ured": 1593,
      "\u00e2\u0122\u013e": 1594,
      "\u0120typ": 1595,
      "\u0120However": 1596,
      "\u0120cell": 1597,
      "\u0120mar": 1598,
      "\u0120clear": 1599,
      "\u0120else": 1600,
      "aim": 1601,
      "\u0120dra": 1602,
      "\u0120mom": 1603,
      "\u0120dev": 1604,
      "\u0120ris": 1605,
      "\u0120short": 1606,
      "ilar": 1607,
      "\u0120experience": 1608,
      "\u0120company": 1609,
      "ument": 1610,
      "\u0120est": 1611,
      "put": 1612,
      "25": 1613,
      "\u0120cond": 1614,
      "And": 1615,
      "\u0120sci": 1616,
      "\u0120came": 1617,
      "ral": 1618,
      "ina": 1619,
      "\u0120elect": 1620,
      "\u0120probably": 1621,
      "ury": 1622,
      "\u0120creat": 1623,
      "\u0120believe": 1624,
      "ividual": 1625,
      "\u0120kill": 1626,
      "oid": 1627,
      "\u0120non": 1628,
      "\u0120common": 1629,
      "\u0120night": 1630,
      "\u0120pain": 1631,
      "\u0120given": 1632,
      "ource": 1633,
      "\u0120fore": 1634,
      "\u0120:": 1635,
      "\u0120expect": 1636,
      "\u0120complete": 1637,
      "ination": 1638,
      "\u0120matter": 1639,
      "cially": 1640,
      "itions": 1641,
      "\u0120lim": 1642,
      "ony": 1643,
      "side": 1644,
      "\u0120women": 1645,
      "way": 1646,
      "let": 1647,
      "\u0120today": 1648,
      "ability": 1649,
      "arr": 1650,
      "\u0120Ind": 1651,
      "\u0120All": 1652,
      "\u0120dep": 1653,
      "\u0120isn": 1654,
      "\u0120prom": 1655,
      "ium": 1656,
      "\u0120Do": 1657,
      "\u0120house": 1658,
      "ush": 1659,
      "\u0120pract": 1660,
      "17": 1661,
      "\u0120oper": 1662,
      "\u0120allow": 1663,
      "There": 1664,
      "selves": 1665,
      "cer": 1666,
      "over": 1667,
      "ivers": 1668,
      "oint": 1669,
      "cle": 1670,
      "outh": 1671,
      "ained": 1672,
      "19": 1673,
      "par": 1674,
      "ots": 1675,
      "aster": 1676,
      "\u0120social": 1677,
      "\u0120particular": 1678,
      "\u0120tem": 1679,
      "\u0120trying": 1680,
      "\u0120either": 1681,
      "But": 1682,
      "\u0120major": 1683,
      "\u0120self": 1684,
      "\u0120toget": 1685,
      "\u0120working": 1686,
      "\u0120together": 1687,
      "\u0120Le": 1688,
      "\u0120whole": 1689,
      "\u0120sever": 1690,
      "ortun": 1691,
      "\u0120based": 1692,
      "\u0120went": 1693,
      "\u0120anal": 1694,
      "oice": 1695,
      "\u0120seen": 1696,
      "\u0120ener": 1697,
      "\u0120specific": 1698,
      "\u0120desc": 1699,
      "\u0120God": 1700,
      "\u0120low": 1701,
      "\u0120rather": 1702,
      "alf": 1703,
      "\u0120individual": 1704,
      "\u0120Or": 1705,
      "\u0120looking": 1706,
      "ived": 1707,
      "\u0120My": 1708,
      "ike": 1709,
      "\u0120/": 1710,
      "\u0120diff": 1711,
      "for": 1712,
      "\u0120conne": 1713,
      "\u0120custom": 1714,
      "\u0120later": 1715,
      "uro": 1716,
      "\u0120consider": 1717,
      "\u0120Ex": 1718,
      "\u0120activ": 1719,
      "\u0120near": 1720,
      "ration": 1721,
      "uthor": 1722,
      "angu": 1723,
      "\u0120known": 1724,
      "gen": 1725,
      "\u0120No": 1726,
      "\u0120nothing": 1727,
      "\u0120present": 1728,
      "\u0120fre": 1729,
      "\u0120answer": 1730,
      "\u0120comes": 1731,
      "\u0120invol": 1732,
      "ances": 1733,
      "\u0120check": 1734,
      "\u0120redu": 1735,
      "ply": 1736,
      "ER": 1737,
      "\u0120type": 1738,
      "----": 1739,
      "utes": 1740,
      "\u0120aut": 1741,
      "\u0120yet": 1742,
      "\u0120\u00c2\u0142": 1743,
      "\u0120phys": 1744,
      "\u0120success": 1745,
      "\u0120orig": 1746,
      "\u0120ant": 1747,
      "\u0120hold": 1748,
      "\u0120value": 1749,
      "\u0120intern": 1750,
      "\u0120seems": 1751,
      "\u0120American": 1752,
      "ify": 1753,
      "\u0120cal": 1754,
      "\u0120several": 1755,
      "\u0120Con": 1756,
      "\u0120Sp": 1757,
      "\u0120ident": 1758,
      "\u0120amount": 1759,
      "ted": 1760,
      "\u0120cult": 1761,
      "\u0120including": 1762,
      "\u0120live": 1763,
      "min": 1764,
      "\u0120function": 1765,
      "\u0120deal": 1766,
      "\u0120record": 1767,
      "\u0120following": 1768,
      "\u0120true": 1769,
      "\u0120miss": 1770,
      "\u0120arg": 1771,
      "\u0120account": 1772,
      "\u0120Pl": 1773,
      "\u0120Fr": 1774,
      "\u0120mult": 1775,
      "\u0120everything": 1776,
      "\u0120treat": 1777,
      "iously": 1778,
      "\u0120z": 1779,
      "\u0120tax": 1780,
      "\u0120hig": 1781,
      "\u0120won": 1782,
      "\u0120method": 1783,
      "\u0120X": 1784,
      "\u0120land": 1785,
      "ched": 1786,
      "\u0120pret": 1787,
      "\u0120room": 1788,
      "eral": 1789,
      "\u0120four": 1790,
      "\u0120needs": 1791,
      "\u0120wa": 1792,
      "\u0120cou": 1793,
      "aken": 1794,
      "\u0120young": 1795,
      "\u0120vers": 1796,
      "ware": 1797,
      "ggest": 1798,
      "\u0120#": 1799,
      "\u0120face": 1800,
      "ery": 1801,
      "\u0120strong": 1802,
      "\u0120impro": 1803,
      "\u0120tre": 1804,
      "\u0120character": 1805,
      "\u0120quick": 1806,
      "\u0120week": 1807,
      "\u0120words": 1808,
      "\u0120took": 1809,
      "24": 1810,
      "He": 1811,
      "\u0120benef": 1812,
      "\u0120along": 1813,
      "ones": 1814,
      "mb": 1815,
      "\u0120opt": 1816,
      "\u0120likely": 1817,
      "\u0120ago": 1818,
      "\u0120energy": 1819,
      "idence": 1820,
      "\u0120almost": 1821,
      "\u0120project": 1822,
      "\u0120create": 1823,
      "\u0120hy": 1824,
      "\u0120press": 1825,
      "ression": 1826,
      "\u0120Rep": 1827,
      "\u0120whether": 1828,
      "por": 1829,
      "\u0120vari": 1830,
      "\u0120started": 1831,
      "ole": 1832,
      "ctor": 1833,
      "itional": 1834,
      "\u0120bro": 1835,
      "\u0120rece": 1836,
      "uture": 1837,
      "\u0120Christ": 1838,
      "ape": 1839,
      "\u0120sal": 1840,
      "though": 1841,
      "\u0120conc": 1842,
      "\u0120follow": 1843,
      "\u0120pretty": 1844,
      "\u0120sense": 1845,
      "wh": 1846,
      "irl": 1847,
      "\u0120One": 1848,
      "omm": 1849,
      "\u0120avail": 1850,
      "\u0120Can": 1851,
      "\u0120These": 1852,
      "\u0120inf": 1853,
      "ills": 1854,
      "\u0120win": 1855,
      "\u0120foc": 1856,
      "\",": 1857,
      "\u0120phot": 1858,
      "urther": 1859,
      "\u0120suggest": 1860,
      "\u0120fail": 1861,
      "gs": 1862,
      "\u0120exist": 1863,
      "pecially": 1864,
      "\u0120told": 1865,
      "lish": 1866,
      "\u0120sex": 1867,
      "sy": 1868,
      "ama": 1869,
      "\u0120trad": 1870,
      "icult": 1871,
      "\u0120quite": 1872,
      "aces": 1873,
      "use": 1874,
      "\u0120+": 1875,
      "\u0120grow": 1876,
      "\u0120area": 1877,
      "\u0120employ": 1878,
      "100": 1879,
      "21": 1880,
      "ully": 1881,
      "\u0120comput": 1882,
      "\u0120provide": 1883,
      "\u0109\u0109": 1884,
      "\u0120mor": 1885,
      "viron": 1886,
      "\u0120vide": 1887,
      "\u0120music": 1888,
      "\u0120step": 1889,
      "\u0120buy": 1890,
      "\u0120above": 1891,
      "\u0120mess": 1892,
      "\u0120everyone": 1893,
      "\u0120heart": 1894,
      "\u0120Not": 1895,
      "ohn": 1896,
      "\u0120key": 1897,
      "\u0120close": 1898,
      "\u0120event": 1899,
      "de": 1900,
      "urs": 1901,
      "\u0120Sc": 1902,
      "\u0120attack": 1903,
      "ney": 1904,
      "ising": 1905,
      "\u0120access": 1906,
      "\u0120Mar": 1907,
      "\u0120entire": 1908,
      "ext": 1909,
      "\u0120fall": 1910,
      "\u0120infl": 1911,
      "elt": 1912,
      "\u0120object": 1913,
      "\u0120simply": 1914,
      "\u0120net": 1915,
      ",\u00e2\u0122\u013f": 1916,
      "\u0120cut": 1917,
      "ients": 1918,
      "\u0120claim": 1919,
      "\u0120similar": 1920,
      "ler": 1921,
      "gle": 1922,
      "ored": 1923,
      "\u0120blood": 1924,
      "\u0120pict": 1925,
      "\u0120single": 1926,
      "22": 1927,
      "ison": 1928,
      "!!": 1929,
      "ording": 1930,
      "ches": 1931,
      "\u0120\u0120\u0120\u0120\u0120\u0120\u0120\u0120\u0120\u0120\u0120": 1932,
      "\u0120deb": 1933,
      "\u0120usually": 1934,
      "Ch": 1935,
      "wards": 1936,
      "\u0120break": 1937,
      "\u0120langu": 1938,
      "\u0120history": 1939,
      "\u0120film": 1940,
      "\u0120due": 1941,
      ".)": 1942,
      "\u0120relations": 1943,
      "uation": 1944,
      "my": 1945,
      "\u0120space": 1946,
      "nding": 1947,
      "For": 1948,
      "\u0120With": 1949,
      "unt": 1950,
      "When": 1951,
      "\u0120nat": 1952,
      "where": 1953,
      "\u0120Eng": 1954,
      "\u0120local": 1955,
      "orth": 1956,
      "\u0120May": 1957,
      "\u0120abs": 1958,
      "anks": 1959,
      "\u0120future": 1960,
      "\u0120comb": 1961,
      "soci": 1962,
      "40": 1963,
      "ples": 1964,
      "\u0120Pr": 1965,
      "\u0120anim": 1966,
      "\u0120watch": 1967,
      "aut": 1968,
      "\u0120death": 1969,
      "\u0120meas": 1970,
      "\u0120mag": 1971,
      "\u0120friends": 1972,
      "iod": 1973,
      "\u0120Ad": 1974,
      "\u0120available": 1975,
      "co": 1976,
      "\u0120begin": 1977,
      "\u0120discuss": 1978,
      "yn": 1979,
      "pped": 1980,
      "olution": 1981,
      "ively": 1982,
      "urity": 1983,
      "\u0120mot": 1984,
      "\u0120meet": 1985,
      "\u0120tot": 1986,
      "\u0120taking": 1987,
      "\u0120difficult": 1988,
      "ene": 1989,
      "\u0120walk": 1990,
      "\u0120norm": 1991,
      "\u0120age": 1992,
      "\u0120repl": 1993,
      "\u0120field": 1994,
      "\u0120black": 1995,
      "ental": 1996,
      "\u0120offic": 1997,
      "\u0120research": 1998,
      "\u0120wrong": 1999,
      "ially": 2000,
      "\u0120super": 2001,
      "\u0120early": 2002,
      "\u0120sent": 2003,
      "lling": 2004,
      ".,": 2005,
      "ript": 2006,
      "rect": 2007,
      "\u0120cir": 2008,
      "str": 2009,
      "\u0120wond": 2010,
      "\u0120easy": 2011,
      "acy": 2012,
      "\u0120necess": 2013,
      "\u0120themselves": 2014,
      "resent": 2015,
      "aterial": 2016,
      "\u0120etc": 2017,
      "\u0120cause": 2018,
      "\u0120instead": 2019,
      "\u0120issue": 2020,
      "fer": 2021,
      "\u0120cra": 2022,
      "\u0120wind": 2023,
      "\u0120signific": 2024,
      "\u0120soft": 2025,
      "rodu": 2026,
      "\u0120prop": 2027,
      "\u0120wanted": 2028,
      "\u0120enc": 2029,
      "\u0120half": 2030,
      "vironment": 2031,
      "\u0120lab": 2032,
      "\u0120applic": 2033,
      "like": 2034,
      "\u0120fund": 2035,
      "?\"": 2036,
      "\u0120cannot": 2037,
      "val": 2038,
      "\u0120sn": 2039,
      "aining": 2040,
      "lement": 2041,
      "\u0120parent": 2042,
      "\u0120study": 2043,
      "\u0120works": 2044,
      "\u0120simple": 2045,
      "oud": 2046,
      "\u0120text": 2047,
      "\u0120across": 2048,
      "imate": 2049,
      "\u0120problems": 2050,
      "leep": 2051,
      "\u0120Some": 2052,
      "ask": 2053,
      "rew": 2054,
      "ma": 2055,
      "\u0120la": 2056,
      "istic": 2057,
      "IN": 2058,
      "\u0120Ph": 2059,
      "ires": 2060,
      "\u0120ways": 2061,
      "\u0120dam": 2062,
      "\u0120depend": 2063,
      "empt": 2064,
      "ogn": 2065,
      "ume": 2066,
      "\u0120however": 2067,
      "ources": 2068,
      "60": 2069,
      "ges": 2070,
      "joy": 2071,
      "\u0120link": 2072,
      "igure": 2073,
      "\u0120pie": 2074,
      "ites": 2075,
      "orts": 2076,
      "oose": 2077,
      "ules": 2078,
      "ique": 2079,
      "enn": 2080,
      "une": 2081,
      "\u0120exact": 2082,
      "\u0120special": 2083,
      "\u0120news": 2084,
      "23": 2085,
      "\u0120itself": 2086,
      "\u0120results": 2087,
      "\u0120}": 2088,
      "iol": 2089,
      "\u0120especially": 2090,
      "ley": 2091,
      "ried": 2092,
      "son": 2093,
      "\u0120colle": 2094,
      "\u0120United": 2095,
      "\u0120political": 2096,
      "ands": 2097,
      "\u0120city": 2098,
      "\u0120indust": 2099,
      "verse": 2100,
      "oon": 2101,
      "\u0120questions": 2102,
      "ging": 2103,
      "\u0120anyone": 2104,
      "verage": 2105,
      "98": 2106,
      "\u0120asked": 2107,
      "ister": 2108,
      "ateg": 2109,
      "ule": 2110,
      "\u0120article": 2111,
      "\u0120points": 2112,
      "\u0120log": 2113,
      "\u0120mass": 2114,
      "\u0120behind": 2115,
      "Re": 2116,
      "\u0120hours": 2117,
      "\u0120ess": 2118,
      "asing": 2119,
      "\u0120students": 2120,
      "\u0120fav": 2121,
      "\u0120fight": 2122,
      "book": 2123,
      "\u0120higher": 2124,
      "\u0120comment": 2125,
      "\u0120author": 2126,
      "yle": 2127,
      "\u0120model": 2128,
      "\u0120risk": 2129,
      "\u0120priv": 2130,
      "uses": 2131,
      "ibility": 2132,
      "body": 2133,
      "\u0120determ": 2134,
      "\u0120personal": 2135,
      "\u0120cred": 2136,
      "\u0120bar": 2137,
      "\u0120compan": 2138,
      "\u0120describ": 2139,
      "\u0120bring": 2140,
      "\u00e2\u0122\u0135": 2141,
      "\u0120stay": 2142,
      "\u0120include": 2143,
      "\u0120,": 2144,
      "\u0120period": 2145,
      "irt": 2146,
      "\u0120neg": 2147,
      "ault": 2148,
      "Wh": 2149,
      "\u0120lo": 2150,
      "oke": 2151,
      "itor": 2152,
      "urope": 2153,
      "\u0120sum": 2154,
      "\u0120general": 2155,
      "\u0120service": 2156,
      "\u0120accept": 2157,
      "\u0120months": 2158,
      "ued": 2159,
      "\u0120pick": 2160,
      "\u0120respons": 2161,
      "\u0120require": 2162,
      "\u0120eyes": 2163,
      "\u0120takes": 2164,
      "\u0120relationship": 2165,
      "\u0120among": 2166,
      "che": 2167,
      "\u0120yourself": 2168,
      "\u0120rad": 2169,
      "\".": 2170,
      "arget": 2171,
      "\u0120dest": 2172,
      "orr": 2173,
      "unch": 2174,
      "AT": 2175,
      "ledge": 2176,
      "\u0120material": 2177,
      "\u0120polic": 2178,
      "omes": 2179,
      "\u0120struct": 2180,
      "\u0120detail": 2181,
      "bo": 2182,
      "reme": 2183,
      "ency": 2184,
      "osp": 2185,
      "ude": 2186,
      "\u0120rele": 2187,
      "\u0120dou": 2188,
      "\u0120needed": 2189,
      "face": 2190,
      "\u0120defin": 2191,
      "\u0120code": 2192,
      "back": 2193,
      "error": 2194,
      "\u0120goes": 2195,
      "\u0120significant": 2196,
      "ift": 2197,
      "\u0120imm": 2198,
      "orld": 2199,
      "\u0120wasn": 2200,
      "itch": 2201,
      "\u0120longer": 2202,
      "\u0120gets": 2203,
      "ference": 2204,
      "\u0120moment": 2205,
      "\u0120taken": 2206,
      "\u0120obs": 2207,
      "\u0120media": 2208,
      "\u0120enjoy": 2209,
      "\u0120vol": 2210,
      "erc": 2211,
      "\u0120front": 2212,
      "\u0120ann": 2213,
      "\u0120John": 2214,
      "\u0120stra": 2215,
      "nds": 2216,
      "\u0120red": 2217,
      "action": 2218,
      "ai": 2219,
      "\u0120issues": 2220,
      "\u0120environment": 2221,
      "ilt": 2222,
      "==": 2223,
      "ication": 2224,
      "haps": 2225,
      "\u0120saying": 2226,
      "\u0120soci": 2227,
      "\u0120cop": 2228,
      "vert": 2229,
      "ological": 2230,
      "go": 2231,
      "ON": 2232,
      "augh": 2233,
      "\u0120video": 2234,
      "\u0120Te": 2235,
      "\u0120States": 2236,
      "On": 2237,
      "\u0120white": 2238,
      "\u0120Your": 2239,
      "itting": 2240,
      "\u0120file": 2241,
      "ators": 2242,
      "\u0120further": 2243,
      "\u0120saw": 2244,
      "\u0120position": 2245,
      "\u0120compl": 2246,
      "\u0120online": 2247,
      "\u0120educ": 2248,
      "ips": 2249,
      "\u0120Am": 2250,
      "\u0120After": 2251,
      "\u0120Now": 2252,
      "aced": 2253,
      "\u0120Gr": 2254,
      "\u0120changes": 2255,
      "light": 2256,
      "\u0120content": 2257,
      "icro": 2258,
      "iet": 2259,
      "\u0120language": 2260,
      "\u0120girl": 2261,
      "\u0120development": 2262,
      "\u0120minutes": 2263,
      "\u0120behav": 2264,
      "raph": 2265,
      "\u0120movie": 2266,
      "miss": 2267,
      "\u0120million": 2268,
      "\u0120prote": 2269,
      "\u0120profess": 2270,
      "\u0120tool": 2271,
      "set": 2272,
      "gress": 2273,
      "To": 2274,
      "bl": 2275,
      "itten": 2276,
      "\u0120Why": 2277,
      "ring": 2278,
      "uge": 2279,
      "\u0120ground": 2280,
      "uly": 2281,
      "\u0120Europe": 2282,
      "\u0120\u00e2\u0122\u0136": 2283,
      "\u0120stat": 2284,
      "\u0120outside": 2285,
      "hers": 2286,
      "\u0120living": 2287,
      "AR": 2288,
      "\u0120five": 2289,
      "\u0120chall": 2290,
      "play": 2291,
      "\u0120weight": 2292,
      "iction": 2293,
      "\u0120camp": 2294,
      "\u0120crit": 2295,
      "ables": 2296,
      "\u0120address": 2297,
      "Al": 2298,
      "\u0120remember": 2299,
      "\u0120protect": 2300,
      "\u0120cy": 2301,
      "eed": 2302,
      "ecause": 2303,
      "\u0120woman": 2304,
      "\u0120sens": 2305,
      "iding": 2306,
      "\u0120pred": 2307,
      "\u0120x": 2308,
      "\u0120worth": 2309,
      "\u0120various": 2310,
      "\u0120relig": 2311,
      "roll": 2312,
      "\u0120companies": 2313,
      "\u0120Res": 2314,
      "\u0120Im": 2315,
      "28": 2316,
      "\u0120coming": 2317,
      "iddle": 2318,
      "ensive": 2319,
      "\u0120stuff": 2320,
      "\u0120blog": 2321,
      "()": 2322,
      "\u0120Sy": 2323,
      "mit": 2324,
      "\u0120port": 2325,
      "\u0120compet": 2326,
      "\u0120thinking": 2327,
      "head": 2328,
      "\u0120ste": 2329,
      "\u0120Ob": 2330,
      "\u0120oil": 2331,
      "chie": 2332,
      "na": 2333,
      "\u0120size": 2334,
      "ubl": 2335,
      "\u0120Then": 2336,
      "\u0120fire": 2337,
      "\u0120affect": 2338,
      "\u0120dru": 2339,
      "\u0120hope": 2340,
      "onse": 2341,
      "\u0120Man": 2342,
      "ster": 2343,
      "\u0120doc": 2344,
      "aged": 2345,
      "\u0120Col": 2346,
      "\u0120himself": 2347,
      "\u0120ones": 2348,
      "\u0120running": 2349,
      "\u0120rate": 2350,
      "27": 2351,
      "\u0120pack": 2352,
      "iversity": 2353,
      "osing": 2354,
      "\u0120upon": 2355,
      "\u0120review": 2356,
      "\u0120kids": 2357,
      "....": 2358,
      "oms": 2359,
      "\u0120subject": 2360,
      "\u0120His": 2361,
      "97": 2362,
      "\u0120Pe": 2363,
      "\u0120conv": 2364,
      "\u0120aud": 2365,
      "\u0120inside": 2366,
      "ung": 2367,
      "\u0120eff": 2368,
      "\u0120dig": 2369,
      "\u0120increase": 2370,
      "\u0120mention": 2371,
      "umb": 2372,
      "\u0120members": 2373,
      "\u0120search": 2374,
      "tt": 2375,
      "\u0120represent": 2376,
      "\u0120dom": 2377,
      "\u0120natural": 2378,
      "ST": 2379,
      "\u0120price": 2380,
      "\u0120soon": 2381,
      "right": 2382,
      "\u0120sometimes": 2383,
      "\u0120America": 2384,
      "\u0120ill": 2385,
      "\u0120store": 2386,
      "\u0120Car": 2387,
      "\u0120write": 2388,
      "af": 2389,
      "atures": 2390,
      "mon": 2391,
      "lt": 2392,
      "\u0120Just": 2393,
      "\u0120attempt": 2394,
      "ilities": 2395,
      "\u0120lower": 2396,
      "\u0120mother": 2397,
      "\u0120song": 2398,
      "\u0120action": 2399,
      "\u0120technology": 2400,
      "\u0120manage": 2401,
      "26": 2402,
      "\u0120leave": 2403,
      "fully": 2404,
      "itary": 2405,
      "oogle": 2406,
      "\u0120sort": 2407,
      "era": 2408,
      "\u0120App": 2409,
      "\u0120block": 2410,
      "ming": 2411,
      "\u0120writing": 2412,
      "medi": 2413,
      "That": 2414,
      "rel": 2415,
      "\u0120role": 2416,
      "Sh": 2417,
      "\u0120consum": 2418,
      "AN": 2419,
      "\u0120perfect": 2420,
      "\u0120page": 2421,
      "\u0120lost": 2422,
      "\u0120cases": 2423,
      "\u0120deep": 2424,
      "\u0120terms": 2425,
      "\u0120respect": 2426,
      "\u0120associ": 2427,
      "aving": 2428,
      "\u0120mach": 2429,
      "\u0120share": 2430,
      "\u0120lay": 2431,
      "mber": 2432,
      "tend": 2433,
      "\u0120heard": 2434,
      "\u0120bi": 2435,
      "\u0120sleep": 2436,
      "\u0120community": 2437,
      "\u0120track": 2438,
      "\u0120games": 2439,
      "\u0120path": 2440,
      "ray": 2441,
      "oved": 2442,
      "\u0120party": 2443,
      "\u0120hot": 2444,
      "ze": 2445,
      "\u0120speak": 2446,
      "\u0120init": 2447,
      "\u0120viol": 2448,
      "reg": 2449,
      "\u0120percent": 2450,
      "\u0120potential": 2451,
      "\u0120target": 2452,
      "\u0120difference": 2453,
      "\u0120focus": 2454,
      "\u0120Me": 2455,
      "\u0120dise": 2456,
      "utions": 2457,
      "\u0120imag": 2458,
      "\u0120webs": 2459,
      "\u0120became": 2460,
      "ili": 2461,
      "\u0120brain": 2462,
      "\u0120Fl": 2463,
      "ocr": 2464,
      "\u0120concern": 2465,
      "izing": 2466,
      "\u0120interesting": 2467,
      "\u0120pull": 2468,
      "\u0120maybe": 2469,
      "\u0120systems": 2470,
      "\u0120Su": 2471,
      "\u0120impact": 2472,
      "\u0120shows": 2473,
      "ises": 2474,
      "cul": 2475,
      "\u0120hands": 2476,
      "\u0120approach": 2477,
      "\u0120prim": 2478,
      "\u0120aff": 2479,
      "\u0120clean": 2480,
      "\u0120felt": 2481,
      "\u0120By": 2482,
      "\u0120picture": 2483,
      "\u0120reading": 2484,
      "\u0120created": 2485,
      "\u0120countries": 2486,
      "ification": 2487,
      "eb": 2488,
      "overed": 2489,
      "\u0120ep": 2490,
      "\u0120paper": 2491,
      "\u0120\u010a": 2492,
      "amed": 2493,
      "anger": 2494,
      "eth": 2495,
      "oor": 2496,
      "\u0120myself": 2497,
      "usion": 2498,
      "\u0120situation": 2499,
      "ences": 2500,
      "\u0120eat": 2501,
      "\u0120version": 2502,
      "\u0120knew": 2503,
      "ommend": 2504,
      "\u0120ens": 2505,
      "\u0120talking": 2506,
      "\u0120hear": 2507,
      "\u0120source": 2508,
      "\u0120Af": 2509,
      "\u0120completely": 2510,
      "sp": 2511,
      "\u0120site": 2512,
      "\u0120couple": 2513,
      "oes": 2514,
      "\u0120table": 2515,
      "\u0120exc": 2516,
      "\u0120correct": 2517,
      "\u0120quickly": 2518,
      "RE": 2519,
      "\u0120evidence": 2520,
      "asons": 2521,
      "\u0120card": 2522,
      "aves": 2523,
      "No": 2524,
      "\u0120phone": 2525,
      "\u0120sat": 2526,
      "\u0120products": 2527,
      "\u0120purp": 2528,
      "\u0120War": 2529,
      "\u0120lives": 2530,
      "\u0120ability": 2531,
      "\u0120swe": 2532,
      "ysis": 2533,
      "bit": 2534,
      "\u0120image": 2535,
      "\u0120building": 2536,
      "My": 2537,
      "\u0120series": 2538,
      "ems": 2539,
      "\u0120computer": 2540,
      "\u0120loss": 2541,
      "ev": 2542,
      "\u0120slow": 2543,
      "\u0120boy": 2544,
      "):": 2545,
      "80": 2546,
      "\u0120popular": 2547,
      "eter": 2548,
      "\u0120achie": 2549,
      "\u0120improve": 2550,
      "\u0120Qu": 2551,
      "ese": 2552,
      "apt": 2553,
      "isc": 2554,
      "ening": 2555,
      "\u0120exactly": 2556,
      "\u0120user": 2557,
      "\u00c2\u0142\u00c2\u0142\u00c2\u0142\u00c2\u0142\u00c2\u0142\u00c2\u0142\u00c2\u0142\u00c2\u0142": 2558,
      "\u0120Gu": 2559,
      "\u0120@": 2560,
      "obal": 2561,
      "\u0120opportun": 2562,
      "\u00c3\u00a9": 2563,
      "\u0120connect": 2564,
      "reet": 2565,
      "\u0120quality": 2566,
      "lex": 2567,
      "\u0120knowledge": 2568,
      "\u0120En": 2569,
      "ourn": 2570,
      "idered": 2571,
      "\u0120below": 2572,
      "\u0120offer": 2573,
      "\u0120original": 2574,
      "\u0120skin": 2575,
      "\u0120influ": 2576,
      "\u0120recogn": 2577,
      "\u0120experien": 2578,
      "come": 2579,
      "\u0120looked": 2580,
      "ball": 2581,
      "\u0120concept": 2582,
      "ades": 2583,
      "\u0120foot": 2584,
      "itted": 2585,
      "urch": 2586,
      "\u0120levels": 2587,
      "\u0120Pres": 2588,
      "\u0120happened": 2589,
      "\u0120del": 2590,
      "\u0120fair": 2591,
      "\u0120complex": 2592,
      "\u0120effects": 2593,
      "oe": 2594,
      "atever": 2595,
      "\u0120coun": 2596,
      "\u0120dead": 2597,
      "ped": 2598,
      "29": 2599,
      "gest": 2600,
      "\u0120engine": 2601,
      "\u0120dark": 2602,
      "\u0120squ": 2603,
      "add": 2604,
      "\u0120finan": 2605,
      "\u0120regard": 2606,
      "\u0120physical": 2607,
      "012": 2608,
      "\u0120lack": 2609,
      "\u0120except": 2610,
      "ement": 2611,
      "\u0120travel": 2612,
      "\u0120fac": 2613,
      "ned": 2614,
      "\u0120began": 2615,
      "\u0120extra": 2616,
      "\u0120beaut": 2617,
      "\u0120fast": 2618,
      "\u0120Inst": 2619,
      "\u0120separ": 2620,
      "\u0120hit": 2621,
      "\u0120cells": 2622,
      "\u0120considered": 2623,
      "load": 2624,
      "\u0120services": 2625,
      "\u0120drink": 2626,
      "duct": 2627,
      "://": 2628,
      "\u0120bott": 2629,
      "\u0120parents": 2630,
      "\u0120appear": 2631,
      "\u0120ball": 2632,
      "ny": 2633,
      "ached": 2634,
      "zy": 2635,
      "oring": 2636,
      "\u0120While": 2637,
      "ams": 2638,
      "\u0120security": 2639,
      "ober": 2640,
      "cious": 2641,
      "\u0120required": 2642,
      "\u0120surpr": 2643,
      "etic": 2644,
      "\u0120force": 2645,
      "\u0120continue": 2646,
      "fort": 2647,
      "\u0120bal": 2648,
      "=\"": 2649,
      "\u0120recommend": 2650,
      "90": 2651,
      "\u0120scient": 2652,
      "\u0120\u00c2": 2653,
      "\u0120tried": 2654,
      "ground": 2655,
      "mp": 2656,
      "\u0120Brit": 2657,
      "\u0120jud": 2658,
      "\u0120circ": 2659,
      "\u0120speed": 2660,
      "NA": 2661,
      "\u0120fill": 2662,
      "\u0120states": 2663,
      "\u0120attention": 2664,
      "\u0120father": 2665,
      "\u0120mat": 2666,
      "\u0120looks": 2667,
      "ressed": 2668,
      "\u0120Don": 2669,
      "\u0120stri": 2670,
      "\u0120ut": 2671,
      "\u0120Ab": 2672,
      "\u0120Per": 2673,
      "ana": 2674,
      "irth": 2675,
      "\u0120coll": 2676,
      "ops": 2677,
      "\u0120normal": 2678,
      "\u0120favor": 2679,
      "\u0120nice": 2680,
      "].": 2681,
      "\u0120avoid": 2682,
      "\u0120Mr": 2683,
      "\u0120sus": 2684,
      "\u0120learning": 2685,
      "\u00e0\u00a4": 2686,
      "\u0120indic": 2687,
      "ari": 2688,
      "\u0120aren": 2689,
      "\u0120meaning": 2690,
      "\u0120nature": 2691,
      "hel": 2692,
      "\u0120mis": 2693,
      "\u0120safe": 2694,
      "\u0120areas": 2695,
      "\u0120obv": 2696,
      "\u0120bab": 2697,
      "\u0120response": 2698,
      "pping": 2699,
      "Why": 2700,
      "\u0120range": 2701,
      "ran": 2702,
      "Ex": 2703,
      "\u0120sun": 2704,
      "\u0120emot": 2705,
      "\u0120div": 2706,
      "\u0120World": 2707,
      "wise": 2708,
      "time": 2709,
      "\u0120industry": 2710,
      "sych": 2711,
      "\u0120turned": 2712,
      "ffe": 2713,
      "\u0120cam": 2714,
      "\u0120vot": 2715,
      "\u0120total": 2716,
      "\u0120types": 2717,
      "\u0120groups": 2718,
      "ival": 2719,
      "\u0120fix": 2720,
      "\u0120performance": 2721,
      "het": 2722,
      "aff": 2723,
      "leg": 2724,
      "\u0120towards": 2725,
      "arily": 2726,
      "unk": 2727,
      "\u0120easily": 2728,
      "\u0120written": 2729,
      "astic": 2730,
      "\u0120multip": 2731,
      "erson": 2732,
      "chan": 2733,
      "\u0120bed": 2734,
      "\u0120wonder": 2735,
      "Con": 2736,
      "\u0120emb": 2737,
      "tain": 2738,
      "\u0120prevent": 2739,
      "hem": 2740,
      "atory": 2741,
      "ivil": 2742,
      "\u0120hon": 2743,
      "\u0120guy": 2744,
      "vent": 2745,
      "rences": 2746,
      "\u0120police": 2747,
      "\u0120defe": 2748,
      "uel": 2749,
      "\u0120Well": 2750,
      "\u0120parts": 2751,
      "\u0120Germ": 2752,
      "ID": 2753,
      "\u0120necessary": 2754,
      "inary": 2755,
      "\u0120Tw": 2756,
      "ivity": 2757,
      "\u0120society": 2758,
      "\u0120contrib": 2759,
      "lying": 2760,
      "\u0120huge": 2761,
      "\u0120involved": 2762,
      "\u0120network": 2763,
      "ibly": 2764,
      "attle": 2765,
      "ww": 2766,
      "just": 2767,
      "\u0120road": 2768,
      "\u0120ri": 2769,
      "\u0120feeling": 2770,
      "\u0120software": 2771,
      "\u0120tit": 2772,
      "sequ": 2773,
      "\u0120regular": 2774,
      "lim": 2775,
      "using": 2776,
      "\u0120bank": 2777,
      "\u0120credit": 2778,
      "One": 2779,
      "\u0120Sec": 2780,
      "',": 2781,
      "Is": 2782,
      "apan": 2783,
      "\u0120color": 2784,
      "\u0120wouldn": 2785,
      "now": 2786,
      "\u0120yes": 2787,
      "\u0120fat": 2788,
      "\u0120late": 2789,
      "\u0120extreme": 2790,
      "\u0120Even": 2791,
      "\u0120Med": 2792,
      "\u0120playing": 2793,
      "\u0120threat": 2794,
      "\u0120box": 2795,
      "iff": 2796,
      "pite": 2797,
      "\u0120door": 2798,
      "aught": 2799,
      "\u0120cat": 2800,
      "oph": 2801,
      "\u0120immedi": 2802,
      "</": 2803,
      "\u0120cool": 2804,
      "\u0120cook": 2805,
      "\u0120prin": 2806,
      "\u0120hair": 2807,
      "\u0120ge": 2808,
      "\u0120cover": 2809,
      "anced": 2810,
      "\u0120rev": 2811,
      "\u0120reach": 2812,
      "fficient": 2813,
      "35": 2814,
      "urt": 2815,
      "\u0120wants": 2816,
      "\u0120occur": 2817,
      "45": 2818,
      "more": 2819,
      "\u0120third": 2820,
      "ha": 2821,
      "\u0120Mc": 2822,
      "\u0120poor": 2823,
      "ruction": 2824,
      "\u0120estab": 2825,
      "\u0120economic": 2826,
      "erve": 2827,
      "epend": 2828,
      "\u0120sil": 2829,
      "\u0120gave": 2830,
      "\u0120frequ": 2831,
      "\u0120Cal": 2832,
      "\u0120forward": 2833,
      "\u0120military": 2834,
      "011": 2835,
      "\u0120temper": 2836,
      "\u0120wall": 2837,
      "ength": 2838,
      "mm": 2839,
      "\u0120Go": 2840,
      "irit": 2841,
      "\u0120collect": 2842,
      "013": 2843,
      "\u0120growth": 2844,
      "reng": 2845,
      "itution": 2846,
      "\u0120feed": 2847,
      "\u0120books": 2848,
      "\u0120chance": 2849,
      "ription": 2850,
      "\u0120modern": 2851,
      "ension": 2852,
      "\u0120prep": 2853,
      "\u0120recent": 2854,
      "They": 2855,
      "\u0120decided": 2856,
      "\u0120sold": 2857,
      "urance": 2858,
      "\u0120English": 2859,
      "icles": 2860,
      "\u0120guess": 2861,
      "\u0120fem": 2862,
      "\u0120Gen": 2863,
      "\u0120Ed": 2864,
      "\u0120standard": 2865,
      "rict": 2866,
      "\u0120Ge": 2867,
      "010": 2868,
      "\u0120introdu": 2869,
      "\u0120Cont": 2870,
      "\u0120medical": 2871,
      "\u0120six": 2872,
      "\u0120deg": 2873,
      "\u0120according": 2874,
      "\u0120couldn": 2875,
      "\u0120weeks": 2876,
      "resh": 2877,
      "ager": 2878,
      "lear": 2879,
      "\u0120final": 2880,
      "amm": 2881,
      "\u0120choose": 2882,
      "\u0120average": 2883,
      "rest": 2884,
      "\u0120tend": 2885,
      "\u0120Will": 2886,
      "\u0120training": 2887,
      "egr": 2888,
      "ees": 2889,
      "\u0120numbers": 2890,
      "\u0120York": 2891,
      "\u0120science": 2892,
      "\u0120option": 2893,
      "OR": 2894,
      "\u0120happens": 2895,
      "\u0120events": 2896,
      "\u0120contact": 2897,
      "\u0120treatment": 2898,
      "ishing": 2899,
      "uted": 2900,
      "\u0120surv": 2901,
      "\u0120ce": 2902,
      "\u0120tou": 2903,
      "olic": 2904,
      "\u0120hop": 2905,
      "\u0120heav": 2906,
      "\u0120Part": 2907,
      "\u0120ur": 2908,
      "\u0120decision": 2909,
      "\u0120pressure": 2910,
      "\u0120rights": 2911,
      "\u0120Here": 2912,
      "\u0120comments": 2913,
      "amb": 2914,
      "ino": 2915,
      "hood": 2916,
      "\u0120choice": 2917,
      "fact": 2918,
      "\u0120positive": 2919,
      "\u0120court": 2920,
      "\u0120drive": 2921,
      "\u0120culture": 2922,
      "Le": 2923,
      "\u0120host": 2924,
      "\u0120liter": 2925,
      "\u0120practice": 2926,
      "\u0120jo": 2927,
      "aur": 2928,
      "sec": 2929,
      "\u0120addition": 2930,
      "ceed": 2931,
      "\u0120da": 2932,
      "artment": 2933,
      "agn": 2934,
      "\u0120conditions": 2935,
      "\u0120Us": 2936,
      "\u0120base": 2937,
      "cies": 2938,
      "\u0120gives": 2939,
      "EN": 2940,
      "\u0120email": 2941,
      "\u0120Jan": 2942,
      "aging": 2943,
      "\u0120happy": 2944,
      "yond": 2945,
      "\u0120inj": 2946,
      "irm": 2947,
      "\u0120agree": 2948,
      "\u0120website": 2949,
      "\u0120solution": 2950,
      "arth": 2951,
      "oura": 2952,
      "imum": 2953,
      "ened": 2954,
      "\u0120alone": 2955,
      "\u0120reasons": 2956,
      "\u0120policy": 2957,
      "\u0120Russ": 2958,
      "ales": 2959,
      "\u0120population": 2960,
      "\u0120characters": 2961,
      "\u0120draw": 2962,
      "\u0120screen": 2963,
      "off": 2964,
      "omb": 2965,
      "\u0120sell": 2966,
      "32": 2967,
      "\u0120install": 2968,
      "AS": 2969,
      "\u0120season": 2970,
      "omp": 2971,
      "\u0120private": 2972,
      "\u0120Most": 2973,
      "aling": 2974,
      "\u0120worked": 2975,
      "\u0120purch": 2976,
      "\u0120production": 2977,
      "\u0120stru": 2978,
      "cell": 2979,
      "\u0120uses": 2980,
      "\u0120understanding": 2981,
      "\u0120national": 2982,
      "\u0120related": 2983,
      "su": 2984,
      "\u0120gun": 2985,
      "ero": 2986,
      "uments": 2987,
      "\u0120President": 2988,
      "oses": 2989,
      "AL": 2990,
      "ief": 2991,
      "olute": 2992,
      "\u0120Of": 2993,
      "\u0120teac": 2994,
      "ners": 2995,
      "\u0120vict": 2996,
      "\u0120rock": 2997,
      "\u0120convers": 2998,
      "\u0120ideas": 2999,
      "\u0120wide": 3000,
      "\u0120decl": 3001,
      "\u0120ign": 3002,
      "\u0120multiple": 3003,
      "\u0120added": 3004,
      "ux": 3005,
      "\u0120files": 3006,
      "\u0120piece": 3007,
      "\u0120town": 3008,
      "\u0120cross": 3009,
      "\u0120truth": 3010,
      "\u0120agre": 3011,
      "\u0120web": 3012,
      "\u0120autom": 3013,
      "ounds": 3014,
      "\u0120cand": 3015,
      "\u0120exec": 3016,
      "\u0120gas": 3017,
      "::": 3018,
      "\u0120observ": 3019,
      "\u0120players": 3020,
      "minist": 3021,
      "\u0120bur": 3022,
      "\u0120fine": 3023,
      "king": 3024,
      "\u0120pan": 3025,
      "itter": 3026,
      "antly": 3027,
      "osition": 3028,
      "\u0120sett": 3029,
      "key": 3030,
      "oul": 3031,
      "\u0120Ste": 3032,
      "\u0120den": 3033,
      "\u0120morning": 3034,
      "word": 3035,
      "ada": 3036,
      "70": 3037,
      "\u0120publ": 3038,
      "\u0120Dem": 3039,
      "ping": 3040,
      "\u0120ver": 3041,
      "\u0120China": 3042,
      "##": 3043,
      "\u0120financial": 3044,
      "OT": 3045,
      "\u0120son": 3046,
      "\u0120legal": 3047,
      "\u0120mix": 3048,
      "\u0120dro": 3049,
      "\u0120inn": 3050,
      "\u0120eye": 3051,
      "\u0120Cent": 3052,
      "ament": 3053,
      "\u0120whatever": 3054,
      "\u0120president": 3055,
      "008": 3056,
      "gar": 3057,
      "\u0120giving": 3058,
      "inally": 3059,
      "\u0120office": 3060,
      "96": 3061,
      "\u0120fa": 3062,
      "\u0120rules": 3063,
      "\u0120middle": 3064,
      "\u0120subst": 3065,
      "\u0120Intern": 3066,
      "\u0120analysis": 3067,
      "\u0120allows": 3068,
      "atives": 3069,
      "ederal": 3070,
      "lier": 3071,
      "\u0120Japan": 3072,
      "Cl": 3073,
      "\u0120disease": 3074,
      "\u0120streng": 3075,
      "\u0120built": 3076,
      "iday": 3077,
      "Now": 3078,
      "\u0120Dr": 3079,
      "\u0120leaders": 3080,
      "\u0120trust": 3081,
      "\u0120recently": 3082,
      "\u0120University": 3083,
      "\u0120exerc": 3084,
      "\u0120fit": 3085,
      "\u0120generally": 3086,
      "\u0120values": 3087,
      "\u0120users": 3088,
      "\u0120certainly": 3089,
      "\u0120options": 3090,
      "aign": 3091,
      "\u0120Mus": 3092,
      "\u0120opin": 3093,
      "\u0120Int": 3094,
      "asc": 3095,
      "cient": 3096,
      "\u0120finally": 3097,
      "!\"": 3098,
      "dom": 3099,
      "By": 3100,
      "\u0120message": 3101,
      "\u0120Bar": 3102,
      "ky": 3103,
      "iles": 3104,
      "\u0120\u00c2\u0142\u0120\u00c2\u0142": 3105,
      "\u0120doll": 3106,
      "\u0120stock": 3107,
      "\u0120perhaps": 3108,
      "\u0120effective": 3109,
      "\u0120investig": 3110,
      "\u0120hor": 3111,
      "\u0120select": 3112,
      "95": 3113,
      "\u0120dream": 3114,
      "\u0120Also": 3115,
      "\u0120allowed": 3116,
      "\u0120figure": 3117,
      "\u0120pen": 3118,
      "\u0120chem": 3119,
      "\u0120moving": 3120,
      "iment": 3121,
      "iny": 3122,
      "--------": 3123,
      "ously": 3124,
      "oming": 3125,
      "\u0120reve": 3126,
      "ES": 3127,
      "IT": 3128,
      "\u0120particip": 3129,
      "\u0120lif": 3130,
      "\u0120mechan": 3131,
      "\u0120benefits": 3132,
      "\u0120distrib": 3133,
      "\u0120relative": 3134,
      "\u0120document": 3135,
      "aries": 3136,
      "\u0120implement": 3137,
      "\u0120directly": 3138,
      "\u0120reality": 3139,
      "\u0120cold": 3140,
      "itely": 3141,
      "\u0120ord": 3142,
      "\u0120upd": 3143,
      "\u0120held": 3144,
      "009": 3145,
      "imin": 3146,
      "\u0120Ne": 3147,
      "ken": 3148,
      "\u0120Republic": 3149,
      "icated": 3150,
      "\u0120Every": 3151,
      "Pro": 3152,
      "\u0120changed": 3153,
      "\u0120spend": 3154,
      "pre": 3155,
      "hib": 3156,
      "\u0120costs": 3157,
      "\u0120emer": 3158,
      "\u0120Act": 3159,
      "\u0120save": 3160,
      "Be": 3161,
      "\u0120Obama": 3162,
      "\u0120aware": 3163,
      "\u0120actual": 3164,
      "\u0120education": 3165,
      "\u0120load": 3166,
      "nes": 3167,
      "IS": 3168,
      "rit": 3169,
      "\u0120fear": 3170,
      "\u0120Har": 3171,
      "\u0120although": 3172,
      "33": 3173,
      "\u0120breat": 3174,
      "\u0120rout": 3175,
      "order": 3176,
      "____": 3177,
      "\u0120Des": 3178,
      "\u0120basic": 3179,
      "\u0120cit": 3180,
      "\u0120goal": 3181,
      "\u0120Let": 3182,
      "\u0120Min": 3183,
      "\u0120brought": 3184,
      "At": 3185,
      "Ph": 3186,
      "\u0120pattern": 3187,
      "rael": 3188,
      "pper": 3189,
      "\u0120demon": 3190,
      "\u0120Because": 3191,
      "\u0120thous": 3192,
      "\u0120teach": 3193,
      "\u0120unique": 3194,
      "\u0120consist": 3195,
      "\u0120measure": 3196,
      "\u0120official": 3197,
      "\u0120birth": 3198,
      "eah": 3199,
      "\u0120Sm": 3200,
      "\u0120ple": 3201,
      "\u0120capt": 3202,
      "\u0120global": 3203,
      "\u0120application": 3204,
      "room": 3205,
      "\u0120voice": 3206,
      "\u0120shown": 3207,
      "year": 3208,
      "ests": 3209,
      "\u0120purpose": 3210,
      "pir": 3211,
      "udd": 3212,
      "\u0120visit": 3213,
      "\u0120player": 3214,
      "\u0120property": 3215,
      "\u0120Afric": 3216,
      "\u0120cry": 3217,
      "aly": 3218,
      "ropri": 3219,
      "ashing": 3220,
      "\u0120theory": 3221,
      "\u0120capital": 3222,
      "oup": 3223,
      "ession": 3224,
      "\u0120becomes": 3225,
      "ograp": 3226,
      "\u0120heat": 3227,
      "vant": 3228,
      "\u0120features": 3229,
      "\u0120behavior": 3230,
      "\u0120arri": 3231,
      "\u0120flow": 3232,
      "mission": 3233,
      "\u0120South": 3234,
      "but": 3235,
      "\u0120psych": 3236,
      "\u0120doub": 3237,
      "\u0120ready": 3238,
      "\u0120lines": 3239,
      "Ar": 3240,
      "\u0120patients": 3241,
      "\u0120...": 3242,
      "\u0120fra": 3243,
      "\u0120knows": 3244,
      "ellig": 3245,
      "\u0120gone": 3246,
      "\u0120vote": 3247,
      "\u0120activity": 3248,
      "\u0120warm": 3249,
      "\u0120places": 3250,
      "ED": 3251,
      "\u0120Co": 3252,
      "iful": 3253,
      "\u0120led": 3254,
      "All": 3255,
      "\u0120altern": 3256,
      "\u0120surface": 3257,
      "isions": 3258,
      "aul": 3259,
      "rench": 3260,
      "With": 3261,
      "\u0120ir": 3262,
      "imately": 3263,
      "\u0120danger": 3264,
      "zz": 3265,
      "\u0120note": 3266,
      "ties": 3267,
      "ournal": 3268,
      "\u0120helps": 3269,
      "\u0120TV": 3270,
      "iced": 3271,
      "arc": 3272,
      "\u0120North": 3273,
      "based": 3274,
      "\u0120previous": 3275,
      "uk": 3276,
      "\u0120dog": 3277,
      "itude": 3278,
      "\u0120serious": 3279,
      "mpt": 3280,
      "\u0120sam": 3281,
      "enty": 3282,
      "\u0120particularly": 3283,
      "\u0120Yes": 3284,
      "\u0120carry": 3285,
      "\u0120ten": 3286,
      "ighb": 3287,
      "\u0120More": 3288,
      "\u0120repe": 3289,
      "\u0120Aust": 3290,
      "tr": 3291,
      "\u0120style": 3292,
      "\u0120structure": 3293,
      "\u0120played": 3294,
      "\u0120Jew": 3295,
      "undred": 3296,
      "\u0120princi": 3297,
      "\u0120suff": 3298,
      "entially": 3299,
      "\u0120nut": 3300,
      "\u0120movement": 3301,
      "\u0120advant": 3302,
      "\u0120easier": 3303,
      "\u0120damage": 3304,
      "\u0120beyond": 3305,
      "\u0120condition": 3306,
      "\u0120shot": 3307,
      "36": 3308,
      "\u0120Ke": 3309,
      "\u0120ult": 3310,
      "\u0120stories": 3311,
      "rupt": 3312,
      "\u0120earth": 3313,
      "rast": 3314,
      "\u0120plant": 3315,
      "\u0120feet": 3316,
      "31": 3317,
      "\u0120campaign": 3318,
      "\u0120burn": 3319,
      "\u0120wait": 3320,
      "\u0120weap": 3321,
      "\u0120economy": 3322,
      "\u0120explain": 3323,
      "\u0120Google": 3324,
      "500": 3325,
      "\u0120green": 3326,
      "lection": 3327,
      "\u0120increasing": 3328,
      "issue": 3329,
      "ograph": 3330,
      "\u0120mist": 3331,
      "\u0120slight": 3332,
      "AC": 3333,
      "\u0120Are": 3334,
      "ech": 3335,
      "\u0120und": 3336,
      "\u0120photo": 3337,
      "atform": 3338,
      "\u0120former": 3339,
      "ype": 3340,
      "oles": 3341,
      "\u0120date": 3342,
      "\u0120resources": 3343,
      "\u0120contract": 3344,
      "\u0120straight": 3345,
      "idge": 3346,
      "\u0120customers": 3347,
      "\u0120band": 3348,
      "\u0120individuals": 3349,
      "\u0120demand": 3350,
      "\u0120wrote": 3351,
      "\u0120stress": 3352,
      "\u0120civil": 3353,
      "014": 3354,
      "\u0120anti": 3355,
      "\u0120deli": 3356,
      "\u0120\u00e2": 3357,
      "\u0120\u0120\u0120\u0120\u0120\u0120\u0120\u0120\u0120\u0120\u0120\u0120\u0120\u0120\u0120": 3358,
      "\u0120paid": 3359,
      "ights": 3360,
      "\u0120guys": 3361,
      "\u0120wife": 3362,
      "hold": 3363,
      "\u0120lose": 3364,
      "\u0120please": 3365,
      "\u0120thus": 3366,
      "\u0120vac": 3367,
      "\u0120prior": 3368,
      "\u0120designed": 3369,
      "\u0120absolute": 3370,
      "AM": 3371,
      "\u0120fell": 3372,
      "\u0120>": 3373,
      "\u0120beginning": 3374,
      "aughter": 3375,
      "\u0120progress": 3376,
      "ara": 3377,
      "how": 3378,
      "\u0120via": 3379,
      "\u0120machine": 3380,
      "\u0120ensure": 3381,
      "\u0120whose": 3382,
      "hern": 3383,
      "airs": 3384,
      "Un": 3385,
      "\u0120contain": 3386,
      "ancy": 3387,
      "\u0120memory": 3388,
      "\u0120century": 3389,
      "\u0120useful": 3390,
      "IC": 3391,
      "\u0120Aug": 3392,
      "\u0120clos": 3393,
      "\u0120shoot": 3394,
      "rely": 3395,
      "\u0120Any": 3396,
      "onym": 3397,
      "aches": 3398,
      "\u0120negative": 3399,
      "****": 3400,
      "bed": 3401,
      "\u0120skills": 3402,
      "\u0120integr": 3403,
      "ald": 3404,
      "\u0120throughout": 3405,
      "\u0120challeng": 3406,
      "\u0120grad": 3407,
      "\u0120management": 3408,
      "\u0120star": 3409,
      "\u0120spent": 3410,
      "\u0120haven": 3411,
      "\u0120animals": 3412,
      "\u0120limit": 3413,
      "\u0120associated": 3414,
      "\u0120King": 3415,
      "\u0120Gl": 3416,
      "\u0120spread": 3417,
      "acebook": 3418,
      "\u0120produce": 3419,
      "\u0120max": 3420,
      "\u0120meant": 3421,
      "ores": 3422,
      "which": 3423,
      "\u0120State": 3424,
      "\u0120First": 3425,
      "?\u00e2\u0122\u013f": 3426,
      "\u0120People": 3427,
      "Not": 3428,
      "\u0120match": 3429,
      "\u0120harm": 3430,
      "\u0120increased": 3431,
      "\u0120dat": 3432,
      "\u0120From": 3433,
      "\u0120developed": 3434,
      "She": 3435,
      "ags": 3436,
      "ram": 3437,
      "\u0120provided": 3438,
      "\u0120expected": 3439,
      "\u0120respond": 3440,
      "\u0120command": 3441,
      "\u0120Add": 3442,
      "\u0120stick": 3443,
      "\u0120powerful": 3444,
      "\u0120print": 3445,
      "\u0120unf": 3446,
      "\u0120pow": 3447,
      "han": 3448,
      "\u0120impl": 3449,
      "\u0120provides": 3450,
      "\u0120neighb": 3451,
      "\u0120Art": 3452,
      "alse": 3453,
      "\u0120therefore": 3454,
      "\u0120Jes": 3455,
      "37": 3456,
      "\u0120histor": 3457,
      "\u0120Her": 3458,
      "\u0120highly": 3459,
      "what": 3460,
      "band": 3461,
      "\u0120esc": 3462,
      "\u0120independ": 3463,
      "lam": 3464,
      "\u0120Israel": 3465,
      "ils": 3466,
      "\u0120scen": 3467,
      "\u0120starting": 3468,
      "uary": 3469,
      "\u0120reduce": 3470,
      "ications": 3471,
      "\u0120spirit": 3472,
      "\u0120hundred": 3473,
      "\u0120Che": 3474,
      "Here": 3475,
      "\u0120Par": 3476,
      "\u0120sounds": 3477,
      "\u0120healthy": 3478,
      "\u0120El": 3479,
      "\u0120assum": 3480,
      "\u0120Sim": 3481,
      "\u0120broad": 3482,
      "\u0120greater": 3483,
      "\u0120studies": 3484,
      "rs": 3485,
      "\u0120brother": 3486,
      "\u0120tast": 3487,
      "\u0120nation": 3488,
      "istance": 3489,
      "\u0120cancer": 3490,
      "\u0120currently": 3491,
      "\u0120send": 3492,
      "\u0120baby": 3493,
      "ufact": 3494,
      "\u0120customer": 3495,
      "\u0120larger": 3496,
      "\u0120gold": 3497,
      "estern": 3498,
      "\u0120effort": 3499,
      "48": 3500,
      "\u0120Char": 3501,
      "\u0120veh": 3502,
      "\u0120comfort": 3503,
      "\u0120species": 3504,
      "\u0120tele": 3505,
      "\u0120device": 3506,
      "ube": 3507,
      "\u0120sequ": 3508,
      "\u0120compon": 3509,
      "\u0120supposed": 3510,
      "\u0120mid": 3511,
      "yl": 3512,
      "\u0120Dav": 3513,
      "nown": 3514,
      "iant": 3515,
      "\u0120strugg": 3516,
      "omen": 3517,
      "\u0120context": 3518,
      "\u0120aspect": 3519,
      "roy": 3520,
      "\u0120Bra": 3521,
      "\u0120cho": 3522,
      "\u0120compared": 3523,
      "\u0120limited": 3524,
      "mark": 3525,
      "\u0120seeing": 3526,
      "\u0120opportunity": 3527,
      "\u0120insurance": 3528,
      "\u0120caused": 3529,
      "\u0120immediately": 3530,
      "\u0120//": 3531,
      "\u0120Oct": 3532,
      "bon": 3533,
      "38": 3534,
      "\u0120Many": 3535,
      "\u0120bill": 3536,
      "\u0120Apr": 3537,
      "\u0120nuc": 3538,
      "\u00e2\u0122\u013f.": 3539,
      "\u0120shop": 3540,
      "\u0120creating": 3541,
      "\u0120mur": 3542,
      "\u0120trou": 3543,
      "\u0120arch": 3544,
      "\u0120achieve": 3545,
      "\u0120narr": 3546,
      "oly": 3547,
      "\u0120kid": 3548,
      "gn": 3549,
      "\u0120member": 3550,
      "umn": 3551,
      "\u0120touch": 3552,
      "\u0120factors": 3553,
      "\u0120analy": 3554,
      "eration": 3555,
      "007": 3556,
      "\u0120Rom": 3557,
      "{\\": 3558,
      "\u0120nearly": 3559,
      "\u0120House": 3560,
      "\u0120secret": 3561,
      "\u0120diet": 3562,
      "down": 3563,
      "azing": 3564,
      "\u0120seemed": 3565,
      "\u0120rule": 3566,
      "\u0120release": 3567,
      "aled": 3568,
      "orks": 3569,
      "\u0120Em": 3570,
      "\u0120Mon": 3571,
      "ae": 3572,
      "imal": 3573,
      "\u0120micro": 3574,
      "\u0120administ": 3575,
      "cont": 3576,
      "\u0120drug": 3577,
      "\u0120British": 3578,
      "uild": 3579,
      "\u0120lat": 3580,
      "\u0120additional": 3581,
      "\u0120trade": 3582,
      "\u0120Tra": 3583,
      "\u0120interview": 3584,
      "\u0120citiz": 3585,
      "\u0120Earth": 3586,
      "ategy": 3587,
      "\u0120student": 3588,
      "\u0120\u0120\u0120\u0120\u0120\u0120": 3589,
      "\u0120interested": 3590,
      "enge": 3591,
      "\u0120clearly": 3592,
      "ortunately": 3593,
      "row": 3594,
      "ica": 3595,
      "\u0120mob": 3596,
      "\u0120methods": 3597,
      "\u0120details": 3598,
      "ague": 3599,
      "34": 3600,
      "\u0120tal": 3601,
      "\u0120learned": 3602,
      "\u0120Dis": 3603,
      "\u0120Comp": 3604,
      "cast": 3605,
      "\u0120`": 3606,
      "\u0120Spe": 3607,
      "\u0120board": 3608,
      "\u0120stage": 3609,
      "\u0120kept": 3610,
      "016": 3611,
      "\u0120encoura": 3612,
      "col": 3613,
      "\u0120earlier": 3614,
      "\u0120eventually": 3615,
      "\u0120shall": 3616,
      "\u0120requires": 3617,
      "Sc": 3618,
      "\u0120names": 3619,
      "\u0120instance": 3620,
      "\u0120Sw": 3621,
      "\u0120flu": 3622,
      "200": 3623,
      "that": 3624,
      "\u0120cast": 3625,
      "kes": 3626,
      "\u0120enter": 3627,
      "round": 3628,
      "fra": 3629,
      "\u0120killed": 3630,
      "\u0120accur": 3631,
      ".[": 3632,
      "\u0120blue": 3633,
      "??": 3634,
      "\u0120mentioned": 3635,
      "After": 3636,
      "\u0120section": 3637,
      "\u0120Like": 3638,
      "aker": 3639,
      "\u0120predict": 3640,
      "))": 3641,
      "\u0120income": 3642,
      "OC": 3643,
      "reci": 3644,
      "\u0120growing": 3645,
      "board": 3646,
      "\u00c2\u0142\u00c2\u0142\u00c2\u0142": 3647,
      "with": 3648,
      "05": 3649,
      "\u0120Ag": 3650,
      "\u0120thoughts": 3651,
      "org": 3652,
      "\u0120die": 3653,
      "\u0120items": 3654,
      "iation": 3655,
      "\u0120length": 3656,
      "\u0120laws": 3657,
      "cles": 3658,
      "\u0120arm": 3659,
      "\u0120adult": 3660,
      "\u0120moved": 3661,
      "\u0120liber": 3662,
      "\u0120regul": 3663,
      "izes": 3664,
      "\u0120Mark": 3665,
      "\u0120Sch": 3666,
      "\u0120wat": 3667,
      "\u0120scene": 3668,
      "ris": 3669,
      "\u0120platform": 3670,
      "\u0120mount": 3671,
      "\u0120successful": 3672,
      "\u0120strength": 3673,
      "rief": 3674,
      "iled": 3675,
      "\u0120Cor": 3676,
      "istics": 3677,
      "\u0120display": 3678,
      "\u0120majority": 3679,
      "\u0120tools": 3680,
      "\u0120hosp": 3681,
      "OS": 3682,
      "osis": 3683,
      "\u0120virt": 3684,
      "ccording": 3685,
      "abor": 3686,
      "aper": 3687,
      "inese": 3688,
      "lebr": 3689,
      "\u0120transl": 3690,
      "\u0120race": 3691,
      "edom": 3692,
      "new": 3693,
      "ani": 3694,
      "\u0120rob": 3695,
      "\u0120argument": 3696,
      "\u0120peace": 3697,
      "\u0120task": 3698,
      "\u0120Our": 3699,
      "\u0120clot": 3700,
      "\u0120definitely": 3701,
      "\u0120daily": 3702,
      "odes": 3703,
      "pes": 3704,
      "\u0120mer": 3705,
      "Some": 3706,
      "\u0120mouth": 3707,
      "\u0120traditional": 3708,
      "\u0120patient": 3709,
      "itation": 3710,
      "\u0120II": 3711,
      "\u0120Comm": 3712,
      "\u0120named": 3713,
      "change": 3714,
      "dden": 3715,
      "acter": 3716,
      "\u0120mostly": 3717,
      "\u0120worse": 3718,
      "\u0120copy": 3719,
      "\u0120born": 3720,
      "\u0120watching": 3721,
      "015": 3722,
      "\u0120fully": 3723,
      "\u0120elements": 3724,
      "\u0120direction": 3725,
      "\u0120onto": 3726,
      "\u0120beautiful": 3727,
      "\u0120college": 3728,
      "part": 3729,
      "\u0120appropri": 3730,
      "\u0120reported": 3731,
      "\u0120Other": 3732,
      "\u0120commit": 3733,
      "\u0120roll": 3734,
      "ett": 3735,
      "ET": 3736,
      "inger": 3737,
      "\u0120center": 3738,
      "\u0120wish": 3739,
      "\u0120benefit": 3740,
      "\u0120Since": 3741,
      "\u0120Cons": 3742,
      "ocol": 3743,
      "text": 3744,
      "\u0120novel": 3745,
      "\u0120temperature": 3746,
      "\u0120notice": 3747,
      "\u0120belief": 3748,
      "\u0120counter": 3749,
      "\u0120Pre": 3750,
      "equ": 3751,
      "earch": 3752,
      "44": 3753,
      "\u0120frame": 3754,
      "itable": 3755,
      "\u0120manufact": 3756,
      "\u0120truly": 3757,
      "\u0120candid": 3758,
      "ception": 3759,
      "no": 3760,
      "flict": 3761,
      "\u0120received": 3762,
      "iling": 3763,
      "\u0120Jesus": 3764,
      "\u0120cru": 3765,
      "\u0120sudden": 3766,
      "orry": 3767,
      "\u0120programs": 3768,
      "\u0120calcul": 3769,
      "atur": 3770,
      "\u0120fig": 3771,
      "\u0120mill": 3772,
      "],": 3773,
      "\u0120older": 3774,
      "\u0120charge": 3775,
      "\u0120saf": 3776,
      "\u0120round": 3777,
      "Your": 3778,
      "ael": 3779,
      "\u0120Red": 3780,
      "onymous": 3781,
      "\u0120grand": 3782,
      "08": 3783,
      "\u0120vir": 3784,
      "\u0120eating": 3785,
      "LL": 3786,
      "\u0120jobs": 3787,
      "\u0120willing": 3788,
      "\u0120forces": 3789,
      "\u0120National": 3790,
      "\u0120title": 3791,
      "\u0120foreign": 3792,
      "inct": 3793,
      "raft": 3794,
      "\u0120Christian": 3795,
      "\u0120offe": 3796,
      "Do": 3797,
      "\u0120actions": 3798,
      "\u0120bud": 3799,
      "\u0120prefer": 3800,
      "(\"": 3801,
      "\u0120internet": 3802,
      "\u0120region": 3803,
      "\u0120steps": 3804,
      "anc": 3805,
      "resp": 3806,
      "ij": 3807,
      "\u0120religious": 3808,
      "\u0120statement": 3809,
      "\u0120opinion": 3810,
      "\u0120extremely": 3811,
      "\u0120tour": 3812,
      "\u0120Americans": 3813,
      "\u0120background": 3814,
      "\u0120included": 3815,
      "see": 3816,
      "\u0120quant": 3817,
      "\u0120remain": 3818,
      "\u0120passed": 3819,
      "men": 3820,
      "rab": 3821,
      "\u0120Feb": 3822,
      "\u0120French": 3823,
      "\u0120professional": 3824,
      "ifying": 3825,
      "ndom": 3826,
      "\u0120Post": 3827,
      "\u0120causes": 3828,
      "\u0120humans": 3829,
      "\u0120activities": 3830,
      "\u0120TH": 3831,
      "\u0120international": 3832,
      "\u0120rates": 3833,
      "\u0120wood": 3834,
      "\u0120Pol": 3835,
      "kay": 3836,
      "75": 3837,
      "nect": 3838,
      "\u0120includes": 3839,
      "iers": 3840,
      "\u0120sales": 3841,
      "\u0120Cong": 3842,
      "\u0120wild": 3843,
      "actions": 3844,
      "\u0120intellig": 3845,
      "\u0120followed": 3846,
      "\u0120prec": 3847,
      "pective": 3848,
      "\u0120basis": 3849,
      "\u0120sympt": 3850,
      "orge": 3851,
      "OM": 3852,
      "\u0120died": 3853,
      "\u0120Black": 3854,
      "iam": 3855,
      "\u0120smaller": 3856,
      "ares": 3857,
      "\u0120Trump": 3858,
      "\u0120Ser": 3859,
      "arian": 3860,
      "\u0120location": 3861,
      "bum": 3862,
      "\u0120UK": 3863,
      "iring": 3864,
      "atically": 3865,
      "\u0120determine": 3866,
      "\u0120Democr": 3867,
      "\u0120park": 3868,
      "iver": 3869,
      "\u0120id": 3870,
      "aint": 3871,
      "ptember": 3872,
      "isf": 3873,
      "\u0120reflect": 3874,
      "\u0120leading": 3875,
      "\u0120electric": 3876,
      "\u0120Cour": 3877,
      "term": 3878,
      "\u0120doctor": 3879,
      "\u0120West": 3880,
      "\u0120strategy": 3881,
      "opt": 3882,
      "\u0120bottom": 3883,
      "\u0120error": 3884,
      "US": 3885,
      "\u0120disp": 3886,
      "\u0120favorite": 3887,
      "que": 3888,
      "\u0120request": 3889,
      "oday": 3890,
      "\u0120floor": 3891,
      "\u0120unc": 3892,
      "\u0120beg": 3893,
      "\u0120Once": 3894,
      "\u0120meeting": 3895,
      "\u0120fru": 3896,
      "\u0120balance": 3897,
      "\u0120smart": 3898,
      "39": 3899,
      "\u0120ang": 3900,
      "\u0120toward": 3901,
      "\u0120tree": 3902,
      "\u0120conduct": 3903,
      "\u0120eth": 3904,
      "\u0120overall": 3905,
      "\u0120glass": 3906,
      "ava": 3907,
      "ilos": 3908,
      "Tr": 3909,
      "07": 3910,
      "\u0120rid": 3911,
      "\u0120debt": 3912,
      "\u0120lock": 3913,
      "\u0120categ": 3914,
      "inated": 3915,
      "\u0120primary": 3916,
      "\u0120released": 3917,
      "ustr": 3918,
      "\u0120described": 3919,
      "\u0120mut": 3920,
      "\u0120City": 3921,
      "ronic": 3922,
      "ked": 3923,
      "\u0120enem": 3924,
      "\u0120hus": 3925,
      "unction": 3926,
      "->": 3927,
      "\u0120appears": 3928,
      "\u0120receive": 3929,
      "\u0120dry": 3930,
      "\u0120lots": 3931,
      "\u0120setting": 3932,
      "ternal": 3933,
      "06": 3934,
      "\u0120Oh": 3935,
      "\u0120god": 3936,
      "\u0120rat": 3937,
      "\u0120male": 3938,
      "urb": 3939,
      "\u0120sexual": 3940,
      "ius": 3941,
      "AP": 3942,
      "vision": 3943,
      "anch": 3944,
      "\u0120demonstr": 3945,
      "\u0120published": 3946,
      "\u0120audience": 3947,
      "adem": 3948,
      "\u0120fuck": 3949,
      "\u0120qual": 3950,
      "\u0120unless": 3951,
      "spe": 3952,
      "\u0120forms": 3953,
      "cks": 3954,
      "\u0120career": 3955,
      "\u0120brand": 3956,
      "\u0120ice": 3957,
      "\u0120images": 3958,
      "\u0120express": 3959,
      "\u0120Wind": 3960,
      "ls": 3961,
      "\u0120ble": 3962,
      "\u0120rich": 3963,
      "006": 3964,
      "alt": 3965,
      "mitted": 3966,
      "\u0120connection": 3967,
      "\u0120terror": 3968,
      "\u0120exercise": 3969,
      "this": 3970,
      "iber": 3971,
      "\u0120der": 3972,
      "asion": 3973,
      "\u0120Mich": 3974,
      "riage": 3975,
      "\u0120feature": 3976,
      "\u0120ter": 3977,
      "lied": 3978,
      "\u0120federal": 3979,
      "\u0120asking": 3980,
      "\u0120corpor": 3981,
      "From": 3982,
      "\u0120celebr": 3983,
      "09": 3984,
      "04": 3985,
      "\u0120India": 3986,
      "\u0120battle": 3987,
      "\u0120variety": 3988,
      "\u0120degree": 3989,
      "\u0120tells": 3990,
      "gment": 3991,
      "\u0120train": 3992,
      "vere": 3993,
      "\u0120Chinese": 3994,
      "\u0120pus": 3995,
      "While": 3996,
      "\u0120safety": 3997,
      "\u0120marketing": 3998,
      "\u0120apply": 3999,
      "ection": 4000,
      "point": 4001,
      "\u0120mental": 4002,
      "\u0120refer": 4003,
      "vey": 4004,
      "\u0120fol": 4005,
      "apter": 4006,
      "ham": 4007,
      "\u0120detect": 4008,
      "la": 4009,
      "\u0120status": 4010,
      "formation": 4011,
      "\u0120conflict": 4012,
      "force": 4013,
      "cember": 4014,
      "55": 4015,
      "\u0120despite": 4016,
      "\u0120calls": 4017,
      "\u0120)": 4018,
      "\u0120victim": 4019,
      "\u0120luck": 4020,
      "\u0120hyp": 4021,
      "\u0120htt": 4022,
      "\u0120pun": 4023,
      "\u0120\u0120\u0120\u0120\u0120\u0120\u0120\u0120\u0120": 4024,
      "\u0120workers": 4025,
      "\u0120fresh": 4026,
      "odies": 4027,
      "\u0120March": 4028,
      "\u0120advantage": 4029,
      "\u0120\u00ce": 4030,
      "\u0120gain": 4031,
      "\u0120graph": 4032,
      "\u0120cup": 4033,
      "\u0120listen": 4034,
      "well": 4035,
      "\u0120influence": 4036,
      "64": 4037,
      "\u0120apparent": 4038,
      "raw": 4039,
      "otic": 4040,
      "\u0120responsible": 4041,
      "clus": 4042,
      "\u0120heavy": 4043,
      "icks": 4044,
      "\u0120Gra": 4045,
      "\u0120compar": 4046,
      "Well": 4047,
      "====": 4048,
      "\u0120remind": 4049,
      "pen": 4050,
      "Bl": 4051,
      "ros": 4052,
      "\u0120billion": 4053,
      "\u0120decide": 4054,
      "Im": 4055,
      "onday": 4056,
      "\u0120weak": 4057,
      "\u0120honest": 4058,
      "\u0120vs": 4059,
      "017": 4060,
      "orrow": 4061,
      "you": 4062,
      "\u0120active": 4063,
      "\u0120digital": 4064,
      "Don": 4065,
      "\u0120organization": 4066,
      "\u0120June": 4067,
      "\u0120attract": 4068,
      "\u0120Austral": 4069,
      "ynam": 4070,
      "\u0120server": 4071,
      "\u0120epis": 4072,
      "ovember": 4073,
      "def": 4074,
      "\u0120Maybe": 4075,
      "coh": 4076,
      "place": 4077,
      "\u0120expression": 4078,
      "\u0120summer": 4079,
      "\u0120random": 4080,
      "Or": 4081,
      "\u0120reb": 4082,
      "\u0120animal": 4083,
      "cience": 4084,
      "xy": 4085,
      "\u0120January": 4086,
      "raq": 4087,
      "icate": 4088,
      "\u0120appreci": 4089,
      "ography": 4090,
      "\u0120$\\": 4091,
      "\u0120chemical": 4092,
      "ossible": 4093,
      "pret": 4094,
      "name": 4095,
      "\u0120prices": 4096,
      "uration": 4097,
      "\u0120aim": 4098,
      "\u0120concent": 4099,
      "\u0120Who": 4100,
      "\u0120essential": 4101,
      "iverse": 4102,
      "\u0120egg": 4103,
      "ady": 4104,
      "\u0120hous": 4105,
      "\u0120ing": 4106,
      "ometimes": 4107,
      "\u0120Great": 4108,
      "box": 4109,
      "\u0120slightly": 4110,
      "\u0120acqu": 4111,
      "\u0120obvious": 4112,
      "gu": 4113,
      "\u0120showed": 4114,
      "\u0120starts": 4115,
      "\u0120establ": 4116,
      "\u0120Rec": 4117,
      "ilies": 4118,
      "ulate": 4119,
      "\u0120spl": 4120,
      "\u0120female": 4121,
      "\u0120\u00c2\u0142\u010a": 4122,
      "\u0120farm": 4123,
      "\u0120cars": 4124,
      "ulf": 4125,
      "\u0120pet": 4126,
      "\u0120catch": 4127,
      "igr": 4128,
      "Yes": 4129,
      "\u0120bul": 4130,
      "ek": 4131,
      "\u0120jump": 4132,
      "\u0120consequ": 4133,
      "\u0120models": 4134,
      "\u0120sche": 4135,
      "\u0120doubt": 4136,
      "\u0120April": 4137,
      "oving": 4138,
      "\u0120%": 4139,
      "\u0120August": 4140,
      "aven": 4141,
      "tered": 4142,
      "\u0120staff": 4143,
      "\u0120forget": 4144,
      "rial": 4145,
      "\u0120European": 4146,
      "\u0120replace": 4147,
      "ugg": 4148,
      "hest": 4149,
      "\u0120commer": 4150,
      "ading": 4151,
      "\u0120faith": 4152,
      "\u0120worry": 4153,
      "lin": 4154,
      "\u0120script": 4155,
      "\u0120window": 4156,
      "\u0120vill": 4157,
      "LE": 4158,
      "aming": 4159,
      "47": 4160,
      "\u0120fish": 4161,
      "\u0120amazing": 4162,
      "\u0120sources": 4163,
      "BC": 4164,
      "wood": 4165,
      "ctors": 4166,
      "\u0120nor": 4167,
      "OU": 4168,
      "AD": 4169,
      "\u0120otherwise": 4170,
      "iliar": 4171,
      "\u0120typically": 4172,
      "\u0120imagine": 4173,
      "\u0120Net": 4174,
      "\u0120leaving": 4175,
      "\u0120waiting": 4176,
      "\u0120church": 4177,
      "\u0120Sen": 4178,
      "\u0120continu": 4179,
      "\u0120bound": 4180,
      "\u0120Day": 4181,
      "pid": 4182,
      "uman": 4183,
      "\u0120false": 4184,
      "wr": 4185,
      "\u0120eval": 4186,
      "known": 4187,
      "\u0120output": 4188,
      "ache": 4189,
      "\u0120Pal": 4190,
      "unday": 4191,
      "\u0120magn": 4192,
      "\u0120central": 4193,
      "\u0120finding": 4194,
      "\u0120Up": 4195,
      "\u0120distance": 4196,
      "\u0120devices": 4197,
      "\u0120Although": 4198,
      "\u0120symb": 4199,
      "\u0120destroy": 4200,
      "\u0120expensive": 4201,
      "\u0120spot": 4202,
      "\u0120produced": 4203,
      "\u0120critical": 4204,
      "\u0120sugar": 4205,
      "\u0120budget": 4206,
      "\u0120double": 4207,
      "\u0120July": 4208,
      "Cont": 4209,
      "\u0120Val": 4210,
      "\u0120camera": 4211,
      "PS": 4212,
      "htt": 4213,
      "\u0120Good": 4214,
      "\u0120realize": 4215,
      "edd": 4216,
      "\u0120Get": 4217,
      "\u0120\u00d0": 4218,
      "\u0120separate": 4219,
      "iforn": 4220,
      "\u0120surround": 4221,
      "\u0120nuclear": 4222,
      "\u0120proced": 4223,
      "\u0120Stud": 4224,
      "\u0120factor": 4225,
      "\u0120drop": 4226,
      "\u0120offers": 4227,
      "\u0120chann": 4228,
      "\u0120employees": 4229,
      "\u0120announ": 4230,
      "\u0120plants": 4231,
      "Qu": 4232,
      "\u0120continued": 4233,
      "ipment": 4234,
      "\u0120challenge": 4235,
      "\u0120scale": 4236,
      "ga": 4237,
      "\u0120\u00c3": 4238,
      "eds": 4239,
      "\u0120shape": 4240,
      "icit": 4241,
      "\u0120input": 4242,
      "\u0120supply": 4243,
      "\u0120gar": 4244,
      "\u0120libr": 4245,
      "rie": 4246,
      "\u0120er": 4247,
      "\u0120Paul": 4248,
      "Let": 4249,
      "\u0120feels": 4250,
      "\u0120Iraq": 4251,
      "\u0120White": 4252,
      "\u0120plans": 4253,
      "\u0120batter": 4254,
      "\u0120ahead": 4255,
      "ula": 4256,
      "\u0120element": 4257,
      "\u0120strateg": 4258,
      "\u0120closed": 4259,
      "\u0120initial": 4260,
      "Us": 4261,
      "Pl": 4262,
      "\u0120album": 4263,
      "\u0120movies": 4264,
      "anging": 4265,
      "\u0120eight": 4266,
      "><": 4267,
      "\u0120remove": 4268,
      "\u0120remains": 4269,
      "\u0120Dep": 4270,
      "\u0120September": 4271,
      "\u0120har": 4272,
      "\u0120IS": 4273,
      "02": 4274,
      "\u0120coffe": 4275,
      "005": 4276,
      "\u0120letter": 4277,
      "do": 4278,
      "\u0120protein": 4279,
      "\u0120hate": 4280,
      "\u0120promot": 4281,
      "rapy": 4282,
      "\u0120Rem": 4283,
      "\u0120keeping": 4284,
      "\u0120discussion": 4285,
      "\u0120rise": 4286,
      "\u0120adjust": 4287,
      "\u0120Islam": 4288,
      "\u0120speech": 4289,
      "\u0120symptoms": 4290,
      "gers": 4291,
      "\u0120driving": 4292,
      "illed": 4293,
      "ulated": 4294,
      "\u0120param": 4295,
      "irect": 4296,
      "\u0120appropriate": 4297,
      "\u0120schools": 4298,
      "\u0120putting": 4299,
      "asy": 4300,
      "\u0120poll": 4301,
      "rim": 4302,
      "\u0120drugs": 4303,
      "\u0120basically": 4304,
      "\u0120telling": 4305,
      "rough": 4306,
      "\u0120becoming": 4307,
      "Get": 4308,
      "\u0120cash": 4309,
      "ails": 4310,
      "rain": 4311,
      "\u0120Jack": 4312,
      "\u0120forg": 4313,
      "\u0120conserv": 4314,
      "\u0120stream": 4315,
      "\u0120Thanks": 4316,
      "\u0120PC": 4317,
      "igned": 4318,
      "isl": 4319,
      "\u0120Met": 4320,
      "ror": 4321,
      "46": 4322,
      "\u0120assess": 4323,
      "itc": 4324,
      "\u0120freedom": 4325,
      "\u0120husband": 4326,
      "\u0120decre": 4327,
      "\u0120Pat": 4328,
      "\u0120fuel": 4329,
      "inter": 4330,
      "ait": 4331,
      "\u0120fan": 4332,
      "oto": 4333,
      "\u0120examples": 4334,
      "\u0120Mod": 4335,
      "izations": 4336,
      "\u0120handle": 4337,
      "ashington": 4338,
      "ifornia": 4339,
      "\u0120valid": 4340,
      "\u0120maintain": 4341,
      "ipe": 4342,
      "\u0120helped": 4343,
      "\u0120planet": 4344,
      "ey": 4345,
      "\u0120thousands": 4346,
      "\u0120changing": 4347,
      "itness": 4348,
      "import": 4349,
      "\u0120click": 4350,
      "\u0120intend": 4351,
      "\u0120transport": 4352,
      "\u0120Sam": 4353,
      "\u0120sites": 4354,
      "aked": 4355,
      "gency": 4356,
      "\u0120faster": 4357,
      "\u0120minor": 4358,
      "\u0120Congress": 4359,
      "ios": 4360,
      "\u0120sea": 4361,
      "\":": 4362,
      "\u0120coffee": 4363,
      "inner": 4364,
      "\u0120presence": 4365,
      "\u0120advice": 4366,
      "These": 4367,
      "idents": 4368,
      "\u0120hero": 4369,
      "\u0120turns": 4370,
      "Can": 4371,
      "ooth": 4372,
      "vis": 4373,
      "\u0120Reg": 4374,
      "\u0120functions": 4375,
      "\u0120spect": 4376,
      "iable": 4377,
      "\u0120hospital": 4378,
      "\u0120leader": 4379,
      "\u0120tim": 4380,
      "field": 4381,
      "\u0120leaves": 4382,
      "\u0120sweet": 4383,
      "can": 4384,
      "\u0120Iran": 4385,
      "acity": 4386,
      "\u0120core": 4387,
      "ml": 4388,
      "\u0120lic": 4389,
      "soft": 4390,
      "inc": 4391,
      "\u0120girls": 4392,
      "\u0120PM": 4393,
      "\u0120sitting": 4394,
      "\u0120forced": 4395,
      "\u0120?": 4396,
      "idden": 4397,
      "\u0120possibly": 4398,
      "vest": 4399,
      "\u0120circum": 4400,
      "uesday": 4401,
      "However": 4402,
      "\u0120arr": 4403,
      "Com": 4404,
      "\u0120citizens": 4405,
      "New": 4406,
      "\u0120News": 4407,
      "\u0120sad": 4408,
      "\u0120claims": 4409,
      "abase": 4410,
      "\u0120December": 4411,
      "math": 4412,
      "\u0120spending": 4413,
      "ername": 4414,
      "\u0120street": 4415,
      "Tw": 4416,
      "\u0120ded": 4417,
      "\u0120prem": 4418,
      "\u0120Apple": 4419,
      "owd": 4420,
      "\u0120wear": 4421,
      "\u0120decisions": 4422,
      "\u0120il": 4423,
      "\u0120Their": 4424,
      "\u0120hom": 4425,
      "ref": 4426,
      "\u0120Court": 4427,
      "_{": 4428,
      "\u0120reci": 4429,
      "ban": 4430,
      "\u0120satisf": 4431,
      "\u0120Kore": 4432,
      "arter": 4433,
      "ico": 4434,
      "\u0120map": 4435,
      "\u0120goals": 4436,
      "\u0120string": 4437,
      "\u0120November": 4438,
      "\u0120families": 4439,
      "\u0120election": 4440,
      "overy": 4441,
      "encies": 4442,
      "\u0120scientific": 4443,
      "\u0120applications": 4444,
      "ondon": 4445,
      "amin": 4446,
      "\u0120religion": 4447,
      "\u0120owners": 4448,
      "ille": 4449,
      "ING": 4450,
      "iques": 4451,
      "cohol": 4452,
      "\u0120cards": 4453,
      "\u0120lived": 4454,
      "ingly": 4455,
      "urg": 4456,
      "\u0120Muslim": 4457,
      "\u0120biggest": 4458,
      "\u0120solid": 4459,
      "works": 4460,
      "\u0120investment": 4461,
      "rad": 4462,
      "ruary": 4463,
      "ste": 4464,
      "\u0120contains": 4465,
      "\u0120existing": 4466,
      "\u0120terr": 4467,
      "\u0120shut": 4468,
      "mod": 4469,
      "03": 4470,
      "\u0120anyway": 4471,
      "antic": 4472,
      "\u0120totally": 4473,
      "\u0120topic": 4474,
      "\u0120David": 4475,
      "EC": 4476,
      "rible": 4477,
      "\u0120hell": 4478,
      "\u0120absolutely": 4479,
      "\u0120wealth": 4480,
      "itute": 4481,
      "\u0120materials": 4482,
      "\u0120crime": 4483,
      "\u0120odd": 4484,
      "uate": 4485,
      "Oh": 4486,
      "\u0120defined": 4487,
      "\u0120loved": 4488,
      "\u0120communication": 4489,
      "arant": 4490,
      "\u0120Mac": 4491,
      "Res": 4492,
      "\u0120Sl": 4493,
      "\u0120Law": 4494,
      "\u0120climate": 4495,
      "\u0120master": 4496,
      "\u0120bird": 4497,
      "rian": 4498,
      "\u0120equal": 4499,
      "ednes": 4500,
      "\u0120conversation": 4501,
      "\u0120soul": 4502,
      "\u0120identify": 4503,
      "anted": 4504,
      "uations": 4505,
      "osure": 4506,
      "\u0120entirely": 4507,
      "ocal": 4508,
      "\u0120Gree": 4509,
      "\u0120testing": 4510,
      "aid": 4511,
      "\u0120daughter": 4512,
      "\u0120leads": 4513,
      "\u0120cris": 4514,
      "\u0120serve": 4515,
      "\u0120push": 4516,
      "\u0120Lib": 4517,
      "Fr": 4518,
      "\u0120Je": 4519,
      "ervice": 4520,
      "\u0120advert": 4521,
      "Leave": 4522,
      "\u0120visual": 4523,
      "\u0120dangerous": 4524,
      "\u0120ast": 4525,
      "\u0120pieces": 4526,
      "\u0120Ac": 4527,
      "\u0120latest": 4528,
      "ya": 4529,
      "\u0120AM": 4530,
      "\u0120paying": 4531,
      "\u0120beat": 4532,
      "\u0120prison": 4533,
      "\u00e2\u0122\u013f,": 4534,
      "umber": 4535,
      "\u0120numer": 4536,
      "ym": 4537,
      "\u0120philos": 4538,
      "clusion": 4539,
      "\u0120ship": 4540,
      "\u0120Ant": 4541,
      "osh": 4542,
      "\u0120October": 4543,
      "ednesday": 4544,
      "\u0120waste": 4545,
      "\u0120Trans": 4546,
      "iency": 4547,
      "hens": 4548,
      "dro": 4549,
      "\u0120showing": 4550,
      "\u0120happening": 4551,
      "\u0120differences": 4552,
      "\u0120none": 4553,
      "\u0120CO": 4554,
      "Ab": 4555,
      "\u0120labor": 4556,
      "\u0120stopped": 4557,
      "\u0120objects": 4558,
      "\u0120afford": 4559,
      "ayer": 4560,
      "cellent": 4561,
      "\u0120East": 4562,
      "olf": 4563,
      "\u0120trip": 4564,
      "001": 4565,
      "igation": 4566,
      "\u0120unit": 4567,
      "oves": 4568,
      "\u0120incred": 4569,
      "ipp": 4570,
      "\u0120missing": 4571,
      "42": 4572,
      "\u0120adapt": 4573,
      "\u0120alternative": 4574,
      "\u0120Over": 4575,
      "\u0120Washington": 4576,
      "istry": 4577,
      "\u0120Count": 4578,
      "yr": 4579,
      "\u0120violence": 4580,
      "\u0120generation": 4581,
      "orage": 4582,
      "\u0120arms": 4583,
      "018": 4584,
      "\u0120switch": 4585,
      "olar": 4586,
      "\u0120placed": 4587,
      "\u0120defend": 4588,
      "\u0120California": 4589,
      "\u0120reference": 4590,
      "\u0120San": 4591,
      "\u0120default": 4592,
      "enses": 4593,
      "\u0120infe": 4594,
      "\u0120shock": 4595,
      "\u0120Facebook": 4596,
      "upid": 4597,
      "\u0120efficient": 4598,
      "iance": 4599,
      "\u0120controll": 4600,
      "ursday": 4601,
      "osite": 4602,
      "mas": 4603,
      "\u0120experiences": 4604,
      "\u0120diagn": 4605,
      "De": 4606,
      "\u0120transfer": 4607,
      "\u0120cheap": 4608,
      "\u0120Log": 4609,
      "\u0120bond": 4610,
      "Ad": 4611,
      "\u0120brief": 4612,
      "\u0120tests": 4613,
      "\u0120AP": 4614,
      "\u0120impossible": 4615,
      "\u0120ban": 4616,
      "\u0120Does": 4617,
      "\u0120equipment": 4618,
      "\u0120pure": 4619,
      "cil": 4620,
      "top": 4621,
      "\u0120herself": 4622,
      "\u0120dollars": 4623,
      "49": 4624,
      "Post": 4625,
      "\u0120expand": 4626,
      "edia": 4627,
      "prove": 4628,
      "\u0120answers": 4629,
      "\u0120pregn": 4630,
      "reate": 4631,
      "bre": 4632,
      "\u0120whom": 4633,
      "\u0120weapons": 4634,
      "\u0120sust": 4635,
      "\u0120multi": 4636,
      "from": 4637,
      "za": 4638,
      "urrent": 4639,
      ".'": 4640,
      "\u0120thanks": 4641,
      "\u0120failed": 4642,
      "\u0120trouble": 4643,
      "gor": 4644,
      "\u0120bought": 4645,
      "ologies": 4646,
      "\u0120caught": 4647,
      "\u0120slowly": 4648,
      "\u0120metal": 4649,
      "\u0120standing": 4650,
      "tended": 4651,
      "\u0120See": 4652,
      "\u0120pros": 4653,
      "\u0120king": 4654,
      "\u0120projects": 4655,
      "rem": 4656,
      "\u0120parties": 4657,
      "\u0120estim": 4658,
      "\u0120purchase": 4659,
      "\u0120mort": 4660,
      "asks": 4661,
      "\u0120providing": 4662,
      "ours": 4663,
      "\u0120relatively": 4664,
      "\u0120Internet": 4665,
      "uries": 4666,
      "\u0120Bill": 4667,
      "olec": 4668,
      "rees": 4669,
      "xi": 4670,
      "\u0120client": 4671,
      "Se": 4672,
      "cket": 4673,
      "\u0120mir": 4674,
      "\u0120pages": 4675,
      "Add": 4676,
      "\u0120discovered": 4677,
      "ords": 4678,
      "\u0120cloud": 4679,
      "\u0120motiv": 4680,
      "\u0120fighting": 4681,
      "\u0120yell": 4682,
      "\u0120suspect": 4683,
      "\u0120bow": 4684,
      "\u0120broken": 4685,
      "class": 4686,
      "ka": 4687,
      "edy": 4688,
      "ourney": 4689,
      "\u0120tom": 4690,
      "\u0120indeed": 4691,
      "ferences": 4692,
      "oom": 4693,
      "\u0120firm": 4694,
      "gl": 4695,
      "roid": 4696,
      "\u0120reports": 4697,
      "\u0120radio": 4698,
      "\u0120failure": 4699,
      "asure": 4700,
      "\u0120assist": 4701,
      "\u0120German": 4702,
      "\u0120vision": 4703,
      "\u0120teams": 4704,
      "craft": 4705,
      "house": 4706,
      "ensity": 4707,
      "\u0120miles": 4708,
      "opy": 4709,
      "IM": 4710,
      "``": 4711,
      "\u0120buying": 4712,
      "\u0120apart": 4713,
      "\u0120sick": 4714,
      "\u0120hurt": 4715,
      "istan": 4716,
      "\u0120reached": 4717,
      "ribe": 4718,
      "\u0120Instead": 4719,
      "\u0120familiar": 4720,
      "acing": 4721,
      "\")": 4722,
      "\u0120removed": 4723,
      "inn": 4724,
      "\u0120restaur": 4725,
      "\u0120Micro": 4726,
      "\u0120ended": 4727,
      "\u0120Ev": 4728,
      "\u0120holding": 4729,
      "\u0120Out": 4730,
      "icians": 4731,
      "char": 4732,
      "\u0120properly": 4733,
      "\u0120interpret": 4734,
      "('": 4735,
      "\u0120seconds": 4736,
      "\u0120evolution": 4737,
      "\u0120attacks": 4738,
      "\u0120connected": 4739,
      "\u0120knowing": 4740,
      "\u0120Where": 4741,
      "\u0120rul": 4742,
      "65": 4743,
      "ander": 4744,
      "\u0120pictures": 4745,
      "ashion": 4746,
      "\u0120efforts": 4747,
      "\u0120Sun": 4748,
      "kin": 4749,
      "\u0120James": 4750,
      "\u0120Ben": 4751,
      "\u0120fant": 4752,
      "\u0120medic": 4753,
      "\u0120crowd": 4754,
      "upp": 4755,
      "\u0120enh": 4756,
      "\u0120dim": 4757,
      "\u0120foods": 4758,
      "isms": 4759,
      "\u0120minute": 4760,
      "cription": 4761,
      "\u0120marriage": 4762,
      "More": 4763,
      "lies": 4764,
      "rey": 4765,
      "\u0120ran": 4766,
      "\u0120adding": 4767,
      "Me": 4768,
      "\u0120perspective": 4769,
      "\u0120covered": 4770,
      "akers": 4771,
      "\u0120sac": 4772,
      "\u0120relevant": 4773,
      "\u0120La": 4774,
      "\u0120tick": 4775,
      "\u0120weather": 4776,
      "\u0120liqu": 4777,
      "tained": 4778,
      "\u0120famous": 4779,
      "\u0120commercial": 4780,
      "ums": 4781,
      "\u0120mo": 4782,
      "Just": 4783,
      "\u0120Reply": 4784,
      "\u0120businesses": 4785,
      "\u0120reaction": 4786,
      "\u0120internal": 4787,
      "\u0120unlike": 4788,
      "\u0120reven": 4789,
      "rary": 4790,
      "\u0120rot": 4791,
      "eters": 4792,
      "alled": 4793,
      "\u0120classes": 4794,
      "\u0120bigger": 4795,
      "\u0120London": 4796,
      "\u0120score": 4797,
      "\u0120planning": 4798,
      "\u0120describe": 4799,
      "ki": 4800,
      "004": 4801,
      "\u0120obviously": 4802,
      "\u0120Park": 4803,
      "\u0120definition": 4804,
      "\u0120walking": 4805,
      "erry": 4806,
      "\u0120seven": 4807,
      "mar": 4808,
      "comp": 4809,
      "\u0120processes": 4810,
      "\u0120trig": 4811,
      "\u00d0\u00b5": 4812,
      "\u0120filled": 4813,
      "\u0120root": 4814,
      "icon": 4815,
      "\u0120veget": 4816,
      "\u0120iron": 4817,
      "\u0120shared": 4818,
      "\u0120Windows": 4819,
      "\u0120meat": 4820,
      "\u0120config": 4821,
      "OP": 4822,
      "\u0120bag": 4823,
      "\u0120sen": 4824,
      "\u0120expert": 4825,
      "\u0120Russia": 4826,
      "SS": 4827,
      "\u0120developing": 4828,
      "\u0120System": 4829,
      "\u0120properties": 4830,
      "300": 4831,
      "\u0120construct": 4832,
      "\u0120sets": 4833,
      "();": 4834,
      "\u0120dial": 4835,
      "respond": 4836,
      "ria": 4837,
      "aturday": 4838,
      "\u0120dynam": 4839,
      "\u0120illeg": 4840,
      "\u0120flat": 4841,
      "\u0120ton": 4842,
      "\u0120Bel": 4843,
      "appe": 4844,
      "riv": 4845,
      "\u0120explan": 4846,
      "bing": 4847,
      "\u0120traffic": 4848,
      "\u0120Canada": 4849,
      "\u0120cultural": 4850,
      "\u00e2\u0122\u00a2": 4851,
      "\u0120raised": 4852,
      "\u0120station": 4853,
      "\u0120journal": 4854,
      "itect": 4855,
      "\u0120runs": 4856,
      "met": 4857,
      "\u0120emp": 4858,
      "\u0120trial": 4859,
      "\u0120speaking": 4860,
      "\u0120politics": 4861,
      "\u0120High": 4862,
      "\u0120Ass": 4863,
      "\u0120club": 4864,
      "\u0120hearing": 4865,
      "\u0120independent": 4866,
      "\u0120symbol": 4867,
      "care": 4868,
      "\u0120clin": 4869,
      "\u0120sand": 4870,
      "ented": 4871,
      "\u0120sem": 4872,
      "\u0120thank": 4873,
      "\u0120judge": 4874,
      "\u0120Health": 4875,
      "\u0120experienced": 4876,
      "41": 4877,
      "\u0120applied": 4878,
      "\u0120teacher": 4879,
      "Of": 4880,
      "\u0120managed": 4881,
      "\u0120engage": 4882,
      "\u0120Def": 4883,
      "\u0120fans": 4884,
      "under": 4885,
      "II": 4886,
      "\u0120accident": 4887,
      "\u0120phen": 4888,
      "\u0120simpl": 4889,
      "\u0120stars": 4890,
      "\u0120tight": 4891,
      "lor": 4892,
      "list": 4893,
      "\u0120February": 4894,
      "\u0120optim": 4895,
      "semb": 4896,
      "\u0120evil": 4897,
      "\u0120notes": 4898,
      "racy": 4899,
      "\u0120massive": 4900,
      "\u0120taste": 4901,
      "\u0120download": 4902,
      "88": 4903,
      "\">": 4904,
      "look": 4905,
      "EM": 4906,
      "\u0120worst": 4907,
      "\u0120throw": 4908,
      "\u0120incor": 4909,
      "\u0120noticed": 4910,
      "\u0120poly": 4911,
      "\u0120established": 4912,
      "alle": 4913,
      "\u0120guide": 4914,
      "\u0120column": 4915,
      "gorith": 4916,
      "\u0120belong": 4917,
      "oking": 4918,
      "road": 4919,
      "\u0120mode": 4920,
      "hetic": 4921,
      "iders": 4922,
      "ogen": 4923,
      "\u0120acid": 4924,
      "\u0120legisl": 4925,
      "\u0120concerned": 4926,
      "\u0120island": 4927,
      "\u0120\u0120\u0120\u0120\u0120\u0120\u0120\u0120\u0120\u0120\u0120\u0120\u0120\u0120\u0120\u0120\u0120\u0120\u0120\u0120\u0120\u0120\u0120\u0120\u0120\u0120\u0120\u0120\u0120\u0120\u0120\u0120": 4928,
      "\u0120nav": 4929,
      "while": 4930,
      "erate": 4931,
      "Then": 4932,
      "\u0120largest": 4933,
      "\u0120protection": 4934,
      "olved": 4935,
      "arden": 4936,
      "ta": 4937,
      "\u0120records": 4938,
      "\u0120trees": 4939,
      "\u0120carbon": 4940,
      "\u0120pair": 4941,
      "\u0120dogs": 4942,
      "\u0120kick": 4943,
      "\u0120scr": 4944,
      "\u0120mine": 4945,
      "rag": 4946,
      "\u00d0\u00be": 4947,
      "username": 4948,
      "\u0120critic": 4949,
      "\u0120alcohol": 4950,
      "\u0120ancient": 4951,
      "\u0120constant": 4952,
      "itz": 4953,
      "\u0120opening": 4954,
      "\u0120empt": 4955,
      "\u0120arrest": 4956,
      "\u0120vehicle": 4957,
      "\u0120assume": 4958,
      "Sp": 4959,
      "erg": 4960,
      "\u0120allowing": 4961,
      "\u0120Each": 4962,
      "\u0120behavi": 4963,
      "ida": 4964,
      "\u0120emotional": 4965,
      "\u0120depending": 4966,
      "itors": 4967,
      "\u0120closer": 4968,
      "\u0120muscle": 4969,
      "\u0120conscious": 4970,
      "\u0120helpful": 4971,
      "\u0120relationships": 4972,
      "\u0120rapid": 4973,
      "ses": 4974,
      "\u0120accom": 4975,
      "active": 4976,
      "\u0120cycle": 4977,
      "OL": 4978,
      "\u0120cas": 4979,
      "\u0120calling": 4980,
      "\u0120mobile": 4981,
      "\u0120innov": 4982,
      "\u0120crim": 4983,
      "\u0120quiet": 4984,
      "zen": 4985,
      "\u0120AN": 4986,
      "\u0120raise": 4987,
      "\u0120bodies": 4988,
      "oyal": 4989,
      "\u0120ourselves": 4990,
      "\u0120prove": 4991,
      "\u0120plot": 4992,
      "\u0120Germany": 4993,
      "\u0120thick": 4994,
      "\u0120offered": 4995,
      "berg": 4996,
      "020": 4997,
      "\u0120sides": 4998,
      "\u0120somewhere": 4999,
      "\u0120mission": 5000,
      "\u0120Indian": 5001,
      "\u0120restrict": 5002,
      "\u0120regarding": 5003,
      "\u0120believed": 5004,
      "\u0120amb": 5005,
      "\u0120desire": 5006,
      "\u0120util": 5007,
      "\u0120monitor": 5008,
      "\u0120pal": 5009,
      "\u0120suddenly": 5010,
      "\u0120taxes": 5011,
      "\u0120combination": 5012,
      "\u0120excellent": 5013,
      "\u0120posts": 5014,
      "\u0120songs": 5015,
      "tra": 5016,
      "\u0120debate": 5017,
      "\u0120edge": 5018,
      "\u0120Big": 5019,
      "\u0120ends": 5020,
      "host": 5021,
      "\u0120milk": 5022,
      "\u0120transform": 5023,
      "\u0120Cr": 5024,
      "En": 5025,
      "\u0120Its": 5026,
      "hand": 5027,
      "\u0120hol": 5028,
      "\u0120Mex": 5029,
      "\u0120du": 5030,
      "\u0120strange": 5031,
      "\u0120Star": 5032,
      "type": 5033,
      "net": 5034,
      "\u0120bright": 5035,
      "\u0120instr": 5036,
      "itory": 5037,
      "\u0120stupid": 5038,
      "\u0120universe": 5039,
      "\u0120err": 5040,
      "\u0120opened": 5041,
      "\u0120shouldn": 5042,
      "\u0120techniques": 5043,
      "abet": 5044,
      "\u0120plays": 5045,
      "free": 5046,
      "\u0120cities": 5047,
      "\u0120Super": 5048,
      "ipped": 5049,
      "kend": 5050,
      "\u0120stim": 5051,
      "\u00d0\u00b0": 5052,
      "\u0120explained": 5053,
      "\u0120Inc": 5054,
      "inate": 5055,
      "rm": 5056,
      "ario": 5057,
      "\u0120Those": 5058,
      "\u0120defense": 5059,
      "\u0120clim": 5060,
      "\u0120sch": 5061,
      "\u0120France": 5062,
      "\u0120helping": 5063,
      "\u0120accompl": 5064,
      "\u0120label": 5065,
      "Most": 5066,
      "\u0120highest": 5067,
      "orter": 5068,
      "\u0120decades": 5069,
      "fig": 5070,
      "www": 5071,
      "state": 5072,
      "\u0120seek": 5073,
      "\u0120significantly": 5074,
      "\u0120database": 5075,
      "\u0120specifically": 5076,
      "\u0120Japanese": 5077,
      "\u0120Const": 5078,
      "ato": 5079,
      "idth": 5080,
      "\u0120importance": 5081,
      "\u0120thread": 5082,
      "\u0120fixed": 5083,
      "\u0120hur": 5084,
      "share": 5085,
      "\u0120button": 5086,
      "\u0120funny": 5087,
      "\u0120Mal": 5088,
      "\u0120collection": 5089,
      "\u0120Off": 5090,
      "\u0120experiment": 5091,
      "\u0120Africa": 5092,
      "\u0120plenty": 5093,
      "UT": 5094,
      "\u0120attrib": 5095,
      "\u0120solutions": 5096,
      "\u0120identity": 5097,
      "\u0120Lin": 5098,
      "\u0120circumst": 5099,
      "\u0120join": 5100,
      "\u0120ment": 5101,
      "Read": 5102,
      "\u0120:)": 5103,
      "\u0120Web": 5104,
      "\u0120Use": 5105,
      "}}": 5106,
      "\u0120rain": 5107,
      "ML": 5108,
      "\u0120earn": 5109,
      "43": 5110,
      "\u0120determined": 5111,
      "\u0120kinds": 5112,
      "\u0120rub": 5113,
      "\u0120existence": 5114,
      "\u0120fairly": 5115,
      "\u0120feelings": 5116,
      "\u0120item": 5117,
      "rate": 5118,
      "\u0120England": 5119,
      "\u0120Michael": 5120,
      "\u0120Mor": 5121,
      "\u0120Air": 5122,
      "irty": 5123,
      "\u0120occup": 5124,
      "\u0120Therefore": 5125,
      "apers": 5126,
      "\u0120journey": 5127,
      "ford": 5128,
      "osen": 5129,
      "\u0120Make": 5130,
      "file": 5131,
      "\u0120Govern": 5132,
      "ishes": 5133,
      "\u0120Time": 5134,
      "inding": 5135,
      "tes": 5136,
      "ias": 5137,
      "\u0120manner": 5138,
      "85": 5139,
      "\u0120requirements": 5140,
      "\u0120flav": 5141,
      "\u0120returned": 5142,
      "illing": 5143,
      "\u0120Rob": 5144,
      "\u0120capacity": 5145,
      "\u0120selling": 5146,
      "\u0120depends": 5147,
      "\u0120Thus": 5148,
      "\u0120partner": 5149,
      "\u0120follows": 5150,
      "clude": 5151,
      "\u0120exchange": 5152,
      "First": 5153,
      "\u0120policies": 5154,
      "\u0120volume": 5155,
      "night": 5156,
      "phone": 5157,
      "estion": 5158,
      "print": 5159,
      "agon": 5160,
      "\u0120located": 5161,
      "\u0120George": 5162,
      "\u0120facts": 5163,
      "anda": 5164,
      "003": 5165,
      "fortunately": 5166,
      "ulations": 5167,
      "\u0120Sub": 5168,
      "\u0120crisis": 5169,
      "cean": 5170,
      "\u0120reduced": 5171,
      "\u0120continues": 5172,
      "\u0120deliver": 5173,
      "IP": 5174,
      "\u0120syn": 5175,
      "\u0120Mart": 5176,
      "ront": 5177,
      "\u0120Bo": 5178,
      "\u0120mel": 5179,
      "mail": 5180,
      "\u0120rough": 5181,
      "utor": 5182,
      "ission": 5183,
      "\u0120researc": 5184,
      "\u0120format": 5185,
      "Our": 5186,
      "\u0120_": 5187,
      "\u0120approx": 5188,
      "phas": 5189,
      "Ed": 5190,
      "gery": 5191,
      "uy": 5192,
      "\u0120crazy": 5193,
      "\u0120Hel": 5194,
      "\u0120cart": 5195,
      "olly": 5196,
      "\u0120correspond": 5197,
      "\u0120Look": 5198,
      "\u0120Arab": 5199,
      "uit": 5200,
      "stood": 5201,
      "\u0120signal": 5202,
      "rig": 5203,
      "\u0120minimum": 5204,
      "\u0120causing": 5205,
      "omy": 5206,
      "\u0120married": 5207,
      "she": 5208,
      "porary": 5209,
      "\u0120distribution": 5210,
      "ii": 5211,
      "ancing": 5212,
      "\u0120DNA": 5213,
      "\u0120Rober": 5214,
      "\u0120Mag": 5215,
      "bal": 5216,
      "\u0120realized": 5217,
      "\u0120witness": 5218,
      "\u0120Lord": 5219,
      "mosp": 5220,
      "\u0120begins": 5221,
      "\u0120Sa": 5222,
      "\u0120bacter": 5223,
      "anish": 5224,
      "ago": 5225,
      "stream": 5226,
      "\u0120views": 5227,
      "isation": 5228,
      "\u0120driver": 5229,
      "\u0120magic": 5230,
      "\u0120stret": 5231,
      "\u0120films": 5232,
      "\u0120loan": 5233,
      "\u0120Fe": 5234,
      "\u0120prepared": 5235,
      "den": 5236,
      "arp": 5237,
      "\u0120tro": 5238,
      "EL": 5239,
      "icing": 5240,
      "\u0120que": 5241,
      "asp": 5242,
      "\u00e3\u0123": 5243,
      "\u0120sav": 5244,
      "\u0120univers": 5245,
      "\u0120challenges": 5246,
      "\u0120previously": 5247,
      "\u0120treated": 5248,
      "apping": 5249,
      "atin": 5250,
      "\u0120Green": 5251,
      "\u0120Ap": 5252,
      "icip": 5253,
      "\u0120CD": 5254,
      "olve": 5255,
      "\u0120performed": 5256,
      "\u0120index": 5257,
      "uke": 5258,
      "\u0120bare": 5259,
      "ingu": 5260,
      "\u0120accepted": 5261,
      "Pr": 5262,
      "\u0120breath": 5263,
      "\u0120Rich": 5264,
      "019": 5265,
      "\u0120guarant": 5266,
      "\u0120components": 5267,
      "\u0120increases": 5268,
      "esome": 5269,
      "\u0120sky": 5270,
      "\u0120interests": 5271,
      "\u0120Bush": 5272,
      "\u0120episode": 5273,
      "\u0120^": 5274,
      "\u0120criminal": 5275,
      "\u0120finished": 5276,
      "\u0120administration": 5277,
      "\u0120establish": 5278,
      "EO": 5279,
      "\u0120mal": 5280,
      "yth": 5281,
      "sm": 5282,
      "\u0120fle": 5283,
      "\u0120flo": 5284,
      "''": 5285,
      "\u0120contrast": 5286,
      "\u0120opposite": 5287,
      "\u0120signs": 5288,
      "\u0120Wr": 5289,
      "\u0120teeth": 5290,
      "\u0120discover": 5291,
      "\u0120creation": 5292,
      "\u0120dress": 5293,
      "\u0120\u00e2\u0122\u00a6": 5294,
      "onna": 5295,
      "\u0120necessarily": 5296,
      "\u0120Ange": 5297,
      "iot": 5298,
      "\u0120pool": 5299,
      "ixt": 5300,
      "azon": 5301,
      "\u00c2\u0143": 5302,
      "\u0120chick": 5303,
      "\u0120fly": 5304,
      "\u0120sports": 5305,
      "vention": 5306,
      "\u0120elimin": 5307,
      "igration": 5308,
      "utive": 5309,
      "\u0120Party": 5310,
      "\u0120intelligence": 5311,
      "\u0120folks": 5312,
      "rum": 5313,
      "\u0120owner": 5314,
      "\u0120uns": 5315,
      "\u0120lawy": 5316,
      "\u0120Av": 5317,
      "\u0120ideal": 5318,
      "och": 5319,
      "urally": 5320,
      "\u0120plus": 5321,
      "\u0120writer": 5322,
      "\u0120Inter": 5323,
      "eper": 5324,
      "\u0120smell": 5325,
      "\u0120murder": 5326,
      "\u0120standards": 5327,
      "\u0120Both": 5328,
      "\u0120constantly": 5329,
      "\u0120sentence": 5330,
      "\u0120molec": 5331,
      "\u0120motion": 5332,
      "IV": 5333,
      "\u0120historical": 5334,
      "\u0120entertain": 5335,
      "arn": 5336,
      "wide": 5337,
      "\u0120fold": 5338,
      "improve": 5339,
      "\u0120diss": 5340,
      "ipping": 5341,
      "\u0120rare": 5342,
      "86": 5343,
      "002": 5344,
      "terday": 5345,
      "Every": 5346,
      "\u0120algorith": 5347,
      "\u0120pulled": 5348,
      "\u0120millions": 5349,
      "\u0120appeared": 5350,
      "\u0120situations": 5351,
      "\u0120operations": 5352,
      "\u0120Book": 5353,
      "aks": 5354,
      "ado": 5355,
      "\u0120According": 5356,
      "\u0120scientists": 5357,
      "\u0120neighbor": 5358,
      "\u0120presented": 5359,
      "\u0120effectively": 5360,
      "\u0120somewhat": 5361,
      "rier": 5362,
      "\u0120twice": 5363,
      "\u0120wearing": 5364,
      "\u0120focused": 5365,
      "\u0120corner": 5366,
      "\u0120Gold": 5367,
      "\u0120!": 5368,
      "CC": 5369,
      "\u0120Answ": 5370,
      "Any": 5371,
      "related": 5372,
      "\u0120Which": 5373,
      "illy": 5374,
      "\u0120Rel": 5375,
      "\u0120NOT": 5376,
      "\u0120Review": 5377,
      "Name": 5378,
      "lock": 5379,
      "\u0120Thank": 5380,
      "rix": 5381,
      "\u0120Church": 5382,
      "\u0120rent": 5383,
      "\u0120seriously": 5384,
      "\u0120Mat": 5385,
      "\u0120Under": 5386,
      "ION": 5387,
      "Int": 5388,
      "iate": 5389,
      "\u0120Please": 5390,
      "\u0120wel": 5391,
      "\u00d8\u00a7": 5392,
      "View": 5393,
      "aped": 5394,
      "\u0120ingred": 5395,
      "\u0120library": 5396,
      "uzz": 5397,
      "\u0120suggests": 5398,
      "\u0120description": 5399,
      "\u0120turning": 5400,
      "estic": 5401,
      "\u0120lie": 5402,
      "\u0120storage": 5403,
      "\u0120vit": 5404,
      "\u0120relax": 5405,
      "\u0120comfortable": 5406,
      "\u0120ST": 5407,
      "\u0120http": 5408,
      "pm": 5409,
      "\u0120vast": 5410,
      "\u0120anymore": 5411,
      "SA": 5412,
      "\u0120banks": 5413,
      "\u0120affected": 5414,
      "\u0120contro": 5415,
      "\u0120entry": 5416,
      "\u0120Tom": 5417,
      "\u0120plastic": 5418,
      "\u0120excess": 5419,
      "mary": 5420,
      "\u0120responsibility": 5421,
      "\u0120typical": 5422,
      "\u0120killing": 5423,
      "App": 5424,
      "77": 5425,
      "\u0120experim": 5426,
      "\u0120north": 5427,
      "\u0120fruit": 5428,
      "esh": 5429,
      "\u0120quot": 5430,
      "\u0120choices": 5431,
      "erved": 5432,
      "abilities": 5433,
      "\u0120tun": 5434,
      "ocracy": 5435,
      "See": 5436,
      "ructure": 5437,
      "\u0120Two": 5438,
      "OD": 5439,
      "\u0120fields": 5440,
      "Man": 5441,
      "\u0120Have": 5442,
      "\u0120operation": 5443,
      "\u0120snow": 5444,
      "\u0120tiny": 5445,
      "uts": 5446,
      "\u0120winter": 5447,
      "\u0120Another": 5448,
      "\u0120director": 5449,
      "ini": 5450,
      "\u0120flight": 5451,
      "hab": 5452,
      "outs": 5453,
      "ogue": 5454,
      "\u0120Only": 5455,
      "400": 5456,
      "ighter": 5457,
      "\u0120Western": 5458,
      "\u0120alle": 5459,
      "\u0120Ret": 5460,
      "\u0120sample": 5461,
      "Google": 5462,
      "Another": 5463,
      "'.": 5464,
      "\u0120sister": 5465,
      "\u0120wonderful": 5466,
      "CH": 5467,
      "\u0120Sur": 5468,
      "\u0120consult": 5469,
      "\u0120conver": 5470,
      "FF": 5471,
      "\u0120teaching": 5472,
      "oper": 5473,
      "\u0120observed": 5474,
      "itionally": 5475,
      "\u0120react": 5476,
      "\u0120synt": 5477,
      "\u0120Commun": 5478,
      "\u0120anywhere": 5479,
      "\u0120trick": 5480,
      "\u0120aspects": 5481,
      "\u0120creative": 5482,
      "\u0120usual": 5483,
      "\u0120School": 5484,
      "\u0120motor": 5485,
      "][": 5486,
      "uh": 5487,
      "iveness": 5488,
      "amental": 5489,
      "\u0120zero": 5490,
      "\u0120phr": 5491,
      "Rel": 5492,
      "\u0120empty": 5493,
      "\u0120tow": 5494,
      "\u0120USA": 5495,
      "\u0120truck": 5496,
      "\u0120intended": 5497,
      "\u0120losing": 5498,
      "\u0120ring": 5499,
      "\u0120apparently": 5500,
      "\u0120gro": 5501,
      "\u0120proof": 5502,
      "\u0120Dec": 5503,
      "\u0120atmosp": 5504,
      "\u0120layer": 5505,
      "\u0120Work": 5506,
      "\u0120sin": 5507,
      "\u0120clothes": 5508,
      "\u0120hundreds": 5509,
      "Ind": 5510,
      "idel": 5511,
      "\u0120competition": 5512,
      "\u00e3\u0122": 5513,
      "\u0120flex": 5514,
      "\u0120horr": 5515,
      "Des": 5516,
      "\u0120possibility": 5517,
      "56": 5518,
      "\u0120matters": 5519,
      "\u0120agreement": 5520,
      "\u0120teen": 5521,
      "\u0120authority": 5522,
      "\u0120dut": 5523,
      "\u0120advanced": 5524,
      "\u0120links": 5525,
      "alls": 5526,
      "\u0120Bet": 5527,
      "\u0120walked": 5528,
      "\u0120stre": 5529,
      "\u0120introduced": 5530,
      "\u0120patterns": 5531,
      "\u0120frequently": 5532,
      "\u0120absor": 5533,
      "war": 5534,
      "\u0120Life": 5535,
      "\u0120fashion": 5536,
      "standing": 5537,
      "\u0120Home": 5538,
      "\u0120considering": 5539,
      "uable": 5540,
      "\u0120funds": 5541,
      "\u0120keeps": 5542,
      "\u0120AI": 5543,
      "\u0120stated": 5544,
      "\u0120Tur": 5545,
      "\u0120harder": 5546,
      "comment": 5547,
      "\u0120academ": 5548,
      "!)": 5549,
      "xiety": 5550,
      "\u0120south": 5551,
      "\u0120operating": 5552,
      "\u0120thinks": 5553,
      "\u0120General": 5554,
      "Please": 5555,
      "\u0120served": 5556,
      "OW": 5557,
      "outhern": 5558,
      "ulous": 5559,
      "\u0120legs": 5560,
      "\u0120boys": 5561,
      "\u0120weren": 5562,
      "icted": 5563,
      "\u0120Hist": 5564,
      "\u0120Alex": 5565,
      "arsh": 5566,
      "\u0120advance": 5567,
      "\u0120somehow": 5568,
      "RA": 5569,
      "\u0120generate": 5570,
      "\u0120watched": 5571,
      "\u0120joint": 5572,
      "\u0120;": 5573,
      "\u0120opportunities": 5574,
      "\u0120Did": 5575,
      "ensions": 5576,
      "\u0120involve": 5577,
      "ship": 5578,
      "\u0120During": 5579,
      "\u0120practices": 5580,
      "lo": 5581,
      "rency": 5582,
      "May": 5583,
      "\u0120exists": 5584,
      "cher": 5585,
      "\u0120clients": 5586,
      "lig": 5587,
      "\u0120architect": 5588,
      "\u0120effic": 5589,
      "\u0120capable": 5590,
      "orders": 5591,
      "\u0120bunch": 5592,
      "\u0120articles": 5593,
      "\u0120environmental": 5594,
      "\u0120Str": 5595,
      "real": 5596,
      "\u0120Jewish": 5597,
      "\u0120ec": 5598,
      "\u0120measures": 5599,
      "\u0120technical": 5600,
      "\u0120Street": 5601,
      "gypt": 5602,
      "\u0120ID": 5603,
      "\u0120Tex": 5604,
      "AA": 5605,
      "},": 5606,
      "log": 5607,
      "\u0120Russian": 5608,
      "\u0120ju": 5609,
      "rog": 5610,
      "ads": 5611,
      "\u0120moral": 5612,
      "rome": 5613,
      "uster": 5614,
      "\u0120shit": 5615,
      "\u0120carried": 5616,
      "\u0120photos": 5617,
      "\u0120weird": 5618,
      "\u0120Jul": 5619,
      "icial": 5620,
      "\u0120remark": 5621,
      "\u0120Whe": 5622,
      "ophy": 5623,
      "\u0120Sometimes": 5624,
      "\u0120forest": 5625,
      "iler": 5626,
      "cons": 5627,
      "\u0120maximum": 5628,
      "\u0120phase": 5629,
      "Ob": 5630,
      "\u0120solve": 5631,
      "tee": 5632,
      "bar": 5633,
      "eding": 5634,
      "\u0120smooth": 5635,
      "\u0120homes": 5636,
      "anged": 5637,
      "\u0120IP": 5638,
      "level": 5639,
      "\u00c3\u00a1": 5640,
      "iest": 5641,
      "okes": 5642,
      "\u0120sorry": 5643,
      "Pe": 5644,
      "fraid": 5645,
      "\u0120fort": 5646,
      "\u0120lies": 5647,
      "\u0120organizations": 5648,
      "\u0120teachers": 5649,
      "\u0120Social": 5650,
      "ora": 5651,
      "\u0120shift": 5652,
      "\u0120manufacture": 5653,
      "\u0120taught": 5654,
      "\u0120circumstances": 5655,
      "\u0120powers": 5656,
      "\u0120profession": 5657,
      "\u0120secure": 5658,
      "uing": 5659,
      "\u0120rank": 5660,
      "\u0120partners": 5661,
      "ormal": 5662,
      "Are": 5663,
      "\u0120surprised": 5664,
      "\u0120Microsoft": 5665,
      "\u0120construction": 5666,
      "\u0120chain": 5667,
      "\u0120afraid": 5668,
      "\u0120highlight": 5669,
      "\u0120bull": 5670,
      "itchen": 5671,
      "rical": 5672,
      "ker": 5673,
      "\u0120concerns": 5674,
      "\u0120Thom": 5675,
      "Col": 5676,
      "\u0120reform": 5677,
      "illa": 5678,
      "\u0120ultimately": 5679,
      "usiness": 5680,
      "\u0120officials": 5681,
      "\u0120markets": 5682,
      "abel": 5683,
      "\u0120DOC": 5684,
      "\u0120package": 5685,
      "\u0120manager": 5686,
      "\u0120illegal": 5687,
      "\u0120tough": 5688,
      "win": 5689,
      "sub": 5690,
      "\u0120Australia": 5691,
      "ocation": 5692,
      "\u0120brows": 5693,
      "cript": 5694,
      "\u0120alive": 5695,
      "\u0120neither": 5696,
      "57": 5697,
      "uthors": 5698,
      "MS": 5699,
      "\u0120greatest": 5700,
      "\u0120distinct": 5701,
      "oster": 5702,
      "\u0120numerous": 5703,
      "agers": 5704,
      "\u0120insp": 5705,
      "\u0120liquid": 5706,
      "\u0120Yet": 5707,
      "\u0120accounts": 5708,
      "\u0120profit": 5709,
      "\u0120salt": 5710,
      "\u0120neck": 5711,
      "\u0120advent": 5712,
      "da": 5713,
      "friend": 5714,
      "\u0120grew": 5715,
      "life": 5716,
      "\u0120plane": 5717,
      "\u0120update": 5718,
      "itle": 5719,
      "\u0120cert": 5720,
      "\u0120Techn": 5721,
      "IL": 5722,
      "\u0120IN": 5723,
      "\u0120Step": 5724,
      "athy": 5725,
      "aying": 5726,
      "\u0120=>": 5727,
      "\u0120Port": 5728,
      "requ": 5729,
      "ups": 5730,
      "\u0120accurate": 5731,
      "yp": 5732,
      "\u0120enemy": 5733,
      "\u0120army": 5734,
      "\u0120grab": 5735,
      "\u0120African": 5736,
      "\u0120disappe": 5737,
      "\u0120height": 5738,
      "\u0120suggested": 5739,
      "date": 5740,
      "\u0120television": 5741,
      "aching": 5742,
      "\u0120identified": 5743,
      "ython": 5744,
      "\u0120literally": 5745,
      "\u0120isol": 5746,
      "\u0120normally": 5747,
      "\u0120stood": 5748,
      "\u0120sharing": 5749,
      "\u0120colon": 5750,
      "\u0120fing": 5751,
      "\u0120moves": 5752,
      "\u0120vary": 5753,
      "cking": 5754,
      "\u0120vacc": 5755,
      "going": 5756,
      "\u0120supported": 5757,
      "\u0120Union": 5758,
      "\u0120medium": 5759,
      "Who": 5760,
      "\u0120units": 5761,
      "\u0120emphas": 5762,
      "\u00e2\u0122\u013a": 5763,
      "\u0120moments": 5764,
      "\u0120writ": 5765,
      "lete": 5766,
      "\u0120Republican": 5767,
      "\u0120wave": 5768,
      "\u0120Bre": 5769,
      "\u0120dance": 5770,
      "\u0120smile": 5771,
      "\u0120forth": 5772,
      "abled": 5773,
      "\u0120Ham": 5774,
      "\u0120perfectly": 5775,
      "\u0120messages": 5776,
      "\u0120finish": 5777,
      "ashed": 5778,
      "\u0120seat": 5779,
      "esides": 5780,
      "\u0120gene": 5781,
      "IG": 5782,
      "\u0120readers": 5783,
      "nel": 5784,
      "\u0120explore": 5785,
      "\u0120revolution": 5786,
      "\u0120Mo": 5787,
      "\u0120tasks": 5788,
      "!\u00e2\u0122\u013f": 5789,
      "orthern": 5790,
      "\u0120formed": 5791,
      "Americ": 5792,
      "\u0120square": 5793,
      "ih": 5794,
      "\u0120brings": 5795,
      "RL": 5796,
      "\u0120repeated": 5797,
      "\u0120football": 5798,
      "\u0120Cam": 5799,
      "ita": 5800,
      "iki": 5801,
      "\u0120unable": 5802,
      "\u0120understood": 5803,
      "ena": 5804,
      "hered": 5805,
      "enced": 5806,
      "data": 5807,
      "\u0120consequences": 5808,
      "\u0120Christmas": 5809,
      "omic": 5810,
      "Gen": 5811,
      "itar": 5812,
      "\u0120weekend": 5813,
      "\u0120justice": 5814,
      "\u0120leadership": 5815,
      "\u0120horse": 5816,
      "\u0120Take": 5817,
      "lines": 5818,
      "\u0120resistance": 5819,
      "\u0120noise": 5820,
      "\u0120Da": 5821,
      "aded": 5822,
      "\u0120Center": 5823,
      "\u0120ride": 5824,
      "\u0120wine": 5825,
      "\u0120Mil": 5826,
      "\u0120bath": 5827,
      "ortion": 5828,
      "\u0120san": 5829,
      "\u0120Jud": 5830,
      "\u0120essentially": 5831,
      "bra": 5832,
      "\u0120Sal": 5833,
      "\u0120bear": 5834,
      "\u0120remote": 5835,
      "\u0120sufficient": 5836,
      "urd": 5837,
      "erves": 5838,
      "\u0120occurs": 5839,
      "\u0120breast": 5840,
      "\u0120adm": 5841,
      "\u0120battery": 5842,
      "pet": 5843,
      "SP": 5844,
      "\u0120amounts": 5845,
      "\u0120drinking": 5846,
      "\u0120paint": 5847,
      "----------------": 5848,
      "\u0120precise": 5849,
      "\u0120reasonable": 5850,
      "\u0120surprise": 5851,
      "\u0120Right": 5852,
      "\u0120proposed": 5853,
      "\u0120Del": 5854,
      "\u0120Er": 5855,
      "\u0120bomb": 5856,
      "\u0120stuck": 5857,
      "\u0120equival": 5858,
      "\u0120Mary": 5859,
      "\u0120noted": 5860,
      "ollow": 5861,
      "\u0120fif": 5862,
      "\u0120automatically": 5863,
      "cel": 5864,
      "cal": 5865,
      "\u0120Second": 5866,
      "ounter": 5867,
      "Id": 5868,
      "\u0120candidate": 5869,
      "\u0120videos": 5870,
      "\u0120explanation": 5871,
      "\u0120Roman": 5872,
      "\u0120appearance": 5873,
      "\u0120aid": 5874,
      "\u0120listening": 5875,
      "\u0120sustain": 5876,
      "\u0120processing": 5877,
      "\u0120posted": 5878,
      "Many": 5879,
      "\u0120okay": 5880,
      "\u0120recognize": 5881,
      "Even": 5882,
      "\u0120habit": 5883,
      "\u0120Friday": 5884,
      "\u0120dram": 5885,
      "\u0120injury": 5886,
      "\u0124\u00ac": 5887,
      "\u0120resulting": 5888,
      "\u0120negot": 5889,
      "\u0120hunt": 5890,
      "\u0120chart": 5891,
      "\u0120communities": 5892,
      "\u0120appoint": 5893,
      "\u0120Today": 5894,
      "\u0120Supp": 5895,
      "atural": 5896,
      "\u0120Test": 5897,
      "dule": 5898,
      "\u0120proceed": 5899,
      "\u0120dinner": 5900,
      "coming": 5901,
      "\u0120wire": 5902,
      "\u0120Twitter": 5903,
      "\u0120Science": 5904,
      "\u0120involves": 5905,
      "\u0120brown": 5906,
      "ona": 5907,
      "}$": 5908,
      "\u0120spin": 5909,
      "\u0120spiritual": 5910,
      "\u0120possess": 5911,
      "\u0120surgery": 5912,
      "Out": 5913,
      "\u0120largely": 5914,
      "cknow": 5915,
      "\u0120therapy": 5916,
      "py": 5917,
      "inating": 5918,
      "\u0120severe": 5919,
      "fo": 5920,
      "\u0120technique": 5921,
      "\u0120escape": 5922,
      "\u0120abuse": 5923,
      "58": 5924,
      "\u0120fault": 5925,
      "\u0120attend": 5926,
      "\u0120skill": 5927,
      "Also": 5928,
      "\u0120vent": 5929,
      "\u00e0\u00a5": 5930,
      "water": 5931,
      "\u0120tips": 5932,
      "oken": 5933,
      "\u0120sequence": 5934,
      "\u0120Att": 5935,
      "CT": 5936,
      "inton": 5937,
      "ician": 5938,
      "\u0120thin": 5939,
      "\u0120Mad": 5940,
      "\u0120desk": 5941,
      "\u0120Times": 5942,
      "\u0120degrees": 5943,
      "ching": 5944,
      "ellect": 5945,
      "\u0120phenomen": 5946,
      "Where": 5947,
      "\u0120extent": 5948,
      "\u0120van": 5949,
      "\u0120sight": 5950,
      "\u0120external": 5951,
      "\u0120loud": 5952,
      "800": 5953,
      "then": 5954,
      "********": 5955,
      "\u0120agreed": 5956,
      "dis": 5957,
      "\u0120vul": 5958,
      "\u0120combined": 5959,
      "\u0120goods": 5960,
      "uls": 5961,
      "\u0120Jews": 5962,
      "rage": 5963,
      "pic": 5964,
      "\u0120encourage": 5965,
      "\u0120struggle": 5966,
      "\u0120Department": 5967,
      "\u0120Egypt": 5968,
      "\u0120upper": 5969,
      "iat": 5970,
      "\u0120channel": 5971,
      "ructions": 5972,
      "rant": 5973,
      "\u0120occasion": 5974,
      "\u0120adults": 5975,
      "\u0120beauty": 5976,
      "wing": 5977,
      "\u0120suc": 5978,
      "adow": 5979,
      "hesis": 5980,
      "\u0120International": 5981,
      "\u0120younger": 5982,
      "\u0120Joe": 5983,
      "oma": 5984,
      "\u0120org": 5985,
      "reens": 5986,
      "Type": 5987,
      "\u0120passion": 5988,
      "\u0120Peter": 5989,
      "uting": 5990,
      "\u0120guard": 5991,
      "\u0120hasn": 5992,
      "aning": 5993,
      "\u0120\u0120\u0120\u0120\u0120\u0120\u0120\u0120\u0120\u0120\u0120\u0120\u0120\u0120\u0120\u0120\u0120\u0120\u0120": 5994,
      "oin": 5995,
      "\u0120Sunday": 5996,
      "bel": 5997,
      "\u0120mail": 5998,
      "ye": 5999,
      "\u0120genes": 6000,
      "odd": 6001,
      "aph": 6002,
      "\u0120Bas": 6003,
      "\u0120returns": 6004,
      "\u0120argue": 6005,
      "\u0120profile": 6006,
      "Rec": 6007,
      "\u0120commonly": 6008,
      "inking": 6009,
      "\u0120alt": 6010,
      "\u0120volunt": 6011,
      "\u0120busy": 6012,
      "\u0120Open": 6013,
      "\u0120payment": 6014,
      "\u0120Frank": 6015,
      "\u0120liked": 6016,
      "\u0120rom": 6017,
      "\u0120researchers": 6018,
      "\u0120fundamental": 6019,
      "ceived": 6020,
      "\u0120gather": 6021,
      "\u0120artist": 6022,
      "\u0120creates": 6023,
      "\u0120Back": 6024,
      "\u0120compre": 6025,
      "\u0120laugh": 6026,
      "66": 6027,
      "rete": 6028,
      "Phone": 6029,
      "DA": 6030,
      "\u0120bread": 6031,
      "\u0120hole": 6032,
      "cers": 6033,
      "\u0120Fin": 6034,
      "\u0120merely": 6035,
      "\u0120officer": 6036,
      "isher": 6037,
      "acc": 6038,
      "\u0120explains": 6039,
      "\u0120hydro": 6040,
      "\u0120fasc": 6041,
      "efully": 6042,
      "\u0120spring": 6043,
      "\u0120disci": 6044,
      "Anonymous": 6045,
      "\u0120cab": 6046,
      "\u0120virtual": 6047,
      "\u0120acts": 6048,
      "\u0120spr": 6049,
      "\u0120storm": 6050,
      "\u0120remaining": 6051,
      "\u0120conven": 6052,
      "\u0120suffering": 6053,
      "\u0120chest": 6054,
      "\u0120complicated": 6055,
      "osal": 6056,
      "List": 6057,
      "icity": 6058,
      "fast": 6059,
      "des": 6060,
      "\u0120Prof": 6061,
      "TS": 6062,
      "IA": 6063,
      "\u0120anxiety": 6064,
      "\u0120assert": 6065,
      "\u0120revealed": 6066,
      "\u0120arrived": 6067,
      "\u0120Jim": 6068,
      "\u0120Det": 6069,
      "\u0120languages": 6070,
      "\u0120forgot": 6071,
      "\u0120Miss": 6072,
      "\u0120instit": 6073,
      "\u0120routine": 6074,
      "itutional": 6075,
      "hent": 6076,
      "\u0120border": 6077,
      "\u0120Texas": 6078,
      "cked": 6079,
      "\u0120Cath": 6080,
      "alian": 6081,
      "\u0120medicine": 6082,
      "\u0120yield": 6083,
      "\u0120pil": 6084,
      "ville": 6085,
      "\u0120evening": 6086,
      "bits": 6087,
      "\u0120colors": 6088,
      "\u0120Top": 6089,
      "\u0120resist": 6090,
      "\u0120cream": 6091,
      "inations": 6092,
      "\u0120convin": 6093,
      "\u0120password": 6094,
      "\u0120define": 6095,
      "\u0120perman": 6096,
      "plate": 6097,
      "rep": 6098,
      "\u0120Bro": 6099,
      "\u0120blind": 6100,
      "\u0120talked": 6101,
      "\u0120session": 6102,
      "zing": 6103,
      "\u0120naturally": 6104,
      "\u0120chair": 6105,
      "\u0120feedback": 6106,
      "\u0120mainly": 6107,
      "pal": 6108,
      "\u0120mac": 6109,
      "\u0120convention": 6110,
      "\u0120asks": 6111,
      "\u0120grown": 6112,
      "\u0120comparison": 6113,
      "Once": 6114,
      "\u0120==": 6115,
      "ano": 6116,
      "Since": 6117,
      "\u0120launch": 6118,
      "\u0120machines": 6119,
      "ns": 6120,
      "\u0120dealing": 6121,
      "\u0120heads": 6122,
      "\u0120reader": 6123,
      "\u0120stores": 6124,
      "\u0120Perhaps": 6125,
      "\u0120valuable": 6126,
      "\u0120component": 6127,
      "\u0120acknow": 6128,
      "\u0120Que": 6129,
      "\u0120walls": 6130,
      "uous": 6131,
      "\u0120butter": 6132,
      "oding": 6133,
      "\u0120lights": 6134,
      "\u0120depth": 6135,
      "\u0120subt": 6136,
      "\u0120detailed": 6137,
      "\u0120crew": 6138,
      "abetes": 6139,
      "\u0120Island": 6140,
      "\u0120reject": 6141,
      "\u0120aside": 6142,
      "\u0120Sil": 6143,
      "lements": 6144,
      "\u0120survive": 6145,
      "\u0120practical": 6146,
      "\u0120Old": 6147,
      "Up": 6148,
      "\u0120ru": 6149,
      "\u0120hidden": 6150,
      "\u0120je": 6151,
      "\u0120consistent": 6152,
      "\u0120soldiers": 6153,
      "\u0120spell": 6154,
      "!!!": 6155,
      "\u0120agent": 6156,
      "\u0120Tre": 6157,
      "\u0120Aut": 6158,
      "\u0120consumer": 6159,
      "\u0120hyper": 6160,
      "\u0120disapp": 6161,
      "^{": 6162,
      "\u0120hat": 6163,
      "\u0120acting": 6164,
      "\u0120solar": 6165,
      "\u0120Last": 6166,
      "\u0120glad": 6167,
      "ibilities": 6168,
      "pack": 6169,
      "BS": 6170,
      "\u0120tag": 6171,
      "\u0120pump": 6172,
      "ressive": 6173,
      "atar": 6174,
      "\u0120gonna": 6175,
      "\u0120everybody": 6176,
      "Over": 6177,
      "\u0120tox": 6178,
      "taining": 6179,
      "Te": 6180,
      "\u0120boost": 6181,
      "ette": 6182,
      "\u00ef\u00bc": 6183,
      "uated": 6184,
      "\u0120gay": 6185,
      "\u0120Power": 6186,
      "\u0120latter": 6187,
      "page": 6188,
      "\u0120purposes": 6189,
      "omething": 6190,
      "azine": 6191,
      "\u0120appreciate": 6192,
      "ocolate": 6193,
      "\u0120picked": 6194,
      "\u0120soil": 6195,
      "\u0120selection": 6196,
      "PR": 6197,
      "\u0120documents": 6198,
      "anges": 6199,
      "\u0120finds": 6200,
      "\u0120potentially": 6201,
      "\u0120tum": 6202,
      "sey": 6203,
      "\u0120stands": 6204,
      "\u0120Hill": 6205,
      "\u0120Press": 6206,
      "\u0120collabor": 6207,
      "\u0120arguments": 6208,
      "\u0120Again": 6209,
      "\u0120succeed": 6210,
      "yan": 6211,
      "\u0120substant": 6212,
      "resents": 6213,
      "weet": 6214,
      "dr": 6215,
      "\u0120Further": 6216,
      "\u0120excited": 6217,
      "\u0120positions": 6218,
      "________": 6219,
      "inst": 6220,
      "\u0120knock": 6221,
      "\u0120genetic": 6222,
      "999": 6223,
      "\u0120meal": 6224,
      "\u0120filter": 6225,
      "pha": 6226,
      "hi": 6227,
      "\u0120awesome": 6228,
      "\u0120theme": 6229,
      "\u0120Arch": 6230,
      "\u0120variable": 6231,
      "rd": 6232,
      "TH": 6233,
      "\u0120sport": 6234,
      "\u0120sale": 6235,
      "\u0120surprising": 6236,
      "\u0120Tim": 6237,
      "onic": 6238,
      "\u0120Di": 6239,
      "\u0120carefully": 6240,
      "bert": 6241,
      "Sub": 6242,
      "\u0120offering": 6243,
      "\u0120yesterday": 6244,
      "\u0120confidence": 6245,
      "\u0120kitchen": 6246,
      "\u0120enhance": 6247,
      "\u0120domain": 6248,
      "\u0120ath": 6249,
      "aser": 6250,
      "apes": 6251,
      "celer": 6252,
      "\u0120immune": 6253,
      "\u0120rac": 6254,
      "bor": 6255,
      "\u0120frequency": 6256,
      "\u0120Smith": 6257,
      "\u0120referred": 6258,
      "Spe": 6259,
      "hemat": 6260,
      "\u0120forever": 6261,
      "\u0120discussed": 6262,
      "ican": 6263,
      "\u0120math": 6264,
      "\u0120myth": 6265,
      "elf": 6266,
      "\u0120joy": 6267,
      "lets": 6268,
      "\u0120Plan": 6269,
      "\u0120scream": 6270,
      "\u0120pin": 6271,
      "Per": 6272,
      "\u0120experts": 6273,
      "\u0120oxy": 6274,
      "\u0120illness": 6275,
      "mes": 6276,
      "\u0120exposure": 6277,
      "\u0120Cap": 6278,
      "\u0120assign": 6279,
      "59": 6280,
      "ua": 6281,
      "\u0120era": 6282,
      "\u0120muscles": 6283,
      "\u0120cro": 6284,
      "\u0120Vir": 6285,
      "Go": 6286,
      "\u0120gender": 6287,
      "\u0120fab": 6288,
      "\u0120obtain": 6289,
      "\u0120chosen": 6290,
      "\u0120gotten": 6291,
      "\u0120drag": 6292,
      "\u0120cock": 6293,
      "\u0120interact": 6294,
      "\u0120shif": 6295,
      "\u0120essay": 6296,
      "\u0120strategies": 6297,
      "ifies": 6298,
      "they": 6299,
      "\u0120bringing": 6300,
      "\u0120Research": 6301,
      "\u0120procedure": 6302,
      "onent": 6303,
      "\u0120mistake": 6304,
      "\u0120corporate": 6305,
      "\u0120doctors": 6306,
      "\u0120infection": 6307,
      "\u0120tired": 6308,
      "\u0120holds": 6309,
      "\u0120stom": 6310,
      "\u0120Scott": 6311,
      "\u0120sle": 6312,
      "\u0120eggs": 6313,
      "\u0120linked": 6314,
      "\u0120ske": 6315,
      "\u0120array": 6316,
      "cend": 6317,
      "\u0120Amazon": 6318,
      "\u0120restaurant": 6319,
      "\u0120virus": 6320,
      "\u0120Lou": 6321,
      "\u0120Associ": 6322,
      "\u0120risks": 6323,
      "raction": 6324,
      "\u0120assets": 6325,
      "sl": 6326,
      "\u0120THE": 6327,
      "\u0120disag": 6328,
      "bi": 6329,
      "appy": 6330,
      "apped": 6331,
      "Because": 6332,
      "\u0120extract": 6333,
      "\u0120likes": 6334,
      "\u0120passing": 6335,
      "\u0120consumption": 6336,
      "\u0120stone": 6337,
      "\u0120depression": 6338,
      "function": 6339,
      "\u0120emotions": 6340,
      "\u0120consumers": 6341,
      "\u0120generated": 6342,
      "\u0120split": 6343,
      "\u0120occurred": 6344,
      "\u0120neut": 6345,
      "\u0120Keep": 6346,
      "andon": 6347,
      "}\\": 6348,
      "\u0120EU": 6349,
      "run": 6350,
      "?)": 6351,
      "\u0120replaced": 6352,
      "\u0120letters": 6353,
      "gent": 6354,
      "ystem": 6355,
      "\u0120wal": 6356,
      "\u0120recommended": 6357,
      "\u0120sees": 6358,
      "\u0120smoke": 6359,
      "\u0120weapon": 6360,
      "\u0120district": 6361,
      "oman": 6362,
      "race": 6363,
      "\u0120coord": 6364,
      "ployment": 6365,
      "\u0120sector": 6366,
      "ample": 6367,
      "\u0120bell": 6368,
      "\u0120structures": 6369,
      "\u0120diseases": 6370,
      "\u0120nations": 6371,
      "52": 6372,
      "\u0120officers": 6373,
      "\u0120Ins": 6374,
      "\u0120reward": 6375,
      "\u0120advoc": 6376,
      "\u0120intention": 6377,
      "\u0120Free": 6378,
      "\u0120manip": 6379,
      "adian": 6380,
      "\u0120nom": 6381,
      "87": 6382,
      "long": 6383,
      "\u0120HT": 6384,
      "cific": 6385,
      "ographic": 6386,
      "PC": 6387,
      "\u0120represents": 6388,
      "\u0120spoke": 6389,
      "QL": 6390,
      "\u0120moon": 6391,
      "\u0120Phil": 6392,
      "\u00c2\u00b0": 6393,
      "\u00d0\u00b8": 6394,
      "\u0120Bible": 6395,
      "izer": 6396,
      "iller": 6397,
      "iger": 6398,
      "\u0120adop": 6399,
      "\u0120improved": 6400,
      "\u0120dropped": 6401,
      "greg": 6402,
      "orney": 6403,
      "\u0120kiss": 6404,
      "\u0120plate": 6405,
      "\u0120falling": 6406,
      "\u0120quarter": 6407,
      "\u0120atmosphere": 6408,
      "\u0120shooting": 6409,
      "\u0120widely": 6410,
      "\u0120exception": 6411,
      "\u0120Yeah": 6412,
      "\u0120Sing": 6413,
      "Back": 6414,
      "\u0120employee": 6415,
      "\u0120somebody": 6416,
      "pected": 6417,
      "\u0120fro": 6418,
      "\u0120opposed": 6419,
      "Med": 6420,
      "\u0120networks": 6421,
      "\u0120wheel": 6422,
      "\u0120committed": 6423,
      "whel": 6424,
      "\u0120initi": 6425,
      "\u0120unknown": 6426,
      "\u0120personally": 6427,
      "ears": 6428,
      "\u0120youth": 6429,
      "atus": 6430,
      "\u0120craft": 6431,
      "\u0120Bob": 6432,
      "\u0120authors": 6433,
      "test": 6434,
      "\u0120fellow": 6435,
      "bles": 6436,
      "\u0120hardware": 6437,
      "\u0120broke": 6438,
      "\u0120Sk": 6439,
      "\u0120plug": 6440,
      "\u0120native": 6441,
      "\u0120charges": 6442,
      "\u0120tail": 6443,
      "nam": 6444,
      "\u0120thousand": 6445,
      "\u0120exposed": 6446,
      "\u0120origin": 6447,
      "\u0120finger": 6448,
      "\u0120Ber": 6449,
      "\u0120everywhere": 6450,
      "\u0120Rev": 6451,
      "\u0120ax": 6452,
      "\u0120List": 6453,
      "\u0120Coun": 6454,
      "\u0120mixed": 6455,
      "\u0120hang": 6456,
      "\u0120controlled": 6457,
      "51": 6458,
      "\u0120logic": 6459,
      "Last": 6460,
      "\u0120winning": 6461,
      "oral": 6462,
      "\u0120careful": 6463,
      "\u0120category": 6464,
      "\u0120Vol": 6465,
      "\u0120divid": 6466,
      "wered": 6467,
      "\u0120contem": 6468,
      "\u0120figures": 6469,
      "\u0120IT": 6470,
      "post": 6471,
      "\u0120Read": 6472,
      "\u0120exhib": 6473,
      "\u0120clar": 6474,
      "\u0120equivalent": 6475,
      "osm": 6476,
      "aren": 6477,
      "oration": 6478,
      "\u0120interface": 6479,
      "\u0120Before": 6480,
      "')": 6481,
      "\u0120feat": 6482,
      "\u0120Rock": 6483,
      "Val": 6484,
      "\u0120tables": 6485,
      "600": 6486,
      "\u0120recorded": 6487,
      "obe": 6488,
      "\u0120computers": 6489,
      "iform": 6490,
      "IR": 6491,
      "\u0120conclusion": 6492,
      "tw": 6493,
      "\u0120stronger": 6494,
      "Am": 6495,
      "\u0120Ma": 6496,
      "\u0120UN": 6497,
      "\u0120increasingly": 6498,
      "rastructure": 6499,
      "\u0120Greek": 6500,
      "\u0120charged": 6501,
      "\u0120intellect": 6502,
      "\u0120Data": 6503,
      "\u0120Tor": 6504,
      "\u0120Security": 6505,
      "\u0120ingredients": 6506,
      "\u0120Robert": 6507,
      "\u0120RE": 6508,
      "\u0120reviews": 6509,
      "LA": 6510,
      "\u0120cere": 6511,
      "\u0120resource": 6512,
      "\u0120AD": 6513,
      "150": 6514,
      "\u0120originally": 6515,
      "\u0120nobody": 6516,
      "\u0120hook": 6517,
      "allow": 6518,
      "born": 6519,
      "\u0120decent": 6520,
      "cluding": 6521,
      "PM": 6522,
      "\u0120apps": 6523,
      "Other": 6524,
      "\u0120terrible": 6525,
      "\u0120editor": 6526,
      "\u0120Korea": 6527,
      "\u0120classic": 6528,
      "\u0120pointed": 6529,
      "\u0120department": 6530,
      "\u0120Middle": 6531,
      "\u0120bacteria": 6532,
      "\u0120inner": 6533,
      "ulture": 6534,
      "\u0120bone": 6535,
      "\u0120intent": 6536,
      "\u0120ratio": 6537,
      "990": 6538,
      "\u0120principle": 6539,
      "ala": 6540,
      "\u0120incorpor": 6541,
      "\u0120promote": 6542,
      "\u0120obtained": 6543,
      "\u0120PR": 6544,
      "\u0120tact": 6545,
      "\u00c3\u00a2": 6546,
      "\u0120principles": 6547,
      "\u0120Fore": 6548,
      "ansion": 6549,
      "\u0120garden": 6550,
      "\u0120compare": 6551,
      "\u0120hide": 6552,
      "\u0120enforce": 6553,
      "\u0120vib": 6554,
      "\u0120suffer": 6555,
      "\u0120decade": 6556,
      "\u0120swim": 6557,
      "\u0120wondering": 6558,
      "\u0120blame": 6559,
      "\u0120tissue": 6560,
      "\u0120Jer": 6561,
      "\u0120joined": 6562,
      "hips": 6563,
      "Rep": 6564,
      "\u0120gift": 6565,
      "amily": 6566,
      "\u0120annoy": 6567,
      "ildren": 6568,
      "\u0120emergency": 6569,
      "ifications": 6570,
      "\u0120coast": 6571,
      "\u0109\u0109\u0109\u0109": 6572,
      "orters": 6573,
      "\u0120Pet": 6574,
      "\u0120yellow": 6575,
      "rip": 6576,
      "PA": 6577,
      "\u0120tor": 6578,
      "\u0120illustr": 6579,
      "\u0120artists": 6580,
      "lege": 6581,
      "\u0120river": 6582,
      "arl": 6583,
      "\u0120tall": 6584,
      "\u0120percentage": 6585,
      "\u0120boss": 6586,
      "\u0120delic": 6587,
      "zed": 6588,
      "\u0120Wall": 6589,
      "div": 6590,
      "53": 6591,
      "\u0120\u00c2\u00a3": 6592,
      "\u0120regist": 6593,
      "\u00c2\u0142\u00c2\u0142\u010a": 6594,
      "\u0120cutting": 6595,
      "\u0120Best": 6596,
      "\u0120trading": 6597,
      "\u0120legit": 6598,
      "\u0120regardless": 6599,
      "Wr": 6600,
      "\u0120Love": 6601,
      "\u0120Hy": 6602,
      "claim": 6603,
      "\u0120angry": 6604,
      "SE": 6605,
      "\u0120fingers": 6606,
      "\u0120vulner": 6607,
      "etry": 6608,
      "\u0120regions": 6609,
      "isters": 6610,
      "ideo": 6611,
      "\u0120combat": 6612,
      "\u0120missed": 6613,
      "Monday": 6614,
      "\u0120trib": 6615,
      "code": 6616,
      "herent": 6617,
      "\u0120tank": 6618,
      "\u0120limits": 6619,
      "\u0120proud": 6620,
      "\u0120chief": 6621,
      "Data": 6622,
      "\u0120Britain": 6623,
      "\u0120admit": 6624,
      "\u0120beliefs": 6625,
      "\u0120incident": 6626,
      "\u0120programming": 6627,
      "\u0120revenue": 6628,
      "ola": 6629,
      "\u0120saved": 6630,
      "\u0120coverage": 6631,
      "ether": 6632,
      "otal": 6633,
      "\u0120houses": 6634,
      "\u0120*/": 6635,
      "\u0120hadn": 6636,
      "\u0120regularly": 6637,
      "\u0120confir": 6638,
      "\u0120Class": 6639,
      "\u0120grav": 6640,
      "\u0120shoes": 6641,
      "asm": 6642,
      "\u0120sole": 6643,
      "\u0120newsp": 6644,
      "aa": 6645,
      "aws": 6646,
      "\u0120horm": 6647,
      "\u0120stomach": 6648,
      "\u0120indu": 6649,
      "angle": 6650,
      "\u0120Monday": 6651,
      "\u0120transition": 6652,
      "\u00c2\u0142\u00c2\u0142\u00c2\u0142\u00c2\u0142\u00c2\u0142\u00c2\u0142\u00c2\u0142\u00c2\u0142\u00c2\u0142\u00c2\u0142\u00c2\u0142\u00c2\u0142\u00c2\u0142\u00c2\u0142\u00c2\u0142\u00c2\u0142": 6653,
      "\u0120clock": 6654,
      "\u0120Republicans": 6655,
      "\u0120suit": 6656,
      "grade": 6657,
      "stein": 6658,
      "ilit": 6659,
      "\u0120divers": 6660,
      "\u0120Brown": 6661,
      "\u0120Democrats": 6662,
      "\u0120subsequ": 6663,
      "\u0120seeking": 6664,
      "lder": 6665,
      "\u0120McC": 6666,
      "size": 6667,
      "\u0120facing": 6668,
      "https": 6669,
      "\u0120institutions": 6670,
      "\u0120dad": 6671,
      "\u0120tries": 6672,
      "\u0120Clinton": 6673,
      "\u0120technologies": 6674,
      "\u0120Sup": 6675,
      "icago": 6676,
      "\u0120giant": 6677,
      "\u0120trend": 6678,
      "kins": 6679,
      "inder": 6680,
      "ura": 6681,
      "Mod": 6682,
      "ologist": 6683,
      "\u00d1\u0124": 6684,
      "\u0120bon": 6685,
      "\u0120Using": 6686,
      "\u0120Bank": 6687,
      "\u0120ped": 6688,
      "\u0120primarily": 6689,
      "\u0120outcome": 6690,
      "\u0120breaking": 6691,
      "\u0120puts": 6692,
      "\u0120Sol": 6693,
      "\u0120route": 6694,
      "\u0120assemb": 6695,
      "\u0120subs": 6696,
      "ilty": 6697,
      "\u0120completed": 6698,
      "aine": 6699,
      "\u0120disappoint": 6700,
      "\u0120subsc": 6701,
      "\u0120schedule": 6702,
      "\u0120investigation": 6703,
      "\u0120agency": 6704,
      "\u0120buildings": 6705,
      "\u0120announced": 6706,
      "\u0120portion": 6707,
      "\u0120Fire": 6708,
      "\u0120tone": 6709,
      "\u0120selected": 6710,
      "\u0120sensitive": 6711,
      "tenance": 6712,
      "\u0120Flor": 6713,
      "who": 6714,
      "\u0120laug": 6715,
      "\u0120stored": 6716,
      "\u0120efficiency": 6717,
      "\u0120tested": 6718,
      "\u0120grass": 6719,
      "\u0120Men": 6720,
      "\u0120chicken": 6721,
      "ruption": 6722,
      "ghan": 6723,
      "\u0120bat": 6724,
      "anta": 6725,
      "pass": 6726,
      "umps": 6727,
      "\u0120Id": 6728,
      "\u0120closely": 6729,
      "\u0120mad": 6730,
      "icide": 6731,
      "\u0120unw": 6732,
      "inks": 6733,
      "anned": 6734,
      "\u0120Java": 6735,
      "\u0120signed": 6736,
      "\u0120hall": 6737,
      "pring": 6738,
      "stract": 6739,
      "\u0120flying": 6740,
      "ca": 6741,
      "\u0120Unfortunately": 6742,
      "\u0120dust": 6743,
      "\u0120industrial": 6744,
      "lla": 6745,
      "\u0120Spanish": 6746,
      "\u0120\u00e2\u012a": 6747,
      "comfort": 6748,
      "\u0120hung": 6749,
      "Comp": 6750,
      "ints": 6751,
      "\u0120sacr": 6752,
      "\u0120\u00c2\u0142\u0120\u00c2\u0142\u0120\u00c2\u0142\u0120\u00c2\u0142": 6753,
      "inity": 6754,
      "\u0120indicate": 6755,
      "\u0120rarely": 6756,
      "\u0120Sand": 6757,
      "\u0120crucial": 6758,
      "\u0120lit": 6759,
      "\u0120toler": 6760,
      "\u0120cooking": 6761,
      "\u0120literature": 6762,
      "Wednesday": 6763,
      "\u0120raw": 6764,
      "According": 6765,
      "\u0120innoc": 6766,
      "\u0120stro": 6767,
      "\u0120votes": 6768,
      "ifest": 6769,
      "\u0120Government": 6770,
      "\u0120university": 6771,
      "aze": 6772,
      "\u0120dish": 6773,
      "\u0120fool": 6774,
      "\u0120believes": 6775,
      "\u0120visible": 6776,
      "ishment": 6777,
      "\u0120funding": 6778,
      "\u0120mood": 6779,
      "\u0120invent": 6780,
      "\u0120enjoyed": 6781,
      "\u0120interaction": 6782,
      "\u0120info": 6783,
      "ptions": 6784,
      "\u0120Never": 6785,
      "press": 6786,
      "\u0120supporting": 6787,
      "\u0120About": 6788,
      "\u0120streets": 6789,
      "Gr": 6790,
      "ayers": 6791,
      "\u0120settings": 6792,
      "\u0120victims": 6793,
      "\u0120parameters": 6794,
      "\u0120imper": 6795,
      "\u0120Fre": 6796,
      "\u0120claimed": 6797,
      "RI": 6798,
      "\u0120hypot": 6799,
      "sect": 6800,
      "\u0120wake": 6801,
      "Although": 6802,
      "ota": 6803,
      "\u0120whenever": 6804,
      "user": 6805,
      "\u0120versions": 6806,
      "\u0120quote": 6807,
      "\u0120electricity": 6808,
      "van": 6809,
      "\u0120Sum": 6810,
      "\u0120vehicles": 6811,
      "\u0120emotion": 6812,
      "\u0120gent": 6813,
      "\u0120overwhel": 6814,
      "\u0120wet": 6815,
      "gend": 6816,
      "\u0120flag": 6817,
      "Tuesday": 6818,
      "sters": 6819,
      "\u0120mechanism": 6820,
      "\u0120Long": 6821,
      "ports": 6822,
      "Thanks": 6823,
      "\u0120yeah": 6824,
      "\u0120elev": 6825,
      "\u0120abandon": 6826,
      "\u00e4\u00b8": 6827,
      "\u0120static": 6828,
      "\u0120personality": 6829,
      "\u0120confident": 6830,
      "\u0120delivery": 6831,
      "\u0120attempts": 6832,
      "erring": 6833,
      "\u0120void": 6834,
      "\u0120resolution": 6835,
      "\u0120retail": 6836,
      "\u0120oxygen": 6837,
      "edding": 6838,
      "\u0120characteristics": 6839,
      "\u0120Ir": 6840,
      "\u0120Service": 6841,
      "\u0120governments": 6842,
      "\u0120correctly": 6843,
      "agram": 6844,
      "\u0120expressed": 6845,
      "burg": 6846,
      "\u0120Blog": 6847,
      "\u0120chapter": 6848,
      "\u0120Develop": 6849,
      "\u0120myst": 6850,
      "\u0120village": 6851,
      "\u0120scenes": 6852,
      "John": 6853,
      "\u0120listed": 6854,
      "uine": 6855,
      "Like": 6856,
      "\u0120investors": 6857,
      "\u0120nose": 6858,
      "\u0120ending": 6859,
      "\u0120sending": 6860,
      "\u0120entered": 6861,
      "Inst": 6862,
      "itis": 6863,
      "\u0120Wil": 6864,
      "SC": 6865,
      "\u0120Bur": 6866,
      "utation": 6867,
      "\u0120Nor": 6868,
      "\u0120prompt": 6869,
      "\u0120extended": 6870,
      "\u0120Mem": 6871,
      "rich": 6872,
      "\u0120delay": 6873,
      "\u0120shopping": 6874,
      "BA": 6875,
      "rive": 6876,
      "ogy": 6877,
      "cr": 6878,
      "return": 6879,
      "\u0120household": 6880,
      "\u0120guns": 6881,
      "\u0120chose": 6882,
      "\u0120plain": 6883,
      "\u0120AT": 6884,
      "About": 6885,
      "\u0120promise": 6886,
      "uct": 6887,
      "\u0120agents": 6888,
      "gage": 6889,
      "\u0120hoping": 6890,
      "eting": 6891,
      "\u0120stable": 6892,
      "\u0120birds": 6893,
      "\u0120Found": 6894,
      "\u0120ridic": 6895,
      "var": 6896,
      "\u0120twenty": 6897,
      "acle": 6898,
      "\u0120tea": 6899,
      "\u0120domin": 6900,
      "\u0120Water": 6901,
      "\u0120exclus": 6902,
      "\u0120dollar": 6903,
      "anna": 6904,
      "\u0120stack": 6905,
      "\u0120penal": 6906,
      "54": 6907,
      "ificial": 6908,
      "\u0120statements": 6909,
      "67": 6910,
      "\u0120Human": 6911,
      "\u0120ocean": 6912,
      "\u0120Answer": 6913,
      "\u0120Franc": 6914,
      "\u0120Mexico": 6915,
      "igen": 6916,
      "orough": 6917,
      "\u0120variables": 6918,
      "\u0120reprodu": 6919,
      "\u0120rational": 6920,
      "\u0120row": 6921,
      "\u0120scenario": 6922,
      "inem": 6923,
      "\u0120adopt": 6924,
      "\u0120beer": 6925,
      "\u0120prepare": 6926,
      "\u0120inspir": 6927,
      "\u0120windows": 6928,
      "xual": 6929,
      "\u0120approximately": 6930,
      "\u0120unus": 6931,
      "\u0120County": 6932,
      "String": 6933,
      "\u0120Journal": 6934,
      "\u0120retire": 6935,
      "parent": 6936,
      "\u0120reducing": 6937,
      "\u0120gall": 6938,
      "\u00e2\u0122\u013b.": 6939,
      "ycl": 6940,
      "teen": 6941,
      "\u0120deeper": 6942,
      "\u0120pill": 6943,
      "\u0120strict": 6944,
      "\u0120iPhone": 6945,
      "allel": 6946,
      "eline": 6947,
      "\u0120Vis": 6948,
      "\u0120contribute": 6949,
      "Che": 6950,
      "\u0120Hen": 6951,
      "\u0120vital": 6952,
      "\u0120Lear": 6953,
      "olit": 6954,
      "ferent": 6955,
      "\u0120OK": 6956,
      "aniel": 6957,
      "\u0120infrastructure": 6958,
      "apse": 6959,
      "orted": 6960,
      "\u0120orders": 6961,
      "http": 6962,
      "IF": 6963,
      "\u0120pig": 6964,
      "Friday": 6965,
      "\u0120attached": 6966,
      "\u0120installed": 6967,
      "\u0120instructions": 6968,
      "Sec": 6969,
      "\u0120shell": 6970,
      "\u0120ignore": 6971,
      "\u0120lunch": 6972,
      "\u0120cheese": 6973,
      "agement": 6974,
      "\u0120Dev": 6975,
      "\u0120Note": 6976,
      "\u0120remained": 6977,
      "\u0120surrounding": 6978,
      "\u0120Harry": 6979,
      "isted": 6980,
      "\u0120candidates": 6981,
      "Thursday": 6982,
      "gal": 6983,
      "DF": 6984,
      "lean": 6985,
      "980": 6986,
      "\u0120Mer": 6987,
      "\u0120neighborhood": 6988,
      "\u0120destroyed": 6989,
      "\u0120diam": 6990,
      "\u0120Rad": 6991,
      "omin": 6992,
      "\u0120Nov": 6993,
      "\u0120minds": 6994,
      "\u0120lifest": 6995,
      "\u0120metab": 6996,
      "\u0120zone": 6997,
      "\u0120dreams": 6998,
      "\u0120recovery": 6999,
      "\u0120controls": 7000,
      "\u0120faces": 7001,
      "emic": 7002,
      "\u0120Mass": 7003,
      "\u0120loans": 7004,
      "fit": 7005,
      "\u0120auto": 7006,
      "\u0120mand": 7007,
      "\u0120CP": 7008,
      "ket": 7009,
      "\u0120rein": 7010,
      "\u0120fulf": 7011,
      "\u0120prosec": 7012,
      "\u0120liberal": 7013,
      "nic": 7014,
      "\u0120strike": 7015,
      "\u0120pushed": 7016,
      "\u0120grade": 7017,
      "\u0120Ve": 7018,
      "\u0120wra": 7019,
      "haust": 7020,
      "duc": 7021,
      "va": 7022,
      "\u0120boat": 7023,
      "\u0120writes": 7024,
      "comm": 7025,
      "anny": 7026,
      "\u0120Still": 7027,
      "\u0120Would": 7028,
      "========": 7029,
      "\u0120Emp": 7030,
      "there": 7031,
      "const": 7032,
      "\u0120rig": 7033,
      "jection": 7034,
      "tending": 7035,
      "\u0120blow": 7036,
      "\u0120Ann": 7037,
      "\u0120capture": 7038,
      "\u0120audio": 7039,
      "eless": 7040,
      "\u0120Mel": 7041,
      "\u0120recon": 7042,
      "DP": 7043,
      "\u0120antib": 7044,
      "angers": 7045,
      "\u0120Hol": 7046,
      "path": 7047,
      "person": 7048,
      "\u0120attitude": 7049,
      "\u0120voters": 7050,
      "\u0120explo": 7051,
      "car": 7052,
      "\u0120survey": 7053,
      "\u0120Central": 7054,
      "\u0120depos": 7055,
      "ushed": 7056,
      "Sim": 7057,
      "\u0120welcome": 7058,
      "nce": 7059,
      "BI": 7060,
      "\u0120worried": 7061,
      "\u0120desper": 7062,
      "\u0120nic": 7063,
      "edit": 7064,
      "\u0120successfully": 7065,
      "\u0120Florida": 7066,
      "\u0120estate": 7067,
      "\u0120Gal": 7068,
      "\u00d9\u0126": 7069,
      "Related": 7070,
      "\u0120ves": 7071,
      "\u0120immediate": 7072,
      "\u0120conservative": 7073,
      "start": 7074,
      "\u0120flash": 7075,
      "\u0120conference": 7076,
      "etime": 7077,
      "\u0120democracy": 7078,
      "\u00c3\u0143": 7079,
      "\u0120Pak": 7080,
      "pan": 7081,
      "\u0120tort": 7082,
      "####": 7083,
      "\u0120driven": 7084,
      "useum": 7085,
      "\u0120Sar": 7086,
      "\u0120intense": 7087,
      "\u0120Finally": 7088,
      "%.": 7089,
      "MA": 7090,
      "\u0120whereas": 7091,
      "\u0120tradition": 7092,
      "\u0120adds": 7093,
      "\u0120implementation": 7094,
      "\u0120instrument": 7095,
      "eries": 7096,
      "\u0120reply": 7097,
      "inet": 7098,
      "++": 7099,
      "ENT": 7100,
      "\u0120annual": 7101,
      "\u0120Hell": 7102,
      "\u0120falls": 7103,
      "\u0120errors": 7104,
      "\u0120incredibly": 7105,
      "\u0120nine": 7106,
      "\u0120William": 7107,
      "\u0120Change": 7108,
      "\u0120History": 7109,
      "\u0120concepts": 7110,
      "\u0120narrow": 7111,
      "\u0120coal": 7112,
      "\u0120diabetes": 7113,
      "\u0120champ": 7114,
      "\u0120menu": 7115,
      "\u0120sharp": 7116,
      "\u0120writers": 7117,
      "flow": 7118,
      "\u0120ads": 7119,
      "\u0120Start": 7120,
      "erver": 7121,
      "uan": 7122,
      "Facebook": 7123,
      "\u0120loose": 7124,
      "\u0120Set": 7125,
      "lar": 7126,
      "\u0120developers": 7127,
      "lib": 7128,
      "\u0120vo": 7129,
      "\u0120Put": 7130,
      "\u0120Such": 7131,
      "quest": 7132,
      "\u0120proport": 7133,
      "ston": 7134,
      "uilding": 7135,
      "\u0120draft": 7136,
      "\u0120license": 7137,
      "\u0120infect": 7138,
      "\u0120deeply": 7139,
      "\u0120cow": 7140,
      "Rem": 7141,
      "ras": 7142,
      "abs": 7143,
      "asty": 7144,
      "People": 7145,
      "\u0120reduction": 7146,
      "\u0120Next": 7147,
      "\u0120Should": 7148,
      "\u0120arrange": 7149,
      "\u0120politicians": 7150,
      "\u0120sty": 7151,
      "\u0120tech": 7152,
      "draw": 7153,
      "zer": 7154,
      "\u0120bridge": 7155,
      "\u0120suppose": 7156,
      "\u0120opposition": 7157,
      "\u0120appeal": 7158,
      "\u0120organic": 7159,
      "called": 7160,
      "\u0120depart": 7161,
      "\u0120tomorrow": 7162,
      "\u0120Tem": 7163,
      "umin": 7164,
      "\u0120frustr": 7165,
      "\u0120wis": 7166,
      "\u0120engineering": 7167,
      "\u0120Sure": 7168,
      "\u0120measured": 7169,
      "\u0120chances": 7170,
      "\u0120beings": 7171,
      "\u0120equally": 7172,
      "\u0120philosophy": 7173,
      "cluded": 7174,
      "\u0120Ver": 7175,
      "\u0120confused": 7176,
      "\u0120electronic": 7177,
      "\u0120shel": 7178,
      "\u0120laun": 7179,
      "anes": 7180,
      "\u0120Sat": 7181,
      "Dr": 7182,
      "pel": 7183,
      "\u0120drawn": 7184,
      "\u0120everyday": 7185,
      "\u0120Atl": 7186,
      "comes": 7187,
      "\u0120Comment": 7188,
      "\u0120calm": 7189,
      "\u0120Check": 7190,
      "\u0120trained": 7191,
      "\u0120achieved": 7192,
      "\u0120accomp": 7193,
      "\u0120Though": 7194,
      "\u0120troops": 7195,
      "\u0120survival": 7196,
      "\u0120genuine": 7197,
      "\u0120protected": 7198,
      "\u0120talks": 7199,
      "\u0120nerv": 7200,
      "\u0120MS": 7201,
      "\u0120flood": 7202,
      "Step": 7203,
      "ivered": 7204,
      "\u0120repair": 7205,
      "\u0120comprehens": 7206,
      "\u0120awareness": 7207,
      "\u0120planned": 7208,
      "\u0120chat": 7209,
      "udes": 7210,
      "\u0120Thomas": 7211,
      "\u0120domestic": 7212,
      "\u0120\u00cf": 7213,
      "\u0120smoking": 7214,
      "\u0120dict": 7215,
      "UN": 7216,
      "bered": 7217,
      "\u0120pm": 7218,
      "\u0120blocks": 7219,
      "\u00c2\u0142\u0120": 7220,
      "\u0120buff": 7221,
      "\u0120pipe": 7222,
      "scape": 7223,
      "\u0120Nav": 7224,
      "\u0120Jeff": 7225,
      "\u0120Cat": 7226,
      "asters": 7227,
      "\u0120containing": 7228,
      "\u0120healthcare": 7229,
      "\u0120blank": 7230,
      "\u0120tur": 7231,
      "\u0120bless": 7232,
      "\u0120Wal": 7233,
      "Connect": 7234,
      "Time": 7235,
      "\u0120Mike": 7236,
      "\u0120tip": 7237,
      "\u0120heavily": 7238,
      "\u0120senior": 7239,
      "\u0120recru": 7240,
      "\u0120Saturday": 7241,
      "\u0120warning": 7242,
      "\u0120sau": 7243,
      "\u0120compens": 7244,
      "\u0120Max": 7245,
      "\u0120proteins": 7246,
      "Image": 7247,
      "\u0120Asia": 7248,
      "\u0120participants": 7249,
      "\u0120bottle": 7250,
      "mat": 7251,
      "\u0120Supreme": 7252,
      "}{": 7253,
      "rior": 7254,
      "\u0120drivers": 7255,
      "\u0120acceler": 7256,
      "\u0120friendly": 7257,
      "noon": 7258,
      "\u0120insert": 7259,
      "rated": 7260,
      "\u0120communicate": 7261,
      "\u0120Bay": 7262,
      "liament": 7263,
      "89": 7264,
      "\u0120favour": 7265,
      "inent": 7266,
      "even": 7267,
      "\u0120Ca": 7268,
      "\u0120responses": 7269,
      "\u0120phrase": 7270,
      "\u00c3\u00b3": 7271,
      "\u0120Dist": 7272,
      ">>": 7273,
      "\u0120Sov": 7274,
      "asant": 7275,
      "\u0120currency": 7276,
      "\u0120hotel": 7277,
      "unning": 7278,
      "\u0120Elect": 7279,
      "\u0120formal": 7280,
      "\u0120authent": 7281,
      "\u0120Game": 7282,
      "\u0120strongly": 7283,
      "\u0120Senate": 7284,
      "\u0120jack": 7285,
      "\u0120advertising": 7286,
      "po": 7287,
      "\u0120Lu": 7288,
      "\u0120OS": 7289,
      "\u0120ordered": 7290,
      "\u0120clinical": 7291,
      "\u0120hun": 7292,
      "Look": 7293,
      "\u0120Chicago": 7294,
      "\u0120chocolate": 7295,
      "ba": 7296,
      "\u0120stead": 7297,
      "\u0120Army": 7298,
      "roat": 7299,
      "\u0120pul": 7300,
      "VER": 7301,
      "\u0120trigger": 7302,
      "\u0120Catholic": 7303,
      "\u0120mountain": 7304,
      "\u0120complain": 7305,
      "\u0120movements": 7306,
      "\u0120behaviour": 7307,
      "Comm": 7308,
      "\u0120resc": 7309,
      "\u0120Afghan": 7310,
      "left": 7311,
      "\u0120dating": 7312,
      "\u0120west": 7313,
      "value": 7314,
      "\u0120guilty": 7315,
      "\u0120connections": 7316,
      "\u0120barely": 7317,
      "\u0120Acc": 7318,
      "\u0120whis": 7319,
      "\u0120ans": 7320,
      "\u0120memories": 7321,
      "\u0120Person": 7322,
      "\u0120tong": 7323,
      "\u0120formula": 7324,
      "weight": 7325,
      "\u0120Grand": 7326,
      "GB": 7327,
      "\u0120carrying": 7328,
      "Pre": 7329,
      "ixture": 7330,
      "\u0120sched": 7331,
      "\u0120Fil": 7332,
      "\u0120Down": 7333,
      "\u0120butt": 7334,
      "\u0120algorithm": 7335,
      "\u0120Italian": 7336,
      "\u0120enable": 7337,
      "coin": 7338,
      "ME": 7339,
      "\u00f0\u0141": 7340,
      "\u0120relief": 7341,
      "ikip": 7342,
      "\u0120Light": 7343,
      "\u0120samples": 7344,
      "\u0120musical": 7345,
      "\u0120circle": 7346,
      "obs": 7347,
      "\u0120Paris": 7348,
      "\u0120urban": 7349,
      "ounded": 7350,
      "\u0120Institute": 7351,
      "\u0120Jun": 7352,
      "\u0120Council": 7353,
      "\u0120protest": 7354,
      "\u0120->": 7355,
      "\u0120Try": 7356,
      "\u0120burning": 7357,
      "\u0120anger": 7358,
      "\u0120fluid": 7359,
      "\u0120dynamic": 7360,
      "enny": 7361,
      "Fl": 7362,
      "isco": 7363,
      "\u0120gap": 7364,
      "Figure": 7365,
      "\u0120Steve": 7366,
      "\u0120formation": 7367,
      "hus": 7368,
      "\u0120housing": 7369,
      "\u0120cig": 7370,
      "\u0120guitar": 7371,
      "\u0120Bab": 7372,
      "Thank": 7373,
      "021": 7374,
      "\u0120/>": 7375,
      "\u00d1\u0123": 7376,
      "ught": 7377,
      "\u0120union": 7378,
      "\u0120rely": 7379,
      "Ne": 7380,
      "orse": 7381,
      "\u0120Form": 7382,
      "\u0120usage": 7383,
      "\u0120recognized": 7384,
      "Today": 7385,
      "\u0120null": 7386,
      "df": 7387,
      "250": 7388,
      "\u0120waves": 7389,
      "essage": 7390,
      "\u0120stimul": 7391,
      "nda": 7392,
      "\u0120refers": 7393,
      "\u0120pit": 7394,
      "\u0120supports": 7395,
      "\u0120violent": 7396,
      "atell": 7397,
      "icy": 7398,
      "\u0120dedicated": 7399,
      "plete": 7400,
      "\u0120award": 7401,
      "\u0120rising": 7402,
      "\u0120framework": 7403,
      "\u0120exciting": 7404,
      "\u0120cuts": 7405,
      "\u0120cats": 7406,
      "Mar": 7407,
      "\u0120lucky": 7408,
      "vy": 7409,
      "\u00e2\u0124\u00ac": 7410,
      "rypt": 7411,
      "CE": 7412,
      "gressive": 7413,
      "\u0120maintenance": 7414,
      "\u0120fewer": 7415,
      "\u0120lets": 7416,
      "\u0120objective": 7417,
      "\u0120locations": 7418,
      "Part": 7419,
      "\u0120payments": 7420,
      "\u0120Project": 7421,
      "\u0120Minister": 7422,
      "\u0120Disc": 7423,
      "\u0120explos": 7424,
      "\u0120shoulder": 7425,
      "\u0120lapt": 7426,
      "\u0120bother": 7427,
      "\u0120obst": 7428,
      "\u0120enemies": 7429,
      "\u0120minim": 7430,
      "(\\": 7431,
      "\u0120exhaust": 7432,
      "\u0120lun": 7433,
      "\u0120Real": 7434,
      "\u0120hits": 7435,
      "\u0120hardly": 7436,
      "\u0120proven": 7437,
      "ikipedia": 7438,
      "prise": 7439,
      "\u0120Group": 7440,
      "\u0120Page": 7441,
      "\u0120academic": 7442,
      "\u0120Federal": 7443,
      "azz": 7444,
      "cest": 7445,
      "obile": 7446,
      "istent": 7447,
      "onents": 7448,
      "\u0120fourth": 7449,
      "\u0120surf": 7450,
      "\u0120pounds": 7451,
      "\u0120letting": 7452,
      "\u0120operate": 7453,
      "Reg": 7454,
      "\u0120recipe": 7455,
      "CD": 7456,
      "umes": 7457,
      "\u0120Member": 7458,
      "usal": 7459,
      "\u0120End": 7460,
      "\u0120controvers": 7461,
      "\u0120Figure": 7462,
      "vin": 7463,
      "ocratic": 7464,
      "\u00e3\u0124": 7465,
      "\u00d1\u0122": 7466,
      "\u00e3\u0125": 7467,
      "\u0120unex": 7468,
      "fol": 7469,
      "agues": 7470,
      "\u0120branch": 7471,
      "\u0120Tuesday": 7472,
      "\u0120Article": 7473,
      "\u0120inspired": 7474,
      "\u0120shr": 7475,
      "\u0120Bi": 7476,
      "\u0120Jose": 7477,
      "oked": 7478,
      "FL": 7479,
      "\u0120authorities": 7480,
      "\u0120divided": 7481,
      "\u0120Jon": 7482,
      "\u0120nearby": 7483,
      "\u0120inhib": 7484,
      "\u0120Food": 7485,
      "\u0120lesson": 7486,
      "\u0120panel": 7487,
      "\u0120narrative": 7488,
      "\u0120bike": 7489,
      "viously": 7490,
      "\u0120elected": 7491,
      "\u0120discipl": 7492,
      "\u0120inev": 7493,
      "\u0120nutr": 7494,
      "\u0120gal": 7495,
      "\u0120Lee": 7496,
      "yes": 7497,
      "\u00e2\u0122\u00a6.": 7498,
      "Take": 7499,
      "Er": 7500,
      "\u0120Christians": 7501,
      "\u0120~": 7502,
      "inos": 7503,
      "\u0120websites": 7504,
      "\u0120Word": 7505,
      "\u0120fucking": 7506,
      "\u0120fib": 7507,
      "agraph": 7508,
      "\u0120roles": 7509,
      "\u0120silver": 7510,
      "\u0120steel": 7511,
      "was": 7512,
      "\u0120fiction": 7513,
      "\u00d0\u00bd": 7514,
      "world": 7515,
      "\u0120studied": 7516,
      "\u0120rhy": 7517,
      "\u0120estimated": 7518,
      "\u0120River": 7519,
      "bb": 7520,
      "\u0120remem": 7521,
      "\u0120breaks": 7522,
      "umer": 7523,
      "ials": 7524,
      "rc": 7525,
      "\u0120Color": 7526,
      "\u0120cable": 7527,
      "zil": 7528,
      "\u0120saving": 7529,
      "\u0120rapidly": 7530,
      "\u0120angle": 7531,
      "\u0120victory": 7532,
      "eties": 7533,
      "\u0120Kn": 7534,
      "boy": 7535,
      "ollywood": 7536,
      "\u0120regime": 7537,
      "\u0120criter": 7538,
      "Twitter": 7539,
      "\u0120Ill": 7540,
      "\u0120pra": 7541,
      "\u0120receiving": 7542,
      "\u0120expectations": 7543,
      "\u0120cogn": 7544,
      "VD": 7545,
      "\u0120fees": 7546,
      "\u0120Exper": 7547,
      "\u0120mathemat": 7548,
      "\u0120updated": 7549,
      "CA": 7550,
      "lessly": 7551,
      "\u0120neur": 7552,
      "\u0120gear": 7553,
      "izz": 7554,
      "\u0120theore": 7555,
      ")$": 7556,
      "\u0120wise": 7557,
      "\u0120disorder": 7558,
      "\u0120challenging": 7559,
      "\u0120pushing": 7560,
      "\u0120heaven": 7561,
      "970": 7562,
      "\u0120Dar": 7563,
      "\u0120Prot": 7564,
      "\u0120Program": 7565,
      "iner": 7566,
      "gged": 7567,
      "Note": 7568,
      "\u0120doors": 7569,
      "\u0120wanting": 7570,
      "\u0120lawyer": 7571,
      "\u0120Haw": 7572,
      "\u0120lying": 7573,
      "\u0120vessel": 7574,
      "eps": 7575,
      "\u0120Was": 7576,
      "\u0120mistakes": 7577,
      "\u0120Mount": 7578,
      "\u0120subjects": 7579,
      "\u0120Secret": 7580,
      "frac": 7581,
      "\u0120scan": 7582,
      "\u0120producing": 7583,
      "\u0120Den": 7584,
      "\u0120Soci": 7585,
      "\u0120occas": 7586,
      "\u0120describes": 7587,
      "oted": 7588,
      "\u0120sleeping": 7589,
      "\u0120differently": 7590,
      "\u0120protocol": 7591,
      "string": 7592,
      "\u0120concentration": 7593,
      "\u0120fee": 7594,
      "\u0120conducted": 7595,
      "\u0120shares": 7596,
      "iac": 7597,
      "\u0120comprom": 7598,
      "\u0120humanity": 7599,
      "\u0120screw": 7600,
      "\u0120horiz": 7601,
      "elly": 7602,
      "\u0120lifestyle": 7603,
      "\u0120Without": 7604,
      "alysis": 7605,
      "idelines": 7606,
      "\u0120clothing": 7607,
      "\u0120western": 7608,
      "\u0120Chris": 7609,
      "\u0120Boy": 7610,
      "pat": 7611,
      "after": 7612,
      "lled": 7613,
      "\u0120greatly": 7614,
      "\u0120]": 7615,
      "\u0120respectively": 7616,
      "\u0120Jo": 7617,
      "\u0120drawing": 7618,
      "\u0120Democratic": 7619,
      "\u0120immigr": 7620,
      "bet": 7621,
      "Good": 7622,
      "\u0120topics": 7623,
      "osc": 7624,
      "\u0120administr": 7625,
      "\u0120signals": 7626,
      "\u0120ham": 7627,
      "\u0120brill": 7628,
      "\u0120Way": 7629,
      "\u0120pleasure": 7630,
      "olars": 7631,
      "\u0120afternoon": 7632,
      "\u0120recall": 7633,
      "\u0120serving": 7634,
      "\u0120Public": 7635,
      "\u0120gang": 7636,
      "ogether": 7637,
      "\u0120lad": 7638,
      "\u0120fraud": 7639,
      "\u0120Business": 7640,
      "\u0120approaches": 7641,
      "\u0109\u0109\u0109": 7642,
      "agan": 7643,
      "\u0120duty": 7644,
      "\u0120suffe": 7645,
      "ersion": 7646,
      "\u00c4\u0123": 7647,
      "lands": 7648,
      "\u0120destruction": 7649,
      "\u0120Budd": 7650,
      "redit": 7651,
      "CP": 7652,
      "\u0120thorough": 7653,
      "\u0120College": 7654,
      "\u0120Es": 7655,
      ".\u00e2\u0122\u013b": 7656,
      "\u0120Think": 7657,
      "\u0120spaces": 7658,
      "\u0120rail": 7659,
      "\u0120loyal": 7660,
      "\u0120Carol": 7661,
      "\u0120divide": 7662,
      "cker": 7663,
      "\u0120bub": 7664,
      "68": 7665,
      "ifier": 7666,
      "MP": 7667,
      "issions": 7668,
      "](": 7669,
      "\u0120rice": 7670,
      "\u0120explicit": 7671,
      "\u0120(\"": 7672,
      "ja": 7673,
      "\u0120Martin": 7674,
      "\u0120distingu": 7675,
      "American": 7676,
      "\u0120Dark": 7677,
      "imp": 7678,
      "\u0120aircraft": 7679,
      "\u0120functional": 7680,
      "\u0120unlikely": 7681,
      "\u0120Mur": 7682,
      "\u0120loves": 7683,
      "udi": 7684,
      "\u0120owned": 7685,
      "anwhile": 7686,
      "\u0120Richard": 7687,
      "enth": 7688,
      "\u0120difficulty": 7689,
      "Next": 7690,
      "\u0120MP": 7691,
      "begin": 7692,
      "\u0120pregnant": 7693,
      "\u0120roof": 7694,
      "\u0120underlying": 7695,
      "\u0120Wood": 7696,
      "\u0120flour": 7697,
      "\u0120pharm": 7698,
      "TP": 7699,
      "\u0120breathing": 7700,
      "mo": 7701,
      "ashes": 7702,
      "\u0120answered": 7703,
      "trans": 7704,
      "\u0120cha": 7705,
      "lers": 7706,
      "\u0120laid": 7707,
      "\u0120elections": 7708,
      "\u0120furn": 7709,
      "\u0120confirm": 7710,
      "\u0120nutri": 7711,
      "rection": 7712,
      "\u0120pregnancy": 7713,
      "ensus": 7714,
      "\u0120</": 7715,
      "ypes": 7716,
      "\u0120Vict": 7717,
      "His": 7718,
      "cho": 7719,
      "\u0120repeat": 7720,
      "blog": 7721,
      "orce": 7722,
      "\u0120superior": 7723,
      "urse": 7724,
      "\u0120Stand": 7725,
      "\u0120uncertain": 7726,
      "\u0120nervous": 7727,
      "\u0120assistance": 7728,
      "Share": 7729,
      "Tube": 7730,
      "\u0120voting": 7731,
      "\u0120icon": 7732,
      "ali": 7733,
      "\u0120sod": 7734,
      "olt": 7735,
      "\u0120findings": 7736,
      "\u0120pitch": 7737,
      "html": 7738,
      "\u0120coc": 7739,
      "astern": 7740,
      "\u0120consciousness": 7741,
      "\u0120Italy": 7742,
      "\u0120savings": 7743,
      "\u0120athlet": 7744,
      "\u0120desired": 7745,
      "\u0120decrease": 7746,
      "\u0120vert": 7747,
      "\u0120competitive": 7748,
      "\u0120DC": 7749,
      "\u0120cleaning": 7750,
      "\u0120prime": 7751,
      "otes": 7752,
      "\u0120alter": 7753,
      "obby": 7754,
      "\u0120Play": 7755,
      "uz": 7756,
      "\u0120radical": 7757,
      "\u0120uniform": 7758,
      "\u0120Ze": 7759,
      "\u0120delivered": 7760,
      "rand": 7761,
      "\u0120lady": 7762,
      "\u0120ordinary": 7763,
      "\u0120mild": 7764,
      "\u0120Gar": 7765,
      "section": 7766,
      "\u0120oh": 7767,
      "\u0120\u00e0\u00a4": 7768,
      "ener": 7769,
      "\u0120initially": 7770,
      "\u0120Expl": 7771,
      "\u0120renew": 7772,
      "\u0120phones": 7773,
      "ds": 7774,
      "Have": 7775,
      "law": 7776,
      "Source": 7777,
      "fr": 7778,
      "\u0120notion": 7779,
      "\u0120\u00d8": 7780,
      "\u0120employment": 7781,
      "eness": 7782,
      "essions": 7783,
      "xx": 7784,
      "\u0120tracks": 7785,
      "sum": 7786,
      "\u0120assault": 7787,
      "\u0120murd": 7788,
      "\u0120nurs": 7789,
      "ushing": 7790,
      "\u0120CN": 7791,
      "\u0120legislation": 7792,
      "etary": 7793,
      "\u0120joke": 7794,
      "\u0120Canadian": 7795,
      "\u0120Div": 7796,
      "\u0120talent": 7797,
      "ifferent": 7798,
      "\u0120Pot": 7799,
      "\u0120puzz": 7800,
      "\u0120informed": 7801,
      "\u0120colour": 7802,
      "\u0120coach": 7803,
      "\u0120periods": 7804,
      "\u0120opinions": 7805,
      "\u0120browser": 7806,
      "ithub": 7807,
      "\u0120manual": 7808,
      "\u0120faced": 7809,
      "enger": 7810,
      "nergy": 7811,
      "\u0120Has": 7812,
      "Before": 7813,
      "ologists": 7814,
      "\u0120sorts": 7815,
      "atively": 7816,
      "Sunday": 7817,
      "\u0120improvement": 7818,
      "\u0120Fed": 7819,
      "\u0120reliable": 7820,
      "\u0120curious": 7821,
      "\u0120permanent": 7822,
      "\u0120cryst": 7823,
      "\u0120east": 7824,
      "endment": 7825,
      "ften": 7826,
      "\u0120Being": 7827,
      "\u0120calories": 7828,
      "\u0120Latin": 7829,
      "utch": 7830,
      "\u0120Despite": 7831,
      "pload": 7832,
      "power": 7833,
      "\u0120biological": 7834,
      "\u0120seed": 7835,
      "\u0120pron": 7836,
      "\u0120API": 7837,
      "eras": 7838,
      "ults": 7839,
      "\u0120crimes": 7840,
      "\u0120suitable": 7841,
      "\u0120mask": 7842,
      "\u0120jail": 7843,
      "\u0120scheme": 7844,
      "\u0120NY": 7845,
      "\u0120gam": 7846,
      "\u0120Medic": 7847,
      "\u0120Mic": 7848,
      "\u0120collected": 7849,
      "sole": 7850,
      "\u00e2\u0122\u013b,": 7851,
      "\u0120Remember": 7852,
      "\u0120gre": 7853,
      "Cons": 7854,
      "\u0120gentle": 7855,
      "\u0120Lo": 7856,
      "\u0120correl": 7857,
      "\u0120Sn": 7858,
      "pg": 7859,
      "Act": 7860,
      "\u0120Name": 7861,
      "eping": 7862,
      "\u0120\u0120\u0120\u0120\u0120\u0120\u0120\u0120\u0120\u0120\u0120\u0120\u0120": 7863,
      "\u0120recognition": 7864,
      "iated": 7865,
      "crib": 7866,
      "\u0120recording": 7867,
      "\u0120agencies": 7868,
      "\u0120upset": 7869,
      "\u0120honor": 7870,
      "\u0120''": 7871,
      "\u0120relation": 7872,
      "tical": 7873,
      "\u0120Charles": 7874,
      "\u0120fo": 7875,
      "\u0120Ron": 7876,
      "some": 7877,
      "\u0120demands": 7878,
      "\u0120intellectual": 7879,
      "\u0120agric": 7880,
      "\u0120Muslims": 7881,
      "\u0120birthday": 7882,
      "organ": 7883,
      "icking": 7884,
      "asts": 7885,
      "\u0120extension": 7886,
      "\u0120Camp": 7887,
      "Will": 7888,
      "\u0120sed": 7889,
      "\u0120mit": 7890,
      "atoes": 7891,
      "ao": 7892,
      "\u0120fert": 7893,
      "aste": 7894,
      "making": 7895,
      "awn": 7896,
      "\u0120pub": 7897,
      "\u0120Pan": 7898,
      "rec": 7899,
      "\u0120pursu": 7900,
      "ester": 7901,
      "\u0120involving": 7902,
      "onds": 7903,
      "\u0120marked": 7904,
      "\u0120lips": 7905,
      "\u0120Design": 7906,
      "\u0120mic": 7907,
      "\u0120configuration": 7908,
      "GE": 7909,
      "\u0120apartment": 7910,
      "ultural": 7911,
      "\u0120versus": 7912,
      "\u0120Blue": 7913,
      "\u0120ok": 7914,
      "\u0120loop": 7915,
      "\u0120beach": 7916,
      "\u0120represented": 7917,
      "\u0120instruct": 7918,
      "hh": 7919,
      "\u0120vegetables": 7920,
      "\u0120fur": 7921,
      "TA": 7922,
      "\u0120Mont": 7923,
      "\u0120recover": 7924,
      "\u0120advis": 7925,
      "lymp": 7926,
      "\u0120Islamic": 7927,
      "\u0120moist": 7928,
      "\u0120Mot": 7929,
      "pers": 7930,
      "ami": 7931,
      "\u0120physically": 7932,
      "\u0120density": 7933,
      "\u0120purs": 7934,
      "fall": 7935,
      "\u0120Lab": 7936,
      "\u0120GM": 7937,
      "\u0120Care": 7938,
      "oured": 7939,
      "uma": 7940,
      "\u0120electrical": 7941,
      "\u0120childhood": 7942,
      "\u0120Pop": 7943,
      "\u0120abilities": 7944,
      "normal": 7945,
      "\u0120fake": 7946,
      "\u0120Information": 7947,
      "iture": 7948,
      "\u0120Econom": 7949,
      "arly": 7950,
      "\u0120insight": 7951,
      "\u0120channels": 7952,
      "\u0120therm": 7953,
      "\u0120SS": 7954,
      "\u0120alleged": 7955,
      "\u0120spir": 7956,
      "\u0120orient": 7957,
      "\u0120Dan": 7958,
      "only": 7959,
      "\u0120till": 7960,
      "\u0120Syria": 7961,
      "\u0120Phys": 7962,
      "Mr": 7963,
      "gments": 7964,
      "\u0120Virgin": 7965,
      "\u0120indicates": 7966,
      "\u0120ultimate": 7967,
      "\u0120recept": 7968,
      "style": 7969,
      "998": 7970,
      "\u0120Space": 7971,
      "\u0120crack": 7972,
      "\u0120organized": 7973,
      "\u0120Thursday": 7974,
      "\u0120Office": 7975,
      "\u0120equation": 7976,
      "\u0120ignor": 7977,
      "\u0120rum": 7978,
      "\u0120covers": 7979,
      "\u0120batt": 7980,
      "\u0120Squ": 7981,
      "\u0120foundation": 7982,
      "\u0120unusual": 7983,
      "\u0120physics": 7984,
      "\u0120Linux": 7985,
      "\u0120healing": 7986,
      "\u0120incredible": 7987,
      "\u0120professor": 7988,
      "\u0120electron": 7989,
      "\u0120parallel": 7990,
      "\u0120experiments": 7991,
      "\u0120encounter": 7992,
      "Does": 7993,
      "\u0120alien": 7994,
      "\u0120accum": 7995,
      "\u0120Soviet": 7996,
      "verty": 7997,
      "\u0120enorm": 7998,
      "arry": 7999,
      "version": 8000,
      "\u0120papers": 8001,
      "\u0120ox": 8002,
      "\u0120residents": 8003,
      "\u0120Constitution": 8004,
      "\u0120Far": 8005,
      "core": 8006,
      "\u0120bills": 8007,
      "cut": 8008,
      "...\"": 8009,
      "\u0120shots": 8010,
      "\u0120inflation": 8011,
      "Ke": 8012,
      "\u0120Palest": 8013,
      "\u0120bits": 8014,
      "\u0120Charl": 8015,
      "\u0120drives": 8016,
      "\u0120privacy": 8017,
      "\u0120poverty": 8018,
      "\u0120tack": 8019,
      "\u0120reporting": 8020,
      "\u0120dying": 8021,
      "%,": 8022,
      "connect": 8023,
      "\u0120reveal": 8024,
      "\u0120persons": 8025,
      "\u0120crypt": 8026,
      "\u0120executive": 8027,
      "\u0120keys": 8028,
      "agger": 8029,
      "\u0120instant": 8030,
      "iah": 8031,
      "\u0120Table": 8032,
      "iox": 8033,
      "\u0120expansion": 8034,
      "\u0120temperatures": 8035,
      "\u0120Having": 8036,
      "\u0120elsewhere": 8037,
      "aneously": 8038,
      "\u0120memor": 8039,
      "\u0120Organ": 8040,
      "\u0120q": 8041,
      "\u0120Hall": 8042,
      "\u0120Wednesday": 8043,
      "\u0120substance": 8044,
      "anguage": 8045,
      "\u0120affects": 8046,
      "DS": 8047,
[...]
